#version: 0.2
Ġ c
i n
Ġ t
Ġ s
Ġ a
o n
e r
e s
Ġ 1
e d
e a
Ġ b
n d
Ġ o
Ġ p
Ġ m
a r
i l
Ġa nd
u p
i c
h e
Ġ f
Ġ in
Ġ w
p o
u t
Ġc up
po on
e n
a t
a n
Ġt o
r e
a l
u n
r o
in g
l e
i t
ea s
Ġt he
p p
Ġ g
Ġ d
o r
Ġ 2
c e
Ġc h
Ġ l
Ġ S
u r
e l
Ġ h
Ġ (
a b
Ġ C
l es
Ġt eas
Ġteas poon
a s
Ġc o
i s
g e
Ġ on
ab les
o w
ables poon
Ġt ablespoon
Ġ 3
Ġ P
o ur
it h
l a
v e
r ea
Ġ un
r a
i x
o t
Ġw ith
Ġm in
t il
a k
g ar
ea t
Ġo r
t er
v er
ic e
c h
u s
Ġun til
Ġ B
Ġs al
Ġp e
Ġo un
t o
i on
r ed
d d
r i
l ic
in e
Ġf or
Ġch o
o k
Ġ A
Ġmin ut
Ġsal t
Ġs u
pp er
u m
o l
Ġm ix
Ġ e
i r
Ġpe pper
t s
Ġminut es
c k
es e
ic k
Ġtablespoon s
Ġsu gar
Ġs t
Ġo f
l y
Ġ j
he ese
ĠC o
Ġcup s
Ġ M
ut ter
pp ed
u ce
g h
r es
e t
Ġin to
Ġc heese
Ġs a
Ġoun ce
Ġb utter
rea m
m on
Ġ 4
c es
ak e
Ġcho pped
as t
Ġon ion
l l
at o
ĠA dd
Ġc ream
il l
Ġt h
Ġo ver
Ġco ok
Ġo il
Ġ v
Ġs o
t h
Ġ I
r y
at er
Ġj u
g g
Ġsa uce
Ġw h
Ġ T
i m
i en
Ġb ro
Ġw ater
Ġg ar
m b
at e
g red
Ġ1 2
ick en
gred ien
Ġin gredien
Ġc an
Ġingredien ts
Ġju ice
ro u
al l
u re
i d
Ġ R
Ġ le
Ġ n
rea d
el l
il k
i gh
Ġe gg
ow l
Ġ D
Ġb owl
Ġs lic
Ġf l
Ġ F
Ġgar lic
Ġ re
a d
m o
Ġs p
Ġh eat
a y
is h
Ġc r
Ġs h
Ġ y
o u
ed i
w n
Ġb e
Ġa ll
Ġm ilk
ato es
mb ine
res h
q u
Ġl ar
d er
Ġlar ge
i e
er ve
v en
Ġp a
Ġ W
la ce
Ġf resh
ea n
Ġ r
b er
Ġg r
Ġch icken
th er
edi um
ow der
t ure
Ġm edium
s t
ĠS t
i p
n a
rou nd
Ġst ir
Ġp owder
Ġbro wn
ra in
Ġoun ces
le nd
ĠM ix
Ġmix ture
Ġteaspoon s
ak ing
Ġa dd
ĠI n
igh t
Ġfl our
Ġle mon
o il
o p
l i
us t
v es
e g
Ġf ro
Ġb aking
a m
a ge
Ġp an
ĠS p
Ġw ell
Ġa t
Ġp ot
ge ther
us h
Ġto gether
Ġg round
Ġo ven
o ut
ĠB ake
el y
Ġto m
Ġs e
c ol
Ġ is
ĠP lace
5 0
ĠC h
o m
m all
Ġh our
ot h
Ġ G
Ġl b
it e
r ing
g er
Ġo li
ast e
at ed
re en
a in
e f
c on
Ġc on
t ed
f f
Ġpa ck
in k
il la
ĠSt ir
an illa
e y
Ġb lend
c o
Ġslic ed
as s
ĠCo mbine
ĠP our
Ġ ro
Ġc l
Ġa b
o d
Ġv anilla
Ġegg s
or n
ar s
u b
Ġd eg
ar d
Ġdeg re
c t
Ġ 6
Ġ 8
Ġg reen
Ġ -
Ġb oil
o re
Ġs mall
Ġ red
Ġ L
Ġ 5
Ġ H
Ġoli ve
Ġb a
Ġab out
as h
r ink
pp le
ĠS erve
Ġdegre es
ion al
col ate
Ġt aste
res s
Ġb read
Ġp ie
ea ch
h eat
Ġ1 4
Ġa s
Ġs k
ĠCo ok
i f
c ed
eas on
ar m
Ġm el
Ġto p
ine gar
an ge
Ġ ice
Ġ3 50
Ġv inegar
re heat
la ck
w e
Ġ1 0
Ġt e
Ġh al
Ġ k
an t
ri es
e e
Ġslic es
Ġd rain
a nd
Ġp in
Ġh ot
rink le
Ġcl o
Ġs l
ic ed
im m
im e
Ġ us
Ġa n
is e
le t
Ġe x
t en
Ġm ar
Ġc ut
Ġwh ite
Ġpot atoes
Ġb lack
Ġ it
o le
Ġc orn
Ġtom atoes
ri ger
o od
ri ed
s e
mo oth
er v
Ġm ay
id e
we et
Ġmin ced
) .
Ġpack age
en t
in na
inna mon
Ġcho colate
Ġd ish
Ġonion s
Ġhour s
p ar
ut s
Ġl i
ight ly
ol d
Ġd iced
Ġfro m
nd er
mo ve
ress ing
Ġ each
a p
um b
Ġc innamon
ĠS al
ust ard
Ġcook ed
Ġc ar
ĠP reheat
m p
Ġ O
0 0
er s
Ġ ve
Ġs erv
Ġs mooth
Ġd ry
Ġl ow
i es
Ġf la
Ġre m
Ġco mbine
ean s
Ġa l
Ġrem ain
Ġs erve
Ġthe n
d ed
ĠCo ver
Ġmel ted
Ġs he
ge t
z en
red ded
Ġs eason
on ey
u l
ĠR e
Ġse ed
s s
t ra
Ġremain ing
Ġserv ing
ber ries
na ise
Ġ E
on naise
re e
il let
Ġor ange
Ġso up
Ġsh redded
Ġm ustard
t ional
Ġco ver
Ġg l
Ġs our
Ġgr ated
Ġmay onnaise
u c
Ġbe ef
Ġpe el
Ġin ch
a g
Ġre f
le y
Ġ if
Ġc ub
ber ry
u ff
Ġf in
i re
Ġfro zen
imm er
r eas
Ġso f
rou gh
Ġgl ass
Ġd ried
Ġ3 0
Ġr ice
Ġhal f
Ġ &
Ġve get
qu ar
m e
Ġstir ring
Ġa re
Ġy ou
p an
Ġdrain ed
Ġsk illet
Ġb eans
i z
op tional
u it
t t
k s
ro om
u e
Ġch il
ip s
Ġex tra
in s
Ġref riger
ush room
ea l
Ġte nder
ur n
Ġp re
Ġsauce pan
an an
Ġfin ely
Ġ1 5
Ġd ressing
Ġh oney
ars ley
ces s
Ġclo ves
Ġpa p
Ġp arsley
Ġcr ush
Ġd es
ĠSp rinkle
ea pple
ut e
Ġba con
ĠSal ad
ĠRe move
Ġl ime
f ore
Ġbe fore
o g
er y
ra ck
a ch
Ġy our
ra w
Ġl ea
Ġco ol
Ġb eat
Ġcrush ed
ĠS a
l d
Ġch ips
Ġcr umb
1 0
v or
Ġpie ces
a ve
Ġblend er
Ġus e
ĠH eat
k a
i an
ab le
pp ing
Ġm ushroom
arm es
Ġch ill
el ery
i red
Ġp ro
Ġ2 0
armes an
p s
Ġpeel ed
ing er
y r
es t
yr up
Ġp l
ra y
Ġc elery
ed d
ad e
r an
Ġdes ired
or k
n ish
ĠW h
es s
Ġtom ato
in i
edd ar
Ġa pp
Ġpin eapple
Ġs immer
d a
Ġcar ro
' s
Ġseason ing
is k
ou gh
Ġp our
Ġcon t
Ġ up
ĠT o
ĠSp read
Ġs yrup
Ġgr eas
Ġth in
c c
Ġs weet
Ġp lace
ĠA nd
Ġm ore
Ġmar gar
Ġ 9
ean ut
s h
p e
r uit
Ġli qu
Ġm eat
he n
Ġf ir
Ġb anan
Ġmargar ine
Ġb as
d s
Ġlb s
Ġh ea
o y
Ġso da
ur t
ĠP ut
Ġso y
Ġg inger
Ġshe et
Ġsal ad
Ġw ine
Ġ z
Ġb ake
Ġp ast
ten ed
Ġb ot
c an
Ġl ightly
old en
7 5
Ġn e
Ġwh i
Ġg ra
t le
Ġba g
Ġst raw
ast ed
Ġ en
con ut
ĠC ut
eas t
og urt
Ġcook ing
Ġon e
z z
at ely
Ġs et
Ġch eddar
Ġg olden
Ġpro cess
Ġsl ice
Ġc rack
ass er
Ġwh ole
Ġchil i
l ow
asser ole
Ġextra ct
is s
Ġbro th
Ġveget able
ro w
Ġbas il
ĠT op
Ġth rough
j oy
Ġcont ain
Ġ N
ic h
Ġ1 3
Ġro ll
Ġgreas ed
Ġs ide
on e
ĠW ith
Ġb reas
ver y
an g
ff ee
Ġo ut
Ġa pple
Ġto r
k e
ĠCh icken
in ch
1 5
Ġ quar
Ġy ogurt
st ant
Ġsof tened
Ġth ick
Ġw arm
v ed
ion s
Ġn ot
n e
Ġto ss
Ġh igh
ĠD rain
Ġco conut
l ed
ic row
Ġp eanut
Ġco at
Ġ ri
Ġcontain er
in ach
Ġp armesan
a f
ĠS h
er ry
Ġfla k
Ġcan s
an o
Ġal mon
Ġcub es
ĠC ream
um ber
ĠP ot
Ġpast a
ea r
Ġapp les
Ġsp rinkle
ĠCo ol
C h
uc umber
Ġseed s
Ġsp ray
Ġf ood
Ġcarro ts
Ġp ork
ĠB lend
ĠB ring
ĠB ro
icrow ave
Ġ ra
ent ly
Ġm o
l ue
Ġl ight
Ġj ust
Ġboil ing
a c
v y
Ġ V
e w
Ġlea ves
Ġpre par
f er
Ġl o
al ian
Ġs to
Ġmushroom s
is p
ĠD ip
a w
Ġn uts
Ġ J
Ġst ea
Ġwhi pped
ay er
Ġco ld
2 5
ar t
z e
o c
ĠSa uce
Ġc ake
um p
Ġ K
Ġminut e
um in
Ġpe can
Ġ res
Ġl east
ĠB eat
ant ro
ĠC heese
ri ka
il antro
c col
ĠG ar
Ġclo ve
ccol i
Ġtor til
1 2
ĠD i
Ġn on
Ġe ven
b s
1 6
ĠE n
all s
s a
re g
Ġpap rika
Ġrefriger ate
Ġco ffee
Ġprepar ed
Ġon to
at ter
Ġcr an
ĠS eason
Ġf ruit
sh ire
u dd
il e
ĠL et
al ly
Ġo at
r ange
Ġt urn
Ġ3 4
ter shire
f at
al n
or ces
el t
Ġbeat en
Ġj ar
orces tershire
ee p
Ġgar nish
Ġcook ie
Ġle t
ri mp
Ġun co
Ġpepper s
Ġc ilantro
Ġn ut
ĠI t
Ġfla vor
Ġ U
Ġf at
Ġf ill
o s
Ġgr ill
ĠCh ill
en ed
reg ano
Ġflak es
Ġc ucumber
ou nd
t a
Ġd ash
Ġb y
Ġb ut
Ġo regano
Ġle tt
at ure
ak ed
un ch
udd ing
ĠR ef
Ġwh isk
Ġli ke
Ġstraw berries
Ġbrown ed
us age
Ġpecan s
is c
ĠW orcestershire
ro ck
Ġthe m
Ġlett uce
Ġf ry
Ġo ther
Ġthin ly
Ġmar in
Ġpap er
Ġf ree
Ġd ough
Ġfir st
ĠM elt
Ġpin ch
co a
p t
Ġw ill
ab b
Ġcr ust
Ġprocess or
in ed
Ġbanan a
Ġb ell
am e
Ġw aln
Ġ 7
Ġd i
edi ately
Ġeven ly
Ġsk in
ĠRef riger
Ġchill ed
to m
Ġp it
Ġ imm
Ġliqu id
Ġsp inach
Ġto pping
i g
ar y
Ġblend ed
Ġch un
Ġo cc
Ġd e
m eg
ĠRefriger ate
Ġb ring
ash ed
abb age
ional ly
en ne
Ġd one
Ġ3 75
v oc
Ġc asserole
ok ed
1 4
Ġl on
voc ad
Ġocc as
Ġ4 00
ood les
Ġnut meg
k in
ĠB utter
Ġc umin
at or
Ġoccas ionally
les s
Ġb lue
ol l
Ġmix ing
ar b
Ġte mp
Ġ Y
Ġbot tom
rough ly
Ġimm ediately
ĠP e
r en
Ġsp read
ĠS o
Ġt w
Ġb on
Ġco coa
o colate
Ġs c
Ġveget ables
en s
as y
Ġt ime
ver ed
Ġra is
Ġl it
ak es
ĠT h
g es
ce pt
al s
Ġ4 5
Ġsof t
Ġh am
iss ol
Ġst ick
ĠF or
Ġs poon
Ġm icrowave
ar ch
Ġcrumb s
ar in
uc ch
Ġp ound
ur k
ap en
Ġwaln uts
Ġs iz
ĠEn joy
Ġcr isp
Ġbro ccoli
u id
ed ges
Ġbreas ts
ucch ini
Ġpowder ed
Ġsl ightly
Ġfl uid
ĠR ed
ay enne
id es
Ġas ide
el s
ĠIt alian
Ġhea vy
el ess
w ich
Ġd ill
al apen
ra p
es ame
Ġrefriger ator
m eal
Ġth is
Ġm ake
Ġc ayenne
ĠG r
ĠTo ss
urk ey
s er
ĠS poon
el la
Ġf oil
Ġn oodles
Ġbon eless
l o
as p
Ġus ing
ump kin
on i
or d
Ġt ill
Ġsl ow
Ġmin t
Ġsh all
r ic
Ġcub ed
Ġtemp er
Ġto asted
Ġsa usage
Ġs ides
d ens
ct ions
Ġalmon ds
Ġun s
Ġd ire
Ġtemper ature
ĠGar nish
dens ed
od ka
ĠBro wn
ar k
ro p
Ġth o
ran s
Ġof f
Ġl ayer
y me
Ġp ut
c r
Ġre move
Ġsh rimp
et a
Ġ1 8
ri zz
Ġp reheat
Ġc abbage
Ġex cept
Ġth aw
Ġpot ato
ur po
Ġp udding
Ġ2 5
n ight
urpo se
Ġcrack ers
Ġ very
Ġsal sa
Ġrais ins
g in
ur ger
Ġsa ute
Ġk et
ic es
Ġcover ed
Ġcrumb led
Ġne ed
Ġs qu
Ġmix ed
Ġth yme
ĠR oll
m ilk
Ġth icken
ars h
ta il
Ġv odka
Ġa vocad
j on
e ed
Ġcon densed
er ries
Ġfir m
ĠC r
Ġj alapen
ck tail
rizz le
Ġoli ves
a mb
Ġro ast
Ġm uff
ch up
ell ow
Ġbanan as
Ġro om
id er
Ġp each
Ġs esame
mall ow
Ġin stant
Ġd issol
ren ch
Ġover night
arsh mallow
ĠO n
ra nd
p urpose
Ġshe ll
ĠWh ip
n ed
Ġb atter
Ġse con
Ġtho roughly
Ġthaw ed
Ġch i
st ick
ub b
e ur
e c
Ġz est
Ġc ur
Ġr um
Ġfor k
Ġco ars
Ġb o
Ġket chup
Ġan y
Ġlit tle
Ġa cc
un a
ĠSo up
y le
Ġoat s
Ġf ish
in d
e m
Ġcho ps
ĠWh isk
Ġliqu eur
e ts
Ġ1 6
ar ella
e x
Ġm arshmallow
Ġco mp
o us
Ġg ently
ab out
ĠF ill
ow n
Ġquar t
ord ing
Ġt ea
zz arella
Ġpreheat ed
r range
Ġst and
am ic
Ġacc ording
Ġchun ks
low er
Ġtw o
Ġp eas
ĠW hen
st arch
Ġs quar
ĠDi jon
oth er
u ally
Ġy ellow
c ent
Ġ read
Ġp la
Ġcomp let
als amic
Ġcorn starch
Ġc ider
f e
Ġsh or
Ġpack ed
Ġlo af
f lower
u ch
p le
t e
Ġch erry
Ġunco vered
ing s
Ġz ucchini
Ġc or
iz z
Ġtortil la
rans fer
ĠP ie
ĠRed uce
ĠR ice
ĠB read
Ġr asp
Ġ qu
Ġt ri
Ġd own
Ġcomplet ely
Ġb alls
Ġc rock
Ġd o
Ġth at
e mon
Ġt urkey
a ck
ĠD ressing
Ġfill ing
h igh
E asy
Ġmo zzarella
ĠI f
ag es
Ġ u
Ġp aste
1 3
ang o
i ve
po r
ĠS l
d ge
se m
Ġb oth
ĠGr ill
Ġst ri
ĠSa ute
Ġe very
par ag
sem ary
ak er
parag us
s p
Ġseed ed
Ġmel t
m er
an ch
Ġfresh ly
Ġgr an
Ġs m
cr umb
Ġp o
Ġl en
Ġread y
Ġcarro t
Ġb ubb
Ġbo x
u ll
op s
Ġm l
ĠF old
Ġsto ck
Ġcon stant
Ġskin less
st it
is t
Ġwh eat
Ġconstant ly
Ġpl ate
Ġen joy
Ġmuff in
Ġp at
Ġhal ves
a co
Ġf a
Ġco mb
Ġsecon ds
Ġjalapen o
Ġp ure
m ed
isc uit
Ġw hen
Ġglass es
2 0
ac ar
Ġen ough
ĠR o
ro x
Ġpla in
v a
Ġbreas t
ĠS to
Ġsiz e
b le
Ġan other
Ġbread crumb
Ġb it
Ġsu b
ĠP armesan
en ter
Ġmarin ade
Ġ4 0
' t
Ġcran berries
ap le
Ġdire ctions
Ġp umpkin
Ġc enter
ten ing
Ġsal mon
un t
t ing
Ġheat ed
rea k
r ush
a u
ĠS immer
acar oni
ou ld
Ġp ick
Ġw a
Ġh and
Ġcrack er
izz a
ĠC asserole
ast ic
he tt
ct ion
Ġlon ger
i a
f ree
it es
er b
Ġshor tening
Ġcl ean
le ts
Ġbro il
Ġb alsamic
f ter
ip e
Ġf ine
Ġstri ps
Ġri pe
v id
Ġf il
Ġbreadcrumb s
in t
ĠA rrange
Ġso me
Ġm ashed
Ġco cktail
ĠF rench
ir gin
Ġcan ned
Ġcran berry
c y
is ten
u g
Ġfor m
ĠSh ake
Ġcon s
ĠB oil
ĠCh ocolate
Ġpl astic
Ġh as
Ġ round
f ul
a h
Ġh ave
ic an
Ġsub stit
ĠSto re
Ġneed ed
ĠPot atoes
r t
ok e
Ġ x
Ġred uce
Ġd ark
Ġro semary
Ġres t
h am
Q u
ea d
Ġavocad o
Ġhal ved
l as
Ġcream y
ĠCook ies
Ġcomb ined
Ġpre fer
Ġquar ter
it ional
ap e
ĠSl ice
Ġp er
Ġpack ages
Ġalmon d
f a
Ġw edges
ĠD rop
ag hett
w ise
Ġf ew
Ġco l
Ġbutter milk
S p
Ġh ard
ĠT he
ĠT urn
Ġsh ake
aghett i
Ġbot tle
Ġshall ow
Ġturn ing
ins ed
Ġblue berries
Ġlea f
vor ite
or t
weet ened
Ġtortil las
Ġ 50
Ġy ol
Ġchi ves
por ated
reas e
Ġc er
s o
Ġse par
ĠT ransfer
amb urger
in ue
Ġcook er
ĠT om
Ġn o
Ġr insed
Ġgra p
Ġt una
Ġmix er
ab y
Ġthe y
Ġsc all
Ġ rack
ĠM arin
Ġsweet ened
Ġstraw berry
ĠC ake
Ġs ea
anan a
Ġon ce
Ġmarshmallow s
ĠP re
Ġco ated
l ish
Ġfil lets
cent r
Ġp ress
Ġre c
o la
in a
arb ec
Ġas paragus
g th
ĠY ou
Ġfry ing
Ġcons isten
Ġwh ile
Ġcer eal
Ġcur ry
Ġapp rox
Ġgra ham
Ġwh ites
ĠB e
m a
ĠC ar
ĠS mooth
Ġa g
Ġcon centr
Ġconsisten cy
au li
Ġf eta
Ġsa nd
Ġsubstit ute
Ġ3 25
at in
auli flower
w h
Ġb iscuit
Ġcoars ely
Ġuns weetened
ĠU se
c orn
ĠD rizzle
ot s
Ġc and
Ġl id
Ġm aple
im es
Ġm ango
Ġsand wich
Ġd ay
er n
Ġv irgin
Ġb et
Ġlen gth
d ually
Ġconcentr ate
Ġm acaroni
z er
Ġa ir
Ġk eep
fe ction
Ġsh aker
Ġstea k
Ġall ow
th ing
Ġdissol ved
Ġe va
ic y
at es
Ġ3 5
reas ed
Ġus ed
Ġb un
ĠC orn
s c
Ġfa vorite
Ġk n
g reased
Ġcon fection
ĠPe el
f la
am p
Ġchil ies
Ġadd itional
c le
rain ed
ĠSmooth ie
Ġw rap
Ġroll s
Ġb ou
p ric
Ġco m
ĠE gg
Ġthicken ed
ad ish
Ġd on
ĠSp ray
arbec ue
ĠG ra
Ġg el
ang es
le ct
in o
Ġsqu ash
Ġinch es
Ġhea d
la w
Ġmin i
Ġb rand
ĠS et
Ġ rea
Ġto o
Ġd ip
Ġpat t
Ġcol or
Ġh amburger
C ream
Ġpure e
Ġsp ices
Ġre mo
Ġor anges
am el
Ġsp aghetti
Ġunco oked
o sh
. )
u gar
rt ich
and wich
ar p
a mo
ĠPot ato
Ġeva porated
in se
Ġa round
Ġst uff
Ġpeach es
u ced
ill on
Ġt aco
Ġstea ks
Ġh or
al f
ĠF ree
Ġse m
Ġg ood
Ġcucumber s
l ing
ser adish
1 75
ĠG rease
Ġgran ul
im ately
Ġwhi pping
re me
Ġbou illon
Ġa mo
Ġcho ice
ean uts
Ġb ite
isc ard
ch o
i er
Ġ2 4
Ġgel atin
v ide
Ġb unch
ĠS andwich
ri dge
Ġp ink
Ġpin t
Ġconfection ers
osh er
Ġun greased
Ġto w
Ġwa x
on g
ĠF ry
ul ly
Ġs co
v ing
Ġr ind
if t
ach ine
Ġsp eed
Ġe nd
Ġcho p
l u
Ġres erv
Ġlon g
ĠTh is
Ġsquar es
ĠA ll
Ġred uced
C o
Ġevery thing
dd le
m el
Ġm ash
Ġp eanuts
Ġpie ce
at ch
ĠSt rain
im ple
Ġa fter
ri g
Ġch erries
Ġcom es
el ly
Ġy east
Ġk osher
al ted
Ġcub e
Ġs it
Ġto oth
Ġqu ick
z ed
Ġpit ted
Ch ocolate
Ġr anch
) ,
Ġm on
p ick
Ġbubb ly
n ey
ver al
Ġb erries
d i
Ġlength wise
Ġsalt ed
Ġsepar ate
ĠL ayer
w iss
ĠL emon
Ġb aby
t ight
he es
us s
ear s
Ġse veral
h alf
Ġpatt ies
lend a
Ġfree ze
Ġto ast
ĠP ro
Ġu nd
and er
Ġyol ks
w ay
ĠB eans
Ġfree zer
es to
Ġf ridge
Ġgreas e
ĠSt ea
Ġag ain
Ġtooth pick
pp y
ra g
Ġc auliflower
Ġst em
Ġseason ed
Ġf re
ĠCh eddar
Ġro asted
Ġba ck
ĠA l
iz ed
Ġal so
ex ican
Ġcook ies
vid ed
Ġp izza
v el
m med
qu ently
Ch icken
Ġflavor s
Ġapprox imately
Ġf old
Ġ eas
on t
Ġhor seradish
Ġfre quently
ĠP ork
Ġnon stick
Ġr un
1 8
ĠF l
Ġju ices
Ġsto re
b alls
Ġsp rig
Ġbe er
c akes
ed ge
ĠM icrowave
Ġd rink
Ġrefriger ated
Ġ4 25
i ander
s uch
Ġfl at
Ġsp ice
pe nd
Ġc ap
ch er
Ġin c
Ġd ou
vor ed
Ġsh ould
Ġst al
ĠPe pper
Ġo p
a uce
Ġw ant
ill ed
c ake
uff y
3 0
Ġs un
Ġs eal
Ġrasp berry
Ġseasoning s
Ġcr ab
ĠGar lic
Ġf ull
Ġrec ipe
Ġa pric
re tt
Ġshe ets
Ġsqu ee
il d
Ġstick s
ĠM ake
ĠT hen
Ġslow ly
rtich oke
Ġgranul ated
O T
Ġdi vided
Qu ick
lect ric
Ġbun s
Ġair tight
Ġ edges
ĠAll ow
at ion
Ġst rain
Ġuns alted
st ing
rett e
Ġlemon ade
Ġbroil er
Ġsh arp
Ġcor iander
ĠP ress
ĠPre par
Ġbutter ed
ĠF ro
Ġrasp berries
Ġbag s
b on
Ġe lectric
ina ig
Ġsu re
Ġj elly
ĠB rush
Ġcan ola
inaig rette
Ġco tt
Ġgreen s
Ġamo unt
po t
st yle
Ġquarter ed
Ġ2 3
Ġadd ing
ĠDi vide
ass es
Ġpit cher
a i
ĠPrepar e
ter n
Ġoat meal
ĠF ruit
Ġri bs
l it
Ġg o
ĠSal t
Ġd rizzle
s or
ast a
Ġm achine
Ġc ro
as co
Ġdegre e
fla vored
i ff
p eat
Ġc as
rea t
ol asses
Ġb est
Ġb all
Ġ4 50
Ġcott age
ĠG reen
Ġve gg
Ġsquar e
Ġcont inue
Ġcool ed
n ess
Ġb ay
d o
Ġp art
ot ch
Ġb arbecue
Ġor der
o f
ĠA pple
en er
Ġcor ed
Ġp ul
ĠB ean
S t
Ġl ean
ĠSp lenda
Ġcorn meal
ĠTom ato
R o
ĠC an
Ġm an
ul ar
ab asco
- -
u ck
ĠBe ef
mel on
il y
il a
k ra
z o
Ġpound s
b read
ful s
Ġm ug
a con
u la
Ġd eep
um m
Ġ raw
f or
ĠL ightly
sp ice
ran berry
Ġcand y
til l
Ġsk im
a v
ic i
Ġp op
ĠS c
Ġw ire
ell o
Ġo z
Ġmay o
Ġgrap es
ter s
B aked
Ġpast ry
Ġmarin ate
ot e
Ġfl uffy
if e
m ar
j ust
s ing
ree k
Ġse c
ĠW rap
re w
ĠP an
L emon
s ide
Ġt ightly
er ves
qu ila
Ġle f
Ġremo ved
Ġg et
Ġbiscuit s
ter ey
i b
in eapple
ĠS weet
Ġdou ble
Ġf our
ĠSh ape
Ġchun k
Ġtri mmed
he w
Ġs till
Ġpick le
Ġm olasses
ĠCh op
Ġj ack
d e
n y
oil ed
Ġcoars e
r it
Ġl ess
ĠE asy
S weet
Ġl ay
Cream y
il i
Ġu nder
Ġk ern
Ġd iscard
ĠRo ast
Ġnon fat
er i
Ġj am
ing le
t on
Ġt in
Ġro ma
ĠS ift
ĠM o
Ġkn ife
ĠT abasco
ĠW ash
pend ing
Ġstuff ing
ro uts
ro ps
Ġl ast
ĠS qu
ĠB reak
ĠM uff
el b
les law
Ġb aked
ĠL ow
Ġvegg ies
t ini
la ze
th y
Ġreserv ed
ĠD o
ĠBro il
sc otch
ĠSal sa
Ġt all
Ġin ser
ĠM eat
Ġwh ip
Ġpan s
ĠV e
cho pped
Ġapples auce
ĠU sing
Ġbrand y
ĠGra dually
wh ile
Ġall spice
ĠR ub
ĠSp inach
Ġ \
we en
ĠO r
ĠTo ast
us e
ĠB anana
Ġin st
ĠP asta
Ġof ten
et t
ĠA s
Ġp res
Ġh er
Ġbet ween
ĠL ine
Ġcar ef
Ġflour ed
m eat
ar ts
Ġflak ed
Ġsm oked
ĠH ot
Ġs ingle
Ġcl ear
ĠPro cess
ĠM ar
om em
Ġj ars
omem ade
ean while
Ġt il
Ġte quila
b oiled
Ġd rops
ĠM ushroom
iz e
ĠS low
ĠM ash
Ġk i
n er
Ġb rush
rag on
Ġshell s
i ra
el ve
x t
Ġchil e
g lish
ĠB aked
and arin
f ast
S tra
u nd
Ġst ew
Ġmel ts
ĠM eanwhile
ĠMuff ins
Ġsh erry
it a
Ġpack et
vel op
Ġscall ions
ĠS ugar
ĠRe peat
ĠOn ion
Ġ3 00
Ġavocad os
Stra w
Ġflavor ed
Ġcar amel
ĠMarin ade
mo st
Ġlemon s
ĠR et
quar t
Ġ- -
par t
Ġsiz ed
Ġt art
Ġb reak
at s
ĠP udding
ĠRet urn
ick p
ĠN OT
Ġsco op
u dge
ar ragon
Ġon ly
Ġ Z
Ġw edge
C rock
ĠA pp
Ġt ray
r u
Ġm ed
C ar
d just
Ġund rained
ĠM akes
ĠT ea
ur ing
co ok
ĠN ote
Ġfl ore
m ent
Ġt imes
uff ed
ĠCo at
Ġs wiss
z el
Ġw ee
ut ed
Ġst iff
a j
Ġne xt
Ġg rain
n ot
Ġd el
Ġre lish
m an
al e
ĠP eanut
lo in
Ġre g
Ġk id
ĠU n
Ġday s
ĠG ently
out h
Ġs ur
ĠFree ze
B ro
cess ary
Ġw eed
Ġhea r
t y
A pple
Ġa rtichoke
Ġc reme
ac a
h ub
Ġinser ted
Ġne cessary
Ġb ar
is qu
amo m
Ġapric ot
ici ous
Ġpl atter
ĠO range
hub arb
Ġ eat
if ted
Ġth ree
Ġa part
on s
Ġsem i
at meal
ag ne
Ġrea ch
Ġa le
Ġroll ed
Ġpit a
Ġw et
ira cle
b l
ĠCar ro
y s
Ġ6 0
Ġal most
pe el
Ġmeat balls
Straw berry
ĠM ilk
a il
Ġsa ge
p l
Ġm uch
Ġhear ts
Ġab sor
G r
Ġp esto
Ġs li
elve eta
u al
Ġb urn
Ġre t
bs p
ĠFor m
s weet
Ġl ined
Ġbit s
to ver
Ġstem s
1 1
Ġp im
pp s
Ġmar tini
B anana
ch na
Ġt sp
er e
ĠB r
Ġne ct
amp agne
Ġpres erves
Ġher bs
chna pps
p er
u er
Ġgra pe
Ġit alian
Ġsp routs
ell ini
Ġsur fa
ĠI ce
Ġd og
Ġb ean
Ġwater melon
ĠD el
4 0
kra ut
Ġabsor b
el f
ĠCh ops
Ġen velop
Ġb ars
as ch
H ot
Ġt arragon
po tle
Ġex cess
Ġst art
peel ed
ar i
ef ruit
Ġtow els
Ġd ri
umin um
asch ino
Ġh a
Ġbutter scotch
Ġquar ts
Ġgra vy
Ġsh ape
Ġmon terey
ic ing
Ġmini ature
Ġstal ks
n ut
Ġm andarin
g el
n ing
Ġmin s
ĠEgg s
af e
ĠC ont
! )
Ġb r
ol low
ĠSlow ly
T he
uss els
it s
ad ine
Ġflore ts
ard amom
Ġsurfa ce
Ġmar aschino
Ġkid ney
om e
aca o
ĠP ure
Ġset ting
ĠR inse
Ġlea ve
Ġde pending
W h
hees y
Gr illed
G ar
Ġp ort
Ġ2 00
isqu ick
H oney
Ġret urn
ĠH oney
Ġal uminum
S h
m s
Ġ icing
Ġs ifted
Ġw ork
Ġg ri
et to
Ġbe c
Ġlay ers
gh t
C r
al o
Ġ2 50
mar etto
Ġ *
ĠCo ffee
Ġcrab meat
Ġw ay
Ġd ates
Ġe qu
up er
uer kraut
) )
i ed
Ġreg ular
Ġeas ily
Ġsprig s
Ġ ir
ah lu
Ġw ashed
ĠEn glish
Ġgr en
Ġsk ew
Ġman u
ahlu a
Ġcrisp y
S a
Ġpop corn
Ġm ade
ĠD e
Ġr inse
Ġgren adine
Ġbowl s
fa ct
Gar lic
f u
ĠSt raw
r ish
Ġw or
Ġmanu fact
Ġs chnapps
ĠWh ile
P eanut
Ġr ings
Ġtop s
ĠS m
Ġgri ddle
O range
ĠM iracle
Ġcrock pot
Ġmanufact ur
Ġcl ub
urger s
n uts
Ġsp lit
ĠV elveeta
ĠPure e
Ġ es
Ġp ea
ĠSh rimp
Ġg all
ĠCont inue
ol id
Ġ10 0
k en
Ġp ear
ĠM exican
Ġseed less
ut ch
Ġsto ve
Sp icy
ic ot
Ġsp rink
ri e
Ġhand s
ĠSeason ing
ĠS e
ĠMarin ate
1 9
Ġc ardamom
ast ing
Ġm eas
ĠCh ili
co oked
b aked
res cent
ĠSal mon
ĠVe get
Ġsli vered
Ġb rew
Ġbet ter
Ġtri ple
Ġsun flower
Ġgra dually
Ġrea l
t c
Ġw ood
Ġs n
Ġw ould
ĠB acon
Ġspray ed
lic ed
Ġcas hew
ickp eas
Ġnect ar
Ġenvelop e
2 8
i al
ĠM ay
Ġroast ing
Ġfirm ly
vocad o
Ġthicken s
I t
Ġd rop
Ġh o
ĠTom atoes
mer ic
Ġgrap efruit
Ġp ine
a pp
Ġin side
asp berry
ĠStea k
aj un
ser t
s ize
Ġh erb
Ġr ub
c or
Ġf ive
Ġin di
ak i
ĠCo cktail
Ġindi vid
Ġ Qu
Ġdire c
Ġsquee zed
Ġshall ots
B utter
Ġwax ed
Ġ .
Ġe tc
ĠT ake
ĠC he
Ro asted
f resh
l t
Ġfro sting
o ve
Ġco la
Ġcream ed
pping s
Ġmo is
is in
Ġpepper oni
Ġlef tover
Ġmanufactur er
T h
i pped
p ro
Ġt ur
ĠP izza
Ġabsorb ed
Ġbot t
Ġfla x
ĠK eep
i ble
m en
ress o
icot ta
Ġbe ets
Ġs elf
ra mb
ĠA fter
Ġw ings
la zed
ĠB isquick
ĠJ ust
Ġroma ine
Ġdirec ted
L ow
i ddle
mon d
Ġboil ed
ĠH am
Ġ ver
Ġg reat
Ġmel on
ĠP o
ĠO atmeal
Ġtor n
c ut
4 5
S imple
Ġm aking
ĠG reek
ĠOn ce
b all
Ġbe en
Ġgall on
Ġt ake
Ġpo ppy
Ġp unch
ĠC l
lue berry
ĠPan cakes
I N
en ess
Ġh ow
ĠB ars
Ġstea m
m int
ĠJ u
ĠP unch
ĠB as
Ġkern el
y aki
Ġm y
ĠS our
Ġround s
Ġto fu
ĠP at
Ġwith out
ĠBro ccoli
Ġsa uerkraut
Ġpre t
Ġpl us
it y
Ġcap ers
Ġ1 1
om eg
i um
eri yaki
v our
Ġwood en
Ġc rescent
Ġz ip
ĠK ahlua
Ġw af
Ġch ickpeas
G reen
til s
om me
Ġend s
en n
co us
uc c
Ġfill ed
ru ctions
is weet
ĠI i
at h
Ġthick ness
o ro
as a
ĠI rish
lo af
Ġtow el
in ner
unch y
ĠSandwich es
Ġtur meric
Ġserv ed
ĠJ ell
Ġsem isweet
Ġchunk y
omeg ran
ĠB est
is ing
Ġdri ppings
Ġp ears
ĠM ustard
B e
ĠCr umb
Ġdissol ve
b q
Ġst yle
Ġbro ken
Ġth an
Ġcolor ing
Ġdon eness
Ġt rans
ab ly
la nd
Ġt ransfer
Ġco up
Ġr hubarb
Ġf ried
Ġlea ving
Ġjalapen os
Ġdissol ves
Ġbe gin
Ġg laze
ĠV inaigrette
Ġv inaigrette
Ġpl um
omegran ate
E R
Ġju iced
Ġb asting
Ġm ild
Ġcrack ed
Ġdi pping
ĠC ucumber
ĠSt yle
Ġch ampagne
Ġal ong
ĠM in
f t
Ġ '
Ġcoup le
s afe
Ġab ove
erb et
Ġinst ructions
Ġl im
Ġst r
Ġun baked
ĠCh ip
ct ive
Ġdo es
Ġ50 0
N o
ous ly
It alian
us ts
S al
b an
Ġt bsp
Ġh ash
Ġpul se
s ized
Ġindivid ual
l ime
ow er
Ġboil er
elb asa
C ranberry
us cous
en ce
it r
ĠSa usage
Ġyol k
C orn
Ġsof ten
ash ion
Ġl imes
Ġsandwich es
l ash
igh s
Ġt ight
Ġa way
Ġd is
Ġbrew ed
qu e
arch ment
Ġcut ting
Ġmuff ins
mer ican
p resso
at a
Ġa rrange
i o
ĠStraw berry
Ġp archment
ith er
Ġcr usts
ĠRo asted
Ġcashew s
. ).
ĠN ut
Ġlen tils
g an
Ġm eal
ĠP umpkin
ĠL o
Ġm iddle
Ġus ually
Ġcaref ully
o un
Ġes presso
A l
Ġbe g
ĠMushroom s
ĠT una
Ġbeat ing
Ġchi potle
T om
Ġshall ot
d ried
ĠC rock
ĠGrill ed
Ġgran u
t he
ĠS co
ch a
Ġwhisk ey
enn el
Ġpl ates
pro of
Ġwor ks
ro ot
. .
Ġc hees
an y
Ġbeg ins
Ġc y
Ġsugar s
ĠL ay
arm al
Ġa djust
ĠWh ite
ĠFro sting
Ġir on
w i
ĠF at
ĠPe can
Ġg ener
armal ade
et te
am a
Ġdes sert
Ġwa ff
b o
m m
ic he
ut ney
eal thy
Ġquarter s
C heese
il uted
issol ve
ĠT urkey
ĠF udge
ĠL ime
Ġa r
il ad
ĠSp ice
Ġwarm ed
Ġsecon d
ist ach
P ot
ĠD issolve
Ġal tern
Ġr icotta
Ġcoat ing
Ġsquee ze
Ġk ind
Ġstr ong
Ġsa me
P e
at ur
ĠT ablespoon
h ead
Ġch est
ver age
Ġsco ops
Ġchees es
o z
ĠB alls
ra pe
Ġstew ed
ĠCarro ts
M exican
c ipe
or m
ĠC ranberry
ĠP ineapple
ir l
Ġserving s
Ġmo st
pl ant
Ġco leslaw
ate ver
Ġdel i
d ish
u ac
Ġ18 0
ĠJu ice
P ineapple
a dd
ee ze
ah ini
di um
R E
ol i
Ġskew ers
Ġ roughly
Ġt ins
er t
Ġso dium
ĠF ried
y ou
Ġm old
ĠB lack
amo le
Ġsp ring
Ġdish es
Ġlo ok
Ġd ice
our bon
f ry
Ġn ice
cook ing
Ġequ al
r isp
Ġo ld
ĠA merican
te in
umm us
ĠS yrup
ĠSt uff
Ġpea ks
Ġinc or
Ġop en
Ġf it
Ġf ully
en to
it z
na ck
Ġj ello
th s
ĠTo pping
umm y
ro zen
Ġst e
ull ed
Ġgranu les
uac amole
ir y
oro us
Ġri ght
Ġinc lu
Ġsa fe
Ġv ig
H omemade
ĠBreak fast
itr us
ie ve
ĠG inger
d rained
f ood
Ġ he
M om
Ġgr ate
Ġde cor
in ely
Ġf o
ĠT ri
co ver
Ġchil es
Ġroll ing
Ġsh erbet
ĠSqu eeze
orous ly
m in
Ġsp icy
Sp inach
i gg
ĠC abbage
Ġadd ed
at ing
Ġli k
art ini
Ġlit er
Ġsoy milk
ats up
3 5
Ġs imple
ĠG rand
ashion ed
Ġl amb
ss ible
Ġth ighs
Ġpul p
ar e
ĠC ur
Ġspoon fuls
in ese
al t
ĠR anch
ent e
Ġcy cle
Ġvig orously
B Q
Ġb ul
ry e
Ġc atsup
Ġs olid
he it
B lack
ĠCook er
ĠO li
a ff
Ġcar bon
oun ce
te nder
omme nd
F resh
Ġ rye
iscuit s
e in
Ġo ys
Ġgo at
Ġm aker
Ġcro ut
i ut
Ġri m
ĠBr ussels
Ġmois tened
v il
Ġb l
Ġpepper mint
ĠM artini
Ġcarbon ated
ĠT aste
Ġbubb les
Tom ato
Ġd uring
n o
er m
Ġm armalade
C heesy
Ġsweet ener
Ġscall ion
Ġop tional
ĠApp les
ra ft
Ġle e
ban zo
6 0
Ġch uck
ĠRe cipe
alo up
to p
ĠV anilla
ĠZ ucchini
Ġt ast
er ran
ag on
risp ies
mon g
Ġbag u
ark ling
iut to
Ġf ennel
Ġwee ks
ĠCrumb le
q t
Ġa mong
ing ers
ĠH igh
Ġwhisk ing
Ġremo ving
es ted
Ġd ente
sc iutto
ĠSqu ash
Ġra dish
Ġt ub
Ġm akes
aw ay
Ġsm oke
Ġpepper corn
Ġf ollow
as ter
Ġun peeled
ĠB urgers
l ined
ĠC on
ĠC up
Ġpick les
Ġb ig
ĠCo leslaw
Ġpan cake
ĠVeget able
S outh
Ġreserv ing
Ġ im
Ġco uscous
ino a
Ġcap s
a ce
o o
Ġa head
Ġde ve
Bro ccoli
P umpkin
ĠO p
Ġwaln ut
Ġquick ly
aloup e
Ġcrumb ly
ĠOn ions
Ġp omegranate
Ġf rench
or am
r ant
ĠSt ew
Ġfro thy
Ġcro ss
s liced
ĠW atch
Ġtoss ing
Ġstal k
ing u
ĠA n
ĠS k
j oram
Ġst arts
Ġcontain ers
ĠCr ust
Ġpo ssible
Ġund iluted
ail ey
Ġdog s
Ġt ahini
ĠP each
i ally
Ġ ,
ĠCo conut
ĠH erb
ug ula
g r
z els
Ġst or
Ġm et
Ġsp arkling
Ġbe verage
ic o
mo re
Ġit s
ĠSco op
f red
Ġwh atever
ven t
od ium
Ġmar joram
ĠJ ello
ett ucc
Ġpim ento
um mer
ĠT aco
ĠD iscard
eg an
Ġcrumb le
Ġdi agon
19 0
I G
f ish
Ġs w
ien to
ĠO ld
ess ert
ren heit
fred o
m et
Ġcar ton
Ġwee k
Ġchest nuts
um ps
ĠS eal
ĠB iscuits
Ġki wi
atur al
Ġscall ops
Ġki elbasa
Ġfo am
E gg
Ġa c
Ġw ra
ĠB BQ
ĠL i
Wh ite
Ġb atch
F ruit
Ġp ar
Ġh old
ĠR itz
ĠO il
Ġfruit s
Ġbar ley
Ġlik ing
A s
ĠC reme
ĠD rink
Ġb ri
ĠF resh
ĠY ogurt
ĠCr isp
Ġsp lash
wn s
c ing
n ier
Ġg in
ĠC innamon
ead e
Ġreach es
ar a
ro ll
Ġth ese
Ġsp at
Ġe ither
Ġref ried
Ġdash es
Ġform s
G rand
Ġt y
ĠJ o
Ġstea med
Ġw ok
Ġtender loin
Ġpre vent
Ġtri ang
Ġapric ots
C innamon
oc a
Ġo uts
ĠS eed
Ġginger root
Ġtor t
Ġspat ula
l uc
ĠD utch
ood le
Ġpress ed
Ġcaref ul
Ġp arts
Ġlef t
Ġbagu ette
M o
r s
Ġcan t
Ġte x
Ġcar away
ĠCar ef
Ġtart ar
Ġju l
ber g
Ġfin ish
Ġtopping s
ĠLemon ade
ĠStea m
ĠAs paragus
d ing
Ġsh ap
Ġan gel
app rox
Ġtrans luc
Ġdeve ined
b y
ĠR a
ĠCr ush
Ġjul ien
er mo
us ages
Ġj igg
ĠK rispies
elb ow
Ġfla vour
co h
vor y
ĠCr is
Ġtort ellini
S m
on d
Ġsu ch
ry st
ĠD essert
ĠMar nier
ĠUn cover
Ġtransluc ent
ĠC rack
Ġst eep
ĠF ah
Ġsh red
Ġmo der
Ġrec ommend
B as
i el
Ġ elbow
Ġflavor ing
ut en
ĠA maretto
et iz
ĠF la
Ġcand ies
ĠDel icious
ĠB aby
lo ck
Ġrun ning
c ream
Ġ "
Ġgar banzo
Ġpim iento
B acon
ĠFah renheit
s ugar
Ġc la
Ġs ix
Ġb one
ĠO f
Ġkern els
a es
i k
Ġshor t
unt ry
IG H
m ix
Ġp ou
Ġp istach
Ġres erve
ĠCaref ully
o gh
Ġreal ly
Ġf illet
ĠD O
am i
ĠN o
Ġc utter
Ġa ctive
Ġcream er
ay a
ĠNOT E
R ed
it ion
Ġegg plant
ĠL ea
ĠBas il
Ġbrown s
ĠM ashed
Ġro ot
Ġri b
Ġclean ed
2 1
w ith
ĠM acaroni
is ted
ĠCream y
Ġgrill ed
stick s
S uper
Ġpan cakes
Ġk ale
Ġouts ide
ogh urt
H erb
Ġ 0
re ole
Ġg i
Ġan cho
ĠSo ak
do bo
Ġw il
ad le
ĠW ater
I n
i v
al a
Ġg erm
Ġpret zels
Ġtex ture
n og
Ġc ir
Ġteaspoon fuls
Ġth ermo
ĠCh erry
Ġcrout ons
ch ilad
Ġfro st
Ġhalf way
Ġprefer red
k es
p re
he y
ĠP l
li ke
Ġlo in
2 00
F ried
Ġ edge
ut h
ri b
Ġso ak
ĠR ot
Ġcr unchy
ous e
Ġwaff le
ĠB ay
ĠF ish
ĠCh o
Ġcant aloupe
P each
b ro
b ell
ar ian
ĠP am
Ġtw ice
ĠMeat balls
p h
Ġw as
in es
Ġw ide
Ġd inner
ĠF eta
ĠW heat
ĠG ood
Ġpeppercorn s
B est
B lueberry
M y
ĠS wiss
ĠD ump
S low
Ġw e
ettucc ine
O Y
ro ut
ĠA vocado
Ġd oll
Ġoil ed
Ġha zel
s odium
Ġm as
Ġf ig
al am
Ġl umps
ĠT e
ĠG laze
me ter
J OY
N JOY
O W
Ġto uch
ĠP esto
ĠA djust
G inger
Â °
Ġ ess
ĠB lue
Ġcross wise
r on
ĠH IGH
Ġpro tein
Ġincor porated
aes ar
Ġo wn
al or
ĠE NJOY
Ġlo os
und t
Ġwaf ers
Ġthermo meter
Ġl isted
Ġsa usages
Ġbas e
Ġflat ten
ic al
fe ct
A T
r ising
amp bell
Ġ X
Ġf rag
ĠW arm
Ġpure ed
Ġmug s
IN G
3 2
V e
i oli
Ġb erry
ĠB l
ĠT w
Ġlow er
c l
Ġty pe
Ġv ari
ush y
Ġcorn bread
ul d
ex cept
* .
ap ia
Ġmeas ure
Ġbott les
or i
ĠMeat loaf
Z ucchini
Ġ Quick
ro m
or s
Ġr ise
Ġsk ins
se ed
A n
Ġt eriyaki
Ġn atural
Ġblend ing
ant e
Ġsepar ated
Ġag ave
G reek
red ge
Ġblack berries
Ġhigh ball
Ġprepar e
Ġlim eade
r ite
Ġt ap
an ish
re o
ra wns
ĠB ailey
ĠM int
Ġsh ot
ĠW aln
Ġpro sciutto
Ch erry
Ġbit ters
ĠMar gar
Pot ato
R aspberry
o b
y e
ĠSt uffed
a use
p ing
Ġto pped
Ġfl ip
Ġsimmer ing
Car ro
lt ry
Ġch utney
ĠF a
Ġne w
C ucumber
Ġs ter
Ġw ish
ĠF ran
Ġpack ets
b et
eas e
ĠM ango
Ġwh ich
Ġre ct
ĠO ver
ave nder
Ġpo int
sor ted
Ġrect ang
Ġas sorted
Co conut
Ġstrain er
al ity
ot t
Ġro t
ĠJ ack
Ġ ent
Ġ1 50
na p
ĠN ow
A vocado
Ġh ulled
ĠP ick
ok es
Ġn ight
ĠAl mond
Ġar ugula
k y
ro ss
ĠSp icy
Ġpin to
a ved
Ġs ieve
Ġa dobo
Ġw ash
Ġl ine
rea u
Ġ12 5
ĠF rit
ĠBrown ies
ĠCr ab
Ġkn ead
Ġth ir
ul t
Sh rimp
H am
Ġf ries
al ia
ist rib
Ġmango es
Be ef
c up
o se
ĠTablespoon s
ĠOli ve
Ġbatch es
S c
T una
Ġm icrow
ĠB arbecue
or g
ri d
am s
Ġsmall er
Ġmo ist
alam ata
v ol
v irgin
y our
ro st
int reau
Ġb ran
ic ante
an k
Ġthe ir
ĠK n
pric ot
Ġinst ead
ĠCarro t
7 50
Ġ ).
ĠP eas
ver s
F rench
T o
o at
an ce
un ts
Ġtw ist
alapen o
ramb led
Ġl ingu
Ġqu inoa
way s
Ġgener ously
ĠP op
Ġsn ipped
M arin
ĠS law
Ġco me
Ġco uld
Ġor zo
ĠN oodles
M ango
ĠCo b
ul se
Ġmon ths
Ġtoothpick s
Ġent ire
Ġco als
gg ie
ĠO ven
arb e
Ġmeas uring
ĠTri m
z ing
er man
ĠS nack
ano la
ĠSe par
u y
Ġc he
and y
ĠO ri
Ġrais in
c he
ĠS quar
Ġy oghurt
ĠGra vy
vol one
g rain
i oca
m ay
ĠB bq
ĠG ran
C E
Ġc ryst
Ġf udge
Ġbott led
C ur
Ġround ed
Ġmet al
ĠRot el
d ough
Ġd ust
f l
Ġth ere
Ġn ear
Ġcorn ed
Ġpou ltry
ab i
im p
Ġsp ears
Ġk g
Ġsm ith
Ġpo pped
Ġfrag rant
ĠB reas
ian o
Car amel
Ġmoder ate
Ġdoll op
' re
7 0
or bet
ĠB ar
ĠD on
P armesan
w es
ig in
rop ical
Ġbo ard
ĠCl ean
Grand ma
ĠB erry
Ġsu gg
ĠCorn bread
rtich okes
St yle
Ġradish es
Ġc ustard
Ġb ath
ir loin
Ġport ions
gan ic
ĠC acao
ĠSt art
Ġgran ny
Ġsprink les
Ġ )
eas ure
ĠP ulse
ac ad
ĠLea ve
O ven
Ġt am
Ġp ower
al ib
ĠD ill
ĠE at
ĠE ver
men ts
arbe que
ĠSquar es
d iced
ĠW ra
isk et
ĠFl at
D el
Ġg u
ĠM achine
I L
o ol
ĠD ice
ĠL adle
Ġshell ed
Ġmash er
ĠFl our
Ġt ry
ĠS outh
Ġjigg er
ĠFill ing
Ġbubb ling
Ġw on
ĠB all
Ġsal ami
ĠT or
gin al
Ġa maretto
Ġgr anola
eal able
Ġamo unts
Ġpart ially
bl er
Pe pper
Ġc rea
ĠD og
ĠSp aghetti
ĠSepar ate
igin al
M aple
ĠS w
les h
ĠSp lit
ĠSp rite
Bro wn
Ġ :
Ġp od
id alia
ars n
Ch ili
ubb ed
Ġeas y
Ġlee ks
ĠC heesy
ĠLow er
F ree
s alt
Ġg ive
ĠS imple
ĠCo intreau
Ġdi vide
Ġsn ow
ĠG lazed
Ġbec ause
ĠSe lect
E D
Ġ el
ur rit
ĠW ine
Ġse ction
Ġro se
Ġsec ure
P ork
u d
Ġl ump
Ġ3 2
ĠE x
Ġ ears
ĠP ack
Ġse per
aw ai
Ġres ealable
Ġtub e
chilad a
ĠCho pped
ĠM easure
me let
Ġhea ds
Ġmarin ated
Ġcola nder
z ola
Ġhea ping
ĠCar amel
Ġoys ter
Carro t
ĠC auliflower
ĠR aspberry
ĠF ood
Ġcon ten
ĠCheese cake
Ġrack s
Ġdiagon ally
r ist
Ġm e
Ġf lesh
ĠS un
ra is
pper s
ff er
Ġcont in
Ġsea food
ef ore
Ġpro volone
Sp iced
erran o
Ġrecommend ed
imp ly
: .
Ġp rawns
Ġslic ing
ĠCh ips
Ġgrill ing
ĠMin ute
Ġmicrow av
rid ger
r um
ce ll
ĠB rand
da iry
ĠApp etiz
h y
Ġa d
Ġp ier
Ġco re
til led
ĠW e
Ġk alamata
ach o
Ġdoes n
V egan
g s
o e
Ġp ur
an a
Ġst ar
ĠL ight
Ġstri p
Ġdis tilled
Ġster il
f rozen
m as
Ġadd ition
ers hey
Ġ* *
Ġtap ioca
Ġp k
ramb le
Ġwaf er
Ġaltern ately
ĠCur ry
, .
Ġf ettuccine
en ts
om es
Ġhe l
ĠSk illet
! ).
U p
Ġp enne
Ġro ck
Ġprocess ed
Ġcas ter
vil ed
Ġa rtichokes
on zola
Ġw ild
Ġd istrib
Ġcrust y
Ġha ir
Ġtast es
Ġwil ted
b eat
ĠF inely
Ġsh aved
Ġra men
Ġpick led
ĠMay onnaise
alor ie
awai ian
f tened
ut es
it ation
ĠB lueberry
ĠR um
Ġpin ts
art y
Ġloos ely
org onzola
Ġs eg
Ġqu ality
Ġtriang les
Ġjulien ned
ond ue
ĠBailey s
B read
Ġs irloin
ĠD ot
Ġbe et
Ġclo se
lo se
ec ial
ĠFl uff
Ġp r
ĠM on
ĠR el
Ġgr ind
Ġgranul ar
ĠFlat ten
ĠC O
ĠB efore
ĠCo m
lo ppy
Ġ i
ĠR es
ĠCook ing
Ġspread ing
Ġcla ms
Ġlingu ine
B lue
H ealthy
T aco
Ġs errano
Ġa rt
mp ty
ĠRoll s
ex t
Ġprefer ence
ĠFl ip
Marin ated
b e
it as
Ġch ip
us ed
Ġre qu
Ġse ctions
Ġpret zel
2 4
F at
Ġw orcestershire
ĠJ am
Ġstea mer
Ġbec omes
O n
l ea
Ġh us
ĠP owder
ef ly
ĠO ne
ĠCris co
iel d
Ve get
Ġc ajun
Ġa v
Ġp icante
ĠB alsamic
Ġ5 5
Ġcorn fla
Ġfin d
est le
Ġstart ing
Ġinclu ding
T urkey
in der
ĠA rtichoke
ies t
ĠDi pping
Ġblue berry
ĠFro st
Ġleftover s
fl our
D i
c hen
Ġd utch
orn ing
C an
\ .
Ġ qt
at ill
Ġmin e
Ġor iginal
Ġsc r
ĠRa isin
b ur
mo uth
Ġbe ing
Ġlar ger
Ġfla ke
Ġpro of
ĠAl fredo
ĠOri ginal
i potle
l s
Â ®
Ġsa ff
ĠR om
ĠCh inese
ass ic
Ġcomb in
ĠDel ight
Ġshap es
a ves
k ins
Ġt able
im ate
if ied
uff alo
tt y
ĠGr ate
Ġs uper
ic le
ĠCo coa
ĠI ced
Ġice berg
ĠN oodle
ĠN ext
Sa usage
min ced
rist mas
Ġ #
Ġp uff
ĠF ries
Ġre peat
Ġro m
St uffed
b utter
in ts
Ġb aste
an ese
it chen
ĠB ites
Ġsc rap
Ġcur d
ici al
er fect
Ġp ers
ĠBe er
Co ok
Ġbri efly
Ġgi ven
ĠFa vorite
E L
an ts
ke w
Ġ16 0
! !
D e
Ġb urgers
an cy
Ġr ese
st ir
Ġfig s
i os
k et
in y
ĠD ry
Ġcur acao
Ġstuff ed
ĠPepper s
aff les
Y ou
p lace
ot ted
Ġn ic
ĠO reo
Ġsoup s
Ġthick er
Ġdi ffer
Ġsc rape
Ġskew er
S ummer
d on
m it
til la
ri a
ĠI mm
Ġprefer ably
uss ian
Ġart if
R ice
Ġoven proof
Ġgarnish ed
Ġrom ano
A R
S our
a va
ast y
th ick
Ġwh at
ap anese
Ġpap aya
Ġliqu or
Ġbag el
Ġreach ed
Ġac ross
L ime
f illed
Ġin d
Ġsu m
ĠSc all
ĠTe nder
Ġpod s
W ater
b its
Ġf ingers
Ġl avender
Ġon es
ĠT bsp
Ġse e
Ġbox es
Ġrese mb
I f
M ushroom
i dd
Ġb arbeque
ĠS ub
ĠC arb
ip ton
ĠL OW
Ġstem med
Ġbl anch
Ġartif icial
i bs
p ack
ar o
ĠC akes
ell man
reak fast
Ġdel icious
Ġim itation
ĠKn ead
Ġconten ts
Ġsteril ized
F rozen
S T
S ugar
Ġo kra
ĠC ider
ĠI s
ven ly
Ġpre tty
ang ria
olid ay
Ġver mouth
alib u
Ġs law
ĠP ea
us c
id bits
eal th
Ġdo zen
av ings
l oc
es ts
al m
al ley
Ġsh avings
ĠImm ediately
P o
Ġc ast
Ġ3 6
Ġor ganic
et y
am ily
Ġeas ier
Ġb ourbon
Ġy ams
ĠSh red
Ġdi jon
Ġbr isket
Al mond
cl oth
Ġnic ely
B reakfast
Ġb undt
ĠB rie
ĠG uacamole
ee ps
ĠCr unch
iff y
c a
h ot
ĠS n
ĠS ec
Ġso aked
sh ake
Ġstick y
ib b
ĠOp en
ĠPop corn
d ew
o lic
o st
u gh
Ġp ressing
Ġd ot
Ġh ummus
Ġn a
Ġre l
Ġsl otted
Ġcolor ed
pre fer
Ġpk g
ĠRes erve
z y
Ġt idbits
Ġ2 8
ass ion
Ġboil s
Ġremain der
ĠMargar ita
V anilla
c m
Ġ /
ĠCo la
Ġingredien t
ĠWaln ut
O N
Ġg old
Ġbrown ing
Ġbubb le
Ġman y
orm ick
Ġess ence
H E
r uff
ĠC ub
Ġwith in
ĠH ummus
sh redded
ang y
arbec u
Ġbunch es
Ġho isin
ĠLo af
coh olic
f inely
Ġp arsn
ĠC ajun
ĠM y
Ġre heat
ĠH ash
16 5
so ftened
Ġcir c
a iry
l ings
Ġg ets
ĠS up
Ġco ur
ĠI cing
Ġn ow
ĠD ough
ĠMo cha
Ġancho vy
C ajun
W w
f ried
v ia
or iz
ĠP ound
ĠA b
Ġst ream
Ġso met
od a
Ġmold s
ic ama
Ġf ran
Ġl ater
is on
Ġmin ce
Ġdou b
Sal mon
ĠOp tional
O r
t al
at ions
ol ut
ĠD ust
ĠD inner
ĠSt ick
Ġturn s
ĠFro m
Ġtil apia
Ġbec ome
Ġsprink led
m edium
y c
Ġin gred
un s
ĠC ap
Ġegg nog
ĠSp routs
ef rost
ant ain
ĠJo es
idd en
C l
O ld
ĠM el
am ia
ĠSp iced
ickp ea
Ġcontin u
N ut
ĠB ourbon
id ori
co vered
Ġmargar ita
acad amia
Del icious
ro g
Ġl og
ĠT O
ĠG reat
ct ly
Ġk raft
ĠV inegar
fa it
wh ite
uss et
ett es
ĠRel ish
Ġrequ ired
arbecu ed
Ġl in
Ġst arch
Ġcheese cloth
ĠR ibs
ĠW affles
Ġri mmed
Sm oked
Bas ic
M icrowave
c ini
Ġs ilk
ĠCook ie
Ġdi et
stit ute
gr ated
Ġvari ety
n ellini
ĠH omemade
Ġseal ed
do or
Ġpistach ios
s k
Ġp ri
Ġf ile
ut y
Ġh omemade
ĠA t
ĠF in
Ġsp ir
Ġtom atill
ĠO R
bs ter
mel ted
de pending
Ġtin y
As ian
bur y
t ain
Ġt ip
er o
Ġp ops
Ġf ur
Ġan ise
Ġsmooth ie
Ġsour dough
Ġcool ing
est y
Ġche ck
oriz o
A pricot
l uten
Ġto ts
ĠIn gredien
ent al
pe pper
Ġhea rt
f rom
ar ge
it o
ill s
Ġgr inder
Ġbut ton
ĠTh ai
ĠStea ks
ĠCob bler
t ime
Ġc akes
ut ee
or seradish
ĠP ar
ch i
Ġr usset
Ġfla me
ĠGr ind
ĠAl tern
Ġbrush ing
Ġport ion
Ġir ish
Ġfollow ing
Ġstor ed
Y ummy
c rease
h er
Ġs ift
Ġf e
th is
ĠW ings
ip es
ough t
Ġpo ck
Ġseper ate
F or
G lazed
c arp
Ġ @
Ġt en
Ġb rie
Ġp ull
ĠM aple
ĠSp anish
ĠN ew
ĠTh ese
ĠTh aw
Ġbreak fast
Ġcornfla kes
A L
Ġp uffed
Ġg uacamole
ĠS ea
ur st
ĠC lose
ĠD redge
ad ian
ĠG round
carp one
A K
B erry
L E
e ver
t ies
Ġb ed
gar lic
ĠF lo
ag o
anan as
ĠTh in
ĠRo semary
Cr ab
ĠStuff ing
Ġsaff ron
r itional
Ġt ail
at i
Ġbrown ie
am els
ĠL a
Ġcrea te
Ġpers on
Ġdiffer ent
o id
Ġch ow
ĠC ampbell
is o
ĠB aste
Ġr ing
ĠCh owder
Ġhand le
Cr isp
s ed
Ġb la
Ġf ast
por ate
Ġtray s
M ar
Ġc itrus
Ġto ugh
ĠW ill
op ed
ĠY our
ex as
Ġsprink ling
ĠPecan s
South ern
Ġfoam y
ĠBreas ts
ĠSouth ern
Ġblanch ed
A ll
B alsamic
O atmeal
a que
r ise
Ġw atch
Ġsalt ine
th aw
Ġle gs
ct in
eason ed
Ġhoney dew
Ġbas ket
ĠMo zzarella
Ġoys ters
Ġsugg ested
D ried
O R
b lend
k o
ic um
Ġoil s
ĠH ellman
Ġgl uten
Ġbas ic
ĠN uts
amb ord
Cur ried
rum sticks
Ġfile ts
en ison
at te
Ġd ump
pend s
ĠAs ian
Sa ute
Ġbul k
beat en
Ġfur ther
w ater
ea k
le u
ĠB aking
par ent
Ġpress ure
ĠSc rape
rie nd
Water melon
ĠC andy
ĠSh ort
Ġlo aves
ig n
eri bs
Ġho les
Ġfit ting
On ion
thaw ed
4 6
T ropical
f ine
f ort
l er
Ġo mit
ĠD ream
Ġsl ushy
ers ion
Ġchill i
Ġpatt y
Ġop aque
ĠFro zen
ott age
Ġseg ments
S un
Ġl ink
ĠS oy
Ġpe ctin
Ġfa ir
Ġtrans parent
prefer ably
M eat
N OT
P asta
V E
W e
a x
Ġt ie
Ġm ort
ĠS esame
th in
Ġen chilada
ĠQu iche
ĠChe ck
R e
Ġs orbet
ĠS he
ra d
ese ed
Ġbutter nut
Ġsh aking
se mb
Ġve gan
Ġout door
ĠVeget ables
ĠQu es
Ġdoub led
Ġm ein
an e
al d
ĠM c
ĠCh ampagne
Ġket tle
ous se
ĠCup s
Saute ed
N D
ar eribs
Ġch ar
Ġh ole
ĠM ed
ĠH amburger
ul ts
Ġstick ing
Ġspoon ful
gel ico
iv ely
ĠWra ps
Ġpur ple
s ee
Ġt ater
re y
ĠS oda
ĠC at
ĠP uff
Ġth ink
ĠD ec
ou ble
ĠMix ture
ĠWh ole
Ġmeat loaf
Ġcro iss
Ġmois ture
As paragus
Ġscr ubbed
u ces
Ġc reole
Ġ1 9
Ġf inger
Ġal ways
Ġpro d
Ġbegin ning
coh ol
ĠTor tilla
Ġscrap ing
Ġfair ly
on a
Ġb ow
en til
ĠS ummer
Ġsu it
ĠD ish
ber ally
Ġcar amels
Ġlit ers
ĠTh read
Ġgener ous
U T
ĠP r
ĠM ousse
im um
Ġcan nellini
ey ed
ĠL ipton
ame ter
Ġskin ned
hett a
ĠCon densed
Ġfinish ed
Ġpistach io
Ġpri or
L ight
P izza
R anch
Ġto aster
ĠP ops
rea ts
Ġst ring
Ġfl uff
Ġsp lenda
ent a
ano ff
Ġra me
Ġchi a
Ġsm ashed
ĠPat ties
Ġste el
rais ins
f used
Ġm ill
it erran
as iest
ĠCh utney
Ġref ridger
elt zer
Ġbon es
lo ss
Ġwas abi
wes ome
Ġhel p
yc at
iterran ean
4 00
S S
ĠS erves
ab an
ab ella
ĠB atter
ol ish
ent he
Ġ9 0
ĠK raft
Ġdi ameter
Ġcand ied
Ġbar ely
Ġthir ds
A D
F l
o ot
re t
it os
ab ag
ĠM idori
mon ds
Ġfl ower
ĠSp ecial
Ġcover ing
ĠJ iffy
ĠK aro
udd le
ĠAb out
ĠFlo at
' ll
Ġb urger
Ġo k
Ġm ors
ĠS cr
ĠB o
der ful
ĠG o
pe c
Ġra v
por t
Ġav oid
) ),
B ake
S esame
Ġco b
Ġst age
am ame
ĠH a
Ġcol by
Sa vory
Th ai
Ġdecor ate
Ġlee k
Ġcaps icum
Bas il
Ġhazel nuts
Ġel se
usc hetta
m y
Ġc m
Ġc all
Ġs nack
Ġs eltzer
er ing
Ġf ashioned
Ġro tini
ĠV ari
-- --
Ġpimento s
Ġhazel nut
Ġlump y
Ġrav ioli
B r
M ustard
d r
Ġa ch
nd ian
Ġv idalia
erv ing
Ġmo isten
ĠSeason ed
Co ffee
Ġtast y
Ġrot el
ĠIs land
d y
Ġs nap
il able
un til
Ġcho y
ol enta
Ġsp iced
ĠStir ring
Ġbag els
Ġqu ite
ĠMarin ated
Ġmon th
Ġinc rease
bro wn
Ġlin ers
C itrus
M ix
P an
W arm
g y
Ġt akes
Ġe m
Ġe ight
ush ed
ard en
ĠH ershey
Ġmel d
Ġdes ire
ach ed
Ch inese
ĠSl ush
tern al
1 7
O ri
i ago
Ġt ips
at ive
Ġco untry
ĠP h
Ġover cook
Ġle vel
Ġgr its
ĠCh ambord
ĠCool er
Ġhand ful
Butter milk
Ġsum mer
sk im
Ġin ter
ĠP arty
Ġe ye
ĠL amb
Ġpl antain
Ġsw irl
Ġresemb les
loss om
P T
t i
ea ble
Ġm at
il af
Ġg one
Ġg lazed
Ġfl ank
Ġli ver
ran ts
ĠSh redded
ĠSo f
Ġcryst als
ĠAppetiz er
P ink
p id
Ġm atch
an ger
ĠB owl
ell i
umb o
Ġzip lock
Ġwaff les
Ġtam ari
ĠTender loin
Ġbla de
Ġmort ar
C ormick
e z
e ct
Ġl ots
Ġun bl
ra cha
ĠT eriyaki
ard i
Ġlo ve
Ġmarin ara
Ġcol our
ath er
ĠLi qu
ills bury
Ġo le
Ġf ire
ut abag
ĠS angria
Ġcl oth
Ġhard en
ĠAl so
ĠStraw berries
ĠSm ith
ĠApples auce
ĠFran gelico
Ġrectang le
ĠSub stitute
c ress
m ati
u k
un ky
ĠC aesar
ri racha
Ġfl ow
ĠH al
ĠWh ipped
ĠThe y
ph ia
Ġcirc les
Crisp y
A pp
f al
h od
s our
Ġb ok
Ġto ffee
ab et
Ġ4 8
Ġn orm
each ed
ent y
Ġcrumb les
Ġthrough out
Ġany thing
ĠUn roll
Wh ole
Cr unchy
ĠChe x
Pe can
Ġlook s
Ġmas carpone
Ġ: ).
* *
J apanese
P esto
P erfect
Z esty
o ver
Ġm acadamia
al if
Ġco ll
ĠP ear
la m
Ġj ell
Ġso ap
ĠT art
cr isp
ĠMilk shake
cell o
A unt
h n
Ġc ent
Ġm orning
el phia
ĠB ran
ĠT ear
ĠD ay
ĠCh ile
Ġdire ctly
Ġsm ok
Ġfil ter
Ġpart y
Ġpr un
AK E
A r
c ar
i elbasa
Ġt bs
Ġp assion
an s
ra iche
ir d
Ġse em
mar ula
Ġburn ing
Ġzip loc
Ġrel ease
Ġparsn ips
Ġole o
H awaiian
g reen
y es
ĠS loppy
as hew
Ġj icama
ĠO melet
ĠV egan
ĠButter milk
Sal sa
Ġdistrib ute
pack ed
ĠSof ten
3 50
i us
es h
Ġm ight
Ġm enthe
Ġin ternal
Ġco unt
ir t
Ġju g
ĠD ash
ĠIn crease
Ġk e
ĠN ot
ĠJ alapeno
Ġnut ritional
Ġbottom s
cr ushed
Ġcur rants
ort ellini
Ro semary
urrit o
hy dr
ĠCola da
rog anoff
Ġspir al
alif orn
G erman
H I
il ly
or y
Ġh ollow
ir in
ĠM I
ĠIn sert
ilad elphia
B bq
L Y
O U
R A
Ġ ed
Ġt on
Ġd efrost
ĠC ilantro
ol og
Ġheat ing
om iny
Ġra pid
Ġres ults
Ġsubstit uted
ĠVe ggie
Herb ed
Ġmors els
J alapeno
Ġc acao
Ġsa vory
Ġr ising
ĠL atte
Ġal cohol
ag na
vour ite
Ġfrost ed
Ġunbl eached
aliforn ia
s mall
u x
Ġ ear
Ġc av
Ġb el
Ġb ark
Ġl ite
rea l
Ġover la
Ġsp ear
ĠV odka
Ġste p
Veget able
Ġsuper fine
) ;
2 9
M in
M int
o bs
Ġd rumsticks
Ġl ot
ĠC ustard
ĠA r
ĠM an
mon cello
Ġblack berry
ent ial
Ġli berally
ĠE venly
Ġpla cing
Ġfa vourite
ĠAl monds
Ġcir cle
Ġtomatill os
semb le
A id
S n
U n
Y ogurt
or ange
ĠS T
Ġh rs
Ġtablespoon fuls
ĠB ananas
read y
Ġse ven
Ġcorn flour
ul s
Ġwa it
ĠSc ramble
Ġeat ing
Ġbr ine
Ġdiagon al
Ġflavour s
Ġcombin ation
ĠMc Cormick
ĠScr ub
2 6
M ed
R aw
i pping
Ġsa ve
mb er
Ġk iss
ee ts
Ġal fredo
tt a
Ġthin ner
Ġsoy a
Ġthrough ly
Ch eddar
aw ry
ĠGra ham
ĠDe viled
Ġpear l
ĠBas ic
Ġplum s
Ġlim a
Ġinclu de
Ġwra pped
Ġpimiento s
E n
it tle
ur p
arm ig
18 0
Ġbri ght
seed ed
ibb ean
A M
I ced
M ini
d ry
u f
z es
Ġ rough
Ġp estle
Ġto tal
Ġd id
ĠCo re
ĠSt roganoff
Ġk itchen
Ġtender s
ĠY ield
Ġrun ny
hew y
Ġcaramel ized
ĠCrack ers
ĠCom fort
Cl assic
t uce
Ġs il
Ġb bq
Ġm ound
ic er
Ġmin imum
ĠB ag
Ġspread able
Ġvegg ie
.. .
ĠWatch ers
ĠEx tra
lea f
aban ero
A rtichoke
b ake
c ub
o ck
Ġ iced
Ġf all
Ġl g
Ġco d
ra pped
Ġv ary
ies ta
ree ze
ag ie
ĠIi i
Be er
Ġbitters weet
ĠMon terey
ealth ier
Ġem uls
H amburger
g round
i ri
Ġw he
Ġd redge
ĠP ilaf
Ġthick ly
ern ick
Ġnear ly
D o
f ashioned
v als
Ġd rizz
ĠT reats
na c
ĠG erman
Ġcon d
ĠH ealthy
ĠH ouse
ĠE X
Ġnot e
Ġ7 50
ĠPre t
ucc ino
ĠTw o
Ġmicrowav able
Ġ Ġ
on cini
Ġm ussels
an ks
or itos
ars ely
ump ernick
Ġliquid s
Ġsomet imes
ĠDec or
Med iterranean
. "
C auliflower
N ew
Ġ 75
Ġcup cake
re x
ĠM alibu
ĠT ip
Ġfl oat
ĠJ elly
Ġhor iz
Ġpar fait
ering ue
' m
' ve
R hubarb
f it
m ine
s ure
Ġs im
Ġ2 75
Ġch orizo
ĠC elery
is ter
our met
la in
lic es
Ġth read
all ow
cc an
reg ular
Ġde pends
Ġtri m
Ġrec ipes
Ġend ing
Ġdiscard ing
ein z
approx imately
ĠDog s
Ġhoriz ont
S k
g nac
Ġt est
Ġm iso
al ina
Ġg ro
as agna
rea ctive
Ġwater cress
ĠK ool
Ġsiz z
ma zing
ĠSm oked
Ġstove top
Ġsteam ing
rad itional
olog na
N T
S w
j u
w est
y rex
in ter
il it
ĠB rew
Ġsp areribs
Ġcut lets
ĠU p
ĠY ummy
ĠTh row
Ġinser t
abet ic
Ġcent re
G luten
ed ish
Ġf ar
re es
ab obs
ĠR ussian
ou l
Ġapp ear
Ġsea m
Ġjulien ne
Ġess ential
umpernick el
A dd
Ġw ont
un ter
Ġst one
ĠF ir
Ġsp rout
Ġpan ko
ef tover
Ġhal ib
Ġveget arian
Ch ipotle
bs olut
lo ins
Ġlid s
iv al
Ġwe ight
Ġrock s
Ġhalib ut
5 5
T asty
Ġh ealthy
as ed
ĠB ell
res erve
Ġso on
Ġ8 0
ĠCook ed
ag ic
ĠWh iz
Ġfry er
Ġconfection er
Ġburn er
ĠCris ps
ĠGran ny
CE PT
Ġhus ks
Ġc re
Ġs na
Ġp or
Ġf amily
ad y
Ġsc rambled
Ġsaute ed
ĠSc rambled
Ġho agie
Ġsolid s
Ġtriang le
Ġshap ed
Ġmicrowav eable
Ġpops icle
Ġflow ers
m ade
p es
Ġp alm
il ar
Ġf ondue
Ġf raiche
at el
un k
Ġfor ks
ĠM ac
gg ies
ther n
Ġgl o
can ned
Ġcons omme
Ġsepar ately
ĠGra pe
ĠGreen s
Ġincor porate
Ġlink s
Ġinter vals
2 20
P ick
Ġ ite
Ġc aesar
Ġa va
Ġm ushy
or ch
or thern
ab el
ĠC oke
is co
ver t
ĠA marula
ĠCo uscous
Ġbread s
Ġsl it
ian ts
Ġmeat s
ĠBrown s
ĠCan adian
Ġver s
ĠSup reme
Ġcour se
ĠDecor ate
A b
N on
R a
T e
w are
ar ter
an i
un g
ĠC itrus
us and
Ġis land
heat ed
and ied
ĠLet tuce
Ġtho usand
ett i
ĠOli ves
ĠTaco s
Ġfran k
Ġtail s
Ori ental
d eg
Ġc at
ic ally
ur a
ĠM rs
ĠR un
ĠG rap
ĠV ery
ĠY um
arin es
ĠGr atin
ĠCrack er
ĠThin ly
Ġed amame
armig iano
Ġava ilable
2 50
G olden
H oliday
P l
U M
c heese
e p
i ber
l arge
in ds
Ġ1 7
Ġm irin
Ġl u
ĠB undt
Ġe mpty
Ġth ough
ien ts
Ġn acho
Ġpour ing
Ġsto p
ĠTh at
Ġbreak ing
Ġfollow ed
Ġstor age
urrit os
Ġpier ced
Ġhorizont ally
S o
T angy
V ER
p en
il apia
Ġun flavored
Ġcook s
ĠD eep
Ġfl ute
Ch ristmas
Ġlo bster
Ġfa ce
ĠSc atter
Th is
RE SS
Ġmas ala
Sc all
Ġrame kins
S ea
er k
Ġb lossom
ur es
im ent
Ġn oodle
Ġlar d
ĠSa uerkraut
pt ion
Ġrais ing
amo us
ĠFrit os
Ġingred iants
Ġsilk en
ĠHellman n
ĠPuff s
Ġmat zo
1 50
l ight
w rap
Ġa m
ĠF arm
ad ill
col or
ood y
ĠE mpty
acar o
Ġste via
Ġke pt
fit ting
S wiss
o roughly
u es
Ġ id
ĠS kew
ra m
Ġsu lt
Ġpepper oncini
Ġv enison
Ġchicken s
Ġat t
ĠG all
ĠH orseradish
Ġri ms
ĠK eeps
Ġequ ally
Ġpock et
Ġplantain s
ĠEX CEPT
RESS ING
a ine
h a
w urst
Ġb ought
ĠA cc
ĠD RESSING
ĠF il
ĠF ashioned
ĠG oat
ag ed
Cr ust
add ed
wes tern
' d
C abbage
T eriyaki
g ur
v ance
Ġt bl
Ġm ult
ĠS imply
as ts
Ġco gnac
Ġpe t
ĠF ondue
Ġr utabag
od i
Ġdi pped
ĠTh oroughly
app uccino
ĠWaln uts
We ight
ĠHal ve
Ġsim ilar
% )
B arbecue
T w
h ouse
j ito
v ies
č Ċ
Ġs ake
ro asted
Ġg orgonzola
Ġ2 2
ĠS lices
ĠA u
ĠM as
ad a
ĠSt eep
ĠL entil
ĠH alf
ee k
ĠO ats
Ġbas mati
Ġsalad s
Ġde velop
Al coholic
Ġcontinu ously
uf ch
A wesome
D D
L a
Ġb lock
Ġm ot
at ively
ĠC reole
Ġco unter
ge ts
ĠP ort
ĠA pricot
ol ina
ĠT bs
ĠF ollow
ou da
Ġsl its
Ġtender loins
Ġend ive
ĠPro tein
St ir
Ġflore t
lt imate
Ġmost ly
ĠFla vor
Ġad vance
ux e
Ġbel ow
ufch atel
H ear
I rish
O L
R ef
a ct
i ke
w heat
Ġ ;
Ġc raisins
on ion
ur g
Ġh ominy
ĠP ap
ĠT HE
qu al
Ġr ich
Ġlo ck
Ġde c
ĠY ellow
zel nut
ĠSn ow
ĠShe ll
ĠCat alina
ilit er
odi va
O ne
P ear
c alorie
u ds
Ġp ush
ic les
ce tta
is ed
ĠP er
ĠB on
Ġv eal
Ġre place
ĠH einz
ĠK iss
Ġhard boiled
Co ol
Ġnect arines
Ġport abella
ĠSm ok
ĠPo ints
ĠMin ce
istach io
Ġthir d
ĠIngredien ts
L A
b ow
b one
le mon
ĠS liced
ĠB eets
Ġfor med
Ġmix es
ĠM arshmallow
gg iano
Ġcan e
ĠW ork
ĠG orgonzola
ach os
Ġturn ips
Ġunco ver
Ġfry pan
Ġzest y
ĠRo se
unt ain
Ġcla m
Ġna vel
C ilantro
Ġt ested
Ġa top
Ġp olenta
Ġm ace
Ġd ate
ĠS orbet
ur ed
Ġy et
ou nder
Ġve g
els ius
Ġqu es
wh ole
Co untry
for m
ĠPan cake
Butter scotch
Ġmet hod
ĠCub e
Ġcall ed
Ġwont on
. ,
C he
I ce
M acaroni
T exas
n on
Ġo melet
Ġm alt
Ġf un
ĠP ink
our s
ĠB urger
ĠA DD
ĠCo le
ĠD oritos
ĠW edges
om et
ĠH er
ĠRe heat
Ġsc ramble
ug gets
Sp aghetti
ik i
ĠMI X
M ashed
a z
g ed
u ct
il ed
at t
ra ight
ĠB y
Ġst ain
id s
ĠR hubarb
Ġsp ace
ĠCh ristmas
Ġus ual
Ġen glish
Cream ed
ai qu
Ġaltern ating
ĠTw ist
port ant
uk on
G ran
V ery
c lu
in ce
or r
ĠB el
Ġbrown ies
ĠCh ipotle
ag le
Ġ7 0
Ġtho se
Ġrub ber
ĠPo ppy
ĠWater melon
ĠQuick ly
Ġcryst all
Ġsection ed
urp rise
adill as
A nd
O li
i ger
m ium
Ġp umpernickel
Ġw ing
po s
Ġd amp
Ġ2 25
Ġl unch
uy ere
ĠBreas t
kew arm
ĠShort bread
Ġite ms
D ill
E asiest
M ex
P P
c al
Ġt anger
er ie
or es
Ġcho ose
ĠR eal
ent le
Ġal ready
Ġbeat er
Ġstea dy
au la
ĠMay o
Mo cha
cub ed
ival ent
Ġlu kewarm
E S
G ood
S pan
b ably
s et
in ess
Ġt ear
ic elli
Ġh abanero
ot tom
Ġst rained
ĠM ini
ĠM ary
et ter
Ġv alley
ĠD iced
ĠF res
ĠL awry
Ġba mb
we e
Ġsweet ness
Ġz ested
Ġallow ing
ĠZ ip
ĠBar ley
ĠWra pped
oul der
A S
P ro
i wi
Ġb ologna
Ġ( ,
ĠP in
Ġuntil l
ad o
ie ved
op le
am en
Ġk ey
Ġcool s
ĠSa utee
ĠV er
Ġlo ose
ĠNut ella
Ġancho vies
ĠAppetiz ers
ĠFir st
Ġvers ion
d rain
Ġm ust
or ld
Ġj umbo
ĠI N
ĠT ry
if y
ent ation
ĠO at
uc y
ĠCucumber s
cell ent
Ġmill iliter
ĠVari ation
ĠPh iladelphia
App les
Ġcat fish
1 00
F ry
c er
f ruit
j i
k ed
s es
Ġt ests
ro s
ĠS ou
Ġteaspoon ful
gar nish
Ġst raight
ĠM ex
ĠD ried
ĠW ay
ĠH ave
Ġchil is
Ġen sure
ĠDi et
Ġimm ersion
Ġmelt ing
Th ree
Ġfit ted
Ġprod uct
Ġbamb oo
I R
I T
c ts
e gg
it ch
Ġh ome
Ġh idden
ĠC ol
ĠC lam
Ġe yes
ĠCo untry
ĠM edium
Ġcan ning
od y
ac ardi
eri os
ĠFran k
ruff le
ruff les
riend ly
Span ish
C old
po te
ĠP or
ĠP ita
ra pp
ĠM uddle
Ġwh ere
ĠT B
ĠW w
ĠG u
con es
Ġapp etiz
Ġout er
ĠBro th
Ġsc rew
cr ust
Ġstock pot
ĠSto ve
ĠEgg nog
Ġbul b
ĠDump lings
ĠFrit ters
stir ring
Ġfe el
Ġperson al
Ġprun es
Ġoverla pping
ĠAcc ent
R eal
ch illed
Ġju icer
ĠH ear
Ġhal ve
Ġne ver
iss erie
Ġcur ls
Ġread s
Ġpick ling
Co cktail
Ġgo es
ĠBr uschetta
Ġwhe el
acaro ons
C ottage
M oro
a e
b ut
b ag
f ur
l ightly
s al
Ġ hen
Ġ1 70
Ġp urpose
Ġg her
ĠS erving
gar ian
ĠB reeze
ri pe
ck s
Ġr are
ĠG olden
ĠG arden
Ġsour ce
Ġnut ella
Ġform ing
Ġper fect
wh at
Ġenvelop es
Ġwra ppers
che e
Oli ve
B l
G E
t hen
Ġs wee
Ġb uy
Ġp ith
Ġm alted
Ġg entle
or f
ĠT on
Ġn orthern
Ġheat proof
ven ce
Ġclo sed
ĠE agle
ĠV alley
Ġsc orch
Ġher e
Bro iled
Mo ck
Â° .
Ġrectang les
ĠSec ure
Ġnorm al
Ġseem s
Pick led
Ġcrystall ized
Moro ccan
B ar
F eta
S loppy
un cooked
ĠC al
Ġe ver
ĠCo arsely
mon terey
Ġth row
ĠT ilapia
ĠF amous
Ġpl enty
ĠK ielbasa
ĠBeat ers
Ġindivid ually
Ġdecor ative
ĠPick les
ĠGran ola
ĠFin ish
Ġcroiss ants
fal fa
I ON
I ndian
a is
w ell
Ġa u
Ġb or
Ġm exican
en ough
Ġd uty
ĠS nap
ur ant
Ġh ad
is ts
ĠB each
ir ds
ĠF e
Ġlow fat
ian a
Ġpick ed
Ġkn ow
gr ass
ĠRom ano
ĠLiqu eur
aiqu iri
Ġswee ter
3 4
3 00
N ote
m ite
Ġt ong
Ġp ipe
ĠS P
ĠC ro
as mine
ĠP arsley
ĠP ier
ra zy
to asted
ĠA bsolut
ou is
ĠG old
par i
Ġli moncello
Ġpeel er
Ġfree zing
ĠGr ated
Ġlength s
Ġseal able
Ġsli vers
ĠAn gel
ĠPeach es
Ġrib bon
ĠSea food
blend ed
ju ice
2 30
F la
i ar
in fused
on ge
er eal
Ġp ale
Ġm ain
up per
al ance
un garian
is ters
ĠP ull
ĠB ra
ĠM om
ill i
Ġgar am
resh ing
ĠL ite
Ġal falfa
Ġchill ing
Ġsyrup y
Ġsto pping
Ġpinch es
ĠVe ggies
Ġbul gur
Ġcrout on
Di jon
ald orf
Ġach ieved
C op
M el
P omegranate
b a
g i
ic t
Ġin f
ab s
us ters
Ġpe ople
ĠA ND
ĠG rey
ard s
ĠE qual
Ch o
atter n
Ġsc atter
Ġcons ist
St eak
ett y
Ġdecor ation
Ġpar ed
iel ds
Cur ry
Veget arian
Ġton ic
Ġdefrost ed
Sw edish
omet imes
B arbecued
M on
f ric
f ull
Ġb urrito
he e
Ġf ound
Ġf eed
Ġl abel
ĠC ashew
ll o
ĠT ortellini
Ġcr unch
ĠIn to
ff le
Ġbread sticks
Ġas iago
iz er
Ġpre mium
ĠTo fu
Ġdri p
Ġequ ivalent
ĠDe en
ĠCup cakes
ĠAn g
Sm ok
Ġwon derful
ridger ate
Po ppy
C ol
G ra
K ahlua
L ayer
N ot
R um
d uty
g o
h i
y chee
Ġs po
Ġp attern
Ġsh oulder
ĠW ild
am pari
ĠSp am
est ive
ĠButter scotch
Ġdrink ing
Car ibbean
Ġkid s
Ġhow ever
chilad as
Ġsugg est
ĠSw irl
Ġdistrib uted
B ailey
L o
O O
U ps
i ous
m icelli
n oc
Ġ ~
Ġp armigiano
il ey
en a
ĠP olish
Ġsalt y
ĠT ime
Ġfl ipping
ĠSp rit
ush i
ĠTh yme
ĠSmooth ies
ĠChe erios
Ġchest nut
Fruit y
Ġcav ity
ĠFil lets
p ress
s kin
z il
Ġt rout
Ġs riracha
Ġm eringue
it ake
or ean
Ġ( .
ĠC ran
ĠP illsbury
Ġsa utee
Ġwh irl
ĠF OR
Ġy ummy
ĠW on
Ġpan cetta
ĠL im
ord fish
Ġcenter s
pl ants
Ġim portant
ĠMargar itas
Cop ycat
C ola
P arty
S imply
e b
h ing
i ves
r ated
s ely
v al
Ġc ass
on ger
ĠS urprise
ĠB ut
ĠR E
ĠR ib
ĠR icotta
ars ala
ĠH ea
ĠH OT
Ġextra cts
Ġturn ip
ta ct
ĠRef ridgerate
Ġmarin ating
izz as
Ġsome what
ont real
Ġbr at
Ġver micelli
fry er
An gel
ĠFin ally
noc chi
R ussian
m l
w rapped
Ġc ampbell
on es
Ġm ex
ic a
ic c
Ġin s
Ġin tact
ĠC old
Ġv it
im ents
ĠIn stant
ub en
Ġsweet en
Ġ9 8
ĠCream ed
Ġlayer ing
ead y
Ro ast
ys ter
ĠQu inoa
Ġmoder ately
ĠScall oped
Sn ow
ĠST IR
ĠPret zel
Sk illet
Ġstain less
Ġconsist ancy
B aby
D ouble
G reat
H ar
P ort
s ch
it i
Ġg um
Ġch ard
Ġh ar
ge mite
ĠP ast
ĠB acardi
ick ers
Ġth ing
ĠR ay
igh ter
ĠCh ickpea
Ġro aster
sh ine
ren gth
aco re
ah i
Ġjelly roll
Ġgo ing
und y
Ġgrain y
ĠSeed s
alor ies
Ġdump lings
Ġ19 0
Ra isin
clu ding
Ġtanger ine
B uffalo
S oy
U se
b acore
Ã ©
es ter
Ġin g
Ġw hey
at z
re os
Ġ2 20
Ġch ick
ĠS und
ĠC or
ĠB arbecued
ĠA d
Ġmix t
gg y
ĠT ot
ien t
mb ran
Ġsp ecial
om pan
ĠH awaiian
Ġba iley
par ed
Ġpro bably
aln ut
St ea
ĠMo jito
ĠCl ub
ĠHerb ed
Di abetic
ĠIngredien t
Fl uffy
Ġfrank fur
B ean
P aula
S to
l ass
m ish
r x
y ed
Ġb ea
Ġcup cakes
re l
Ġh r
ab ul
ĠP ile
ĠB AKE
ĠR ough
Ġegg plants
Ġk eeps
Ġcut s
Ġmay ona
Ġapp ly
ĠK itchen
Ġcomplet e
Ġkeep ing
fla vor
Ġchunk ed
ĠMo isten
Ġdust ing
Ġgu ava
ĠFood s
Ġcombin ing
ĠScall ops
ĠPr ick
Ġok ay
urg undy
ĠHer bs
ĠFres ca
ĠSou ffle
fric an
2 2
D on
P ap
a id
g u
k ey
m old
Ġg as
Ġd eseed
Ġch ange
ur s
ur ric
ĠC ereal
ĠP art
ĠD ark
Ġsh ots
ou lash
Ġlemon grass
og ies
sh arp
Ġsc al
Ġput ting
Ġ16 5
ĠApp ly
oo se
ĠPick led
ĠAltern ate
Apples auce
A N
E AT
O IL
R ich
a cc
h ea
w he
er ed
Ġb ra
Ġb und
at ic
at oni
le e
ĠS kin
ĠC oll
ĠP erfect
eat h
ĠA ny
Ġcheese cake
Ġpan ini
Ġcar ob
Ġtender ness
Ġde vil
por ates
Ġeva porates
ĠMuff in
Ġeat en
ĠTri ple
rais ed
ĠMed ley
pec ially
urric ane
F T
M ake
N or
h o
j o
p ycat
Ġd airy
ĠM acaroons
Ġsa uces
Ġth ru
ĠT r
Ġsp ec
ĠO z
Ġde hydr
Ġjigg ers
hy llo
Ġkiss es
Ġ; ).
gi ving
A u
W ild
a ger
b oy
f inger
f etti
g le
i itake
Ġt reat
er al
ic orn
po w
Ġl adle
ĠCo pycat
ĠT arts
Ġn ap
ĠSt ri
Ġlow est
ĠRe place
ire ct
ĠSh erbet
ĠJ ar
ĠK et
ĠK abobs
Ġspoon s
Ġneed s
Ġpla ced
ĠAs semble
Ġki w
Sal ad
Ġhold s
ĠJo e
Nut ty
Ġcroiss ant
Ġrefridger ate
Mix ed
Ġjell ied
Hear ty
W alnut
a el
b urger
b ottom
i ppy
Ġa ct
Ġa corn
Ġ1 75
Ġb leu
Ġm iracle
up p
ĠC ow
ĠP oke
Ġbutter y
Ġ4 75
ĠH ard
Ġpit s
Ġgrap eseed
uck y
Ġstew ing
South western
Ġcutter s
Ġme mbran
ost ura
Ġtong s
A mazing
f le
m ake
Ġt umb
Ġb uffalo
il t
up s
re m
ĠC ottage
Ġ12 0
ĠR eady
Ġfl o
Ġflour s
ĠCh ai
Ġ6 00
ĠE ither
Ġup on
Ġri g
Ch unky
Ġtw ists
Ġcer amic
Ġreg isters
Corn bread
Black berry
Ġwra pper
Ġna vy
anks giving
Scall oped
Ġtbl s
abul ous
, &
C ake
C andied
E x
T M
c innamon
c ents
d en
t ry
er d
Ġf ancy
re ggiano
ĠC elsius
ĠB urritos
Ġover bake
ĠT exas
ĠF ig
ĠF rapp
ad illa
Ġgr ater
Ġgr uyere
Ġis n
co al
ĠH ome
we ed
Ġcar e
ĠO ther
Ġfin al
Ġchill ies
iss a
Ch ickpea
Ġchi ve
Ġsm ell
ĠChe ez
Ġflax seed
Ġaltern ate
ĠHa ir
Ġatt ach
9 0
A maretto
F ast
G u
H a
d es
d ay
p ie
Ġt r
Ġt aking
er gy
Ġm ean
ĠS ide
Ġco arsley
ĠP aste
ra ising
ak en
ĠT ie
Ġcan chopped
na ps
Ġpack aged
co mb
Ġal bacore
Ġdes icc
ran ce
ĠTo asted
Ġflak y
ac ing
ĠK ale
arin d
ord ial
ack s
ĠOr zo
ĠUn wrap
ĠSk im
ĠLi ke
IL L
ĠCom pote
Ġind irect
OU R
atz iki
Ġdesicc ated
A ut
C reole
C alifornia
M andarin
M ama
in cluding
nd s
il s
Ġf us
al la
ĠP ush
ĠP inch
ĠP RE
ĠB ob
ĠB uffalo
ĠA le
ĠM ontreal
res cents
Ġsa mb
ĠT ra
ĠT asty
id ge
ĠD I
qu ef
Ġr is
st uffed
ĠCh il
co ated
ĠH oliday
Ġthick est
Ġprepar ing
ĠU S
ĠWhisk ey
Ġqu ant
wh atever
Straw berries
bl ong
Ġbr ussels
ible ts
ĠSco re
ama ican
ĠCur acao
Ġloos en
Ve ggie
Ġrot isserie
Ġcrea ting
Ġhel ps
ĠStick s
Ġpock ets
Meat loaf
Ġsil ver
ues li
3 75
G uacamole
S easoned
Y ellow
i et
m ins
w ashed
z atziki
Ġ =
Ġt abasco
en e
an as
Ġg hee
ĠC afe
ĠP ine
ol ly
Ġst ay
Ġle g
ĠD airy
ĠD ouble
Ġro w
ĠH ass
Ġsl ush
ĠV ersion
12 0
Ġjar red
Ġbut t
di vided
pl um
ĠQu arter
ĠMin ced
Ġpou ch
ĠMel on
Ġcontinu ing
pec ial
Ġemuls ified
Ġhen s
Ġmixt ures
D ad
E T
H orseradish
M ay
c om
d og
o h
p lain
â Ģ
Ġs or
Ġp yrex
Ġm esh
Ġf arm
Ġw ere
Ġd ress
Ġ2 6
ĠS chnapps
ab e
la y
Ġun if
Ġj asmine
Ġover mix
Ġfl ounder
ĠW ipe
ĠH ar
ant aloupe
ĠE l
ĠV idalia
apen ade
Ġbroil ing
amom ile
ĠVeget arian
Ġlim p
Ġlook ing
ĠJo hn
berg ine
mix ture
De viled
Ġrefridger ator
ĠSmok ies
ĠPier ce
quef ort
. (
E l
F a
U P
U ltimate
l in
u ild
v anilla
in da
Ġs ink
Ġo blong
an ted
re c
Ġ2 1
Ġh ouse
ĠC umin
Ġso uth
ĠR amen
ĠD eg
om an
ĠG ener
Ġcorn er
ap ed
Ġyour s
ĠN achos
ĠButter cream
ĠY UM
Ġpat ted
ĠPro sciutto
Ġfour ths
bl ano
Pot atoes
South west
Ġwra ps
ryst al
In stant
Ġrectang ular
Ġstar ter
ost on
Ġcoll ard
Ġdrizz led
Ab m
Ġrutabag a
Gran ny
upper ware
Ġunif orm
S of
T or
a it
e en
f ire
m ini
r aspberry
Ġo b
Ġw isk
ĠS u
ĠB ou
ol land
ĠM e
ĠM andarin
Ġv ine
qu et
na m
ĠG e
ĠL ittle
arm el
Ġprocess ing
inch es
Ġpit as
Ġcur rant
Ġpo ints
Ġget ting
ĠCrust ed
ĠBl anch
ĠQues adillas
Ġmot or
ĠTB S
ĠCran berries
H ea
P istachio
b ased
p ed
s ave
Ġc i
in is
Ġm outh
Ġg ingers
Ġg ouda
ĠS cones
ĠB ark
to b
ĠM olasses
Ġv is
ĠI ndian
Ġpa m
ĠW et
ĠH o
ĠH old
Ġ14 5
Ġpin a
erv ed
par k
est a
row d
lo om
cor ed
pre pared
ĠQues o
Ġchar coal
ĠAng ostura
Layer ed
Stea med
C al
L i
T ex
a ise
b b
g ian
n ie
o ey
s qu
s icle
u ke
Ġ !
Ġt ruffle
Ġa rea
ĠS uper
um e
ick y
ĠM ore
ĠF izz
ĠCh ive
ĠG el
ĠG oulash
ass i
ass age
ĠH ungarian
ant a
Ġpeel s
Ġpl ease
os ition
Ġdi ppers
ĠButter nut
Ġqu iche
Ġfil et
Ġhard ened
ĠSweet en
ĠCl usters
rom atic
To asted
Ġav acad
Ġsomet hing
ĠTart ar
Ġglo ss
Ġappetiz er
ouis iana
Ġfrankfur ters
Ġdeseed ed
esta urant
C on
E N
G round
I m
I s
L eftover
T ri
p tional
w ood
Ġ rou
Ġs up
Ġp h
Ġp hyllo
al k
Ġd uck
ĠS AL
ur ry
ĠC alorie
ĠP res
ra ut
ĠB ul
ĠB urgundy
Ġe igh
Ġe ff
ck y
Ġst rength
ĠCo ca
ĠT ater
ĠT ruffles
Ġsh oe
ĠSt and
col d
con d
ey e
Ġbread stick
ĠO regano
Ġremain s
sh aped
Ġcoat s
ĠBlend er
ĠU ps
Ġtea bag
ug el
av iar
Lemon ade
und rained
ĠSm ash
IN E
Ġspring s
Caramel ized
Ġgu ess
Ġfran ks
ĠPar fait
ign on
Ġchar red
Ġrapid ly
En glish
Ġcond iments
Sea food
whe els
B ourbon
C afe
C andy
M M
e le
g ood
l ot
r is
s erve
Ġcup fuls
al ine
Ġg ift
Ġl ychee
Ġh ershey
as e
ĠP it
ĠP ears
ch icken
ĠB leu
ĠM ade
ĠF ire
Ġy ukon
ĠG odiva
Ġli vers
ap es
ĠTo ffee
Ġne ufchatel
ĠK ick
ĠEn chilada
ĠTh ighs
ĠBrown ie
crumb led
Ġbit ter
ug u
ĠMo untain
Ġherb es
Ġdis app
Ġtouch ing
ĠPick le
Ġmince meat
ĠGall o
ĠPap rika
tob ello
Ġrou x
A mish
C ub
F ish
\ )
b aking
i pper
t ic
u v
u ens
y n
Ġs ear
er a
Ġb uck
Ġp oke
Ġw anted
en o
at ta
ĠS ER
ĠC rescent
Ġmin eral
ĠA L
ir ty
Ġth igh
ĠT est
ĠF riendly
ĠW aldorf
ey er
imm y
ul ated
ĠWh irl
ĠY ields
Ġcrisp ly
Ġag ed
sc ar
ĠEgg plant
av ioli
Ġwork ing
fresh ly
itr on
the y
ĠRa is
ĠBl oody
Pepper oni
Ġfe et
Ġins ides
uens ter
' .
B etter
M arshmallow
P ina
R ec
S te
c ross
p it
r as
r insed
v ely
Ġc alorie
Ġp ip
Ġm uddle
ĠP ate
Ġun wrapped
Ġj o
ĠT bl
im mon
ĠR ound
Ġstir red
Ġse ts
Ġmay be
ĠO N
ĠO VER
ĠE asiest
Ġpre cooked
oy al
art i
ĠTh an
Sp ice
av arti
Ġgrain s
pl us
Ġcola da
Ġdis ol
Ġac id
ĠFla ke
ĠFla vored
Pepper mint
Ġgro c
ais er
ugu ese
A Y
D ate
H IL
J o
c co
l f
Ġin vert
re move
al es
Ġch ai
ĠC appuccino
ĠM old
Ġcan es
Ġk um
Ġclo sely
Ġal one
Ġbeat ers
ĠSa vory
oy a
Ġsubstit ut
amp fire
Ġmash ing
rit tle
ban ese
Peach y
alib ut
ĠSup per
thin ly
Ġcoll ins
oh l
ĠRais ins
C ap
C aesar
F iesta
H o
J ust
K id
L e
T of
U ST
t ip
Ġc al
ic or
Ġd ro
ĠS weetened
ĠB uns
ĠM orning
ast es
Ġth ings
Ġn umber
ĠF aj
ĠF ettuccine
ĠCh ow
ĠG rain
ĠG luten
ĠL eftover
if ic
and el
ĠE as
Ġup side
Ġbas ed
Ch ile
ĠV ER
ous and
Ġtea pot
Ġsm ash
Ġapprox imate
pro cess
Be et
min utes
ettucc ini
ĠCrush ed
ĠMel ted
Ġach ieve
Ġsult anas
ĠPast ry
iet nam
park ling
Ġgroc ery
4 8
A d
B rand
H ummus
K orean
M ary
P r
b in
b oil
b ack
e h
i od
n ic
r abi
s on
Ġc el
Ġc alls
he ll
po lit
al coholic
ab atta
as abi
Ġ3 8
ter ed
ĠB R
ĠB ath
Ġst ack
ĠM ark
ll ion
mb ros
Ġn uggets
ĠD ate
ĠD aiquiri
Ġcr iss
Ġsh iny
Ġsh iitake
qu ality
ĠG et
ĠH idden
Ġas semble
hen tic
ĠN e
ang os
Ġturn ed
ĠButter ed
mer c
Ġsubstit utes
Ġper for
Ġcolor s
Ġpres entation
Ġcaramel ize
cor ino
Ġbl ood
mix ed
Ġgi ves
rout ons
ĠTe quila
ĠKn orr
Ġpr ick
lea ve
Ġresemb le
HE AT
ĠStri ps
ĠKet chup
Ġpip ing
; .
B ra
B ig
B isquick
G arden
I P
I nd
J ack
M rs
S pecial
e ither
m esh
es qu
Ġm al
Ġm illet
il le
Ġf an
en tils
Ġto t
or ge
Ġ2 9
ĠS U
ĠP eanuts
gar ine
Ġsu nd
Ġsu bs
Ġso ggy
ĠT arragon
ĠT angy
ien ers
ĠD r
Ġr ump
Ġr ubbed
ĠSt ack
ĠL ee
edd ing
ran ges
Ġri p
ac he
ĠK ey
ĠCr unchy
Ġsea ms
Ġlength ways
fla ke
Ġseal ing
ĠMo ist
oca cc
ĠRom aine
Ġsum ac
ĠHamburger s
ans on
Ġhollow ed
ĠBag el
ĠGrap es
ĠGrap efruit
ĠSkew ers
ours in
Ġmex icorn
Ġmayona ise
Au bergine
ĠGener ously
Sof t
olland aise
Hea venly
ĠVER Y
mbros ia
C ow
F rost
S au
c ean
h al
m aker
s to
Ġs ince
Ġo pt
Ġp ass
Ġm om
up on
le ment
Ġl ift
Ġl asagna
ĠC re
ĠP im
us ing
us can
ĠB UT
ri ght
ick ory
ill er
Ġju icy
Ġgar den
st raw
co mbine
Ġk ir
Ġus es
Ġcans liced
ĠSeason s
Ġsc otch
ĠTh ree
ĠSl ightly
Ġpo blano
fa its
Co coa
Ġsit s
Ġstiff ly
ĠBr isket
Sa ucy
Butter y
Egg s
ĠCrisp y
Carro ts
Ġ** *
Ġparsn ip
Mar gar
Tw o
ĠVer de
ohl rabi
ietnam ese
ocacc ia
F ran
F udge
K iwi
M B
O K
O reo
W orld
b ought
f ir
m ild
s mo
Ġc alories
in to
Ġt ropical
Ġs imply
Ġp uffy
Ġm and
Ġm angos
ar ified
il ute
ic ro
Ġw ipe
ut if
un can
Ġg nocchi
Ġch inese
ĠC aviar
ĠP ipe
ĠP omegranate
ra wn
ir on
Ġsa ys
Ġv elveeta
ad os
ad just
Ġsp onge
ĠIn vert
Ġfro th
am in
ĠG ive
ĠL asagna
Ġsl ight
Ġal um
ĠCover ed
Ġdes c
Ch illed
os ter
Ġpound ed
ĠFl ank
rit o
Ġrub y
Ġopen ing
aff in
Ġsw ordfish
Ġtam arind
Ġgu ests
Ġsecure ly
EL L
Min ute
Ġsizz ling
Ġinf use
Ġrig atoni
Tof u
C H
O ut
P h
P at
S he
S qu
T el
T ortellini
W ith
l ers
w ash
w arm
Ġ +
Ġt ester
Ġf iber
Ġf acing
un ge
ro t
ce l
ĠS L
ur ple
ĠP yrex
Ġj erk
ĠCo mp
ĠI v
ĠT ap
Ġsh o
Ġy ear
ĠW ait
Ġcorn ers
ĠE d
rack er
Ġapp rx
ĠN on
ke ts
Ġmo ve
ĠK ids
ĠK ugel
Ġwhisk y
Ġliqueur s
sp resso
Ġper iod
Ġbou llion
Ġdiscard ed
ĠAs iago
ĠMar ia
Wh ipped
Ġes pecially
ĠChe f
ĠLo bster
istrib ute
ĠSnack s
ĠSun rise
Ġcour get
ĠVari ations
ĠExtra ct
Ġdrizz ling
La zy
Mel on
zil ian
Ġgloss y
2 3
B BQ
E yed
O ptional
a pple
r ese
v inegar
Ġc ard
Ġc hewy
Ġc ordial
Ġc armel
Ġa p
Ġb ird
Ġm er
po sed
at ar
an th
or gan
ĠC routons
Ġco le
ĠP ri
ĠB OIL
dd ess
Ġfor get
Ġsa ving
id a
ĠR ye
ĠF iesta
Ġcr isco
op e
ves t
eg ian
om est
ff ic
Ġcl ing
ĠL ift
ĠL arge
ĠL assi
Ġas ian
Ġk ick
ant astic
Ġhot dog
ach ael
Ġpl ump
Ġpour ed
Ġtoss ed
ĠGr its
sp ray
Ġfa j
Co oked
Ġregular ly
met al
ĠPl um
Ġster ile
ĠBrand y
ĠCub es
fal le
Ġnorm ally
Ġglo ves
Ġeigh ths
L entil
P olish
S e
b eans
e er
p eas
t es
w egian
in ness
Ġa romatic
Ġo val
Ġp ile
Ġm alibu
Ġf ashion
en ted
ĠS ometimes
ur ri
el le
Ġh urricane
ĠP ass
ĠP rawns
ĠP izzas
Ġun used
ot to
ol f
ĠM armalade
oil a
am c
ĠCh ard
Ġba ggie
Ġk rispies
Ġk aiser
ee zed
Ġmar k
Ġchil d
raw fish
ĠSh oot
ĠJ apanese
ubb ing
ĠSaute ed
Ġtaco s
ĠFree zes
Ġdrink s
Ġcas ings
Ġret ain
Ġbr isk
Ġwor ry
Ġver t
Ġstr onger
Ġsoften s
oun g
Ġinclu ded
ingu ine
Egg plant
Ġshort bread
with out
Ġvari ation
Ġpur ch
Ġrock et
Ġbeet root
Te quila
Ġspo ts
comb ined
ĠPRE HEAT
Ġrow s
Ġdisol ved
polit an
1 10
C elery
H igh
L ittle
