#version: 0.2
i n
Ġ c
Ġ t
Ġ a
Ġ s
e r
o n
e s
e d
Ġ 1
e a
Ġ b
n d
Ġ o
Ġ p
Ġ m
i l
a r
h e
Ġa nd
u t
Ġ f
i c
Ġ w
u p
Ġ in
p o
Ġt o
r e
Ġt he
e n
po on
Ġc up
a t
in g
a l
r o
a n
Ġ l
u n
i t
ea s
Ġ d
Ġ g
o r
p p
Ġ 2
Ġc h
o u
l e
c e
Ġ h
Ġc o
e l
Ġ S
a b
eas poon
Ġt easpoon
l es
Ġ C
Ġ (
a s
i s
Ġ on
ea t
g e
o w
Ġ un
it h
Ġm in
a k
Ġ 3
t il
v e
ou r
ab les
Ġw ith
o t
ables poon
Ġ P
Ġt ablespoon
Ġun til
t er
l a
r a
i x
v er
e g
Ġp e
Ġo r
c h
t o
d d
Ġs al
Ġmin ut
i on
r ea
o k
l ic
i r
u s
Ġminut es
Ġf or
Ġ B
u g
Ġsal t
l y
pp er
Ġ A
e t
ic k
u m
Ġo f
r i
Ġpe pper
Ġm ix
Ġch o
o l
Ġs t
ed i
Ġb ut
ug ar
c k
Ġs ugar
Ġs a
u ce
Ġtablespoon s
Ġin to
es e
Ġcup s
pp ed
Ġ r
Ġbut ter
Ġo un
he ese
ic e
g h
ĠC o
Ġco ok
as t
in e
ak e
Ġon ion
Ġo il
Ġc heese
Ġt h
Ġf l
at o
Ġcho pped
Ġ 4
ĠA dd
e m
Ġ j
Ġo ver
u re
Ġb ro
r es
t s
Ġ M
Ġs o
ick en
Ġ I
rea m
u r
Ġh eat
Ġsa uce
i d
eg g
l l
Ġ egg
Ġg ar
c es
t h
Ġ T
Ġw h
i gh
Ġ n
Ġ R
v en
a m
at er
Ġb ow
Ġbow l
i m
Ġl ar
il l
Ġc ream
Ġs lic
Ġw ater
Ġ re
Ġlar ge
Ġgar lic
r y
Ġ v
al l
Ġoun ce
w n
Ġfl our
Ġs p
t ure
ak ing
at e
Ġmix ture
u nd
el l
Ġch icken
rea d
edi um
Ġb aking
Ġm edium
ato es
Ġs h
Ġ F
Ġc an
Ġ1 2
Ġp an
il k
m b
Ġst ir
Ġ e
Ġ y
Ġbro wn
res h
Ġc r
Ġb e
Ġs m
Ġ D
d er
Ġo ven
ro und
is h
a y
o ut
Ġj u
Ġf resh
la ce
q u
ea n
Ġg r
Ġa dd
ĠI n
i e
igh t
ow der
l i
g r
Ġ W
ĠS t
Ġp owder
Ġm ilk
Ġp a
Ġp ot
mb ine
Ġju ice
v es
o il
s t
Ġa b
Ġa ll
Ġ is
Ġf ro
a d
er ve
us t
r ing
en ts
Ġg round
Ġteaspoon s
ra in
el y
gr edi
th er
Ġin gredi
Ġingredi ents
Ġab out
Ġto m
o m
o ve
Ġa t
ĠB ake
us h
Ġo li
Ġw ell
ĠS p
Ġd eg
i p
Ġs k
Ġ 5
Ġdeg re
em on
h eat
t ed
ĠSt ir
Ġegg s
Ġ ro
o p
Ġc l
ast e
Ġdegre es
Ġre m
in k
e f
ĠP lace
Ġr ed
at ed
c ol
a ge
a in
nd er
le t
Ġl emon
it e
ge ther
re heat
Ġto gether
o re
i f
id e
re en
ar s
Ġoli ve
Ġs e
ot h
b s
c on
5 0
Ġa s
Ġ G
Ġb oil
b er
ĠC h
ĠM ix
Ġoun ces
Ġsm all
il la
c t
Ġslic ed
an illa
ed d
Ġg reen
Ġ L
or n
Ġ H
Ġv anilla
g er
Ġh our
r ink
f f
c o
u b
ea ch
Ġfro m
Ġ1 0
ar m
Ġto p
ĠCo ok
Ġc ut
Ġ 8
Ġ 6
eas on
Ġc on
c ed
ion al
Ġa n
Ġb a
im m
ar d
Ġp ie
o d
la ck
Ġpa ck
ight ly
Ġt aste
Ġb read
ĠP our
rink le
e y
Ġ it
) .
Ġ3 50
Ġm el
col ate
Ġ k
Ġb lack
il let
Ġpot atoes
ĠP reheat
Ġe x
t en
as h
Ġ us
Ġh al
an t
Ġ -
ĠCo mbine
ol d
Ġwh ite
Ġtom atoes
en t
p ar
Ġonion s
in n
Ġ each
Ġsk illet
Ġb le
Ġh ot
ĠS erve
Ġ ve
Ġc orn
r an
o le
s e
Ġthe n
ri ed
Ġs he
Ġmin ced
ge t
Ġv in
w e
Ġd rain
o od
ic ed
Ġd ish
Ġrem ain
er v
Ġ1 4
Ġm ar
eg ar
Ġa re
Ġslic es
as s
Ġvin egar
ut s
0 0
Ġremain ing
imm er
ur n
res s
am on
ĠR em
Ġin ch
inn amon
e e
ĠRem ove
in ch
Ġt e
Ġa l
Ġa pp
Ġve get
Ġco ver
Ġcho colate
Ġcook ed
i es
a p
Ġl b
Ġstir ring
Ġc ar
u ff
t ra
u l
we et
Ġd iced
Ġc innamon
im e
ean s
Ġco mbine
Ġd ry
a nd
Ġl ow
Ġte nder
le y
Ġs eason
ug h
Ġco ol
ou gh
Ġso f
Ġr ice
m e
Ġmel ted
Ġl i
is e
Ġbe ef
s s
Ġex tra
Ġcl o
Ġf in
ro om
Ġ ra
i re
Ġ O
erv ing
ush room
ĠCo ver
in s
ri es
Ġy ou
Ġb eat
Ġ if
ri ger
Ġshe et
ut e
p an
r edd
er s
Ġp ars
redd ed
es t
ĠH eat
Ġhour s
r eas
p er
Ġclo ves
Ġp l
Ġb eans
m on
Ġ3 0
Ġ1 5
ro ugh
Ġpars ley
ab le
Ġgr ated
Ġs immer
Ġd ried
Ġl ea
Ġsh redded
Ġhal f
Ġp re
o oth
ust ard
Ġch il
Ġpe el
qu ar
Ġsauce pan
Ġse ed
i z
Ġs erving
l ow
Ġpack age
or k
Ġs erve
Ġfin ely
u c
m p
ra y
Ġso up
ĠSp rinkle
Ġm ushroom
Ġm ay
Ġso d
ea l
Ġpie ces
Ġcr um
Ġsm ooth
Ġs our
Ġble nd
t ional
Ġp ast
l d
k s
Ġ2 0
ip s
u e
ĠS al
Ġbro th
Ġba con
he n
Ġcook ing
Ġs et
Ġ &
Ġm ustard
Ġsod a
ces s
Ġtom ato
Ġbe f
Ġbef ore
Ġl ightly
Ġm ore
es s
Ġre f
is k
p s
ak es
Ġm eat
Ġg old
Ġor an
op tional
n a
Ġo ut
Ġp lace
re e
er y
Ġdrain ed
arm es
armes an
Ġgold en
Ġus e
Ġ up
a g
ing er
Ġl et
Ġcar ro
c c
7 5
a ve
Ġch ips
Ġth in
ress ing
Ġ E
on ey
Ġy our
Ġb as
el ery
Ġref riger
Ġpeel ed
at ter
Ġveget able
ber ries
Ġ z
Ġ 9
Ġc elery
z en
ĠS a
Ġs ide
i an
g ar
pp ing
Ġgr eas
Ġh ea
Ġoran ge
ĠT o
Ġseason ing
a ch
edd ar
Ġc ub
Ġw ine
in i
Ġcr ush
Ġd es
f er
Ġb ake
Ġpast a
Ġp ro
ten ed
Ġn ot
Ġd ough
ir ed
s h
Ġfro zen
Ġn e
1 0
Ġcrush ed
Ġth rough
Ġj ust
ĠC ut
on na
onna ise
Ġextra ct
Ġw arm
pp le
Ġdes ired
Ġas ide
Ġg inger
gar ine
d s
Ġh oney
Ġon e
z z
Ġsp ray
Ġmar garine
Ġth ick
ĠA nd
Ġro ll
Ġbas il
ad e
Ġb reas
Ġf ir
Ġmay onnaise
Ġb ot
Ġso y
p e
Ġp in
on e
u it
ĠSp read
Ġl bs
ĠW ith
Ġcon t
ĠW h
Ġl o
at ely
Ġp our
v or
Ġs to
Ġmushroom s
Ġwh ole
ast ed
c an
Ġs weet
ĠD rain
Ġco at
ion s
Ġe ven
Ġm o
ou nd
' s
an an
e w
y r
ĠB ring
yr up
Ġsp rinkle
Ġpre par
Ġli qu
po se
i v
Ġ N
ber ry
n ish
ur pose
an o
Ġchil i
Ġp ork
Ġsof tened
Ġd ressing
il e
k a
Ġl ime
ent ly
Ġs l
v y
p urpose
Ġ en
Ġh igh
g es
um in
Ġto r
en n
Ġs yrup
Ġt urn
ass er
Ġbrown ed
ver y
Ġlea ves
asser ole
Ġthe m
t le
eas t
ĠSal ad
Ġminut e
Ġp ean
Ġto ss
con ut
Ġ ice
ran s
ĠCh icken
Ġba g
Ġ1 3
Ġb atter
o g
Ġon to
ĠB eat
Ġch eddar
Ġgreas ed
ri mp
Ġcarro ts
al ly
Ġb ell
Ġprepar ed
to m
Ġeven ly
Ġc ake
Ġl ight
Ġpepper s
Ġcook ie
a f
Ġpro cess
v ed
Ġch ill
Ġpa per
Ġgr ill
ĠP ut
Ġp ound
ay er
Ġb y
re g
Ġ quar
1 5
l ed
Ġf ry
ea pple
Ġbot tom
ee p
Ġal mon
is s
in ed
ea r
Ġseed s
Ġ ri
Ġsal ad
Ġn on
ĠT op
Ġcrum b
Ġg l
Ġp armesan
ĠL et
Ġun co
2 5
Ġw ill
ro w
ĠCo ol
Ġsa ute
ĠS eason
Ġl on
Ġb ring
Ġapp les
Ġg ra
st ant
Ġn uts
ic h
is p
ra ck
Ġco conut
ant ro
Ġslic e
il antro
reg ano
ar ch
Ġble nder
Ġp reheat
Ġtor til
Ġo regano
in ach
us age
Ġmar in
Ġpa p
Ġt ime
Ġbeat en
ak ed
Ġwh isk
Ġliqu id
Ġ U
Ġb anan
ar t
Ġsk in
Ġf la
al ian
ri ka
Ġrem ove
Ġboil ing
Ġo cc
k e
id es
Ġo at
Ġst ea
n uts
at ure
Ġapp le
ional ly
Ġc umin
enn e
Ġs c
Ġc ilantro
Ġpe can
um p
Ġn ut
Ġocc as
Ġsl ightly
Ġfl akes
Ġwh i
C h
ur t
ĠP ot
ed ges
Ġpap rika
Ġoccas ionally
Ġthin ly
Ġf oil
Ġ3 75
Ġgl ass
ic row
Ġra ck
Ġsof t
Ġf ood
Ġco ld
ĠB ro
Ġc rack
Ġpin eapple
Ġcan s
rans fer
ood les
o y
Ġt em
Ġh am
Ġs ides
all s
Ġpean ut
Ġb on
en ter
Ġcl ove
ĠR ed
Ġmix ing
ran ge
Ġs poon
Ġth is
is c
all ow
t t
ar y
c col
ra w
Ġf at
ou s
Ġc enter
Ġcrum bs
Ġhea vy
ĠI t
Ġveget ables
ccol i
r uit
Ġm ake
am e
z e
a c
y me
Ġ V
o s
Ġpreheat ed
h igh
og urt
Ġw al
le nd
icrow ave
ok ed
Ġcr ust
Ġ K
Ġsh rimp
m eg
ĠC ream
Ġf ill
er ry
el t
uc ch
el s
Ġth yme
Ġnut meg
Ġd one
Ġsto ck
ucch ini
e c
Ġpecan s
ĠS h
Ġco mp
Ġn oodles
st ick
Ġ4 00
Ġus ing
Ġof f
ut ter
Ġblend ed
Ġl east
les s
Ġtem per
Ġ 7
el ess
l ue
Ġli ke
oth er
Ġsa usage
Ġtemper ature
Ġcomp let
Ġp inch
Ġl ayer
Ġcont ain
Ġm uff
Ġbon eless
Ġr es
sh ire
ĠS poon
Ġun s
ver ed
ĠM elt
ay enne
Ġy ogurt
Ġl it
ter shire
Ġra is
Ġt w
ra p
Ġrefriger ate
ol l
Ġcr isp
or ces
r um
ĠSa uce
Ġo ther
ĠS o
orces tershire
Ġgar nish
Ġcomplet ely
Ġcub es
Ġc asserole
um ber
Ġpot ato
Ġth icken
Ġc ayenne
1 4
Ġt ur
o c
edi ately
Ġbreas ts
el la
ow n
Ġ2 5
Ġsp inach
1 6
ĠC heese
j oy
ash ed
s a
uc umber
Ġ3 4
Ġwal nuts
Ġan other
Ġst raw
ĠT h
i g
es ame
b le
k in
Ġ Y
Ġs iz
Ġ very
en ed
Ġco ars
ab out
Ġsp read
i a
ab b
a w
ĠW hen
f at
1 2
k ey
Ġ4 5
ĠW orcestershire
ic es
ĠRed uce
Ġfir m
Ġ J
ĠP e
Ġprocess or
Ġfla vor
ĠG ar
ĠO n
Ġfresh ly
Ġf ish
Ġd own
Ġcontain er
ri zz
Ġne ed
ff ee
Ġro om
s er
ĠF or
abb age
st arch
co a
iv id
r ush
Ġcover ed
Ġst and
Ġ imm
Ġf ree
Ġlit tle
Ġst ick
l o
Ġcorn starch
Ġpack ed
Ġcl ean
ou ld
s p
m ilk
Ġbro ccoli
Ġimm ediately
Ġfor k
Ġp aste
ĠIt alian
ump kin
Ġz est
u ch
u ally
Ġrais ins
Ġ qu
Ġoat s
Ġs esame
Ġch un
Ġro ast
o colate
ĠG r
rizz le
Ġto asted
an g
Ġz ucchini
Ġd ire
reas e
m eal
Ġco coa
ell ow
ĠI f
Ġth at
Ġan y
g g
ĠB utter
r range
on i
al s
ĠT ransfer
Ġg ently
Ġco mb
Ġst ri
ct ions
rough ly
Ġalmon ds
ar b
Ġs quar
Ġred uce
p t
d ing
Ġsh or
Ġlo af
ar ella
Ġj ar
Ġto pping
at or
ĠE n
Ġlon ger
Ġfir st
ĠR oll
Ġth o
Ġs low
un ch
Ġcr an
ub b
Ġs qu
Ġc ro
r ic
zz arella
Ġmuff in
ĠWh isk
Ġc ucumber
ro p
Ġl en
Ġpl ate
re n
Ġcho ps
Ġmarin ade
Ġwhi pped
e ed
po r
Ġp ut
Ġp eas
Ġd o
ip e
Ġse con
Ġtw o
ĠB lend
Ġ1 8
ap en
Ġm icrowave
Ġt ill
Ġfor m
Ġy ellow
m o
in ue
Ġtho roughly
Ġf ruit
ĠSo up
Ġd e
Ġbreas t
Ġskin less
Ġoli ves
ing s
Ġc ur
ĠD ip
Ġw hen
Ġunco vered
Ġh ave
Ġd ash
Ġthe y
ĠS et
Ġshe ll
al apen
ĠTo ss
Ġb lue
ĠP armesan
Ġc abbage
Ġen ough
Ġpowder ed
Ġrefriger ator
g in
Ġh and
Ġadd it
Ġmo zzarella
Ġse par
Ġco m
ĠBro wn
Ġstri ps
Ġmel t
it es
en s
stant ly
ĠSa ute
Ġgr an
Ġd ill
Ġc or
Ġcon stantly
ar k
Ġh as
ĠR ef
Ġ und
Ġa cc
v oc
Ġcrumb led
w h
in d
Ġcub ed
' t
Ġfill ing
iss ol
voc ad
Ġmix ed
et a
Ġb oth
Ġcomb ined
Ġp at
a ck
w ich
Ġsal sa
ten ing
Ġtur key
Ġp it
n ight
Ġch i
low er
Ġso me
Ġp o
ĠT urn
em ary
c rum
ĠRef riger
f ter
Ġp ure
t ing
Ġshor tening
ast ic
f e
Ġcom es
Ġ round
f lower
or ding
Ġk n
ir gin
Ġb ubb
Ġsal mon
ĠRefriger ate
Ġj alapen
u dd
t a
Ġk et
Ġb it
ur ger
Ġwh eat
Ġcan n
Ġcarro t
ivid ed
Ġacc ording
Ġy ol
Ġn o
ĠD i
Ġover night
Ġ1 6
Ġturn ing
Ġbread crum
Ġp er
Ġbutter milk
Ġ x
iz z
Ġb alls
Ġhal ves
ĠG rease
Ġw ire
1 3
l as
Ġf ew
ce pt
t uce
ĠF old
Ġheat ed
ro x
ĠCh ill
r ed
Ġ read
Ġf il
Ġco ffee
Ġpl astic
Ġ4 0
Ġwh ites
d ens
i ve
dens ed
j on
m er
ch up
y le
Ġp la
e x
le ts
Ġd ivided
Ġtortil las
udd ing
er ries
Ġlet tuce
f a
erv ed
Ġbro il
Ġmix er
ĠA rrange
Ġsiz e
am ic
ĠT he
v a
Ġstraw berries
Ġchun ks
Ġlea f
u ll
ĠCook ies
Ġsheet s
w ise
Ġbanan as
1 75
Ġket chup
Ġfry ing
Ġp umpkin
Ġb o
ĠS immer
Ġro s
Ġcon densed
Ġto w
Ġquar t
ar in
Ġinch es
Ġr est
Ġtortil la
Ġd issol
Ġros emary
Ġbreadcrum bs
as y
ct ion
Ġmin t
ĠB read
d ually
ac ar
id er
izz a
is t
als amic
Ġw a
Ġsecon ds
f ul
por ated
Ġsc all
Ġseed ed
Ġneed ed
if t
Ġa vocad
Ġk eep
m ed
ap e
Ġbanan a
Ġsh allow
Ġth aw
o sh
Ġc a
Ġdire ctions
Ġre c
Ġt ri
rea k
Ġp ress
ren ch
Ġw edges
un a
Ġall ow
Ġon ce
ins ed
ĠR ice
Ġex cept
Ġb ay
ĠDi jon
ĠS lic
2 0
Ġaddit ional
ĠGar nish
al ted
Ġrem o
osh er
acar oni
ĠC ake
Ġin ser
Ġ edges
ĠEn joy
ea d
Ġchill ed
ĠGr ill
Ġcoars ely
Ġco ated
un t
or t
ot s
Ġsh ould
Ġr insed
ĠG ra
Ġs ub
Ġnon stick
Ġm ashed
Ġsepar ate
st it
Ġcrack ers
v ing
Ġwh ile
Ġquar ter
Ġcook ies
o la
Ġto oth
Ġc ider
Ġf ine
s o
Ġco l
Ġjalapen o
Ġread y
ap le
Ġp ink
ĠF ill
g th
Ġd ark
as p
Ġthicken ed
Ġd i
ĠD rop
p ick
isc ard
Ġcann ed
Ġfil lets
Ġcran berries
at es
Ġhal ved
Ġt a
Ġcur ry
ĠR o
wh ile
isc uit
ĠY ou
Ġchi ves
d ge
Ġapp rox
Ġinser ted
Ġs ea
u li
Ġtooth pick
Ġthaw ed
Ġuns alted
Ġpla in
e p
Ġlen gth
iv ide
ean while
Ġp ick
Ġb et
ĠSlic e
ag es
ĠCh ocolate
ul ly
t e
Ġgran ul
eas ed
Ġin stant
Ġe very
ĠM eanwhile
Ġgreas e
Ġp each
ars h
ĠC asserole
) ,
Ġa g
at ch
Ġa round
arsh m
Ġb alsamic
Ġe va
Ġw rap
uli flower
Ġba ck
Ġsh all
Ġd on
Ġalmon d
Ġunco oked
gr eased
Ġto o
arshm allow
. )
Ġ3 25
u ced
Ġfl at
Ġ3 5
Ġf a
Ġs em
Ġe nd
ĠP re
Ġsp eed
Ġcream y
ĠP ie
Ġpre fer
et s
Ġsub stit
Ġcont inue
fe ction
Ġa fter
ĠSp ray
is ten
dd le
Ġb eg
le ct
Ġv irgin
on t
Ġcook er
Ġpan s
Ġsalt ed
ĠPot atoes
Ġus ed
ĠD rizzle
Ġcon fection
ĠA ll
Ġlon g
Ġcro ck
Ġfl uff
Ġred uced
op s
Ġl id
in se
Ġyol ks
Ġcon s
Ġk osher
Ġpound s
ic an
Ġpure e
ĠC r
Ġsqu ash
Ġri pe
Ġpast ry
ar p
Ġh er
ĠT om
Ġm arshmallow
Ġgranul ated
Ġch erry
Ġun greased
c y
if e
Ġf eta
Q u
ĠS to
ĠB e
Ġm acaroni
Ġsa nd
ĠC ar
ĠSal t
Ġroll s
Ġchil ies
on g
im ately
he tt
weet ened
ab y
Ġkn ife
ĠB oil
Ġeva porated
Ġqu ick
Ġres erved
Ġsquar es
Ġstea k
Ġc er
Ġblue berries
am b
ĠR et
Ġp udding
Ġcho p
Ġf old
Ġsp ices
Ġju ices
ĠRet urn
Ġd ay
Ġsand wich
Ġa r
l ing
c ent
Ġf re
Ġpat t
am el
Ġm aple
Ġpie ce
ic y
ra nd
Ġconfection ers
Ġo p
Ġt sp
Ġrec ipe
Ġb ou
Ġbo x
Ġs ur
ĠF rench
qu ently
Ġb ite
Ġd eep
ĠL ightly
ia nder
Ġfre quently
Ġst em
S p
i er
Ġag ain
Ġlength wise
E asy
Ġin c
im es
Ġavocad o
Ġcol or
in t
Ġs ure
Ġbubb ly
ĠCh eddar
Ġ rea
Ġr asp
bs p
Ġr un
ĠB rush
n ut
ĠD ivide
ter n
Ġa mo
Ġh ard
Ġfluff y
Ġuns weetened
us s
Ġsur fa
s ing
ĠPot ato
ĠPe el
om e
lect ric
ĠAll ow
Ġsubstit ute
ĠM ake
Ġcor iander
f ree
par ag
ill on
i um
Ġt una
parag us
Ġy east
ĠP ress
Ġe lectric
w ay
Ġcer eal
Ġb iscuit
er n
ang o
ag hett
Ġcrack er
Ġw ork
ĠTh is
Ġr ind
Ġpack ages
ĠU se
Ġcons isten
Ġsurfa ce
Ġcan ola
Ġbou illon
Ġ eas
ĠSto re
Ġc ap
ĠD ressing
Ch icken
par t
Ġapprox imately
Ġadd ing
Ġ5 0
Ġ2 4
c orn
ok e
Ġal so
Ġca uliflower
aghett i
u la
Ġflour ed
in o
Ġconsisten cy
vor ite
m ent
p l
Ġp izza
rain ed
Ġc and
er m
Ġs eal
Ġg ood
ĠS ift
ĠU sing
ch o
s iz
Ġbroil er
til l
Ġa ir
Ġd ou
Ġst uff
Ġr um
Ġwhi pping
m a
Ġcool ed
Ġs it
ĠR ep
Ġen joy
c ake
Ġ4 25
Ġm ash
ri g
arb ec
m med
Ġa part
Ġst al
Ġhea d
Ġseason ed
O T
f or
ĠF ry
ĠT hen
Ġsquar e
h am
pe nd
ĠL ine
s or
Ġsweet ened
Ġd iscard
Ġs till
Ġro asted
an ch
n ey
co op
Ġw ant
ĠE gg
Ġb unch
Ġpatt ies
s ide
Ġm l
ĠS c
Ġs w
Ġm on
at in
Ġd rizzle
Ġmin i
ĠC orn
ĠM arin
c akes
c le
Ġsp rig
z er
at ion
Ġsh arp
ĠRep eat
ĠGra dually
p le
Ġcorn meal
Ġwa x
ef ully
Ġri bs
ass es
ot e
3 0
he es
il d
Ġg o
Ġseasoning s
ol asses
Ġl ean
b alls
ĠS m
Ġre t
a uce
Ġsp ice
Ġb un
Ġscall ions
ver al
ĠA l
- -
Ġb aby
Ġb rush
Ġund er
ĠPe pper
z o
ĠPre par
Ġc as
Ġpl atter
Ġp art
anan a
Ġstea ks
Ġdissol ved
if f
Ġse veral
Ġta co
ĠF l
Ġpeach es
we en
Ġcoars e
Ġs un
Ġt in
x t
Ġf ull
b urger
Ġex cess
Ġsh ake
Ġb all
j ust
n ess
p ric
u ck
ĠP ork
ĠM uff
Ġremo ved
Ġg et
arbec ue
Ġtow els
Ġamo unt
b ed
Ġbet ween
Ġdegre e
ast a
ful s
ĠPrepar e
Ġslow ly
o f
ter ey
Ġpean uts
ean ut
Ġfa vorite
Ġgra ham
r it
ter s
Ġd ip
Ġret urn
Ġne xt
ĠWh ile
Ġa d
sp ice
el ly
Ġmarshmallow s
Ġve gg
e ur
Ġ4 50
l ish
Ġp ul
Ġm olasses
Ġsp aghetti
Ġpit ted
th ing
Ġt ransfer
ĠL ayer
Ġgreen s
ri dge
ĠMuff ins
1 8
la ze
Ġof ten
il y
Ġl ay
Ġas paragus
Ġl ef
Ġcho ice
g on
Ġfree ze
z ed
ĠGar lic
st ing
Ch ocolate
Ġon ly
ing le
mo st
Ġquarter ed
Ġchil e
Ġto ast
Ġab sor
Ġg el
ex ican
Ġham burger
Ġh or
er e
ta il
a h
ro uts
t ich
ĠB eans
Ġfree zer
ur ing
lo in
uff ed
Ġshall ots
ar ts
Ġsqu ee
Ġliqu eur
Ġch erries
ĠCo at
cess ary
Ġpl us
Ġtri mmed
Ġtop s
Ġb erries
ul ar
l it
Ġo z
C ream
ut ch
Ġcr ab
ĠRo ast
v el
Ġd ri
Ġne cessary
S t
Ġj ack
Ġs ingle
t ight
ck tail
es to
ĠD o
ed ge
ad ish
Ġsh erry
ill ed
Ġsk ew
Ġt imes
Ġm ango
Ġpin t
Ġcl ear
Ġt rans
Ġb reak
pend ing
u id
Ġapples auce
Ġal most
Ġdou ble
Ġw ood
Ġf ridge
umin um
ĠC ont
b l
Ġstraw berry
Ġfl uid
Ġl ast
Ġ2 3
e get
ĠN ote
ĠSh ape
Ġall spice
ach ine
arch ment
po t
Ġsa ge
am p
o un
Ġsto re
Ġt ightly
Ġb rand
en er
Ġgel atin
C o
Ġbowl s
ĠTom ato
s uch
b read
co ok
he w
Ġsm oked
ĠB ean
Ġ \
Ġp archment
Ġbutter ed
Ġw et
ĠU n
Ġb ean
quar t
ĠN OT
od ka
Ġrefriger ated
Ġmarin ate
Ġk ern
Ġb est
Ġshell s
ser adish
Ġflavor s
ro ck
if ted
Ġmo is
Ġin d
ĠBe ef
Ġcucumber s
Ġj elly
Ġal uminum
pl ant
ĠCont inue
Ġp ort
ĠP an
Ġt art
Ġm ed
re tt
Ġst iff
Ġcor ed
Ġb aked
Ġair tight
ear s
Ġvegg ies
Ġg rain
Ġb urn
Ġl ess
Ġst art
Ġt ea
ak er
Ġevery thing
Ġcar amel
Ġstem s
ĠP asta
Ġt bsp
Ġcran berry
on s
ĠL emon
ĠP ro
rett e
mer ic
Ġsem i
Ġgra p
st yle
and wich
ĠG ently
Ġroll ed
ĠSt ea
Ġa pric
a ig
Ġ Qu
s c
er ves
Ġf our
oun ce
us e
Ġst ew
ĠWh ip
Ġra w
Ġwood en
ĠM icrowave
a con
Ġfirm ly
aig rette
ĠM ushroom
Ġfl ore
a i
ick p
ic ot
ĠCh op
d e
Ġher bs
Ġin st
as co
Ġ *
lend a
Ġglass es
ĠG reen
ĠS andwich
Ġv odka
s weet
Ġoran ges
Ġm uch
Ġbun s
1 9
til s
ĠF ree
Ġstick s
uss els
Ġj am
Ġb ar
ĠW rap
pping s
al e
Ġsh ape
Ġbot tle
Ġmel ts
Ġp ea
Ġbeat ing
Ġhand s
l u
Ġco tt
la w
la vor
Ġbe c
ab asco
Ġsp routs
Ġm an
Ġp res
ĠS low
ĠL ow
Ġk id
Ġt il
Ġs n
el b
ĠO r
ĠF ro
Ġcand y
Ġ- -
ra gon
ic ing
et t
Ġabsor bed
Ġb arbecue
Ġroast ing
k ra
Ġre g
il i
ĠA pple
Ġsa me
Ġsiz ed
ĠM eat
Ġcott age
pp y
Ġ3 00
Ġlea ve
Ġc re
Ġhor seradish
B aked
Ġs ifted
Ġbit s
d o
ĠW ash
ĠOn ce
Ġm i
ar ragon
icot ta
Ġb ars
Ġt ray
Ġ icing
Ġl ined
ol low
Ġdri ppings
G r
Ġtow el
Ġcut ting
Ġgra dually
ee ks
Ġund rained
Ġmeat balls
Ġh o
Ġfl aked
Ġstuff ing
i ous
ĠSh ake
Ġcream ed
Ġstal ks
th y
Ġb atch
ĠC an
Ġ Z
c ous
Ġr inse
Ġsk im
Ġtur meric
Ġbiscuit s
Ġs coop
Ġal ong
ĠR ec
R o
ĠB reak
ous cous
Ġlen tils
Ġoat meal
Ġm achine
n y
ĠB r
Ġ6 0
Ġsprig s
ĠS weet
Ġflore ts
cho pped
Ġm aking
ar i
Ġlea ving
Ġar tich
f ry
Ġgra vy
Ġb r
Ġe qu
ĠBro il
r ate
Ġin side
Ġw ings
ĠS qu
Ġlay ers
Ġeas ily
ĠR inse
Ġthick ness
Ġro ma
Ġkid ney
Ġmon terey
Ġrea ch
ree k
Ġw ay
ĠT abasco
Ġbe er
Ġg ri
Ġr ub
Ġs li
ĠRec ipe
er i
Ġcrisp y
y s
gh t
Ġsp ring
ĠS ugar
Ġbe en
Ġremo ving
ĠB aked
Ġh a
Ġde pending
Ġmi ddle
Ġpl ates
Ġthicken s
Ġm eas
ĠV eget
Ġtrans l
Ġchun k
Ġt ake
Ġsp rink
Ġp ine
ĠA s
ĠR ub
S weet
el ic
uc ent
Ġj ars
Ġegg plant
Ġtransl ucent
Ġco cktail
ĠSp lenda
ut ed
Ġt arragon
Ġrasp berries
Ġth ree
ĠTo ast
m eat
to ver
ran berry
Ġth igh
ĠOn ion
Ġl amb
ĠC a
h ub
Ġm ade
im ple
Ġro ugh
I N
p ro
ĠSlow ly
Ġgri ddle
hub arb
u al
Ġf ra
is in
Ġhea r
Ġcon cent
Ġmin s
siz e
ĠM akes
en to
ĠO at
Gr illed
Ġal tern
ĠSh rimp
ot ch
i ble
Ġp op
is weet
Ġst rain
il ad
Ġskew ers
Ġbeg ins
pe el
ĠS w
ĠM ash
Ġsem isweet
Ġcap ers
Ġsp at
2 8
Ġg laze
ĠB ars
m el
r u
t on
Ġth an
iz ed
Ġr icotta
ino a
Ġstea m
Ġr ings
Ġday s
Ġrack s
ĠFor m
Ġspat ula
f lavor
b on
Ġmois tened
Ġlemon s
Ġit alian
el f
Ġyol k
Ġsw iss
am om
ickp eas
Ġpres erves
Ġrasp berry
Ġ2 00
Ġcar efully
Ġw ok
Ġnon fat
urger s
Ġconcent rate
ĠT ake
Ġmay o
L emon
Ġor der
Ġsugar s
u dge
peel ed
n ot
ir on
ur key
Ġmuff ins
out h
ĠSt rain
it s
Ġsto ve
ĠA fter
ener ous
res cent
Ġd ates
Ġ1 1
enn el
Ġinc or
Ġa rrange
ĠCh ip
Ġp esto
Ġfro sting
ĠD utch
Ġshall ot
om me
Ġm y
i ed
m s
at a
ard amom
Ġth erm
ent e
! )
Ġsp lit
ell ini
Ġpack et
ĠSp inach
ome ter
n e
Ġchil es
Ġ eat
Cream y
Ġr ise
Ġreg ular
Ġbatch es
f ast
qu e
v irgin
Ġsof ten
Ġtherm ometer
er b
Ġd ro
ast ing
inn er
4 0
Ġwith out
Ġsod ium
Ġp im
Ġlo ok
Ġround s
ĠCh ops
Ġgr eat
po tle
um m
S a
ĠM o
Ġind ivid
al f
ĠSal mon
Ġm eal
ĠP udding
f l
ab ly
Ġpick le
Ġend s
Ġd ente
ĠPro cess
r isp
Ġb ri
Ġf ive
ĠP eanut
j un
ĠB anana
om em
omem ade
Ġrea l
flavor ed
oil ed
Ġcrumb ly
19 0
Ġthigh s
Ġpo ss
elic ious
Ġflavor ed
ĠCh ili
Ġc hees
it y
Ġquar ts
Ġres erving
Ġsecon d
ch ilad
Ġset ting
ou l
A pple
vel op
Ġpit a
Ġcub e
od ium
Ġdo es
Ġw ashed
Sp icy
Ġd rop
Ġ2 50
Ġc ouscous
er t
z el
Ġc ardamom
Ġch ickpeas
d ried
ĠM exican
pro of
in eapple
ĠE asy
c ut
Ġde ve
t y
Ġ .
Ġcas hew
Ġpea ks
Ġbet ter
Ġbeg in
a v
Ġb ul
ec or
Ġlef tover
ĠC rum
Ġh ow
b o
Ġrough ly
ĠP at
i b
Ġapric ot
sc otch
el ve
co oked
Ġd ice
siz ed
up le
co ver
ven t
T h
Ġsli vered
Ġ iron
Ro asted
Ġa way
Ġc rescent
ak i
Ġcoat ing
en ess
ĠS e
Ġc ir
Ġco uple
. ).
g lish
ĠP ure
ĠTom atoes
Ġspray ed
Ġgrap es
B ro
he ck
ing ers
Ġavocad os
Ġt ins
Ġchees es
ess ert
Ġwax ed
Ġad just
ĠA pp
Ġf ennel
Ġsandwich es
Ġbrand y
Ġmo st
E R
lo af
ĠF ruit
ĠK eep
ĠP izza
ĠB acon
4 5
Ġpl um
Ġbe ets
Ġcrab meat
T he
C ar
k en
ĠEgg s
1 1
Ġtor n
af e
ĠH ot
ĠL o
Ġquick ly
ĠCar ro
Ġdro ps
Ġres erve
Ġ10 0
Ġa mon
ĠS k
Ġz ip
Ġop en
Ġr anch
Â °
ra pe
Ġw ra
Ġwarm ed
Ġamon g
Ġto uch
S h
Ġs erved
Ġb asting
C rock
b oiled
Ġse c
ag on
Ġk i
Ġdon eness
ĠV in
i pped
Ġb one
ĠSal sa
Ġdeve ined
y e
Ġco la
y ou
Ġw eed
at ing
ĠSm ooth
Ġus ually
Ġdire c
Ġw ould
Ġl ine
ĠPure e
h ead
Ġm as
ol id
W h
ĠJ ust
Ġindivid ual
Ġ he
Ġsun flower
Ġhear ts
ing u
Ġroll ing
Ġm ild
ĠSa usage
at h
Ġs elf
Ġg enerous
ĠB as
Ġp ear
t he
omme nd
Ġcro ss
Qu ick
Ġ edge
Ġw il
al a
h alf
ee k
hees y
s odium
qu ick
ef ul
Ġd uring
Ġlo os
f u
ĠL ay
m m
Ġpepper oni
ith er
Ġqu inoa
ĠO range
Ġfin ish
Ġm et
et c
I t
y aki
Ġn ice
l ined
Ġpul se
i al
ru ctions
Ġf it
Ġpre vent
Ġgra pe
Ġfra gr
Ġartich oke
to p
Ġ es
Ġf ollow
ĠMarin ate
ĠT aste
Ġf ully
re w
ĠF resh
ic he
en ce
ro ot
u er
ĠD e
Ġtender loin
Ġen velop
eri yaki
Ġab ove
Ġquarter s
ĠN ut
Ġf ried
Ġr hubarb
Ġt es
Ġaddit ion
cook ing
ĠOat meal
Ġa c
Ġb l
a pp
Ġequ al
ad le
ĠCar efully
la zed
Ġdi agon
uc c
B anana
Ġcrack ed
o z
eal thy
Ġgo at
ĠPan cakes
ĠT ablespoon
ir l
ĠH oney
lue berry
Ġadd ed
Ġm ug
ĠT ri
ĠMarin ade
b an
Ġ etc
ff le
Ġthe ir
Ġwh ip
Ġh old
ct ive
Ġb ig
Ġmini ature
Ġdirec ted
Ġre p
Ġd ust
Ġinst ructions
B e
ct ang
ĠD iscard
is ing
Ġmo der
is quick
Ġre ctang
Ġfragr ant
Ġsquee ze
Ġh ash
at s
ĠSt yle
Ġwhisk ing
Ġdi pping
Ġvin aigrette
Ġre lish
Ġgr ate
Ġ18 0
u fa
kra ut
G ar
Ġcre me
) )
Ġst arts
R E
ĠT bsp
ar e
Ġw ide
Ġher b
Ġboil ed
Ġcar eful
te nder
elve eta
Ġpan cake
ow er
ufa ct
Ġcashew s
ĠP o
i ra
ar a
Ġman ufact
les law
mel on
Ġposs ible
al o
Ġserving s
Ġbubb les
ĠUn cover
uer kraut
Ġbro ken
Ġ '
Ġpepper corn
unch y
f resh
v our
ĠWh ite
Ġbag s
Ġprepar e
Ġbo ard
Ġincor porated
ĠTo pping
Ġri ght
Ġroma ine
Ġf illet
ĠSt ew
b aked
ĠEn glish
Gar lic
Ġf o
ĠI i
Ġro t
Ġtart ar
Ġpul p
ch er
Ġkern els
ĠBr ussels
Ġop tional
Ġsimmer ing
Ġs uch
ĠS our
Ġmanufact ur
Ġa head
ĠF in
ash ion
Ġform s
Ġ ver
ĠBro ccoli
Ġo ys
ra mb
ĠCrum ble
ĠB lack
Ġsquee zed
Ġit s
Ġcrumb le
and arin
Ġround ed
Ġt ub
ĠI ce
Ġchunk y
Ġlow er
ĠRo asted
ĠVeget able
et te
lic ed
Ġlef t
s afe
it a
ĠM ay
m in
ug ula
Ġwork s
um ps
ĠM ilk
ĠR es
Ġst yle
Ġkern el
Ġbutter scotch
Ġso ak
Ġju iced
Ġcap s
Ġchi potle
Ġdissol ve
Ġflat ten
Ġjalapen os
Ġsk ins
ĠMushroom s
Ġc la
ĠB est
ĠSmooth ie
P eanut
6 0
Ġgran u
ĠFree ze
ĠP umpkin
S tra
Ġto fu
Ġth ese
Ġbas e
ot ted
Ġbar ley
ĠF ried
Ġch est
Ġcolor ing
up er
Ġcr eat
Ġenvelop e
ol i
ro ll
ut en
Ġpop corn
ĠT urkey
Ġmo ist
P ot
ĠStea k
H ot
Ġcrock pot
n ing
Ġsepar ated
ĠNOT E
ie ve
ur ry
Ġn ear
Stra w
ĠM in
Ġpo int
Ġw edge
m ix
a co
mon d
ĠPe can
ĠCr ust
ĠA n
B utter
Ġseed less
Ġbot t
ĠS coop
ĠO li
red ge
O range
a dd
Ġw as
Ġd ecor
Ġfla x
IN G
H oney
j or
in ese
Ġo ld
Ġl eeks
ri b
ĠH am
g el
ĠM ar
Ġmanufactur er
ĠSt uff
Ġp arts
r on
al t
3 5
Ġstew ed
Ġscall ion
Ġsp icy
Ġsl otted
Ġsh aker
Ġju li
Ġboil er
Ġk ale
Ġcross wise
L ow
. .
Ġt ast
i ally
ĠF at
Ġtoss ing
Ġm akes
arm al
o o
ĠGrill ed
Ġd is
ĠC l
t ry
Ġspoon fuls
Ġg u
ood le
as a
ĠV elveeta
g an
Ġdissol ves
Ġinc lu
Ġpit cher
f ish
It alian
armal ade
ut ney
Ġd rink
ell o
ĠZ ucchini
il a
Ġsh ap
ĠB isquick
Ġcool ing
ĠSw iss
2 00
mer ican
i el
ĠSt uffed
Ġne ct
vocad o
el i
th s
ban zo
Ġli k
Ġstal k
ro ss
Ġor zo
Ġth ir
ĠA d
Ġcut ter
Ġpo ppy
p ress
d a
ingu ine
Ġfo am
Ġkn ead
jor am
Ġfl ip
Ġe ither
q t
elb ow
Ġpeppercorn s
Ġdish es
Ġgranu les
he it
ĠG reek
Ġan cho
Ġo uts
Ġra d
Ġlo in
ĠRes erve
G reen
Ġun peeled
ee ze
ĠSo ak
ĠC up
Ġginger root
i o
und t
Ġwal nut
Straw berry
ĠG inger
u k
Ġaltern ately
Ġ elbow
ĠO il
ĠK n
elb asa
o ro
Ġmar joram
Ġl im
Ġw e
Ġr ese
Ġt ight
Ġg all
Ġsc rap
Ġch uck
Ġmet al
ashion ed
Ġth ere
a ce
ĠL ea
ist rib
Ġrese mb
b y
ĠR a
Ġtri ang
Ġc y
Ġsm oke
c ing
er ran
Ġreach es
Ġcola nder
ommend ed
at ur
chilad a
ĠCo ffee
Ġshor t
or s
ag ne
um mer
P e
Ġl in
ĠJ ack
f ro
ĠM ustard
Ġpro v
ĠTri m
or m
ett ucc
in a
f t
f ood
ĠVin aigrette
Ġk ind
Ġhalf way
Ġb ran
I G
p ing
ĠSt raw
B Q
ĠS eal
: .
T om
Ġoil ed
Ġslic ing
ira cle
Ġrun ning
ĠSqu eeze
Ġsa uerkraut
ĠCh o
C r
ĠSeason ing
aw ay
an k
ĠOn ions
Ġchest nuts
b led
C ranberry
Ġc ustard
Ġp enne
Ġst or
Ġbag u
Ġreal ly
Ġs olid
ĠSandwich es
ĠC abbage
qu ila
Ġte x
Ġouts ide
Ġp uff
Ġm andarin
Ġbubb ling
Ġpress ed
Ġwh ich
ate ver
Ġpan cakes
oc a
issol ve
our bon
us ts
Ġm armalade
Ġco me
ĠD issolve
ar ian
ĠW al
ĠAd just
Ġl umps
ra wn
Ġclean ed
ĠFill ing
Ġar ugula
amp agne
b q
Ġ im
ĠM iracle
Ġun baked
P umpkin
Ġ ,
ĠL adle
ĠFro sting
ĠCook er
M exican
ut ons
Ġport ions
al am
ĠBrown ies
asp berry
Ġhe l
g rain
ĠB iscuit
Ġmeas uring
les h
Ġri b
stick s
an ce
ĠA merican
ĠH igh
Ġ ent
app rox
Ġto pped
as ch
Ġtw ice
A l
ĠT una
red o
ul t
Ġmoder ate
Ġd oll
us ages
ren heit
Ġsh red
Ġcr usts
asch ino
ĠC rock
Ġcorn fl
C heese
f redo
Ġgar banzo
ĠF udge
b ro
7 0
eas e
am ole
il uted
Ġto t
Ġwil ted
Ġsa fe
Ġref ried
Ġf lesh
Ġwater melon
Ġtub e
Ġpick les
li p
c up
oul try
ac amole
Ġfill ed
Ġtex ture
b all
ĠC innamon
Ġscall ops
C heesy
Ġg ive
IG H
ĠCo conut
k o
Ġf ingers
C orn
ĠD O
Ġd essert
am a
Ġwa ffle
ch a
eal able
A T
a ves
ag na
Ġmar aschino
Ġcar away
ĠSqu ash
Ġpim ento
S outh
w ith
ĠC re
S al
Ġm old
u ice
ĠN ow
Ġent ire
Ġt ap
ĠB BQ
ri e
Ġd ivide
me let
Ġlemon ade
p re
ĠP am
ĠBreak fast
c m
m et
s liced
an ish
ĠO ver
' re
Ġgenerous ly
o se
u y
as ter
Ġp ier
ĠF ah
ist ach
Ġcy cle
Ġstea med
B lack
m ore
an ts
Ġres ealable
l ea
ĠC ranberry
i oli
Ġp oultry
Ġd eli
ĠW atch
ok es
h y
m int
Ġteaspoon fuls
as agna
Ġtem p
Ġinst ead
ĠFah renheit
* *
Ġt y
Ġsmall er
Tom ato
c hen
Ġgall on
Ġgrill ed
ĠLow er
Ġp ressing
ap ia
Ġmeas ure
S imple
ĠB urgers
Ġw eeks
Ġbrown s
umm y
Ġdiagon ally
Ġl inguine
la nd
Ġscrap ing
ettucc ine
Ġs ift
Ġhea ping
Ġ X
Ġo wn
inn ing
Ġbagu ette
ubb ed
Ġnect ar
n o
Ġm e
an y
ĠF a
Ġcrust y
press o
ĠV anilla
e el
Ġp ears
ĠC ucumber
ĠSp ice
unt ry
ĠFl at
ĠBas il
Ġresemb les
Ġlik ing
Ġc ould
Ġs ix
om eg
ĠL ime
Ġd inner
or iz
ĠA r
Ġha zel
Ġrad ish
Ġpure ed
it chen
ĠK osher
E gg
ir loin
Ġsa usages
ĠCr isp
S m
ĠCook ing
ĠO f
ull ed
Ġt eriyaki
r ong
Ġes presso
d on
s ugar
ĠT ea
Ġcr unchy
Ġtopping s
Ġw ash
ian o
F ried
N o
Ġ1 50
r s
v il
ĠApp les
Ġho isin
r ish
Ġcro utons
ĠBiscuit s
d rained
Ġwh atever
Ġro ot
ĠO p
omeg ran
d ough
O W
li ke
Ġpin to
ĠFl our
ĠOli ve
Ġbe ing
P ork
ro ut
ĠF lip
M om
Ġloos ely
Ġac ross
Ġd istrib
ĠW arm
Ġhand le
Ġcir cle
Ġa ctive
Ġw eek
ff les
ĠP ineapple
ver s
Ġte quila
ĠM on
oriz o
i ento
Ġw ild
Ġta h
Be ef
is co
ĠH IGH
ĠLea ve
ĠI mm
alam ata
m an
ĠF eta
way s
Ġw ish
Ġn ic
ĠP l
ef ore
Ġstart ing
rawn s
Ġ ).
eg an
S low
ol one
Ġlar ger
omegran ate
Ġl eg
ĠT e
Ġstick y
Ġtah ini
ĠTablespoon s
C a
m ar
Ġt all
Ġw on
it z
ac ad
Ġwra pper
ĠIn c
Ġ16 0
Ġb rew
Ġst rong
Ġcont in
enn ed
ĠCarro ts
r us
ĠKn ead
Ġflavor ing
F resh
Ġapric ots
ĠImm ediately
Ġ5 5
Ġstrain er
iel d
lo ck
ĠF ish
ĠG ran
ĠSe par
Pot ato
Ġm aker
Ġco re
Sp inach
Ġan gel
Ġcomb in
Ġs ieve
ĠM y
Ġpart ially
h ot
ĠM acaroni
ĠW heat
Ġund iluted
Ġsn ipped
atur al
Ġ em
Ġd og
inn ed
risp ies
re c
Ġrais in
Z ucchini
Ġa le
ĠT aco
isk et
Ġdoes n
ĠCho pped
A s
Ġc ent
Ġbrown ing
Ġki elbasa
ĠC urry
m at
Ġst ar
ĠStea m
Ġp ic
B acon
Ġsn ow
Ġs irloin
Ġd utch
Ġen chilada
ĠMeat loaf
al ity
Ġoven proof
Ġb urgers
ĠD on
ĠMeat balls
a use
Ġdoll op
ĠFlat ten
Ġch ar
ĠC rack
ĠB reas
I L
Sh rimp
Ġlin ers
un ts
Ġbec ome
Ġl ump
th ick
ct ly
Ġjuli enned
Wh ite
i oca
om es
Ġ 0
ĠB alls
Ġcorn bread
ah lu
Ġpim iento
Ġport ion
ĠQu ick
ahlu a
I f
ĠR e
Ġre heat
c l
Ġc ast
ĠM ashed
Ġbon es
Ġdash es
Ġoys ter
Ġco als
Ġlo aves
Ġsoy milk
Ġl ater
ĠSp icy
* .
Ġskew er
Ġnic ely
a que
Ġp ar
ar ge
ĠS yrup
Ġcontain ers
16 5
ĠF rit
ĠRoll s
Ġrep eat
ir y
ĠO ven
Ġfla vour
k ins
Ġbeg inning
Bro ccoli
ĠB l
Ġso aked
os emary
R ed
ĠStraw berry
ĠP unch
Ġhea ds
Ġlo g
ĠPepper s
ats up
ĠJ o
Ġcla ms
Ġt able
Ġbl anch
m it
Ġch utney
se ed
ĠCream y
ex t
Ġf rench
ano la
ĠC on
Ġpre t
Ġl e
Ġse e
C innamon
ĠS eed
Ġ12 5
Ġtor t
Ġop aque
Ġprov olone
Ġc akes
ef ruit
Ġtot al
z ing
ĠD elicious
Ġfro thy
Ġt am
ry st
Ġc heck
Ġv ig
eal th
Ġne w
ĠSepar ate
O N
m en
B lueberry
G inger
Ġc atsup
Ġr ye
oro us
al or
ur rit
ip es
Ġmel on
ĠJ uice
ĠT w
Ġmash er
c ream
na ck
ame ter
Ġtoothpick s
Ġbec ause
Ġbec omes
Ġg erm
Ġtort ellini
Ġo kra
uss et
Ġeas y
H omemade
Ġp ull
Ġsa ff
Ġbott led
ĠD ump
Ġsc rape
Ġ el
Ġpack ets
Ġty pe
ĠOn e
Ġtriang les
orous ly
ĠS quar
Ġclo se
St uffed
ĠSt art
Ġamo unts
for m
ĠInc rease
P ineapple
o b
r ising
ro st
ĠB aby
Ġv ari
ef ly
in es
Ġt ry
ant e
Ġrectang le
Ġcreat e
ĠP each
l ings
Ġp istach
ĠW a
ĠN ext
Ġgrill ing
Ġprefer red
H E
s ion
o at
it rus
ĠE x
ĠCheese cake
Ġdou bled
St yle
vor y
Ġsec ure
Ġcent re
Ġvig orously
Ġf udge
am s
G reek
Ġp ower
Ġturn s
Ġcir c
Ġcas ter
a o
Ġt r
ra ft
Ġre l
ĠC rush
Ġp r
ĠN oodles
Ġdi ameter
ĠT O
Ġfla me
B as
s alt
m ay
Ġr usset
Ġk g
Ġf ur
ĠK rispies
Ġtap ioca
Ġk alamata
acad am
Ġhel p
ĠSquar es
ĠD redge
arb e
G rand
ĠP ound
Co conut
Ġprefer ably
Ġta il
ver t
Ġstri p
Ġbri efly
Ġshap es
ĠAl mond
b out
ĠD ust
if fer
Ġstick ing
Ġp uffed
ĠCh erry
Ġfin d
B est
on d
Ġb ath
ĠTe nder
Ġfur ther
es ad
Ġse per
Ġblack berries
ĠO ld
iz e
lo se
ĠT r
Ġartich okes
I n
u d
S c
T o
ĠH erb
Ġco leslaw
et iz
ĠR itz
ĠGra nd
S T
Ġ ears
ĠCarro t
b e
Ġst arch
Ġn ight
Ġbul k
p h
Ġt ip
Ġshell ed
a ved
ub ble
l ash
Ġwhisk ey
acadam ia
ou se
te in
Ġstuff ed
Ġp rawns
ĠP esto
Ġsc r
Ġsw irl
m ents
eas ure
Ġro m
Ġp k
im p
Ġbrew ed
al ia
Ġpan ko
ĠY ogurt
Ġm icrow
ot t
ĠC heck
ĠP eas
Ġn ow
Ġp ers
Ġsea m
ĠCa uliflower
o gh
he e
Ġch ampagne
Ġn atural
ĠR ot
ĠG laze
Ġspread ing
Ġcontin u
Ġ )
ĠN oodle
ig in
Ġmon ths
M o
d iced
bl er
k y
w i
ĠR om
ĠD ough
Ġsprink led
ra is
Ġsh aking
Ġsm ith
Ġstea mer
erm an
Ġ ess
Ġpepper mint
a il
ĠD ice
co ops
por ate
M y
Ġf inger
arbe que
E D
Y ou
Ġp unch
Ġp od
Ġg i
ĠP ul
Ġri m
ĠCa jun
Ġf ettuccine
Ġd rum
ogh urt
Ġra me
Ġgran ny
ex cept
in ts
em s
ĠCar amel
Ġeas ier
ĠS n
Ġon es
bs ter
he f
Ġsprink ling
Ġrom ano
Ġc ryst
ĠP ick
Ġmas ala
ĠFin ely
Ġle vel
ut es
ro t
Ġsea food
ĠA vocado
Ġgrap efruit
Ġ2 8
Ġbrown ie
ĠN o
! ).
ĠR anch
am i
Ġs ug
ramb led
bro wn
at ions
u x
Ġ3 2
ĠI rish
Ġsprink les
in y
ĠP ack
th is
umm us
C E
ĠA t
each ed
z ola
fe ct
Ġbit ters
lea f
O Y
s k
Ġa v
Ġb aste
Ġo mit
Ġd ump
c arp
ĠD ot
Ġgr anola
Ġcl ub
ber g
ĠCh inese
Ġmois ture
ĠPul se
carp one
Ġmin e
Ġsm ok
ĠW ine
Ġblend ing
Ġmarin ara
ĠK ahlua
ĠSc rape
Ġun bl
ĠB ar
ĠCo b
b ell
Ġp omegranate
ab i
b ur
Ġch ip
Ġch orizo
ĠG ood
i os
ĠRa isin
p ack
Ġ #
or til
af ers
Ġbottom s
ĠTh ai
ĠCorn bread
erran o
igin al
V eget
Ġbut ton
Ġbr isket
pre fer
2 1
Ġm ors
ĠFl uff
ĠB efore
ad ine
Ġout do
Ġcolor ed
ĠB aking
Ġfro st
A n
he y
ll o
ay a
Ġca jun
ĠSk illet
ĠM easure
Ġcand ies
Ġpk g
par ent
Ġqu ality
ĠGra vy
Car amel
Ġinc rease
b eat
uff alo
ĠB lue
Ġbutter nut
id alia
Ġremain der
ren adine
Ġdo zen
min ced
y our
Ġb undt
ut y
st ir
w es
Ġboil s
o bo
Ġb ubble
Ġpro of
ealth ier
Ġs coops
is ted
ĠW ater
Ġtrans parent
N J
l uten
Ġw ont
Ġtablespoon fuls
ĠCr ab
Ġse ctions
ĠThe y
ĠCr isco
3 2
O at
t ini
ĠC akes
ĠCo cktail
ave nder
Ġprefer ence
gan ic
imp ly
Ġunbl eached
Ġoutdo or
O ven
k et
ĠB lueberry
ol ent
NJ OY
b utter
Ġri mmed
A R
Ġs ter
Ġan ise
ĠMon terey
Ġsaff ron
) ;
ĠCh ips
se e
Ġgl uten
Ġgarnish ed
Ġfruit s
-- --
C an
O r
Ġb erry
ĠCh owder
chilad as
Ġthir d
Ġblanch ed
Ġst ep
ĠAl tern
Ġ "
ĠA bout
ĠE NJOY
Ġbrush ing
ĠP owder
Ġfl ake
Ġs imple
or gon
Ġover cook
ush y
ig n
Ġd iffer
Ġpic ante
tern al
Ġg renadine
olent a
orgon zola
F ree
Ġwith in
ĠF ood
Ġgr ind
con es
pe pper
i k
up e
Ġcho y
ĠSp anish
Ġfinish ed
Ġm ussels
Ġwh at
Ġleftover s
ĠC O
ven ly
Ġse ction
Ġmar tini
ĠTh ese
alapen o
Ġcann ellini
ĠCl ean
Ġradish es
Ġt bs
ur ried
ĠL i
o id
Ġb ok
Ġp ur
z els
Ġh ealthy
2 4
ĠB ay
ĠSp lit
ran ts
ĠO R
Ġf ig
ĠS l
Ġchill i
Ġtil apia
ĠB arbecue
ĠW e
Ġsk inned
ĠG lazed
ĠP inch
P each
b et
s m
Ġ qt
Ġc all
Ġs errano
Ġcur d
Ġpatt y
Ġg ets
Ġpars n
ĠGr ate
Ġ :
ĠW ork
ec ial
ĠAs paragus
Ġpin ts
ĠTh read
\ .
ĠL OW
Ġgar am
Ġtri ple
Ġha ir
Ġinclu ding
H am
ĠP art
ĠJ ell
Ġpick led
pric ot
mat i
f in
ĠAl fredo
Ġad obo
amp bell
ĠS he
am els
Ġy oghurt
ĠD el
if ied
Ġhazel nuts
ĠD essert
Ġtast y
Ġfoam y
an ge
Ġsweet ener
Ġlit er
fro m
Ġmicrow av
tich oke
Ġbar ely
ĠFro st
, .
F rench
M arin
Ġc our
is on
Ġra men
Ġmeat loaf
Ġmarin ated
Ġbunch es
m edium
Ġs eg
Ġd elicious
Ġk itchen
alo upe
Ġto ffee
Ġmors els
ass ic
al m
Ġsal ami
Ġcook s
Ġde pend
Ġleg s
Ġw afers
Ġmin ce
Ġca v
T urkey
Ġl isted
Ġcaramel ized
E L
ut ee
Ġst ring
Ġres ul
Ġsm ashed
Ġgr its
ĠV egg
Ġscr ubbed
ough t
ĠE ver
Ch erry
Ġ Ġ
ĠCo leslaw
Ġn a
ĠF ran
ĠW ings
Ġsour dough
Ġcont ents
Ġcur rants
Ġfollow ing
um bo
Ġbreadcrum b
n ier
Ġb arbeque
orn ing
in ly
Ġrot ini
A K
l s
n og
Ġst ream
ĠG round
Ġstem med
Ġ1 9
Ġin ternal
gar lic
Ġthick er
Ġtes ted
Ġpistach ios
Ġt en
Ġt ie
Ġtast es
r ist
Ġf ries
ĠO ri
ickp ea
O R
Ġc m
Ġl ink
est le
Ġqu ite
Ġpo ck
sor ted
Ġ i
Ġpress ure
Ġsh aved
Ġas sorted
Co ok
Ġki wi
F ruit
P asta
ou ble
Sp iced
Ġess ence
A L
Bro wn
T una
es ar
Ġf ire
ra pped
Ġor iginal
Ġend ing
Ġcand ied
ĠSc all
Ġbreak ing
Car rot
ĠLo af
ĠBreas ts
Ġgr in
Pe pper
V egan
er ing
Ġy ams
Ġho les
E N
Ġso met
Ġal ways
por t
Ġreach ed
ramb le
Ġgu acamole
Ġpers on
Ġd ef
ab ella
Ġloos en
ĠWal nut
A r
Ġl imes
Ġ* *
S uper
Ġ3 6
ĠG u
l ime
ag o
tt a
Ġtin y
ett es
Ġmas carpone
Ġseper ate
m as
ant ain
ĠMar nier
bur y
ell i
Ġbrown ies
and y
er bed
Ġw orcestershire
Ġsp lash
ĠD ill
Ġcar amels
f tened
ese ed
prefer ably
ic al
Ġto ugh
an ese
Ġd ot
ĠC arb
Ġover la
ĠM int
Ġpod s
M aple
Ġcan t
Ġat t
rec ommended
ortil la
' ll
Ġm ound
Ġth ink
ĠL en
S our
Ġh omemade
Ġcirc les
Ġav oid
Ġs or
or d
Ġfl ank
im ate
Ġdire ctly
Sa usage
ĠB aste
Ġrec ommended
ĠVeget ables
Grand ma
Ġt est
Ġl asagna
erb et
fin ely
c r
Ġsaute ed
M ushroom
Ġt ips
po s
Ġcover ing
Ġm ight
wh ite
i bs
Ġin ter
ill s
Ġlook s
ĠB alsamic
Ġre qu
Ġcol our
amb urger
Ġlump y
ic um
ĠS law
S w
ĠSh red
Ġancho vy
Ġh ulled
ver age
Ġstock pot
ark ling
de pending
Ġ5 00
ĠY ield
Ġrame kins
Ġco d
iv ely
Ġag ave
Ġmango es
u ces
old en
uy ere
As ian
n ed
Ġo melet
Ġh us
Ġsoup s
Ġprocess ed
Ġpla cing
Ġd rizz
ĠB bq
ĠSp routs
Ġcar ton
ĠAs ian
ath er
cl oth
Ġm acadamia
Ġmo isten
Ġpret zels
Ġv eal
Ġclo s
Ġresul ts
B read
Ġspoon ful
gin al
Â° .
la de
Ġpier ced
er o
ĠL a
ĠCook ie
Ġrel ease
ĠTender loin
Oat meal
R aspberry
Ġf all
eat h
ch i
ĠH ash
lo ins
hew y
Ġrub ber
ĠFa vorite
Ġvari et
Ġh ole
ĠM ango
ĠV ari
ĠRot el
N OT
Ġbe et
Ġman y
Ġ /
ap anese
Sal mon
l oc
Ġb el
ĠC heesy
til led
ri d
Ġoys ters
Ġdistrib ute
H ealthy
d it
Ġas s
ĠL amb
ers hey
Ġwa fer
Ġabsor b
Ġt bl
Ġflour s
va il
m ine
ent ation
Ġdis tilled
i potle
or ed
ey ed
ĠTh aw
Ġnear ly
Ġcombin ation
ering ue
P armesan
Ġw atch
Ġd redge
Ġbas ket
Ġburn ing
b ake
ce tta
ĠP r
Ġnot e
tt y
ĠM achine
Ġv ary
Ġdiagon al
A N
Ġsp arkling
Ġe ight
arm ig
Ġrec ipes
vail able
ĠSp aghetti
Ġm atch
ĠC lose
ĠL ight
Ġdiffer ent
rist mas
Ġch ard
ĠP ea
Ġcheese cloth
Ġth read
Ġz es
Ġ9 0
uk on
Ġdrum sticks
Ġster il
A vocado
Ġm at
ic ama
ĠC ap
ĠP op
ĠM ed
Ġhand ful
Ġbitters weet
Ġwont on
ach ed
Ġthrough out
Ġpo pped
Ġcant aloupe
Ġcorn ed
ĠSe lect
Ġt akes
or ch
ĠB undt
ĠH al
ĠWh ole
Ġb ourbon
Ġp ale
Ġst age
Ġe ye
ĠMo zzarella
Marin ated
Ġf ashioned
an a
or ther
Ġst eep
ĠSt ick
Ġdiscard ing
ĠSc atter
f ried
t ain
em ble
Ġsto p
orther n
ĠR osemary
Ġbri e
Ġparsn ips
F at
O n
un ter
ous ly
Ġaltern ating
Th ai
R ice
Ġco b
ab o
ĠB atter
co h
Ġapp ear
Ġhor iz
sk im
Ġcall ed
' ve
at fish
Ġheat ing
gr ated
Ġt ong
Ġcut lets
Ġra v
Ġgl o
Ġgranul ar
it as
ill as
Ġsiz z
Ġdi jon
pl ants
Ġpear l
Ġdust ing
T I
Ġr ing
ĠFro m
Ġhoriz ont
i ago
am ily
Ġo k
re o
ĠS un
ĠD ry
Ch ili
Ġseal ed
ĠUn roll
etiz er
t ime
il af
Ġsa ve
Ġket tle
Ġcaps icum
ĠEx tra
C ucumber
Ġcup cake
ĠM aple
Ġcream er
ber ally
co vered
ee ps
ĠStuff ing
ĠWa ffles
c ini
Ġf ar
ĠR ibs
ent al
ĠQu iche
ĠCob bler
Ġor ganic
ew arm
ex as
Ġtri m
Ġsn ap
Ġ ven
Ġp ass
Ġf ast
Ġh ollow
ir d
ĠE at
Ġlo bster
Ġtray s
Ġthir ds
b ran
Ġpre tty
aw ai
Ġbas mati
Ġfa ir
4 00
P o
ĠSh ort
Ġmug s
amb oo
vil ed
Ġwrapper s
Ġst one
Ġlow fat
na pp
ach o
sh redded
Ġver m
Al mond
2 20
Ġcornfl our
C urried
w heat
Ġegg plants
Ġvegg ie
ĠOp en
AK E
u ra
Ġb urger
ĠS imple
Ġsp ears
ent y
ond ue
e b
i pping
p es
Ġ immer
eason ed
Ġfry er
Ġincor porate
hy llo
pack ed
an cy
Ġrav ioli
C risp
P an
Ġ1 7
em ber
ĠI cing
ĠR aspberry
ĠGr eat
Ġblue berry
Ġfra iche
ĠFresh ly
Ġstor ed
us ed
Ġp ush
ro g
ch napp
Ġsh o
od a
Ġtam ari
Ġs law
nd ian
Ġp ri
Ġl avender
ĠN ew
ous se
ĠSh redded
18 0
chnapp s
W w
g est
Ġb ed
Ġb amboo
is o
ck s
ĠR el
Ġve gan
Ġtender loins
Ġpl antain
Ġfil ets
Ġsalt ine
ĠF ries
ars ley
ĠE venly
Ġbott les
Ġwas abi
Ġseg ments
Ġfair ly
is ters
Ġen s
Ġcrumb les
Ġbreak fast
L Y
ic ally
Ġd amp
im um
Ġingredi ent
op ed
ĠN uts
Ġvariet y
d ed
ĠB rie
fl our
ĠOri ginal
u ed
Ġco unter
ĠCr unch
Ġtes ter
e ver
ĠT bs
Ġpro tein
Ġ16 5
awai ian
f al
w ater
Ġd id
Ġspring form
3 50
o ver
Ġb urrit
Ġp olenta
Ġsp ir
ars ala
ĠS up
ĠT B
Ġlar d
Ġout er
ĠAl so
abo bs
p id
Ġl ot
Ġg ro
ĠS outh
ĠB ites
Ġwork ing
fro zen
esad illas
G lazed
Ġso on
ĠD ash
Ġtail s
ĠCre me
armig iano
r ated
ra ps
ri ra
ĠCo ars
Ġcl oth
hy d
D ried
v als
Ġj ello
ad ian
ies t
Ġallow ing
ĠMin ute
Ġsh erbet
mel ted
ĠMay onnaise
ills bury
Ġhorizont ally
ĠS ec
ab an
Ġlim a
Ġfig s
1 7
e ct
it ation
Ġover mix
id ed
ĠT ortilla
Ġsl its
Ġbri ght
it i
or i
ĠB ourbon
ĠT ip
ad y
ĠCh ile
it erran
rira cha
Â ®
Ġm ushy
re me
un s
ĠS erves
ĠD inner
Ġtender s
so ftened
Ġtes ts
iterran ean
M eat
Ġb lade
Ġo pt
Ġp or
Ġp alm
ĠB ran
arbec ued
Pe can
O ld
Ġ 75
Ġm ort
Ġl uk
ĠS esame
Ġy et
lo ppy
er fect
it ion
Ġbel ow
Ġluk ewarm
L E
ra dit
Ġthick ly
Ġtong s
B lue
it ake
Sm oked
ĠOp tional
! !
an s
ow l
ĠN ot
ĠButter milk
Ġsteril ized
A M
F or
Ġt ater
re t
Ġg one
ĠS nack
ard s
O U
Ġto ts
ĠS ub
Ġpan cetta
ĠO melet
Ġfry pan
ĠDi pping
olid ay
Ġw or
Ġ2 2
ĠD ish
Ġcar bon
ang y
Ġrun ny
alor ie
g ur
Ġs uit
ĠSp iced
ac ao
Wh ole
Ġbe verage
beat en
M ango
ĠS ea
Ġli berally
Ġdecor ate
Ġzes ted
G luten
S ugar
h od
us c
Ġfl ower
ĠT HE
Ġread s
rid ger
d y
Ġcornfl akes
Ġfl ow
Ġv is
Ġveget arian
rit ional
ĠCup s
Sa ute
Ġcla m
Ġim itation
ail ey
Ġcarbon ated
H erb
Ġp hyllo
Ġg as
ĠP uff
ĠR um
der ful
Ġreg isters
C l
ĠM el
read y
ĠJ am
Ġcol by
Ġwra pped
ĠPecan s
Ġlink s
b ean
i ut
Ġs uper
rop ical
i us
p r
ĠB ell
Ġform ing
Ġwa it
Ġdi pped
Ca jun
iut to
A D
g y
Ġin vert
g reen
Ġl ots
Ġl adle
un til
ĠC he
ĠB o
Ġthick est
ĠSc r
Ġdef rost
ea k
Ġ4 8
Ġchicken s
Ch inese
Ġtw ist
Ġfit ted
a iry
ĠC ub
ĠB erry
ĠCo coa
Ġra pid
reak fast
hett a
sc iutto
Ġbr ine
Th is
at ive
Ġh om
Ġco untry
ĠP ilaf
ast y
ĠIn gredi
Ġunco ver
Ġmon th
1 50
N ut
e in
ĠGr atin
Ġcontinu ously
F l
l arge
u res
Ġch ow
ĠS cones
Ġr ich
ib ly
Ġw ing
ot tom
ĠSp ecial
os ition
Ġburn er
Ġgi ven
P P
ou da
ĠC ouscous
Ġst eel
Ġn oodle
Ġpro d
ĠSm ith
A dd
e v
Ġ hen
Ġs ilk
Ġs ummer
atter n
ĠVin egar
Ġinter vals
P l
a z
ar o
rea ctive
ano ff
ĠY our
c he
v ies
Ġl ove
ĠF lavor
S esame
Ġm ill
Ġm orning
ĠB rand
res erve
d eg
Ġa vailable
Ġfollow ed
Ġchar red
i itake
Ġp attern
Ġr is
Ġr are
stit ute
approx imately
B reakfast
Ġs chnapps
ĠStir ring
Ġcour se
c ar
h n
Ġa ch
ĠS erving
Ġse ems
ĠSm oked
Ġport abella
Ġdog s
. ,
c risp
t ies
an ks
Ġj umbo
ĠTh inly
Saute ed
Ġs im
Ġg hee
ĠS oy
ĠS oda
Ġsp ace
Ġsour ce
ges ted
Ġoverla pping
Ġrequ ired
Ġs u
at ively
ĠC ilantro
ĠAr tichoke
Ġimmer sion
Ġ @
Ġ ear
re m
Ġg lazed
or y
ir in
heat ed
est y
ĠSk ew
ro asted
if ic
Ġform ed
Ġsubstit uted
Ġem ul
ĠD rink
Ġcre ole
Ġpr un
Ġsmok ing
Y ummy
on ion
Ġf ound
ab el
ĠGr ind
Ġlength s
oul der
Ġme in
radit ional
m y
t ata
il ar
ĠMix ture
cc an
Ġdes ire
ĠMarin ated
Cr ab
es h
as mine
ĠL arge
Ġsc al
Ġad v
Ġpri or
D elicious
ĠCh utney
seed ed
Ġdepend s
Ġmort ar
i ber
in ce
ir t
Ġ7 0
ĠJ ello
Ġhard en
bl ano
Ġjuli enne
South ern
ĠShe ll
Ġcav ity
ĠHal ve
V E
Ġfor ks
Ġsepar ately
Ġmoder ately
ĠVegg ie
ĠRel ish
F ro
Ġa top
ĠT ear
Crisp y
Ġin s
ĠT art
Ġlo ose
ĠEn chiladas
orm ick
F ry
Ġv idalia
Ġro se
Ġbox es
Ġinclu de
Ġdump lings
aban ero
B alsamic
U T
c ts
t i
Ġl ift
Ġj icama
Ġal fredo
rais ins
ĠLen til
T aco
f ine
Ġ1 70
Ġsc atter
Sa vory
da iry
Ġpimento s
cr ust
w rap
y c
Ġs il
Ġm eringue
Ġth inner
ĠF ir
Ġcenter s
Ġwa ffles
Ġgrin der
Ġsomet imes
L ight
L ime
et to
ur st
Ġcool s
Ġpap aya
lo ss
av ings
rie nd
Ġt rout
Ġg ent
Ġco ll
um b
S k
S ummer
o ck
ra z
Ġsh avings
ip ton
mon ds
Ġancho vies
D i
c heese
z es
Ġ8 0
ĠCre ole
mar etto
5 5
Ġs ear
ĠP ap
ĠB all
ĠH a
inch es
eri bs
ĠRe heat
Bas ic
Veget able
rog anoff
Ġh rs
Ġlid s
Ġfit ting
Ġcreat ing
.. .
alor ies
Ġens ure
ĠM I
ell man
ct in
Ġlook ing
Ġshap ed
S S
Ġeva por
ĠGreen s
Ġpur ple
Ġsim ilar
2 6
g o
re es
Ġsa utee
Ġsh ot
ĠLemon ade
ĠRom ano
sm all
Ġmat zo
2 9
A pricot
b lend
ĠL asagna
Ġve g
Ġsc orch
Ġconfection er
Ġher e
Ġbul b
ĠCup cakes
ĠDel ight
P izza
at oni
Ġmin imum
gar ita
fry er
Ġspir al
Ġadv ance
W arm
l t
ic o
Ġto aster
re us
ĠP ull
ĠI s
ard en
Ch eddar
Ġequ ally
ĠJo es
Ġgent le
7 50
H erbed
V ER
g round
ur ed
ĠW ill
Ġk iss
Ġliquid s
Ġpick ling
Ġposs ibly
Ġbul gur
ĠFin ally
' m
W e
c al
d uty
Ġf ran
pe c
b its
Ġm ust
ar eribs
ĠC andy
Ġk e
Ġpock et
N ote
c a
Ġm irin
na pper
Ġsoy a
ĠJ alapeno
ĠTw o
On ion
loss om
Ġc hef
Ġf eel
un k
ou ffle
Ġsh oulder
Ġfa vour
port ant
' d
V anilla
Ġpe ctin
ĠM ac
Ġal ready
uss ian
i ves
ea ble
Ġ2 75
eat s
ĠD ecor
ĠW raps
ĠH omemade
Ġsl it
Ġzip lock
Ġevapor ates
reus el
D o
as hew
Ġn orthern
ĠG erman
Ġprepar ing
ta ct
f ten
id bits
ĠH ummus
Ġtho se
Ġinser t
Ġmicrowav able
ic elli
Ġin tact
Ġun flavored
ol ish
ĠG oat
ĠU S
Ġrais ing
ead e
Ġfavour ite
) ),
Ġm al
un ky
Ġj ig
ĠO reo
Ġri g
rush ed
Ġrectang les
ĠIi i
ĠWork ing
M ini
ra ight
Ġth ough
iv ing
Ġcro iss
un g
ri a
anan as
ĠQuick ly
Ġm ain
an ger
or seradish
ĠS ummer
Ġli ver
ser t
E S
b ut
Ġg in
ĠG enerous
Ġbag el
Ġsc rambled
Ġrec ommend
Ġven ison
M ar
b ably
Ġs po
es o
Ġ2 25
ĠC al
th aw
ĠT ry
Ġel se
M icrowave
c ress
m i
ĠC la
ĠM art
ĠF il
ĠIn sert
Ġstove top
Ġeat ing
ĠGran ola
ĠTB S
o roughly
ĠR un
ĠScr ub
Ġke pt
Ġt idbits
Ġs ult
Ġs nack
ĠC ampbell
ĠP ar
ĠB ailey
ĠM c
Ġsp lenda
uff les
ĠPat ties
D e
G erman
Ġc atfish
ĠCo m
ĠD og
ĠAl monds
Ġmold s
U M
Ġd ec
ĠD iced
gar ian
IL L
Ġsug gested
2 30
u f
Ġm ean
ab s
as ed
ĠTh oroughly
Ġgo ing
Ġzip loc
ĠCoars ely
Ġemul s
Ġst raight
Ġegg nog
Ġn orm
st on
ad a
Ġro ux
Ġmel d
Ġextra cts
Ġrep lace
ĠGran ny
ĠPop corn
Ġf rit
Ġr ising
ĠI N
Ġmeat s
ĠGu acamole
M ed
M ix
y es
Ġm em
Ġcup cakes
Ġgr uyere
Ġpro sciutto
Ġpinch es
ĠSo ften
ĠDump lings
Bas il
Ġcho ose
Ġcut ters
ĠWh ipped
ĠK raft
Ġsome wh
ĠEgg plant
Ġs ake
Ġover bake
Ġsh iitake
iff y
wes tern
N ew
R osemary
Ġp estle
Ġl eek
ĠSt roganoff
Ġse ven
ĠG orgonzola
ĠH ershey
Ġpour ing
Ġturn ed
ĠBe er
ĠStea ks
a ise
n ick
Ġl g
Ġl ady
ot to
ĠP ort
ill i
ĠH ealthy
ĠV egan
Ġkeep ing
ĠGenerous ly
g ed
re x
Ġg um
ĠM ousse
Ġkn ow
Ġmet hod
ĠMin ce
Ġem pt
wes ome
ĠDecor ate
thaw ed
Ġb ought
ĠC ro
ĠC ustard
ĠA u
ĠM an
ĠT eriyaki
Ġbas ic
Ġspring s
Butter milk
B r
Ġ id
il apia
un garian
Ġsp rout
Ġ14 5
Ġsor bet
H I
S un
ar ter
po und
pper s
ĠD eep
ĠG o
co al
Ġchill ies
Ġpick ed
Med iterranean
b ottom
y rex
ed ish
Ġm iso
rea u
ĠIn vert
ah i
Ġmost ly
Ġtriang le
Ġstor age
ĠPr ick
E n
Ġm ace
Ġst ack
Ġlow est
Ġthrough ly
Ġdistrib uted
U n
g le
it os
Ġd ate
Ġh ad
el le
is ps
im ent
Ġro w
Ġcorn er
Ġpl enty
Ġspread able
Ġcons omme
St ir
Cr ust
c rushed
in ter
Ġd uck
ĠC elery
Ġfl ipping
ĠM edium
Ġfin al
Ġsyrup y
Ġhazel nut
Ġcryst als
Ġplantain s
Ġmem bran
R hubarb
ĠC ider
ĠP h
gr ass
fa it
rais ed
v al
Ġ ed
Ġs up
if orn
ĠE X
ĠSeason ed
int reau
ĠOli ves
Ġcryst all
w are
ĠP ier
Ġcar e
ag ed
ac ing
Ġdri p
ĠCan adian
P T
c or
ĠB urrit
Ġrectang ular
Ġtbl s
s et
ĠH ellman
els ius
Ġsteam ing
ĠSk im
Ġim portant
ĠTaco s
Cl assic
Ġempt y
R ec
Ġa m
er k
Ġth row
Ġj o
Ġpeel er
ian a
can ned
ĠK itchen
Ġcomplet e
Ġcas ings
Ġpimiento s
iforn ia
H ear
Ġpe t
ĠF OR
ĠW ipe
Ġany thing
Ġpo blano
ĠQu inoa
Ġsolid s
ĠMart ini
er ie
Ġb or
Ġm ot
acar o
ĠSlic ed
d ivided
j o
č Ċ
er d
Ġb uy
ĠM rs
ad o
ĠCh ipotle
Ġpro bably
Ġhold s
Ca uliflower
Ġglo ss
A ll
B ake
d ry
h er
om et
Ġro ck
Ġ: ).
Ġhom iny
D D
R A
b one
w est
pp les
op le
ĠPo ints
Ġsug gest
Ġsomewh at
I T
M ustard
S pan
i elbasa
re y
ou ch
Ġh abanero
am ous
ef tover
ies ta
Ġbeat er
ĠSw irl
Ġwe ight
ĠApples auce
Ġchar coal
Ġverm icelli
% )
a x
ĠD ay
CE PT
Ġhus ks
ĠL ift
Ġcombin ing
D ouble
f illed
Ġco unt
ill o
ĠD eg
Ġbread s
Ġend ive
Ġsli vers
Cr unchy
. "
A nd
C al
it o
ir ds
Ġoil s
Ġcheese cake
Ġheat proof
ĠCook ed
Ġcut s
ĠBrown s
Ġtouch ed
a ur
m ini
in ess
Ġp ith
Ġin f
am ame
reg ular
ĠBro th
Ġpla ced
Ġlim p
ĠWal nuts
b ow
Ġ ~
ic c
an e
Ġwater cress
ĠD ried
Ġflore t
Ġhear t
ĠFran k
Ġatt ach
Ġt ear
ĠC ol
Ġj asmine
Ġwh ere
iss erie
Ġdrizz ling
usc hetta
ĠIngredi ents
k es
ĠS imply
ĠCo re
Ġne ver
ĠV ery
ĠBar ley
stir ring
Ġburrit o
w ork
Ġa ro
Ġp urpose
Ġl abel
sh ake
Veget arian
ĠShort bread
Ġprun es
in c
Ġf amily
Ġw ere
Ġl ite
wh ole
esad illa
ĠSub stitute
Ġsuper fine
P erfect
ab et
add ed
PP ING
u es
Ġo le
at t
Ġh ar
ĠW ild
ĠL ipton
ĠK aro
ĠCa esar
Ġwil t
Ġmal let
Span ish
f it
Ġm ult
is ter
ĠB owl
ĠM ini
ĠT ort
Ġref ridger
ag ie
ĠGr ated
ĠLo os
ĠDe viled
ĠVari ation
Ġflow ers
Ġcrystall ized
on es
Ġb ark
Ġun if
ĠP in
ĠB y
Ġpound ed
ĠQu esadillas
Ġass emble
A unt
D A
ge ts
Ġz iti
Ġhen s
M oro
r ite
Ġs ink
Ġp ops
Ġp osition
al ent
ĠP ear
ra ising
om pan
Ġcann ing
Ġfollow s
fal le
2 50
Ġh ealthier
Ġpe ople
ĠB el
ug gets
ĠR hubarb
Ġhal ve
zel nut
Ġunif orm
Ġst ay
ĠT ot
ĠCh ampagne
ĠH ave
Ġsc ramble
Ġnut ritional
Ġar t
Ġlim eade
Ġna vy
A S
d ew
r ant
ĠS loppy
ĠP ast
Ġlo ck
Ġstea dy
aw ry
Co untry
Ġ* **
ett i
ĠBreas t
Ġclos ed
T w
f ashioned
Ġc itrus
ic le
al ance
ĠC or
Ġlemon grass
ĠH er
ĠE mp
ĠOr zo
Ġplum s
ott age
ĠMI X
Moro ccan
Ġsp iced
Ġblack berry
ap s
Ġhel ps
B bq
O ri
h a
r are
ĠS ear
ol ut
Ġbag els
Ġgra ms
Ġgo es
ĠFin ish
Ġver sion
Ġcontinu ing
1 00
J apanese
T ropical
c ub
il le
Ġd eseed
is ed
ĠA DD
ĠF arm
Ġlayer ing
arin es
ĠMo cha
Ġpret zel
M ashed
Z esty
Ġp armigiano
ĠP ush
ĠCo intreau
ĠM as
Ġas iago
ĠH amburger
Ġmar k
uff le
Ġmelt ing
Ġflavour s
ĠTO PPING
berg ine
ĠEX CEPT
Ġole o
t hen
ap a
na c
Ġneed s
Ġpat ted
ĠSc ramble
Ġstar ter
Ġlog s
ĠRom a
W al
f ingers
m ade
Ġt aking
Ġw he
ĠP arsley
Ġde velop
Ġfil et
ma zing
omet imes
I ndian
O O
ĠP er
Ġk raft
Ġremain s
Ġ7 50
Ġput ting
Ġopt ions
Ġ4 75
ĠF ashioned
Ġy ukon
Ġ19 0
coh ol
N D
Ġp ipe
ou is
our met
ĠP hot
ol ina
ĠR icotta
Ġcorn ers
ap ed
ĠApp etizer
Ġwon derful
lt imate
g nac
ĠB urger
Ġmix t
ĠG old
Ġup side
ang ria
Ġprov ided
Sc all
ĠLi qu
4 6
w he
Ġa corn
on cini
or ean
ĠB le
ĠH ouse
og rap
ĠFrit ters
ph ia
Ġdefrost ed
ĠPier ce
Ġb lossom
Ġo ur
Ġf ondue
Ġcan e
ĠCh ristmas
Ġget ting
ĠWatch ers
Ġpr ick
Ġrig atoni
ĠPhot ograp
H amburger
a ct
en o
ce ll
Ġcon d
Ġchil is
ĠTo asted
ĠBas ic
form ation
ĠEmp ty
C ormick
O ne
u bergine
Ġb lock
el phia
ĠA ss
Ġst ain
ĠOat s
ĠPuff s
ĠFir st
B erry
H awaiian
R a
il ly
Ġf un
Ġch ick
ĠC itrus
Ġj ug
ĠD ream
and ied
row d
ĠJ iffy
Ġho agie
Ġgloss y
ĠPhotograp h
7 4
W ater
g ie
w rapped
ar ind
Ġh ome
ĠS or
ĠB ananas
Ġsalt y
Ġagain st
ĠStraw berries
Ġchef s
Ġrow s
Ġ1 75
Ġg orgonzola
ĠB ag
ri ght
Ġsa uces
ĠM ove
Ġsp areribs
Ġgr ater
ĠTh yme
Co ffee
ilad elphia
Ġindivid ually
Ġdecor ation
Ġmicrowav eable
Fro zen
a is
it tle
ĠP illsbury
Ġuntil l
to b
Ġsp ear
sh arp
ĠU p
Ġcer amic
Ġgrain s
aur ant
I P
l ight
m l
ĠS ur
ĠP ass
ri pe
ĠCrack ers
ĠSup reme
ĠSkew ers
2 2
j i
Ġb bq
ĠCo untry
ĠM arsala
ĠY ummy
Ġcann ot
Ġtouch ing
Ġes c
As paragus
Ġde p
uck wheat
Ġcoll ard
ch at
ul ated
ĠK abobs
Ġdi et
ĠFrit tata
ĠCon densed
E T
G olden
n er
Ġt ro
ou nder
Ġso aking
Ġcr unch
Ġtransfer ring
ĠTr eats
ĠCO O
Sw iss
tob ello
G u
Ġd uty
Ġh ummus
ĠA pricot
Ġfl oat
all ions
ĠF ollow
Ġbit ter
RE SS
Ġperson al
bottom ed
chat el
Ġm ove
Ġm and
ĠM ex
sh aped
ĠVeget arian
Ġnect arines
yc at
uf chatel
J alapeno
L o
e en
Ġst rained
ĠT ilapia
ĠV er
Ġhow ever
iel ds
Ġdep th
M acaroni
T exas
\ )
b aking
Ġin formation
ĠB on
ĠIn to
ĠH ealthier
ĠE as
Ġliqu or
reg g
Ġqu iche
ĠGra pe
ĠPan cake
O li
P esto
i dd
Ġc al
en ough
ĠC acao
ĠA meric
um e
ol og
Ġsa vory
th in
ĠG olden
ag ic
Ġlit ers
Ġfree zing
Ġpart y
acaro ons
C abbage
G ran
R O
Ġm alt
le mon
Ġ( ,
ĠB ut
ĠB AKE
Ġ12 0
ĠCh ickpea
Ġk eeps
ĠBeat ers
Ġany one
Ġgrain y
Ġac cess
Ġjig ger
G ra
a va
d rain
es ts
Ġf an
ĠL at
mon terey
Ġhoney dew
ĠFro zen
ĠZ ip
ign on
Ġins ides
regg iano
S o
an i
um per
igh ter
Ġis n
co ated
ĠY ellow
ible ts
ĠBl anch
Ġmound s
ord fish
ĠBailey s
Ġdeseed ed
P ick
m ake
Ġch ange
is otto
et ter
Ġal cohol
Ġen chiladas
Ġhigh ball
ĠRep lace
Ġgrap eseed
Ġok ay
l in
u ct
on ge
Ġb ic
il ed
ro s
Ġch ia
Ġteaspoon ful
Ġe ff
ĠH ea
Ġfil ter
etiz ers
ĠAmeric a
M on
h i
l ightly
u ds
Ġ ir
ĠS TI
Ġbutter y
ĠT est
ĠD ouble
ie ved
Ġsl ide
ĠSc ore
Ġver t
ĠSn ow
eb abs
fit ting
M in
T angy
c ao
Ġc hewy
Ġa maretto
Ġm ent
un ge
or r
la in
to asted
Ġsc rew
ĠTh row
ĠJ elly
ĠSc rambled
Ġequ iv
ĠSouth ern
pr ise
ĠIs land
Hear ty
P ort
U p
i ke
Ġc raisins
ick ory
ĠT exas
ĠF amous
if y
elt zer
Ġper fect
Ġjelly roll
Th ree
ingers n
Ġlady fingers
RESS ING
T eriyaki
h ip
i as
y ed
an th
ĠP ita
ĠA cc
ĠR ough
ĠD RESSING
we e
Ġtender ness
Ġbas ed
Ġice berg
Ch ristmas
Ġrot isserie
ura cao
ific ial
C itrus
o lic
ĠB E
Ġpepper oncini
ĠT high
und a
ĠG arden
ĠO N
Ġper for
ĠJo hn
ĠHer bs
P a
b ons
Ġl unch
ĠC elsius
our s
ĠSp rite
Ġk ey
Ġmar ks
ont ina
ingu ini
ott i
ĠSec ure
ev ia
blend ed
Ġed amame
Ġbor der
umper nick
U ST
Ġp ouch
or ld
uc y
Ġsalad s
ĠK ale
Ġfold ing
Ġcaramel ize
Ġho cks
ĠBr uschetta
Sal sa
Egg plant
Ġvis it
Ġprod uct
ĠUS DA
cell ent
M ake
n ers
Ġc alories
Ġs eltzer
er eal
Ġ2 20
ak y
rea l
ĠA ND
Ġbut t
Ġj ell
ur k
Ġpan ini
ĠSa utee
izz as
lu ding
Ġwra ps
ĠCrust ed
Ġgro c
ĠMc Cormick
c ross
u ri
us illi
ĠB ra
th rough
Ġbeat ers
Ġlet ting
ach os
Ġcoars ley
Ġeat en
Ġattach ment
Ġbic arb
Ġa ct
al ley
ch io
Ġth ing
ur g
Ġcr iss
Ġcoat s
Ġbroil ing
South western
ĠMy Pl
ĠMy Rec
ĠPart ners
coh olic
Sk illet
abet ic
Ġtro ve
ĠMyPl ate
ĠMyRec ipes
ĠPartners hip
B uffalo
I rish
g ing
n am
Ġ =
ou ille
ĠP ops
im ents
ĠD ate
ĠH alf
ĠGra ham
ĠPro tein
Ġdecor ative
istrib ute
ein z
Ġfran k
. (
M ex
c alorie
Ġs napper
Ġb uffalo
ĠS P
Ġr ather
ĠCo la
ĠSt ri
Ġtom at
Ġcl umps
ĠL awry
ĠH o
ĠH orseradish
ĠH ungarian
Ro ast
Ġpock ets
Ġrapid ly
Ġstain less
Oli ve
ĠSTI R
I ON
W ild
h ing
on y
Ġm exican
at al
it ch
ĠT ie
Ġsh iny
ire ct
ĠTo ffee
ĠTh at
ĠTh ere
Ġpier ce
ĠCrack er
Ġart ificial
r x
s es
le e
ĠC ashew
ch icken
ĠF la
Ġte nd
Ġsweet ness
Ġmarin ating
ĠNut ella
Ġdrizz led
Ġclos ely
Ġsu bs
Ġmean time
Ġmixt ures
Ġp ip
ic chio
en e
id s
ĠCh il
gar nish
Ġmash ing
ĠUn wrap
TI ON
umpernick el
H oliday
c lose
ĠC ran
Ġfl ute
ĠM a
Ġsm ell
Ġjar red
ĠEn chilada
pl us
Ġdiscard ed
ah o
Ġspo ts
idd en
C ilantro
L en
n oc
Ġs ince
an as
Ġg ouda
Ġco gnac
ĠP enne
ĠJ ar
Ġcur ls
oul ash
ĠVari ations
ĠFil lets
Ġemuls ified
cub ed
ĠSor bet
ĠThigh s
M int
b or
Ġs wee
ic er
ĠT ime
ĠR E
ound s
ĠPo ppy
Ġtam arind
il ian
Ġ( .
ĠP RE
Ġsa mb
Ġth ru
Ġsp a
Ġju icy
Ġde vil
ett y
ĠPart y
3 00
O p
U se
b a
b ought
ĠSt and
Ġit ems
raw fish
ĠV ER
ĠButter nut
Ġkid s
Ġfinger t
3 75
B ean
N ot
f le
h ouse
j ita
Ġt anger
ĠM arshmallow
Ġv ol
ĠD or
ĠW w
ĠH ear
ux e
We ight
Ġesc ape
B ar
Y ogurt
f ric
f ull
h al
Ġs riracha
ĠP ile
ĠD ark
Ch ipotle
Ġbon ed
isc otti
ĠY um
ĠY ukon
the y
ĠScall oped
Ar tichoke
Sw edish
ans on
ĠCub e
ĠPast ry
noc chi
in ds
at w
or ange
ĠP ine
Ġpe cor
Ġwh o
Ġcl ing
ĠSa uerkraut
Ġsl ight
ĠK eeps
Ġlen til
Ġpo ints
Be er
ĠTw ist
Ġpass ion
Ġequiv alent
Ġswee ter
Ġpecor ino
1 10
B arbecue
h ea
m old
o ey
Ġb und
ĠS ER
ok y
us can
Ġsp ecial
co mb
Ġchill ing
ĠSlic es
Ġaltern ate
ĠAltern ately
NOT E
F a
Ġc i
ut h
Ġ2 6
ab ag
ĠB uffalo
Ġr ubbed
Ġsauce pot
Ġe ver
Ġe yes
Ġli vers
Ch o
ĠV idalia
ĠBurrit os
A wesome
m ins
Ġm esh
ĠP oke
Ġy ummy
ĠW edges
om an
Ġseal able
Ġgi ves
Ġs cones
on ate
Ġf e
un cooked
ĠG luten
ress o
og ies
Ġopen ing
Ġwil ts
ĠVegg ies
Ġna vel
Ġdid n
ĠPap rika
Water melon
A ubergine
T asty
a ff
b les
Ġd ress
ĠT bl
am en
und y
ĠW ay
Ġblack ened
Ġset s
iss a
ĠU ps
apen ade
rit tle
ĠMo isten
ĠSeed s
bor io
ĠVER Y
Ġo val
it al
Ġth er
Ġth umb
Ġstir red
ĠO ther
ĠBrown ie
Ġund ern
ib ut
ĠAn gel
mat ic
Ġsizz le
ouis iana
Ġgroc ery
A pples
e ps
g ra
w ell
ĠL ast
of t
Cream ed
Ġho ck
Bro iled
ĠAltern ate
ĠĠ Ġ
Ġwor ry
Ġkiss es
pec ially
icc ated
Ori ental
Ġundern eath
i ar
n on
Ġmix es
ĠM om
Ġre nder
ĠSt ack
ĠH erbed
ĠCr isps
Ġop pos
Ġcheck ing
Ġomit ting
Ġmand ol
Ġperfor ations
Ġbicarb onate
B raised
L ayer
Ġs imply
Ġb ird
Ġun wrapped
ĠP or
res c
ĠR ussian
ĠR isotto
ĠCh ard
ĠH OT
ĠO VER
Ġpeel s
Ġup on
Ġyour s
Ġstand ard
Ġpit as
Ġflat tened
pl um
Ġcre pe
Ġsoften s
Ġrad icchio
Ġpuff y
ĠSn ap
Caramel ized
Ġsilk en
Ġach ieved
Ra isin
j a
r insed
Ġs er
Ġp oke
it ies
Ġh r
ĠR ib
Ġapp etizer
Ġsmooth ie
Ġdes iccated
Ġfa ce
Ġret ain
Butter scotch
Ġris en
Ġcroiss ants
Pick led
urg undy
c innamon
d ish
d ay
s easoned
Ġt abasco
Ġf eed
Ġd el
ĠB arbecued
id a
th irds
Ġsm ash
par ed
ĠE ither
Ġzest y
Ġund ers
Ġstew ing
ĠMay o
Ġchest nut
Ġpar fait
ĠStart ing
6 3
i ddle
in f
ĠC old
ĠB ob
ĠA ny
ĠI ndian
ĠW rapped
Ġsto pping
Ġacc ompan
Ġper i
Ġind irect
min utes
ĠLoos en
Ġeff ect
g ian
ug u
ol f
ĠM ade
Ġe igh
con d
ĠH einz
ĠSto ve
ĠZ est
ĠFrit os
ĠPick les
ĠExtra ct
riend ly
Wal nut
ĠCOO K
Ġpip ing
resc ents
R aw
S ea
Ġb ea
Ġp h
ĠS ouffle
ĠF ondue
Ġk abobs
ĠTo fu
Sp aghetti
ĠMin ced
ĠTr uffles
ĠCla m
Ġvol ume
C ol
O L
R ef
R anch
V egg
Ġl a
ce l
ug el
Ġst evia
ĠR ay
ĠLet tuce
Ġspoon s
Ġdo or
ĠBe ets
Ġbr ussels
Ġfar falle
ĠAss emble
atal ina
ĠCran berries
3 4
F T
o ol
Ġo b
il t
ar ified
he ll
re l
ce ed
arm el
Ġpack aged
Ġcas e
Ġmatch sticks
ĠMel ted
, &
G E
U ps
e or
f ir
g elic
i et
i ger
po w
ab e
ĠC rescent
ĠP olish
Ġqu ant
Ġsubstit utes
mix ture
Ġreheat ed
Ġpistach io
ĠHellman n
inc luding
G ood
T M
d en
e le
j ack
p ed
on ce
Ġm arsala
Ġf usilli
Ġw ipe
ĠC ereal
ĠP ri
ĠD uring
qu ef
Ġ6 5
ĠU N
12 0
ĠJ apanese
Ġcur rant
Ġeva porate
iff on
Ġel astic
---- ----
Ġsult anas
C ari
O IL
s kin
Ġ ;
ol land
am c
qu al
Ġ14 0
est ive
Ġpl ump
Ġpl ease
oy a
16 0
Ġdire ct
Ġcons ist
Ġind entation
rem ove
ugu ese
C re
V ery
b oil
m uff
p ie
s to
ic ated
Ġd airy
Ġh ickory
ĠS ave
th inly
Ġcar ving
Ġri ms
ĠK ielbasa
Ġqu eso
Ġchunk ed
Ġbul bs
ĠDe en
ucc ino
ĠCl assic
ĠPeach es
Ġscorch ing
quef ort
Cari b
F eta
S oft
f ur
f ruit
v ely
Ġp ile
Ġf acing
Ġd isc
ve get
Ġn acho
op e
Ġen close
ĠGr uyere
Ġkn ives
Ġseal ing
rit z
bl ong
pro cess
Ġresemb le
Ġir ish
d es
Ġf r
is ins
ak en
ĠR eal
und rained
st uffed
col or
col ored
Ġra ise
ac he
ĠK iss
Ġother wise
St ea
Ġnorm al
whe els
fric an
Carib bean
9 0
c er
f ess
o ot
u v
Ã ©
er a
Ġmay be
Ġqu esadilla
pt ion
Ġx anth
ĠAs iago
Ġtot ally
ĠPick led
Ġsomet hing
ĠSur prise
olog na
Ġsamb al
B l
B arbecued
C K
u ens
Ġt im
Ġo blong
po te
at ta
ro ps
or es
Ġ2 1
Ġsh ow
ad just
Ġingredi ants
if ting
Ġfin ally
Ġpro ced
Ġpro per
Ġmo ving
unt ain
Ġoppos ite
Ġperi od
Vegg ie
uens ter
b in
ĠS riracha
ĠT IP
ĠO z
Ġup right
ĠN et
Ġsc iss
ze ch
Ġsea ms
uck ed
ĠQu arter
oo se
ĠRa isins
Ġshort bread
oca cc
Ġtr uffle
Ġfall ing
ĠChe x
ĠPh iladelphia
ĠAcc ent
A ut
R ich
j uice
m ium
Ġb uckwheat
ic les
Ġw id
up s
ush i
ĠO ys
ĠV odka
ĠButter scotch
ĠSaute ed
ĠCrisp y
ik i
Ġsizz ling
ĠSea food
Ġment he
Ġfingert ips
B o
D on
G round
a cc
c ored
f ort
w ood
Ġc acao
Ġcup fuls
ĠC umin
ĠM ark
Ġcan chopped
qu et
Ġro aster
ĠG rain
ĠL im
Ġan gle
Ġspoon ing
lo om
te nd
Ġag ed
St eak
Ġha dd
ĠSw anson
Ġpar ed
ĠShell s
8 0
C urry
R eal
l f
t ic
ea ding
Ġf ancy
Ġf iber
up p
ĠS AL
ĠS angria
Ġbutter f
ĠM ore
ill os
od y
udd le
Ġca esar
ĠPre t
mix ed
ĠRa ise
Ġshred s
ĠSl ide
ĠStick s
fess ional
Ġxanth an
Ġproced ure
ocacc ia
Ġhadd ock
' .
a el
l er
m ish
Ġa u
Ġm ess
Ġm ahi
ut abag
Ġh ouse
ab ul
Ġv ine
ĠH old
Ġdry ing
Ġde hyd
amb al
Ġsw ir
ĠFl ank
Ġfour ths
Ġrib bons
Ġtr eat
Ġvis ible
Scall oped
Ġvert ically
ĠDor itos
gelic o
E as
i pper
m g
r as
Ġin g
ĠP ipe
us ters
Ġadd s
ĠSt reusel
Ġ6 00
Ġus ual
ĠTh in
Ġpit s
20 5
IN E
Ġenvelop es
ĠAltern atively
deg rees
Ġwhe el
i ent
u ke
Ġ +
Ġp umpernickel
ic ro
it ten
Ġch an
le ment
ĠP armigiano
ĠM olasses
Ġso gg
Ġab le
ĠG oulash
ag u
Ġpro fessional
Qu inoa
Ġsquee zing
av ioli
ĠBas e
South west
Mo cha
An gel
Ġach ieve
P ink
s al
s ave
Ġc alls
th ough
ĠR ead
qu ality
pre pared
ĠJo e
ĠLi ke
Ġverm outh
Ġmot or
ĠBle u
Ġconsist ancy
Ġsciss ors
b m
b ased
t urn
â Ģ
Ġc rimp
ĠF lo
Ġble u
Ch unky
sp ray
Ġcre mini
Ġac id
To asted
Ġaro matic
Apples auce
once llo
E AT
Ġm om
up per
ro ts
Ġch inese
Ġch ickpea
ĠB ou
Ġj erk
Ġy ield
Ġpa ddle
ĠG ouda
Ġpre cooked
ĠK et
ĠMilk shake
ĠScall ops
Ġatt ached
ĠNet work
H a
N or
T e
Ġ !
ĠB OIL
ĠA L
Ġsa ys
ĠT arragon
ĠF iber
Ġ9 8
Ġri p
ĠV alley
ĠSh all
ĠY ork
Ġkn eading
Ġstal e
Ġgo oey
Ġbl ood
ĠWa it
ĠLen tils
ĠMed ley
Pa ula
itten cal
Ġsogg y
A mazing
B aby
C hewy
D ill
T ri
i en
Ġs uc
al ine
ĠS odium
ĠC hef
Ġfl aky
ĠM ary
Ġn apa
ĠD istribute
Ġup per
ĠN e
ĠGr its
ĠSto ck
ĠBe et
Pot atoes
Ġdis app
Ġhus k
OU R
ĠTort ellini
Ġcond iments
ĠStri ps
L A
g iving
Ġm alted
les ter
as e
ĠB eg
Ġfl o
ĠI ced
ĠT arts
Ġwh irl
Ġred uces
Ġse em
Ġapp rx
Ġsl ushy
Ġnut ella
Ġchi ve
Gr eat
Ġalong side
ĠCrum b
Ġes pecially
Ġflax seed
fal fa
ĠLat te
Ġther efore
lester ol
J o
S oy
T ex
b ac
w ashed
il s
ar row
Ġco bs
ab atta
ĠC atalina
edi ble
Ġn uggets
ĠD I
Ġgr atin
ĠW on
ĠH awaiian
Ġbottom ed
sa ute
Ġbr isk
Ġgu ess
Ġfrost ed
Ġsection ed
Ġglo ves
Ġflower ets
Ġunders ide
muff in
in egar
Ġc uracao
ou mi
ĠCo le
ĠT asty
Ġsk ip
Ġal um
Ġne ck
Ġen glish
Ġprocess ing
ĠBr isket
Ġbr atw
ib u
lea ve
mar garine
Ġrame kin
ĠCaramel ized
Ġsil ic
ĠCol by
ĠRough ly
abul ous
B ig
F ish
I AT
M a
P enne
b atter
p eas
Ġa rea
Ġb ias
Ġm ac
Ġf ashion
Ġin gr
ĠS ometimes
em i
ĠT ater
ĠF ennel
ag le
other ed
Ġaddit ions
Ġpla ces
Ġpres entation
Ġdro pped
Black berry
Ġburrit os
ret ch
Len til
S n
w arm
Ġp yrex
Ġm ass
re f
ll ion
ĠR est
Ġsp onge
ĠH ar
Ġal falfa
Ġbag gie
Ġsc ore
ĠV ers
ĠPre p
Ġsw ordfish
ĠPro ven
Ġrot ating
ettucc ini
Ġpor tobello
raz y
bac ore
C old
R um
U ltimate
b eans
d i
Ġt uck
Ġb ass
Ġf arm
re ct
Ġg her
ĠS age
ĠP ic
Ġst ro
egg iano
ad ed
ĠCh ive
ĠTh ree
ib b
Ġrep res
unda e
P ear
d or
m ild
Ġp am
ĠS T
ĠS ome
ĠB R
ĠM al
Ġdeg laze
ĠL eftover
hen tic
Ġsc ant
Ġuns ifted
Ġsubstit ut
ĠKn orr
ĠCucumber s
Ġomelet te
Ġact ually
olland aise
C H
M B
m ly
Ġ ea
Ġin t
ver ted
Ġcho c
Ġn arrow
Ġmeat ball
ĠE l
ĠDi et
uck y
rec ipe
Ġscal ded
Br ussels
Ġmembran e
n et
u de
Ġc rawfish
Ġp ies
Ġl inguini
ĠC ur
is ts
im ich
ars n
ĠG rap
Ġdrain ing
Ġcar ob
Ch ickpea
Ġar borio
Ġhard boiled
ĠCorn ish
amp i
Ġstor ing
istach io
HE AT
Ġpur ch
Di jon
ĠHa ir
ĠDeg laze
Ġpops icle
ais er
Ġser rated
upper ware
. \
L amb
f our
k eep
Ġf aster
Ġcho pping
Ġhal ibut
ĠSo ft
Ġfree zes
Ġqu esadillas
Ġdon t
Co ol
ĠPan ini
Ġsecure ly
Ġwatch ing
iet nam
S imply
in to
Ġc ampbell
Ġt on
Ġt ried
en ison
Ġg olf
ĠB urgundy
ĠF ettuccine
ĠG et
Ġapp ears
ĠO regano
sh ould
Ġdust ed
Ġmembran es
Layer ed
Ġeigh ths
ele k
n ic
Ġs um
ĠS kin
ĠB uns
Ġcho col
Ġth ings
Ġcl arified
Ġshe lf
sa uce
Ġsem olina
icot ti
Ġregular ly
ĠApp etizers
ĠAr ugula
Ġvari ation
Ġoverla p
ietnam ese
6 5
D ad
E x
H ar
S loppy
b oy
g u
ic a
Ġw isk
at z
ĠC urried
ĠB ul
Ġfl uted
ĠG ive
ĠH ass
imm y
Ġex t
ten t
Ġbou llion
Ġdeve in
ĠLo in
fresh ly
ĠFood s
Ġmince meat
ĠFran gelico
ours in
ĠFlo at
1 70
2 3
I nd
J ack
U CE
f etti
n el
p ace
in is
Ġm illet
ut if
ic t
eas ant
le g
ĠP a
ir i
id ge
ore n
imm on
Ġal one
Ġpap ers
ĠY UM
ĠY ields
Ġtow ard
arin a
ĠRo quefort
Ġsw eat
Ġcas ing
Ġdecor ating
Ġscrap ed
ĠPl ate
ph erd
EN T
pos ed
hyd rate
deg ree
Mix ed
Ġfrank fur
Ġtomat illos
D O
P ro
u an
v anilla
on n
Ġb ra
ĠP yrex
ri p
Ġst reusel
Ġsp ic
ves t
Ġk um
Ġsoup y
Ġtoss ed
Ġind icated
ĠLo bster
Ġheads pace
ĠSup per
ĠOmelet te
Nut ty
anks giving
ĠCola da
veget able
Stea med
Ġstro kes
C ub
C hef
j itas
Ġ iced
Ġc armel
Ġb ologna
Ġm ush
Ġg iblets
Ġg nocchi
Ġ2 9
ĠP erfect
ĠM acaroons
ĠF oil
ie w
ĠCh oy
Ġcover s
ap er
and el
ĠCream ed
ama ican
Ġsmok er
Ġmain tain
Crust ed
comb ined
Ġyours elf
Cre ole
ĠRead y
dor f
c om
p acho
r ese
s qu
t it
Ġt ent
til ton
Ġfl ounder
Ġas ian
ĠG l
Ġk ick
ent ial
Ġapp ly
Ġmeat y
Ġz ipper
Ġpro port
ivid ing
Ġstand ing
ĠMuff in
Ġcre pes
eri os
ĠSl ightly
ĠVers ion
Ġrepres entation
K orean
c ri
Ġs uff
an ted
Ġl ifting
ĠS U
as abi
ĠP aste
la y
us ing
Ġsa y
Ġsa uc
Ġj al
ĠF ILL
ĠG all
Ġmar garita
uff y
Ġgreas ing
row root
pend s
ĠSc otch
ĠSm ok
ĠSm all
ban ese
ĠCl ub
Ġstor es
ĠCrush ed
Mo ck
Ġmatch stick
Po ppy
Meat loaf
az pacho
urk ish
ĠPRE HEAT
Eas iest
K ittencal
N on
W ith
w ard
Ġt raditional
Ġp arm
he im
al d
ir loom
ĠB is
ĠB alance
Ġst eps
ĠCo p
ĠT em
ĠT ap
Ġgr ass
ip ment
Ġbread ed
ĠE agle
Ġhea v
ĠN achos
Ch ile
ĠButter cream
Ġapprox imate
Ġcolor s
uss el
ĠMarin ara
ett uc
ĠMar garita
Ġgu ests
Ġcornfl ake
Ġsho ots
Ġcroiss ant
Ġsult ana
ĠTot al
Gran ny
Ġtanger ine
Ġwid th
Ġsilic one
D ate
D eep
h ere
Ġs ouffle
Ġm ex
il it
at ay
ow boy
ĠM andarin
ĠI d
am ember
Ġsh ucked
ĠD rum
ĠCh orizo
Ġsweet en
ĠV AR
Ġlength ways
Ġar rowroot
Ġop ened
Ġball er
ĠDe pending
Ġnorm ally
Ġfrit ters
Ġci abatta
IAT ION
amember t
A Y
C andied
H o
M ay
S to
f ire
Ġp li
un can
Ġv ar
co mbine
ard i
Ġpl unge
Ġpeel ing
iz er
Ġuns easoned
fe ctly
Sp ice
ĠEgg nog
ĠGinger bread
Ġpuff s
Ġhollow ed
ĠFlavor ed
ĠTBS P
E yed
M ama
n i
Ġc el
Ġt um
Ġo elek
ĠP ink
Ġsa ving
th ird
ĠR amen
Ġrem ember
ĠG rey
ĠL eg
ant a
Ġal bacore
Ġpour ed
ind a
so ft
Ġbr ick
Ġsaff lower
Cal ifornia
L eftover
M rs
R e
S he
i or
s erve
z le
Ġp al
he ld
it am
ĠP rawns
ĠP olenta
ol o
Ġr utabag
ĠM orning
ĠH ome
Ġnon reactive
Ġpo pping
Ġtaco s
tich okes
Ġver de
Di abetic
Ġpet ite
ĠBel gian
ĠVer de
ĠZip loc
ĠVAR IATION
C ottage
Y ellow
b as
Ġf res
ĠS A
Ġ3 8
ĠT ra
50 0
Ġus es
ĠO kra
Ġpre mium
wh atever
Ġtow ards
Ġhard ened
cook er
ĠMo ist
Ġdrink ing
ud gy
Ġeye ball
ambal aya
Ġbrisk ly
; .
Ġ est
Ġb urst
Ġm outh
Ġand ouille
ra cle
ĠM ound
Ġso uth
ean uts
ef rost
ĠCh ar
ree ze
ear ed
Ġcas es
Ġtin es
Ġmi racle
ĠNut ritional
Ġpar ing
Ginger bread
ĠWater melon
ĠNot es
iffon ade
D utch
c co
t es
v ious
Ġc atch
it ted
ĠC oll
lic e
us ually
ĠI v
Ġn umber
ĠF riendly
li ed
ĠH oliday
Ġbread sticks
ey e
inn ess
Ġpre p
Ġchil d
ĠN orthern
ĠK ugel
Ġdi amon
ĠSc ampi
ĠFl ake
atur ated
Ġdoll ops
ĠSl ush
De viled
Ġmult i
ĠLiqu eur
ĠKet chup
Ġsuff ic
F ast
F iesta
R ussian
R eggiano
T ER
s our
t ip
Ġm a
Ġd red
Ġfor get
Ġn ine
Ġsp ec
ĠCh unk
Ġmay on
Ġsmooth er
ĠCut lets
Corn bread
with out
ĠSkew er
hal ved
Sea food
B ourbon
C op
g ood
Ġc rowd
en ug
ĠS ug
ĠB each
et zle
ĠF ig
ĠD oll
ĠD own
ĠH EAT
Ġmar ble
ach ael
Ġdes cri
ĠTh an
ĠFree zes
ĠBlack berry
Butter nut
Ġinclu ded
Ġbagu ettes
Sm oky
EL L
che go
enug reek
I D
I ce
h o
n old
w ill
ic orn
po vers
ĠS L
ĠS ide
ĠF res
ĠF ingers
se cond
ĠO P
quar ter
Ġri d
Ġgarnish ing
Ġdo ing
Ġpo ached
Ġmed allions
bon ed
ĠMin utes
Ġpier ogies
Ġcontin ually
Ġpull s
ĠCO MB
ĠCap ers
ridger ate
Ġinf use
Cho pped
ĠFILL ING
Ġpli able
B etter
H IL
M M
O ver
e ither
l b
l ot
r is
r ice
t ri
u ji
Ġd ividing
Ġg ift
Ġg ingersn
ĠC alories
um n
ĠF ar
mb er
ĠW et
Ġba nd
Ġk aiser
we ed
ap es
ĠCool er
art i
Ġsub mer
ĠSm ash
-- -
ĠPick le
Ġrock et
bin ado
Ġswir ling
O ut
w ide
Ġ vent
Ġs lee
Ġf enugreek
po ss
en a
al ys
ĠS uper
ĠC afe
ge m
ĠB rew
ĠB UT
ĠCo d
ĠM old
Ġsh immer
ĠF ra
ĠF ire
ĠF iesta
ĠMix ed
ĠL ittle
ey er
Ġvin eg
ire ctions
ĠE very
ĠK ebabs
Ġcrisp ly
Ġcur ds
Ġcann er
Ġtoast s
Ġcurd le
Ġsil ver
ues li
Ġrefridger ator
ĠBeg in
Ġsum ac
ĠCOMB INE
alys is
T uscan
b ag
k oman
m ustard
Ġt asting
Ġb u
Ġm ould
Ġtablespoon ful
Ġst uck
Ġso ap
Ġwater y
qu ettes
ad as
ĠG el
ĠCh ow
ĠCh ickpeas
ĠL eek
Ġan alysis
ĠRem ember
ĠE qual
Ġcro ut
Ġad here
Ġherb es
eath er
Ġthread s
ĠPin wheels
ĠRoma ine
Ġbea utif
Ġob tain
I s
p at
s on
s alted
Ġb alance
Ġo c
Ġm L
Ġf ettuc
ĠP res
ra ut
ick y
Ġr abe
ĠM e
ĠR avioli
Ġsh anks
ĠIn st
est r
Ġpl an
ĠSa vory
art y
ec he
Ġca use
Ġfold ed
oun g
Ġits elf
Egg s
raz ilian
Ġchocol ates
Cop ycat
C O
H ea
H ealthier
I S
M el
f oil
f inger
i ato
p lain
Ġl ighter
Ġor i
ĠM acadamia
ĠT ips
all oumi
tom ato
Ġwhisk ed
ĠK ing
ĠSh ould
Ġflavor ings
ren gth
ĠRef ridgerate
Ġacc um
Ġpo ach
oo ey
mar ula
rost ini
En glish
Port uguese
gem ite
P h
Ġc he
ea p
Ġp ulled
ĠC atfish
und ried
ĠF RO
Ġcr isco
Ġro ots
Ġsof ter
ĠO K
ĠN on
Ġrest aurant
amb urgers
Ġrun s
met al
ĠAr tichokes
ĠSn ick
butter ed
Ġstring s
Ġopt ion
IT H
ĠEas tern
pow der
Tri ple
Ġheav ily
Ġcrout on
4 8
b ly
b ack
e er
i wi
m es
v inegar
Ġw anted
at ine
ĠC ottage
Ġr ump
ĠD ean
st art
ĠL inguine
ĠH ard
ran ges
Ġsto ps
abb it
ĠJ UST
crum bled
de pends
Ġbr u
Ġess ential
ĠChe erios
Fl uffy
pec ial
ĠDog s
Ġjell ied
ĠUps ide
estr one
Ġori ental
P arty
d own
Ġb ull
en ted
ĠC anola
ĠP osition
ch ocolate
ĠT raditional
ĠD ec
Ġfro th
ĠH idden
Ġbread ing
ood y
Ġare n
ach ere
Ġne ufchatel
ĠSh erry
Ġcomb o
Ġhand fuls
Ġpat s
ex tra
ĠCr unchy
ĠSm art
Ro ck
Sa ucy
Ġrep la
Be et
Ġgranu le
Ġtr uffles
ĠCom pote
Ġpurch ased
G RE
V OO
a ctly
b lack
c rack
d iscard
e nd
e ven
l on
m esh
Ġb ites
Ġf le
Ġg ot
ant astic
Ġhot ter
ĠE ach
ous and
wh ich
do bo
ĠPart ially
ĠCro utons
RA FT
Ġhar issa
) :
P olish
U P
i ant
l ong
Ġb aker
Ġm us
Ġm ousse
Ġto ok
en heit
rea ks
Ġsalt ines
ĠT ony
ill er
Ġsp elt
ĠW orld
ĠCh ai
and o
Ġlo se
Ġsaute ing
Ġcur l
Ġcor rect
ĠRo se
Ġfa jita
Ġfinish ing
ĠPl ease
Ġcirc ular
Ġster ile
az y
Ġblossom s
Mon terey
ĠBra gg
nold s
iato re
4 25
F ran
H igh
R Y
r un
Ġ Q
on don
ar an
Ġw hey
al es
pp uccino
ĠS weetened
Ġ( *
Ġun used
ĠP eanuts
ir ty
ĠB etty
Ġgar den
ĠT rout
ĠF ontina
Ġy am
ĠD irections
Ġex tend
Ġpl ank
ĠTo ppings
ĠN estle
Ġtur binado
ĠCheese burger
ĠTh icken
ig rain
ĠWhisk ey
ist ur
Ġsur round
ĠZ iti
Ġbig ger
Garlic ky
Ġparsn ip
Pepper oni
ĠShall ots
Sn ow
atz iki
Cub an
Ġproport ions
Ġjal ep
ĠSA UCE
Ġdred ging
C ake
C ouscous
I m
K ahlua
P at
i ppy
k i
w atch
er os
Ġm er
Ġm uenster
Ġf ocaccia
Ġw ise
Ġd ai
Ġch iffonade
Ġh ershey
ĠC H
ĠP arsn
ĠM armalade
ĠT angy
col d
erv il
Ġmo zz
Ġbring ing
ĠSo ftened
Ġdire ction
wh ipped
Ġsit s
Ġgel atine
ah ini
Co oked
ib bean
Ġmas a
Ġes car
Ġhash brown
Ġty pes
ĠFa jitas
Ġdec rease
Ġfrit tata
Ġquant ity
A mish
D own
O amc
n ation
s lightly
t ow
z atziki
Ġs ort
Ġto st
it an
ĠB ark
ĠM eal
ĠI m
ur ri
ĠR ings
ĠD airy
ĠW ell
bs olut
uc ing
iv a
og s
ĠK RAFT
Ġlayer ed
alapen os
mer c
Ġscall op
ont real
amp fire
ĠStea med
ĠCa v
elve t
ĠApp ly
Ġrot el
ĠCrock er
ĠCre pes
Ġseper ated
Ġcour get
Ġprod uce
Ġmandol ine
D el
L e
T ort
f old
t ie
Ġc ard
Ġc rescents
Ġp izzas
en os
ĠP ate
ch illed
Ġst rand
Ġv elveeta
Ġy ear
Ġcon e
ĠTo pped
Ġlo vely
Ġhigh er
Ġgra m
ubb ing
Ġhand ling
Ġper cent
ĠMeat ball
Ġsli p
Ġhear ty
ĠMo untain
Ġki w
Ġdirec ts
ĠTri ple
Ġrib bon
bro il
Sal ad
brown ed
Ġav acad
ls berg
ĠIngredi ent
Ġingr ed
Ġfrankfur ters
C ashew
E l
H ash
M andarin
P ap
T raditional
a pple
h an
Ġd isk
ĠA tt
Ġr inds
ĠM id
ĠI I
Ġcream ier
ĠF ast
ff in
Ġex actly
ĠO ranges
Ġ15 5
Ġprepar ation
Ġsiz es
ortil las
Ġpush ing
Ġpet als
Min ute
Ġperiod ically
ĠSAL AD
Ġbratw urst
ando ori
A bm
C on
J ust
L inda
M ilk
h omemade
k on
o ise
p lace
p itted
Ġt s
il es
an c
Ġh ang
ĠP ies
ol ly
ĠF eel
ĠIn stant
pe ct
Ch illed
ĠY east
Ġcur ly
Ġpo st
ĠChill i
Ġway s
ĠPowder ed
Fruit y
Ġtim er
oren t
ĠCop ycat
A ST
F udge
r ata
s oy
Ġ1 10
Ġf alls
Ġf ron
it ional
ĠS tilton
ĠC enter
ĠP omegranate
ĠB ow
ĠA frican
ol ive
igh ts
og i
Ġtw enty
ĠJ u
sp resso
Ġper fectly
ĠSto p
erm ark
ĠQu eso
Ġmas on
Ġhe ld
Ġdis ol
Ġtry ing
Ġtbs ps
ĠPar fait
Ġrefridger ate
ĠCor don
zech uan
ĠBis que
B BQ
G arden
U L
V ING
c ilantro
j ito
Ġs ounds
ed ar
Ġp illsbury
Ġm g
Ġch ervil
ĠC hewy
Ġsp l
Ġsp acing
Ġcr isps
ĠD efrost
ĠH amburgers
ff ron
Ġcon es
cc ormick
ĠK ey
Ġother s
fry ing
Ġequ ipment
fl ake
vour y
Ġinclu des
hee z
Or zo
Cook ies
flour ed
ĠCoars e
Ġscal ed
ĠDeg rees
Gu acamole
Ġchan ges
Ġdescri ption
Ġescar ole
A d
F ashioned
M elt
y ellow
Ġc it
Ġb ak
Ġd elic
ĠS ize
Ġun beaten
Ġun wrap
Ġun mold
ĠP ears
ĠM eringue
am o
ĠF amily
Ġset tle
Ġlo ses
ĠN uggets
Ġsc otch
Ġcans liced
Ġres ult
ron ger
Sc rambled
ik koman
Ġcolour ed
Ġbeet root
Ġabsorb ent
Ġpor ridge
AM C
Ġsup ermark
ĠSER VE
Ġbull ion
C ut
C ap
I ced
K ielbasa
L inguine
M P
M olasses
P ers
S easoned
S pecial
o ff
s ch
z on
er gy
Ġm il
Ġm atter
il ute
ut ion
ic ots
Ġw inter
at ar
Ġd ig
Ġg ener
Ġg reek
Ġg iving
ĠS napper
Ġcho pper
Ġst retch
Ġst ronger
ast es
ĠM ein
ĠR ey
Ġsp anish
ĠIn f
ĠW ITH
ust ic
ĠH and
ard ines
ĠCover ed
Ġref resh
ini um
Ġdes ign
Ġsto ut
ĠU s
oc con
arb oil
ĠFill ed
Co coa
ĠUn cle
ale o
Lemon y
Straw berries
ĠBrand y
Ġbund les
itam in
Tort ellini
H orseradish
I C
M ary
P ass
c s
h and
Ġt ra
Ġa p
Ġ3 60
ra eli
dd ed
ĠA corn
th a
ĠR agu
ĠD rops
Ġro cks
Ġcl ump
ĠCh erries
Ġex cellent
ĠE VOO
ĠWh irl
ĠK ick
red uced
ĠPepper oni
ĠNut meg
ĠPl um
Ġpic o
Ġtbl sp
ĠStick y
Un cle
att ice
eor ge
ĠMal ibu
ĠDrum sticks
A RE
C andy
O RE
T el
W heat
W inter
j ar
s eason
s weetened
Ġm icro
Ġd ab
Ġd em
ĠC andied
Ġun less
eg ian
ch n
ĠB en
ĠM agic
qu ot
ĠL e
Ġ8 5
os ter
Ġcontain ing
Ġpotato e
Butter y
be ef
Mo ist
Ġgrin ds
Op tional
inf used
Ġproper ly
Hea venly
orent ine
occon cini
B isquick
S qu
o les
s ub
t ons
z a
Ġt ag
er al
re os
ĠS u
ĠC rostini
ak a
eg ular
ĠB raised
ĠB etter
ĠB iscotti
ĠA marula
ĠR ell
Ġy oung
ĠSt eep
st eak
ĠH ow
Ġ8 00
per ature
ĠE d
Ġpro ceed
ĠWith out
Ġwhisk y
ac ity
als o
ep eg
Ġfa va
Ġind ent
ĠOr ganic
ĠZ esty
ĠMo ro
Ġrot ate
Ġgu ava
Ġgall o
Ġentire ly
Egg nog
Ġwont ons
EL P
Ġmill ilit
Ġmot ion
ĠFla x
imich urri
onn ay
merc ial
ĠRey nolds
C rack
F our
P or
T urkish
W orld
d r
Ġs undried
Ġp ara
Ġm es
Ġin ner
po pped
en se
ĠP AM
ĠM er
ĠR ich
ĠSp ring
Ġsk irt
ĠG ather
ĠH om
co ol
Ġsl urry
ĠSeason ings
ĠU ltimate
ccol ini
ĠV i
Ġ7 00
ĠY ams
ĠJ alapenos
ĠSm ear
Ġstiff ly
Ġpea k
Ġtil t
ĠTri fle
** **
To ffee
Ġass em
ĠMed iterranean
ĠGo es
aff ir
ĠBob oli
sto re
âĢ Ļ
Ġfres co
8 5
L a
P am
P omegranate
U R
o e
s ifted
w egian
Ġa is
Ġs na
Ġb en
Ġb rittle
Ġin ten
Ġco le
ĠP ulled
ĠP izzas
ĠP HIL
ĠB ok
Ġr ubbing
ĠM IN
ur s
ĠR ight
ĠF e
ĠF it
ad os
ĠL eeks
ass ionally
Ġal tit
ĠO AMC
Ġsimmer s
gar banzo
Ġbon net
ĠJ ambalaya
ĠButter ed
Ġsqu ish
Ġbo ston
Ġinc re
ĠQu aker
ira m
ĠPl us
ĠWe ight
Ġsizz les
AD ELP
Ġfran ks
HI A
ĠTort e
Fa vorite
process ed
ĠNe ufchatel
Ġspic ier
Ġmayon aise
Over night
ĠCav iar
Ġpara ffin
ĠPHIL ADELP
ĠPHILADELP HIA
3 25
a vailable
c hetta
l ine
p arsley
w w
Ġ u
Ġa mar
Ġ1 15
Ġm ax
ĠA g
ĠA dobo
ĠCo mb
ĠI nd
ĠSt ep
Ġcon verted
Ġk rispies
ĠE nd
Ġcro st
Ġaccording ly
Ġfil m
Ġdri pping
ĠCan ned
ĠCrum bs
Ġhe irloom
Ġbl ot
Ġcy lin
ĠGu inness
ĠBel ieve
Tw o
Ġrender ed
ref riger
Ġmex icorn
bas il
Ġvineg ars
Ġhashbrown s
Ġfron ds
B razilian
C la
D I
K ey
R em
S alt
T ater
c ius
o x
Ġt apenade
Ġb isquick
Ġp w
ut Ã©
Ġf riend
Ġl ouisiana
ou le
ĠT ex
Ġcan es
edd ing
co ars
Ġcon tent
od iva
Ġk ebabs
ĠO F
pe ed
ĠK alamata
mer il
Ġsurfa ces
Ġcap acity
ĠLayer ed
ĠPan ko
Ġlim oncello
ĠWal dorf
Al coholic
Ca esar
sm oked
ĠShe pherd
Ġris es
rem ely
ĠBurrit o
Ġaro ma
Bar ley
ĠSmok ies
Ġaccum ulated
ĠAtt ach
Ġcylin der
A t
C owboy
J amaican
S eared
W rapped
c heck
d one
s ome
u i
v re
Ġ rain
Ġ edible
Ġp cs
or iginal
ĠB u
ĠB ack
ĠB rittle
Ġst rength
ĠM ad
ĠM ahi
ĠT ortillas
ĠSp ritz
ent ucky
ĠK ikkoman
wh isk
Ġallow s
Ġavocado es
ĠMo st
Ġrel eased
pos able
Ġid ea
ha zelnut
leg ant
Ġdiamon d
ĠBragg s
Ġais le
R om
T ortilla
V ietnamese
g land
er ky
Ġf rig
Ġf ontina
Ġ2 7
ou roughly
ĠC R
as o
ir es
ĠB arbeque
Ġsa id
ĠCo mp
id ney
ĠT am
ĠR ye
und ay
ĠD ress
Ġju icer
Ġk affir
Ġtomato e
cc iatore
ĠN a
Ġ13 0
Ġspoon ed
pt ian
Ġdark en
Ġman icotti
ĠBr unch
ĠBroil ed
Ġshap ing
alam ari
Ġfinger ling
ĠOri ental
Ġsho epeg
Tw ice
ĠMas ala
Ġalum inium
ĠGall o
Sto ve
ĠOP TION
tow el
Ġstrand s
A pp
B rand
D anish
F ennel
G oat
U S
h oney
w al
in ted
Ġm eanwhile
an ache
Ġl at
Ġg ourmet
pp i
ĠA le
Ġr icer
Ġre v
Ġsh ots
ĠD iv
ĠSp areribs
Ġsk imm
Ġro pe
Ġred ucing
ain bow
let t
ĠCh ives
ĠCh unky
ĠH ines
Ġex per
Ġex posed
ul ce
armes ean
Ġturn ips
Ġfood s
Ġtw elve
oll o
ĠTh ick
Ġbroil ed
ift een
Ġta pped
Ġgo ose
Ġburn t
Ġadjust ing
Ġhold ing
ĠPo ppers
ĠCl usters
Ġlin er
Ġlin es
Po ached
Ġwor th
ĠMel on
ĠLiqu id
Ġ; ).
Aut umn
ĠAL L
ĠProven ce
Ġpal ms
Ġest im
ĠMid ori
Ġmillilit er
Ġcrost ini
B le
F ettuccine
K ale
P r
R achael
T LY
b est
m ashed
y l
Ġc ork
Ġb ody
Ġm ingle
Ġg lace
ĠC ayenne
ĠC alorie
Ġsa uted
Ġth ai
ĠR adish
ĠCh achere
ant aloupe
se cco
Ġpre vious
ĠSeason s
allow een
ĠJ oy
Ġde b
Ġher bed
ĠBoil ed
uck le
sc ar
Ġdis posable
ĠCho lesterol
Ġflavour ed
ond ies
ott ish
gy ptian
Ġprun e
ĠFir mly
ĠSER VING
ĠBou quet
poss ible
L azy
P lace
T r
z arella
Ġs pot
Ġp en
ut ure
ic ular
un covered
Ġch owder
is u
ĠP im
ĠP ers
ri k
ĠM ED
im in
ĠSp lash
Ġk ir
Ġtender izer
ag g
Ġrefriger ation
ĠK ids
ĠSh erbet
Ġcrisp ed
ĠJ immy
sp rinkle
Ġcom ing
Ġdark er
Ġdi ppers
Ġ24 0
min os
ĠCrock pot
rus chetta
In stant
ĠMel ts
pie ce
ĠId aho
Ġslee ve
2 7
A bout
D airy
R icotta
c ayenne
f ly
Ġs ardines
Ġb iscotti
Ġm ccormick
ic or
la x
eg a
et it
gh um
th at
ill ion
Ġpa ir
Ġat tra
Ġcl assic
ĠCh oose
ff e
ran ce
sh ine
Ġsl ash
Ġpotato s
oc he
lo ves
ĠEn gland
Ġsepar ating
Ġsw itch
ĠQu esadilla
sc rew
Ġim pro
Al most
AT E
Ġstar ted
Ġna an
Pepper mint
Ġ36 5
Bread ed
AN D
ĠBo x
ĠBo ston
ĠCom fort
ĠPort abella
RA IN
olut ion
full s
Ġbund le
ĠGrap es
ĠDoll op
Ġbeautif ul
A ny
C arb
F ire
F ive
m ushroom
m aker
u ge
w hen
Ġc ass
Ġs eas
er ed
on ions
ea rance
at i
Ġch ai
ĠC hew
la p
edi ents
res erving
ĠT H
Ġn eat
Ġn ap
ĠF our
Ġex p
inn y
ĠO wn
Ġset t
ĠN atural
ac a
Ġcrisp ness
rox imately
ĠRo ck
ĠCorn meal
Ġtin foil
Ġtoast ing
ĠSw edish
Car rots
ĠBas mati
iche ver
Ar ugula
ĠCal ifornia
Ġid aho
Ġinf used
Ġfe els
ĠLast ly
ĠKiss es
Ġdehyd rated
Ġpw dr
oule h
A merican
B ruschetta
N ana
\ ).
p led
s en
Ġt upperware
Ġa ioli
on ly
ea pples
Ġm id
Ġf uture
po ver
Ġl attice
Ġg al
Ġth ouroughly
ĠM uddle
Ġso ba
ĠT astes
ĠF inger
ĠSt ar
ust r
ĠL E
ĠO ff
Ġsl o
Ġturn ip
Ġgl ut
oy u
ĠOn ly
Ġhand led
Ġtri mm
Sp ring
Ġinc reas
Co cktail
ĠUn mold
ĠCa cciatore
Ġaltern ative
ĠSour dough
Ġmanufactur ers
Ġnectar ine
seed s
Sour dough
Ġfar ro
ĠTart ar
ĠPret zel
rip ened
ĠSU G
Ġfettuc ine
amo unt
ĠMoro ccan
Ġincre ments
1 25
B ob
F rost
H ummus
I UM
M an
N if
c ured
m other
s ometimes
Ġs ushi
Ġf ettuccini
at io
ro us
Ġd raw
Ġco ins
ĠS emi
ĠA ioli
Ġn estle
ĠD ates
ĠD anish
om it
bs ters
ĠG ame
ĠG ala
ub en
ee zed
Ġal though
Ġapp earance
ĠSa usages
Ġtw ists
ivid ual
Ġde press
Ġcom mercial
Ġhamburger s
Ġlik es
Ġmeasure ments
ĠEx cellent
Ġdiffer ence
ĠLi ver
ĠCarb on
ani els
Ġfe et
ĠOys ter
acc ioli
iram isu
F abulous
G ourmet
H ungarian
M arshmallow
R ot
T arragon
b and
h ang
r ise
s esame
z os
Ġc alorie
Ġt arts
er ri
Ġb ind
Ġf ix
le ted
ver a
egg s
ĠR aw
oil a
Ġat l
oth ing
Ġpack ag
se par
ig atoni
rop ri
Ġpick s
Ġhard ens
ĠFl orentine
rit o
Ġha ven
Ġrough y
Sh ort
ingu es
Ġbl ister
ĠPo ach
men ted
Ġpers immon
Can adian
Cook ie
Brown ie
Ġgrin ding
Meat balls
Fro m
ĠHa zelnut
ĠMas carpone
hea ping
ital ini
gra m
Ġaccompan iment
Ġph easant
Ha zelnut
Ġext remely
Ġslo ppy
G as
M O
M iddle
b ling
n ellini
p itas
u ction
Ġa mber
er el
Ġb uds
ar ine
ĠC ardamom
ve ction
la h
ĠB erries
ĠB lossom
ri en
op h
ore man
con s
Ġli dded
per ate
ĠE ye
Ġspray ing
Ġocc assionally
Ġfirm er
Ġfa vor
ma vera
pot les
Ġburn ed
Ġtea pot
ĠCrisp ix
vil le
ĠTe quila
ĠBlue berries
ĠDel uxe
orch es
Ġgum d
Ġmult igrain
ĠBle nder
Ġfun nel
Ġcriss cross
ĠOys ters
ĠGel atin
Ġmil der
Ġrain bow
ĠComp let
4 50
B atter
F estive
S nick
T of
W on
i qu
t w
u z
v an
v oy
Ġt aken
Ġa minos
Ġs ign
Ġun popped
ve ined
ĠP it
Ġpepper jack
Ġr abbit
Ġheat s
ĠG as
Ġpre baked
art lett
Ġuns liced
ĠFor est
Ġde boned
fa its
Ġsit ting
Ġpul ses
Ġman ual
ecor ino
ĠPo ck
Beef y
ĠSn ip
Ġdump ling
uns weetened
!! !
pr int
Lo aded
ĠEas iest
Op en
fir m
Te quila
Ġcarmel ized
ĠSug gest
9 5
L avender
P aleo
j ect
k n
m akes
n ote
p ut
v olone
in ation
Ġf ifteen
ic ilian
ou d
Ġh arina
ĠS it
is bury
ra mi
ĠB or
Ġsugar ed
ĠT uck
ĠR ound
Ġsh akes
ĠF ive
ay ote
ĠSp ices
ĠG azpacho
ĠH ens
Ġapp ropri
Ġbeef steak
est yle
Ġtomato s
Ġsoy beans
Ġlo bsters
Ġsl ab
ĠV enison
os c
Ġlen ght
Ġcor es
Ġtri fle
ĠCorn ed
ĠPepper mint
St icky
Cheese burger
ĠPl unge
Peach y
Crust less
ĠLoos ely
ones ian
ĠMex ico
ĠHea vy
ĠChil es
ĠRest aurant
ĠFRO ST
Ġdai kon
Ġavacad o
Ġdisol ved
urs ts
B ran
C elery
I CE
V EN
d ark
e k
er ara
ut ing
ro l
un ks
Ġd ess
Ġh i
Ġ( \
as to
ĠP E
ĠA head
ĠA maretto
Ġst ur
Ġv ital
all on
Ġsh rink
ĠW ing
ĠL ondon
ĠH el
ĠO ut
Ġpast y
ĠE ar
Ġlo cal
og g
Ġshrimp s
Ġgarnish es
ĠJ uli
Ġimm edi
ful ly
Ġevery one
Ġscoop ed
Ġha pp
ty pe
ĠPo ached
.. ..
ĠLea ves
Cheese cake
Corn ed
** .
ĠPl antain
ĠGran ulated
sk inned
ung ry
ĠKitchen s
ĠChard onnay
Ġbutterf lied
ĠPret zels
spray ed
Ġgingersn ap
ĠParsn ips
ĠMED IUM
ĠFROST ING
E m
J an
J am
L ittle
O reo
T am
T op
W il
g allon
l en
o or
u a
al coholic
Ġl ist
Ġl yc
ir ard
Ġover beat
Ġover hang
ĠM et
ĠT ur
ĠT apenade
ĠD aniels
ĠW ont
ĠW inter
uc a
Ġpin eapples
Ch ar
Ġthicken ing
so up
Ġcer tain
ĠFl akes
ĠBr ine
bon eless
Th anksgiving
Ġdis ks
Ġscr ub
Mo zzarella
Ġtest ing
ĠCap er
ĠIN GRE
ĠCor iander
ĠBag el
uv ignon
Ġkum qu
Ġsuffic ient
ĠFres ca
tri mmed
ĠBUT TER
DI ENT
ĠCarbon ara
Ġatl east
ĠINGRE DIENT
B arb
B ailey
C ampbell
F lavor
H ome
M iss
P op
P istachio
S anta
T O
f ill
g ano
r g
s quar
t ly
v ia
Ġb is
Ġp armesean
ing ly
Ġd iluted
Ġh ull
Ġh ealth
Ġun roll
ĠP la
ĠB reeze
Ġr as
ĠM ontreal
ĠT ahini
mb ros
ĠD uncan
Ġpowder s
ad ent
Ġdough nuts
Ġginger bread
ĠBeat en
ĠV elvet
abb ouleh
Ġflavor ful
Ġfruit y
Ġchi pped
Ġallow ed
Ġpart icular
Ġha ving
Ġgall ons
ĠTr eat
ĠPack ed
Ġsor ghum
Ġsuit able
Ġwait ing
ev iche
ĠUS E
Ġjo int
Ġsuggest ion
ĠHear ts
ĠTbl s
Ġmandol in
Col or
Jo hn
Ġgher kins
Squ ash
ĠMIN UT
Ġstur dy
G o
L im
P ic
P ina
c ass
f ound
h ard
j u
o ven
s hell
Ġc lement
Ġs olution
on a
Ġb occoncini
Ġm acaroons
ar ah
ro z
Ġd italini
ĠS undae
ab a
ĠC hees
ĠC heez
Ġmin ts
us ion
ĠB ottom
ug ly
ly n
Ġpa int
ĠH int
ĠH ollandaise
Ġcut let
Ġk raut
Ġpackage frozen
Ġhea ped
Ġmo zarella
Ġen amel
ig ra
sp read
Ġ18 5
ĠRo ot
iscuit s
ĠCar ibbean
Ġcereal s
ĠFree zer
Sh redded
Crock pot
ĠSmooth ies
Wh ipped
iffer ent
ĠCap rese
Ġven ts
Ġsnack s
Ġblock s
uri zed
Ġspa ced
cel ery
upp ies
Ġdisapp ear
tip asto
mbros ia
B oiled
C ola
C razy
L eek
M agic
S ee
U RE
c arb
p eanut
r d
Ġ ign
er ic
ing ton
Ġg rey
ĠS H
ĠS atay
ĠP arm
ra isin
dd ess
ĠM aster
ĠT ots
im i
Ġslic er
Ġcan ister
ĠIn n
st raw
Ġsmooth ly
Ġsl ush
Ġcro wn
wh ere
ĠCr eat
Ġeas iest
ĠSm oke
ĠPrepar ation
eri ac
bo x
Ġouts ides
Sm othered
ĠTender s
Cook er
usc ious
che on
icc ata
Ġspa etzle
ĠPri mavera
Aut hentic
Real ly
turn ing
ĠWon derful
ĠHar vest
Ġrutabag as
ĠDec rease
icor ice
Ġlenght wise
irard elli
A id
B etty
D ark
K raft
M ores
P ea
T art
Z E
a j
b owl
g ies
s w
w ards
in ing
Ġb ear
ut hentic
an ny
Ġd iff
ch amel
ĠB und
ol led
Ġn ori
Ġn iblets
ĠF oreman
li qu
ĠW isk
Ġan a
Ġcar b
ag ain
ĠE spresso
Ġlit re
ack erel
fection ers
Ġwork ed
Ġpart icles
ĠPan cetta
Ġadjust ed
Ġsec uring
ĠAn other
Cook ing
ĠSnack s
Ġear ly
erd oodles
Ġsuggest ions
ĠHo isin
ĠCashew s
ĠPor ridge
Ġdisc s
Nor wegian
Ġhusk ed
Ġtuck ing
Ġsauc er
Ho isin
ĠLeg s
quarter ed
Ġrev iew
Tof u
A B
C afe
G rape
K ick
L EN
g resso
h irardelli
m ettes
o on
o vers
in stant
Ġc ell
Ġb akes
Ġd irt
ou lade
Ġh alloumi
ĠC ow
ot ta
ĠP et
ĠP LA
ĠB ass
ĠA wesome
ĠA mazing
ĠCo co
Ġover n
ĠF uji
qu iri
ĠW afers
ĠH AL
Ġk o
ĠE t
ĠTo o
ĠN O
Ġres ist
Ġsqu id
Ġchi potles
Ġflat bread
Ġbeg un
Ġtoast y
Ġpres erved
Ġbr ussel
Sa uerkraut
Ġfragr ance
Ġfo ot
ĠNOTE S
ĠBl oody
Ġcav ities
Mushroom s
Ġrequ ire
AN T
over night
Nut ella
ĠON E
Ġgher kin
ĠLeftover s
Ġsouth ern
ĠSL OW
Ġbru ised
istur bed
Le banese
ĠINGREDIENT S
S erve
a ger
g ent
t el
z y
Ġ ut
Ġs erves
il st
il ey
po ur
it ely
ĠS erved
ĠC raisins
ĠC rowd
ot es
ĠP arboil
ĠP ecorino
ĠP iccata
Ġfor th
ĠM ass
ĠT ightly
ĠR ing
im al
Ġgr nd
ĠW ELL
Ġse lect
ĠL ady
ĠH ollow
Ġ6 4
ass i
Ġapp etizers
Ġcont rol
Ġice cream
Ġsc raps
ĠK orean
ĠJ erk
Ġpat ting
Ġpo pover
va porated
asp berries
Ġar ran
aghett ini
uck et
Ġcrab s
ys ter
av arian
Ġim ag
Ġtam ales
Ġvari ations
ĠRot ini
Ġgrapefruit s
AR GE
Ġseg mented
Ġcapsicum s
Ġhar icots
ĠHear t
ĠPic ante
four th
Ex tra
Ġchild ren
Ġsubmer ged
ĠPres erves
chn it
UR N
Ġmax imum
agg i
orches tershire
Ġana heim
ĠPLA CE
ĠHAL F
A VE
L ighter
n ie
r ates
t est
w ine
Ġc elsius
Ġc edar
Ġm uddle
un cheon
it ter
Ġg ala
Ġmin eral
ot tle
to ss
ĠB un
ĠB oursin
ĠA la
ĠM ussels
ĠF N
ĠW AT
ore gano
ĠG oya
ĠL ove
par k
ĠO reos
ĠO VEN
mon t
ĠWh iz
Ġsweet corn
ew ed
ĠN ice
ĠN ight
oy al
sp ired
ang os
Ġde ter
Ġbo at
cho ol
ĠSc ald
pric ots
uck s
ĠCa ppuccino
ĠSk ins
Ġcirc ul
Ġtr ick
Ġdrum mettes
ĠFluff y
sm ooth
Ġcav iar
Ġens uring
Ġris otto
Ġjo e
ĠPin to
ĠCur d
B ow
D ry
E d
F F
T ilapia
c ted
i ver
s ely
s lice
u j
Ġs aran
ar ound
Ġl rg
Ġd ue
le f
Ġh urry
ĠC ryst
ĠC AKE
ĠC rescents
is ting
ĠB ig
ol der
Ġst ones
Ġsa ut
Ġr eason
Ġbro ad
ĠT ropical
Ġwh it
und iluted
ĠF un
Ġcr ud
ay as
qu ite
ĠW asabi
ĠW edding
Ġse itan
ĠG ourmet
ĠG eorge
ĠL abel
ĠL ARGE
quar ters
pe can
Ġliqu ef
Ġpreheat ing
ac ardi
elt ic
Ġcomp leted
Ġsqu irt
Ġund isturbed
udd ings
uck er
Ġabsor bs
Ġwood y
Ġha v
ĠToast s
Butter ed
ĠMar garine
Ġfoam ing
ĠRe qu
bur g
Ġcob bler
Fl our
Gran ola
Ġtend s
ĠChil ies
ĠOther wise
ien ers
Ġmass age
Ġsubstitut ions
ĠInst ead
run ken
ĠPock ets
B ul
B rie
B lt
B ananas
F il
P arsley
S E
g ly
k an
u da
in itely
Ġc row
Ġs undae
Ġm od
up on
at is
Ġd al
or mel
pp e
ĠS ilk
ĠS ieve
les t
Ġun prepared
ak ers
ug s
Ġr atio
Ġso le
Ġre con
ĠF oster
ĠD a
ĠL ite
Ġcon ven
Ġba iley
Ġbread stick
Ġblack en
Ġcool er
Ġsmooth ing
gar itas
ĠN or
tom atoes
Ġnut ty
Ġfill ings
Ġcrisp ier
ĠItalian o
Ġdash i
ĠRef ried
ĠRo ad
Ġflat tening
amb ord
Sp lit
Ġfour th
ĠSweet en
Ġrub y
ru d
ĠLo aves
ĠMar ia
Ġwe igh
ĠRa ita
ĠFrit o
Ġel imin
ĠDough nuts
Peach es
Ġpor cini
ĠPar faits
Ġemuls ify
eno a
Ġsubs ides
inf andel
Nor th
Ġts ps
Ġpost ed
Ġestim ated
Ġcork screw
chnit zel
lef tover
G G
J icama
M ore
Y our
a ving
c les
g l
r ator
s eal
Ġc ri
Ġs ided
Ġb ibb
ro wn
Ġl ol
Ġh oliday
ch we
ch ili
to gether
Ġfor ced
ol ks
ĠM ine
ell ogg
Ġsh ut
ĠD ew
ĠD RAIN
Ġab s
con e
ĠG R
Ġcon vection
Ġex act
inn ish
Ġmar ry
Ġte xt
Ġcar bs
Ġcar tons
Ġlet t
ĠE aster
Ġwhole meal
Ġsyrup s
Ch ampagne
ĠV irgin
os a
os ing
ack s
crum bs
Ġeas e
Ġbrush ed
ĠUn til
Ġsn ip
Ġspring y
Ġlik ed
ĠDO N
Ġwash ing
cl ean
ĠTr uffle
Ġcryst al
Ġomit ted
ĠScall op
ĠShort cake
ĠCub es
raz il
Ġcond iment
Port abella
Ġdress ed
Ġmom ent
Ġtum eric
Ġkiw is
oph ane
Ġappropri ate
B a
C om
M E
S peed
b acon
e gemite
r ich
s ided
Ġt ell
Ġt ied
er ate
Ġo x
Ġm ung
Ġin ver
po p
at ional
ing on
un e
ĠS ort
ĠC loves
Ġmin d
Ġpe ices
ĠB ath
Ġj us
ĠM eyer
Ġsp ar
Ġsh aken
Ġcl usters
ĠCh est
rink les
per ed
Ġhigh est
ump t
Ch orizo
Ġpinch ing
ĠJ asmine
Ġshor ter
13 5
Ġmint ues
ĠCar nation
Ġcand iced
Ġtowel ing
Ġgri d
ĠMo jito
ĠPo povers
add y
add ing
Ġdecor ator
bro th
ĠBl ondies
ĠGrand ma
ĠPack ets
ĠCarb o
Ġmound ing
ĠSec ret
ĠBo ats
Ġsear ed
HI S
Ġjo ints
Ġtomat illo
Ġvar ious
ĠCH O
Ġcourget tes
Ġspl atter
Pass over
Ġdem erara
Won derful
Ġinver ting
A frican
B ea
D illed
F amily
F UL
L et
L ike
M uff
l ene
p a
v is
w a
w ash
Ġt inned
Ġp ilaf
Ġm angos
po lit
Ġto g
Ġl icorice
Ġl uncheon
Ġd ilute
Ġd ense
Ġ2 30
ĠS ee
til age
ĠP istachio
ch eddar
Ġsalt s
ĠA pricots
ri an
Ġfl an
Ġ4 2
ĠM outh
ĠM ignon
ĠI C
igh ly
ĠR O
Ġgr it
st em
ef ish
ĠL I
ĠL unch
Ġcar tilage
Ġpre f
iz es
Ġwarm ing
Ġmo ons
Ġpap ayas
ĠRed Hot
ĠButter y
Ġpart ly
Lemon ade
bo ok
bo ard
ĠPo int
Ġtub es
Ġcreat ive
Ġthir ty
Ġrel eas
Sc ottish
Ġsmok y
Ġsho ot
Ġgro uper
ĠSouth western
car rots
Ġveg ies
Ġstay s
whe el
Ġcal ifornia
Gra ham
Ġfilter ed
ĠON LY
TION S
Ref riger
Ġquant ities
Ġskimm ing
B el
C umin
I X
K iwi
L D
L ower
V idalia
V enison
W hen
k ing
p aper
r in
Ġc alamari
Ġm ellow
at as
al ines
un peeled
ĠS E
ab l
ab ern
ĠP are
ĠP ace
ir g
ĠB AK
ĠA ka
ĠA bsolut
Ġsa ved
ĠT uscan
Ġn est
Ġsp in
Ġsh redd
Ġsh oyu
resh ing
Ġgr ates
Ġground s
Ġwell s
op a
ber t
ĠH our
ĠH ill
Ġz a
ĠV eg
Ġleaf y
ĠCar ne
ĠPepper idge
Ġbri oche
Ġchees y
Wh isk
atur ally
bro ken
Corn meal
Sm ok
ĠMon te
Ġpull ing
ĠGrand s
Ġhom og
Ori ginal
unda es
ĠMarshmallow s
squ eezed
Ġextend ing
utÃ© ed
ĠOPTION AL
squar e
ĠSLOW LY
Ġhav arti
abern et
B on
E gyptian
H ershey
N e
P ress
S even
W a
W asabi
\ -
b ol
c ur
g inger
h redded
h renheit
i ence
l ean
l eans
v ados
Ġc ous
Ġs erv
er ts
re ts
al er
Ġg ray
Ġg ame
Ġg oya
or tening
Ġh ollandaise
ĠP OUR
et h
et ida
Ġst reaks
Ġbut cher
Ġsa zon
Ġfl utes
ĠM ama
ĠT on
ĠT ilt
ĠF RE
ĠD ai
ĠW ILL
ĠSt rata
ain ing
ĠL avender
Ġ10 00
Ġpie crust
ass y
Ġpast rami
ĠN ect
Ch ai
Ġres pect
lo aves
Ġqu ail
ĠRefriger ator
Ġtri pled
Ġhor mel
Ġliqueur s
Co leslaw
ĠPro ceed
ĠPro volone
Ġpres erve
Ġaltern atively
Ġsec ret
ĠDe vil
RE AM
ĠAn cho
ĠOver night
OW N
Ginger ed
cream y
Ġtr eats
Ġmors el
Ġhus band
ria nder
Rec ipe
ompan y
Lo bster
Ġtanger ines
hea vy
ĠBR OWN
Ġvar ies
ĠColl ard
metal lic
Rock y
Ġjalep eno
Im possible
Ġaltit ude
Ġdepress ion
ĠBund les
ĠMass age
Ġlett uces
3 6
A lo
A my
G rain
K ar
M ussels
M acadamia
T EL
Z ippy
b el
g as
r aspberry
t ega
Ġc asser
Ġc amembert
Ġt angy
Ġt ropical
ea ring
Ġp ate
ar falle
at ly
ĠS chnapps
Ġ( ~
ĠP urpose
ch ickpeas
ĠB ea
Ġr ustic
ĠI T
ĠT or
ĠR ounds
Ġy ields
Ġoven s
ĠSt arter
st ura
Ġk inds
par e
par i
ap ted
Ġcar cass
pan y
ĠE vaporated
Ġcont act
af ing
ĠK im
ĠTh anksgiving
ĠEn ergy
Ġhand y
Ġcor riander
ĠDi abetic
stit uted
Ġfa hrenheit
ĠSm othered
Ġpul sing
ons ter
ĠOr leans
Ġ-- .
Th yme
ER S
Ġcola da
app uccino
ĠMin estrone
bro ccoli
man n
An other
Ġperson ally
Po or
Ġspir als
Mar garita
ĠCro quettes
ĠGo ddess
Bo ston
Ġmess y
Ġsuc cess
Ġflo ating
Ind onesian
Ġcel cius
Del uxe
ĠIC ING
Ġrespect ively
. '
C appuccino
D ec
F antastic
R itz
W ine
f il
in ary
er ella
Ġp oked
at elli
an co
Ġd a
Ġg ather
Ġch eap
Ġch afing
el a
is to
Ġ3 3
ĠP ER
ra zz
ok s
ĠM iddle
ur ple
am ple
Ġpot s
ĠG RE
ĠG ooey
ct us
ĠL ess
ey es
Ġve ins
and ies
Ġpars ely
Ġdough nut
Ġpin a
ĠN acho
Ġgl ue
Ġcrack s
Ġres id
ĠButter fly
Ġkn own
ĠBread ed
Ġquick er
ĠAl uminum
Ġtea bag
Ġtil ting
av ian
ĠSe perate
Ġwra pping
Ġdrink s
Ġlin ing
Egg less
ĠMon key
Ġcour sely
ĠFran ks
Ġvariet ies
ĠCla ms
Ġjigger s
ĠGraham s
eor g
Ġrip ened
ĠGl ass
Is land
ĠSnick ers
Ġtost ada
broil er
Ġgener ally
Rem ove
Ġexper iment
ĠComplet ely
ĠPlantain s
ĠMet hod
Ġdiff ic
! !)
9 8
? )
C or
E very
P ut
P eas
T ur
b anana
e qu
f ield
p et
s erving
Ġc ame
Ġc eltic
Ġa merican
ea land
he ys
al lah
Ġl eche
Ġd ulce
Ġch ance
ĠS il
ĠS irloin
ĠC HE
ĠC uracao
Ġ( (
ĠP ower
ĠAdd itional
ĠM ug
ĠM AKE
ĠI ron
Ġn achos
ay st
st rap
ther e
ĠSp am
ain t
ĠG umbo
ĠL ong
ional y
Ġmel ba
ĠO amc
ers heys
Ġcrumb ling
ĠY am
Ġsepar ates
Ġdill weed
so aked
Ġcrock er
Ġbou quet
Ġdou bles
lu de
Ġcardamom s
Ġmost accioli
ucc ot
ĠPo blano
ĠPo upon
add ock
Ġdis color
ĠGran ita
ik ed
Ġ: -
Pl um
go stura
ĠFil et
Ġid eal
jo ol
urk ee
Ġbutterf ly
ĠHold ing
into sh
Ġton ic
Ġspec ified
Ġshimmer ing
Mel on
Con fetti
Ġsna pped
Ġattra ctive
2 25
F arm
M as
P er
P re
V er
b ena
p ure
s icle
u zo
v os
Ġs aturated
es an
ar on
Ġd isp
Ġg la
Ġg ummy
pp in
ĠC amembert
is a
is cons
ok ing
us k
ĠB acardi
Ġst reak
Ġth inned
ĠM ild
ur ch
ĠT et
ĠT upperware
ĠR ED
Ġsp ritz
Ġsh ri
Ġstir ing
ĠD an
gr ill
op ened
edd y
ger ine
Ġpack ing
Ġmar ket
Ġcrush ing
ĠDrain ed
ĠV oila
Ġde v
ĠPeel ed
Ġcap er
ĠUn fold
Ġburn s
Ġman chego
elb a
Ġbr ats
Ġbr uschetta
ĠCrum bled
Ġver bena
IGH TLY
Black ened
In cr
ĠPr aline
ĠMed allions
Pan cakes
HI CK
ĠLat kes
ĠTbl sp
Ġfr ont
Ġdehyd rator
Ind ividual
ĠTra der
powder ed
Ġinten s
Pr aline
separ ated
Ġkumqu ats
Ġcell ophane
Speed y
polit an
Ġdiffic ult
uccot ash
iscons in
C reme
C TIONS
C ompany
F udgy
F ORE
N acho
P our
R os
V eal
b oth
b asco
i h
m ust
r uc
Ġc ampfire
es tern
ro d
an at
Ġch ayote
ĠS lit
ĠC ons
ĠC REAM
is ture
Ġun opened
ĠP om
ĠM ist
ĠM elba
ur ric
ĠR im
Ġe lement
Ġsm ear
ĠD r
st ea
ĠSp onge
ĠCh ambord
ĠL assi
Ġcon c
Ġmar bled
ugh t
uc hen
na heim
ĠE A
ĠE ast
Ġrefriger ating
ĠSa ffron
ini a
Ġnot es
Ġdough y
Ġprocess er
Ġgra de
Ġfla mes
ble ts
ĠGar banzo
Ġjar lsberg
Ġde bone
Ġhand les
Ġpo inted
stit os
Ġpul ver
Ġman ner
Ġmeas ured
Ġconcent rated
ĠApp etit
Sh erry
ath y
ĠPo or
ĠStew ed
uk es
Sm ashed
In to
ott led
brown ing
Ġresul ting
Ġsor ted
ĠCap s
ĠSouth west
Meat ball
Ġrich er
acaro on
ĠSear ed
Min ted
Ġla ger
Ġdisapp ears
ĠFar enheit
Ġbu ild
Ġche vre
Ġsupermark ets
Ġu don
ĠBu ild
Ble u
Ġkir sch
park ling
umpt ious
irg inia
urric ane
= =
C rum
C ider
E meril
K id
K im
O ur
O kra
S arah
T ra
f low
i ents
k ake
p ineapple
u rop
Ġs ound
Ġm eans
en cy
or gan
ĠC UP
ot o
Ġpe pitas
ĠB one
Ġcho lesterol
Ġr ash
ts p
ĠT ar
Ġwh y
Ġn othing
Ġv iew
ĠF ool
ĠH av
ins ing
ue vos
Ġz ucch
ĠN E
Ġsc ra
isc us
Ġwal la
ĠK risp
Ġtw ine
ig ella
ĠY oghurt
ĠJ erky
ens ive
Ġshould n
Ġcol la
ĠAl la
lit z
St ewed
ĠBr u
ib iscus
Ġhe mp
mm m
Ġver ts
Tom atoes
ĠCho ice
ĠTO P
Ġdrum ettes
ĠCO VER
OR T
Pepper ed
ĠCub an
ĠCro iss
Ġwhe ther
Ġour s
Gra mm
So up
ĠGrap efruit
AY ER
Ġrutabag a
Ġband s
Pers ian
ĠRell enos
ĠMad ras
Ġdess erts
Ġtext ured
razz ini
eorg ia
- .
C ro
D eb
I ES
M s
M al
O h
P reheat
R amen
S age
V elveeta
c ould
Ġ q
Ġt arter
Ġa ge
en ces
al uminum
Ġch urn
ou ette
Ġh uge
ĠS ides
ly cer
Ġsa voy
Ġover ripe
ĠM aker
ĠM iso
Ġwh ichever
Ġwh ilst
Ġv itamin
ĠF izz
gr illed
om m
ĠSp ir
ink le
ef f
ĠG irl
ĠG iant
Ġmar gerine
ag n
ĠTo st
Ġlo c
tle ts
Ġpound cake
ear ded
ĠK ool
ĠCheese cakes
Ġcor d
ack y
ĠRefriger ated
ĠDi pped
red uce
Ġpla y
ĠGarnish es
Sp lenda
ne ck
Ġdro pping
ib by
ĠApp roximately
ĠFruit y
ban zos
RE AD
ĠRes erving
Ġdecor atively
Al fredo
cup s
ĠRe ese
Ġpur pos
Ġseg ment
ĠScall ions
Ġsor rel
Ġmill igra
Ġcoll ards
Ġdec ide
En chilada
AS E
ĠPass over
ĠBE FORE
sto ck
Te nder
Ġsubstitut ing
crack er
lon ger
Ġmer lot
Ġcit ron
refriger ated
Ġfriend s
ĠPim ento
Ġfavor ites
tw o
ĠEar th
Ġign ite
liqu id
Ġelimin ate
ĠTet razzini
Into sh
urop ean
Ġpurpos es
A C
C ran
C ardamom
F ig
L ite
L asagna
P ico
R egular
S G
S icilian
c i
c ap
h erb
h rs
i ently
in er
Ġc res
Ġa while
Ġb oy
Ġb alm
Ġm ys
Ġm ignon
Ġw ip
Ġd unk
Ġg umbo
Ġch ang
el ves
ĠS I
ĠC ARE
ot a
ra m
ĠB ush
ĠB ottle
ĠA v
Ġst ated
gh orn
Ġ4 6
ĠM iss
ĠM AR
ĠM icro
ĠM uesli
ĠT ia
Ġn uke
Ġsh ade
ĠD eli
qu ik
Ġis land
ad illo
if ies
Ġas af
ĠG ingersn
ĠH ormel
Ġk ing
Ġblend s
Ġpast ries
Ġpro ble
Ġlight en
Ġlon don
ĠV eal
ble nder
Ġcol le
uss ie
Ġpackages hredded
ĠSm ashed
rit zer
Ġjam a
ĠZ ealand
Sa voury
ĠFruit cake
Ġhe ll
Ġrot elle
ĠMar garitas
ĠWal la
Al tern
Ġflame proof
Sc r
ĠRot ate
pack aged
ĠScall ion
De vil
ĠMan chego
Ġdel ay
fir mly
ĠTap ioca
sub stitute
coars ely
ustr alian
Wil ted
Ġlyc hee
ĠMINUT ES
ĠCarbo hydrate
Ġview er
A ka
D ump
F innish
H eat
K entucky
L uscious
N oodle
S unday
g ot
s immer
y n
Ġt ree
es ian
Ġb ucket
Ġo reo
Ġm ist
Ġm ackerel
Ġl ingon
Ġ2 10
ou li
el sh
ĠS undaes
as ionally
ch op
ĠB asting
ĠA m
Ġst on
Ġst ars
Ġsa ck
Ġr insing
ĠAdd ing
Ġbro ccolini
Ġwh iz
ĠR olled
am ate
Ġsh ave
Ġsh ears
ĠF ine
ĠF illet
ĠSt ring
Ġmilk shake
ip er
Ġsk il
ĠG LA
ĠG odiva
ĠL iving
od e
Ġve gemite
Ġal together
Ġsimmer ed
ess a
enn y
Ġany where
Ġhand held
ĠBread sticks
ĠRo om
-- .
ĠPepper corn
Ġ23 4
Ġind oor
Ġmade ira
IN T
ĠSw ordfish
amom ile
ĠAn gostura
Ġme et
Ġpower ed
To pped
ĠLi berally
chi ette
Ġbel ieve
Ġimmer se
Ġpri me
uns chwe
ĠPort ion
Sun ny
OO K
ĠBE AT
ĠPops icles
Ref ried
Ref reshing
ĠLim a
upp y
Ġcel eriac
ĠVARIATION S
Ġmozz erella
ĠUs ually
ĠWont ons
ĠRequ est
Flour less
Dec adent
Ġmilligra ms
ĠCARE FUL
unschwe iger
A fter
A head
B eat
B eans
C he
C antaloupe
D ough
F un
F illed
G rap
H om
H ellman
K ing
N a
S parkling
h l
p ap
s poon
s ides
t r
z u
in avian
Ġb arbecued
Ġb oursin
Ġp un
Ġp arb
at at
ro ots
Ġh int
Ġco ffe
ab ic
ĠC el
is ian
Ġ3 10
ĠP AN
ĠP armig
Ġpe ek
ĠB ri
ĠA T
ĠA bm
ĠA naheim
Ġr u
th ese
Ġsp aghettini
Ġstir r
ĠD uck
Ġgr ating
Ġpowder y
let te
if ruit
ber gin
ul f
and inavian
Ġseason s
Ġra nd
ĠO pt
ĠWh at
Ġmo on
Ġen cl
Ġsc ored
ĠSh arp
Ġstraw s
ĠJ icama
Ġstand s
ind ow
ĠPie ces
Ġher ring
pl ate
ah ead
Ġbrand s
Sa utÃ©ed
fl at
ĠLo vers
ĠFa il
Grand mother
Sc otch
ĠShe et
Ġsteril ised
ĠServing s
Gra m
ope z
Har vest
andel ion
ĠFig s
Ġrepla cer
ĠInf used
Ġmes quite
ĠEnd ive
wal nuts
ĠDiv an
ĠBor der
Ġcrud ites
Ġspar ingly
ĠHav arti
Ġmys elf
bergin es
' ,
. ),
/ /
D ream
D ip
G ooey
L ea
L ouisiana
M em
M iso
O ON
R ainbow
T abasco
a zz
b bles
h aps
h ours
i ery
l uck
s mo
Ġt ables
Ġa ff
Ġa ubergine
on al
Ġb elly
al af
ro of
Ġg lycer
ĠS lip
Ġmin us
ĠP uppies
dd les
ĠB ur
ĠB ear
Ġth ousand
ĠM ill
ĠM ud
ĠM uenster
ĠT b
am pari
Ġre cover
Ġcr is
ĠD ie
ĠD one
st ems
age tt
ĠCh oc
ĠL ee
Ġhot d
Ġli ve
Ġclo ver
Ġfin er
ĠO ption
Ġpre made
ĠE ven
ĠE GG
ian e
ĠN eed
Ġonto p
af ter
Ġspoon fulls
ĠV egemite
os odium
ĠTh ins
ĠTh umb
Ġpaste urized
Ġcur ed
Ġremo val
unt y
Sp read
Ġcolor ful
cho ose
Ġmon osodium
ĠCoat ing
Co mbine
ĠPro sciutto
Ġmeas ures
Ġherb al
Ġlik ely
ĠBl ot
ĠTw ink
Ġstrip es
Ġ: )
Marin ade
Ġbeet roots
Ġfar enheit
ĠCub ed
che t
car eful
ĠPap aya
ES E
ĠRib bon
Ġshow ing
Ġflo ats
ĠBul gar
ĠTem perature
Ġmould s
Ġdelic ate
Cap rese
Rom a
Whisk ey
ayst acks
Ġshri vel
. \.
A W
E P
M c
P ita
R oni
S am
a at
a id
c il
h ance
p int
r al
r oni
r ably
x ible
Ġb er
Ġb irds
Ġb reaks
Ġp ump
Ġp uddings
Ġm agic
Ġf ield
an es
Ġd ra
Ġd ream
Ġd am
Ġh it
Ġh aban
el les
ĠC eviche
ot ic
ch unky
to se
Ġst ab
Ġsa ucy
Ġr ange
Ġj apanese
Ġgar ni
Ġn aturally
ĠR ican
ĠSp rout
Ġred istribute
if ts
Ġse le
Ġas k
ĠCh imichurri
ĠL eche
ĠH unt
Ġal ot
Ġcar bo
ugh ing
ĠO mit
Ġsour ed
Ġmustard s
Ġliqu er
Ġgra nd
Ġoccas ion
Ġsoft ly
ĠSh oot
Ġclean up
Ġde viled
Ġcom fort
Ġdon uts
Ġdeep ly
ĠAl ways
ĠFl an
Ġcott on
ĠCan e
ĠSw eat
top us
lea ving
ĠFa jita
Ġpic nic
Ġmicrow aving
bler one
ĠSl ather
Ar roz
ĠBo mb
Ġemul sion
Mar tha
ĠPear l
ĠCOO L
Ġment ion
di ents
Ġkum ara
ĠAg ain
Cla m
Ġdeb earded
ĠChew s
Ġglut amate
ĠWAT ER
Ġrecon stituted
Ġabs olut
Ġrand om
! ,
D r
D illy
P ast
S ur
S te
Y um
a etzle
e qual
f el
f ra
h r
n g
s elves
u ie
v alt
Ġ icy
on de
Ġp rawn
Ġm uesli
ar g
Ġw ieners
Ġl ipton
ou g
ĠS an
ĠS am
ĠS coops
ĠS ushi
Ġun to
ĠP alm
ĠP itas
ir th
ĠB its
ĠB ibb
ri ddle
ĠCo st
Ġj un
Ġover cooked
ĠI F
ĠI ts
ĠT a
Ġn one
ĠR ea
ven ts
Ġcream ing
Ġsp ill
ĠCh i
ĠCh ick
ĠCh uck
ĠL O
ĠL opez
ĠH ere
od ate
Ġpack s
est ring
ach aca
Ġpro gram
Ġen hance
Ġthem selves
reg o
ec ause
ĠY ear
ened ict
Ġcom pote
Ġkn ob
Ġbet ty
Ġcons ider
corn starch
Ġwax y
ĠSm oky
Ġlay ing
Ġlast s
ĠPro gresso
Ġinst ruc
Th ick
The y
uer to
ramb uie
Ġcla y
mix ing
ĠSepar ately
ĠWa ffle
may be
AL L
AD E
Ġmatzo h
ĠFarm s
Ġspear mint
ĠHea ven
ĠSnow balls
Ġdel uxe
OL D
ĠReal ly
acc ording
Ġsuc anat
warm ed
ĠTra il
Ph illy
Ġmus lin
Fran k
ĠMer ingues
ĠHom iny
Color ful
lyn esian
gl ass
abl is
Ġserv ice
ĠBru lee
ĠParmig iana
valt ine
6 4
C R
D ee
I E
M outh
N oodles
W est
_ _
a ar
c ean
k fish
l or
p ically
r ins
w et
y d
Ġa uthentic
Ġs y
Ġs cone
Ġm ic
Ġf estive
Ġw orchestershire
at zo
Ġch ic
Ġch ap
el p
ĠC y
as k
Ġun buttered
ĠP al
ter ed
ter elle
ch es
us ki
ĠB aker
em pt
id ers
ĠT iramisu
ĠW est
Ġro pes
ef oot
ĠG hirardelli
ub y
Ġbread maker
ash a
ash i
Ġmar g
ĠE m
Ġpro secco
sh ip
pe h
Ġbag ged
Ġnon dairy
Ġfat ty
ac u
ĠK iwi
ĠK idney
Ġtw isting
ĠRoll ups
Ġgran ita
Ġar bol
ĠCont essa
Ġport ab
Ġho ok
Ro se
Ġsli ver
app les
press ed
ĠLea f
ors els
istach ios
ĠInc or
ĠTender loins
ĠDel ights
Ġcolour ing
ĠSun rise
ĠRel ease
Ġsilk s
Mix ture
cor iander
Ġuniform ly
Mon key
ĠIsland s
ĠPRE P
ĠClassic o
ĠBou illon
four ths
ĠPa ula
squ eeze
ĠInst ructions
Ġjalep enos
Ġcit ric
MP ORT
Brand y
Ġshredd ing
Ġzucch inis
Ġcord ial
Ġjama ican
Ġparb oiled
irth day
MPORT ANT
! ),
1 15
A bsolut
C OOK
F ix
L T
M id
N ever
P im
P urpose
R adish
R ubbed
S H
S zechuan
T zatziki
U N
a nder
f ic
f la
g n
h ind
n ese
o etida
r ick
s ea
s till
t orn
w ax
z ip
Ġc in
Ġa reas
Ġs old
Ġs angria
es a
Ġ1 16
Ġm edi
Ġw att
Ġin verted
Ġh is
Ġh ines
ĠS ir
ĠS anta
ĠC ity
ĠC rinkles
as agne
Ġpe per
dd y
Ġover work
ĠM il
ĠR ipe
ĠR aspberries
ĠD is
ĠSt retch
om ing
Ġred uction
ĠMix ing
ĠL og
imm ons
ĠO h
eal ed
Ġmeat less
ĠE ss
Ġpour able
Ġen han
iss i
Ch ip
ĠSh ot
Ġrais ed
por ted
Ġmelt y
Ġpo povers
Ġno se
Ġprefer ences
rit ion
Ġlast ly
pot ato
ĠMo ck
Th ese
Sh ir
Ġdecor ated
rec chiette
ĠBar illa
An tipasto
ĠCrab meat
ĠCO LD
ĠWork s
ĠSec rets
OU T
Ġcoll ins
ĠPort uguese
Ġsup reme
AS ED
Ġmark ets
ĠBag u
ĠPass ion
olog nese
ĠHear ty
ĠPor tobello
ĠLim eade
Ġrip en
Ġint eg
imich ang
lay er
She pherd
Ġsuffic iently
Is raeli
ĠSnick erdoodles
Ġsupermark et
Ġap rox
Ġamar etti
Ġseas hell
Ġexp and
Ġtrimm ing
Flavor ed
straw berries
Ġimag ination
Ġcircul ation
ĠCryst al
Ġhaban eros
, \
3 3
C rescent
C OL
F amous
G arb
G orgonzola
K elly
M ad
P ollo
S in
b aby
g us
s lic
s andwich
t or
t urkey
u im
v able
w urst
z est
in os
Ġs ip
Ġb la
Ġo uzo
Ġp i
Ġp t
Ġm it
Ġm udd
po o
an n
Ġl av
or ida
Ġco co
ĠS O
ĠS aturated
ab ob
ĠC rimp
ĠCo smo
Ġover c
Ġover ly
ĠM other
ĠT ies
Ġsm l
ĠD RY
ay an
li es
col li
ĠG anache
ĠL aw
ĠH addock
cc a
ach ines
Ġpro te
sh rimp
ew ish
Ġhigh ly
ac y
ĠY umm
ĠJ amaican
ĠGr ab
Ġcro quettes
ĠToss ed
ĠGrill ing
Ġsea weed
part ment
anch ed
Ġgo b
Ġcaramel izes
sc allions
Ġbar e
ata ppi
Sa ffron
ĠSe cond
ĠSk or
Ġgu ar
ĠLea ving
approx imate
Sal isbury
Ġdistrib uting
cl un
ĠBl iss
ĠBl anc
ĠCon fectioners
ĠTw ice
Ġpers immons
ĠPack age
Ġpkg s
Ġrequ ires
chi ote
ĠSun flower
Ġstone ware
ĠMc Intosh
Ġhar der
ET H
Ġaccompan ied
ĠMark et
Ġbratw ursts
ĠPic nic
Ġea gle
Ġext ras
Ġfle xible
Ġcard amon
ĠHow ever
ĠSUG AR
Ġovern ite
clean ed
ĠChest nuts
ĠCHE ESE
HICK EN
atat ouille
A maretto
B ay
B rien
B avarian
C am
D an
D rain
H alloween
K eep
M am
M ade
M ac
P ie
P ier
Q ue
S ue
S auce
T ea
b u
b it
b ring
c ast
i que
j ou
m easure
ed ged
Ġp iles
Ġm arshm
il ize
Ġf ore
al mond
Ġl ie
ce ls
Ġh idden
ĠS er
ĠS ch
ĠS errano
ĠP ina
ĠP aso
ĠB a
ĠCo ca
res ist
ĠM ean
ĠI S
ĠF av
ĠW HI
ber al
ĠCh an
ĠCh ess
ĠH ersheys
co v
Ġseason al
Ġsof rito
Ġextra virgin
ĠE qu
Ġbag gies
Ġcrumb ed
ĠRed uced
ĠSh ots
ang les
Ġstri pped
arb ucks
issol ved
vocad os
Ġbo ok
Ġinser ting
ort on
ep roof
Ġwork able
Ġgo blets
Ġreturn s
18 5
tail s
St ep
cook ie
ĠUn sweetened
ĠRec ipes
Ġincor por
.. .)
rec ommend
ĠRe uben
Ġreheat ing
ud y
Ġgi ant
EL VE
AL LY
Ġinter ior
Ġtong ue
Po lynesian
Ġcounter top
ĠChe ers
Di et
Ġsmell s
Ġcling ing
ĠMade ira
Ġing edients
ĠDI RE
Ġgingersn aps
Pap rika
Ġlat kes
Ġpen et
Ġblister ed
Ġgumd rops
Ġarran ging
ĠHill shire
ĠTar tlets
ĠMAR IN
ĠIncor porate
issi ppi
3 8
4 20
A u
B en
B ill
E legant
G H
H al
H ow
M orning
O yster
Q U
T E
T URE
j ap
l ly
l ie
m elt
o ze
s he
t em
Ġ eg
Ġc raft
Ġa verage
Ġb al
Ġb ur
Ġb ad
Ġl ad
Ġg izz
Ġch allah
ou sh
ĠS ou
ĠS ince
ĠS chnitzel
ĠC our
is er
Ġun heated
Ġun ti
Ġun toasted
ĠP rego
ĠP istachios
to ps
ĠB ill
ĠB ubble
ĠB ird
ĠB RO
ĠB URN
ol s
ĠCo gnac
Ġover flow
ĠM aking
ĠT HIS
ĠR igatoni
ven ce
Ġlar gest
Ġv an
Ġsp are
ĠF L
Ġe v
Ġe le
Ġbe chamel
Ġsm art
ĠD ig
ĠD ifferent
if ter
ĠL AYER
co at
Ġex ample
ee bler
uff ing
ul ie
and a
per ial
Ġlea k
na ise
Ġlo ves
enn es
Ġoccas ionaly
Ch ive
Ch illi
ac ific
Ġ34 0
ĠY OU
Ġrest ing
Ġscall oped
ĠCar olina
ĠUn salted
ĠMo on
eek night
Ġver s
Ġsoak s
Ġelbow s
Ġcy cles
cup ine
Sm ooth
OW AVE
ph is
Ġmicrow aved
ĠRanch eros
Sk inny
ĠMI CR
Crust y
ĠCol or
ĠMIX TURE
Ġspecial ty
Cho co
GE ST
Ġshow s
Ġau bergines
ĠShall ot
Ġguess ing
ref ined
Ġpoach ing
Ġcourget te
ĠSu ey
Crack er
ĠCR UST
Ġslash es
Ġnap kins
Ġgal ang
ĠCreat e
Refriger ator
Smok ey
Ġcasser oles
Ġ:- ).
Ġstreak y
Ġrash ers
Ġston ed
Grap efruit
ĠMICR OWAVE
) !
B AKE
C ampfire
D og
D runken
E aster
H e
J erk
M imi
N uts
P illsbury
P into
R est
R avioli
S up
S and
T un
T ip
b ar
b ie
f out
s yrup
t aste
u let
Â Ĵ
Ġc ukes
Ġt eas
Ġt ad
Ġa hi
Ġb ush
Ġm m
Ġw edged
at ile
al i
Ġd iss
Ġg anache
or a
or age
pp a
ĠS lash
ĠP ts
ĠP lain
ĠB it
ĠA mbrosia
Ġpepper ed
ĠM en
ĠM orsels
ĠI MPORTANT
th i
th yme
ĠR egular
am mon
Ġre lax
Ġv alley
ell oni
ĠF riend
ĠF ocaccia
Ġstir fry
Ġcr u
Ġbe nd
Ġsm al
ĠD ivided
li er
Ġpa d
st and
ĠSp rink
ĠSp ritzer
op ian
ore en
ĠL ouisiana
Ġblack strap
ress ed
ĠO k
ĠO le
ĠE s
Ġgreas eproof
Ġeven ing
ĠN est
ka h
Ġsl ather
Ġ13 5
Ġlon ghorn
Ġbanan e
tt p
ĠV itamin
ĠV ELVE
ĠSh ortening
ĠY olks
Ġthat s
Ġany way
Ġkn orr
mer ge
Ġfa ct
Co ver
Ġstrain ing
ru ction
ucc a
ĠStew art
ĠMar ie
Ġtex as
Ġent ree
ko e
ĠDO LE
Ġmeasure ment
ĠCon fetti
Ġle banese
may onnaise
An n
Free zer
ĠCap tain
ĠTB L
hyd rated
OU S
Ġwor ms
ĠScr atch
car rot
Sun shine
ET A
ĠBon eless
ros emary
ike lets
boil er
Ġmom ents
gu a
Ġbrick le
Ġsubmer ge
ĠEvery thing
son ville
Ġkiw ifruit
ĠRell eno
ĠComb ined
Ġsett ings
erri fic
Ġclement ines
Ġcri mini
Incr edible
Ġcres ent
Ġwip ed
Ġskil lets
ĠOpt ions
ĠCy cle
cov ado
& #
2 60
: //
A P
B urger
C heat
C LE
F ool
J ulie
M other
M ulled
R U
R igatoni
S alted
b i
b lue
b reak
d ip
f c
m arin
r eath
t able
w an
z an
Ġ âĢ
Ġc law
Ġt andoori
Ġa chiote
Ġs q
es n
il ing
Ġf ri
Ġf ib
at elle
Ġd uncan
Ġch ute
Ġh ungry
Ġh older
ĠC AN
ĠC HICKEN
ot i
ion eer
ĠB oy
ĠB OT
ĠA B
Ġcho sen
Ġth inning
id o
th igh
ĠT ag
ĠR olo
ĠR ainbow
all ot
ĠF ix
mb e
Ġy um
ay s
ĠIn a
li atelle
ip ino
ĠCh unks
ĠL OT
ĠL ibby
ĠH ope
ĠH alloween
ĠCook book
Ġk ef
ant ry
Ġcorn ich
Ġli beral
Ġpre vents
ĠSal ami
ĠSa uvignon
Ġpro vence
Ġpin wheels
Ġsl abs
Ch uck
Ġcomplet ly
por k
ind y
Ġper haps
ĠChill ed
ĠBe verage
ĠCar eful
Ġconsisten t
Ġsw ell
ĠFl ounder
Ġoz s
Ġcre ma
Ġscoop ing
ib let
elve ty
Ġamong st
ingu ica
ĠSteak house
ĠCrust less
Ġshort crust
lea ves
man s
Red uced
In gredi
ph abet
ĠPack et
EL Y
ĠLa ughing
eb urn
Ġgro ats
Ġsu ace
Ġfeel ing
Br unch
Ġtbls ps
Wal dorf
ĠSur round
Ġpouch es
Len tils
ĠJar lsberg
Ġspa ces
atw urst
Ġci gar
Bl oody
ĠWon der
ENT LY
ĠSug gested
Ġshimmer s
ĠFra ppe
Ġmus covado
Pap aya
Ġassem bled
Ġprevious ly
mushroom s
ĠSUG GEST
pecan s
rich ed
Press ure
Scr umptious
ĠDIRE CTIONS
thi opian
ĠVELVE ETA
! "
3 1
A corn
B aking
B ag
C ur
D essert
G ingersn
N anny
P udding
P lain
R I
R oll
S P
S riracha
T urn
T IL
T andoori
U sing
U FF
b ite
b reas
b ble
b ody
d rop
g les
h our
o C
t ablespoon
Ġc ul
Ġc hew
Ġt iger
Ġs atay
Ġb ing
Ġo vals
Ġm ature
Ġf uji
un ce
Ġd istur
Ġch amomile
ou la
Ġ3 70
our ite
ĠP ico
us al
us ter
ick le
um ble
Ġpepper idge
ol k
Ġsa go
gh er
Ġ4 20
ĠM EL
ĠT ang
ĠR ubbed
Ġv al
ĠF ac
Ġbe hind
ĠSt em
Ġmilk s
st i
Ġcl ings
ĠG i
Ġba c
od oro
Ġpast as
Ġz ing
ich es
ĠBro ccolini
ĠK um
Ġcomp l
Ġcontain s
ĠTurn ing
ĠBread crumbs
Ġca ctus
ĠCr isto
ĠCar ve
ĠPress ure
Ġcap ellini
erm uda
sc ant
de veined
Ġbec oming
Ġsn ugly
ĠCan nellini
IN A
ĠProcess or
Th at
app rx
Ġrot ary
min ute
ĠAn ise
oo oo
Ġtriang ular
Ġshort cake
Ġsolid ify
Corn flake
may o
arbe qu
Ġdrum stick
Ġzes ts
Ġhorizont al
Ġpass ing
rog en
Ġsho estring
Ġsu et
anger ine
Ġbor ax
ĠPer rins
Ġprick ed
Gu ilt
ĠRough y
ĠRE MO
Ġretain ing
ĠUN TIL
Ġtum bler
Re ese
Re uben
Ġspec ific
Ġoc topus
za ar
cool ed
ĠVi i
yl van
uckle berries
Ġimpro ves
Ġneat ly
Ġtrimm ings
Ġincreas ed
ĠSuggest ions
Pop corn
Ġparticular ly
Ġcrow ding
Ġreleas es
ĠFRE E
ĠDai quiri
Ġteabag s
ĠKrisp ie
Ġq ts
Ġcris per
ĠTwink ies
fra id
Ġjun iper
Ġinstruc ted
acu um
Rest aurant
Ġdistur b
) -
, ,
A b
A ustralian
G azpacho
R es
S andwich
S assy
V ID
W elsh
b ottled
d ouble
e ck
g ogi
j onnaise
l le
l ion
l bs
o ved
p aste
r abi
t akes
y ro
z ones
Ã ±
Ġc hee
Ġt ab
Ġs el
on c
Ġb other
Ġo ve
Ġm c
Ġw ar
en uts
al y
al though
an out
Ġd andelion
Ġg enoa
or ted
or ganic
Ġh ibiscus
ĠC u
ĠC ON
ĠC owboy
Ġun it
Ġun cle
Ġun refined
Ġ3 90
ĠP rawn
ter ior
ch ill
ĠB arb
ĠB artlett
ĠB enedict
ĠA vocados
et e
Ġcho pp
Ġr itz
Ġover s
ĠT urkish
Ġsp agett
ĠF ettuccini
out s
ĠW ish
om a
ĠG al
ĠCh ild
ĠL ean
ĠL ET
ĠH abanero
ĠH INT
ard ini
Ġte pid
ĠO J
Ġ15 1
Ġpre chopped
low est
ag ioli
ĠE yed
ĠE meril
Ġpin wheel
ĠN apa
Ġturn er
Ġapple wood
ĠSh iitake
Ġcomp act
Ġlit t
ĠFor ce
sp inach
sp lit
ĠButter finger
ĠBrown ed
Ġacc omm
wh ip
izz elle
fa ced
Ġexcept ion
ĠCar amels
erm icelli
Ġdou bling
Ġdri ps
ĠPro secco
Ġman is
Ro ot
Ġmade le
mm ing
ult i
ON E
Ġel der
Sc andinavian
AR N
Can ned
ik ka
chi ko
Ġsnap s
ĠSub merge
Ġflower ettes
Ġins ure
Ġstack s
jo les
Ups ide
Ġplump ed
pie ces
Ġspic iness
Ġwidth wise
ĠColl ins
ĠQ ue
Ġincreas ing
Ġgumd rop
ĠHel per
len gth
Ġras ins
Pic nic
Ġut ens
Ġasaf oetida
alaf el
Ġmention ed
slic es
Ġmarshm ellow
ĠMARIN ADE
ennes see
Ingredi ent
ĠMEL T
ĠREMO VE
A ussie
D a
H ard
J u
J en
J im
J ello
K n
L ady
M Y
M i
M r
N ect
P b
P ar
S opa
V P
W atch
a otes
b rush
b rand
d ill
h ow
m icrowave
n itas
t bsp
w ear
y an
z n
in der
Ġc u
Ġa fraid
Ġo t
Ġm ol
Ġm other
en z
al at
Ġg row
Ġg ills
Ġh uckleberries
ve gg
ĠP archment
ĠP oultry
ĠP ollo
la m
to pping
Ġfor est
ĠB atch
Ġth ro
Ġover browning
ĠM alted
ĠM organ
ĠT M
ĠT ow
ĠT AB
ĠR ewarm
Ġcream iness
mb oli
Ġbe ep
Ġbe eps
st ed
Ġ5 7
Ġrem an
ĠG ro
ĠG riddle
ct ory
ĠH ull
co conut
Ġpack ager
ul ts
ley e
ĠE uropean
ĠTo stitos
Ġspray s
iv al
Ġliquid y
Ġwal k
ĠK r
ĠTh ousand
ig s
ig an
Ġcoars ly
ort ment
Ġprefer able
ĠCar away
rit ish
Ġgel ato
amp ing
Ġpres liced
Ġequ als
Ġha ppy
Car ne
mm mm
ĠIce box
Ġgu ide
Ġfoam s
uk i
ĠFlat bread
ĠCrack ed
Ġflavour ing
ob a
ĠEx press
Grand pa
Ġcurd led
Marin ara
ĠPr alines
ans as
ĠCom pany
Ġid eas
ĠPh illy
Ġsup posed
OO D
Scall ops
act ing
Ġpassion fruit
Ġswir led
Ġacid ity
Pro tein
--- .
ĠFra iche
Ġtost adas
season ing
Ġinten se
coars e
Brand ied
Ġnap kin
Frost y
Frost ed
ĠBlossom s
Ġconven tional
ĠGR ILL
lene ck
Ġproble m
ĠCAREFUL LY
pap rika
arg ento
Ġgalang al
Ġspagett i
Ġaccomm odate
A c
B er
C up
E ar
F lax
G iant
M ince
P rawn
P olenta
S et
S liced
T oo
c ture
c ium
g olden
h old
l uski
m aking
r ind
s n
s oda
t ake
u zz
y ing
in ers
Ġa jar
Ġs le
Ġs atis
er usal
ed e
Ġb litz
Ġf antastic
at aki
ro ast
an na
Ġd ries
Ġg ifts
le x
Ġh ope
ĠS unday
ĠS uccotash
ĠC as
is es
ix ie
ch ips
ch erry
ok neck
us y
ĠB ak
ĠB olognese
ug get
Ġcho osing
ol ored
Ġover top
ĠM UST
th ur
th wise
ĠT y
ĠT ru
ĠT eddy
Ġn ame
Ġn ibs
ĠR edd
ĠR oyal
ĠR iver
ill ow
ĠF an
ĠD unk
Ġju dge
Ġmilk y
ĠG in
ĠL ouis
orn s
Ġcon st
Ġex pose
Ġex terior
ĠRem oulade
ul ph
room s
ĠO cc
ĠHeat h
mp le
Ġsour cream
ĠE dit
Ġbas es
10 5
Ġlo x
Ġdressing s
Ġchill s
Ġpreheat s
Ġsc apes
icrow aved
Ġtem peh
ĠV al
ĠCream er
ĠSh akes
ubb y
Ġde er
ist ro
cent rate
Ġbou illion
Ġinc is
ern el
ĠCorn starch
Ġexcess ive
St ick
Co co
oul os
Car ol
ĠLo ver
Ġwould n
Ġcross ways
vour ed
mix er
ĠAn jou
ĠMar z
Ġshort ning
Ġim ported
Ġpier cing
** *.
ĠFa ctory
Ġpar cel
ĠBl t
Ġstrip ed
ud es
An cho
ket chup
Ġflake y
ĠLi vers
Ġstring y
uns alted
!! !!
Fl ank
crust ed
Ġsil pat
Ġsautee ing
Hear t
Cal ico
alent ine
Ġmark ed
ais se
Ġbutt ons
ĠSP AM
ĠSP OON
ĠStri p
skin less
ĠReal tor
zech wan
sal sa
sal ata
ĠYork shire
Ġmac erate
Ġfarm er
ĠTap as
Ġma jor
Ġmes clun
ĠMer lot
**** ****
Ġamar anth
ĠJuli enne
Ġhapp en
shell ed
ĠChees es
Bel gian
Gram ma
ĠEss ence
imichang as
COL ATE
Ġlav ash
Ġprote ct
Ġgob let
Ġincorpor ating
fout i
arbequ ed
ardini era
erusal em
! (
* ,
, (
B ring
C od
C ustard
D ER
E thiopian
F IX
K idney
K athy
L L
M ild
M onster
P uerto
S us
S eason
S angria
b r
b rien
m ango
m outh
n atural
u oc
w ave
y a
z ucchini
in ous
Ġa wesome
Ġs ing
er r
es se
Ġb ison
Ġp aso
Ġf arina
Ġin a
Ġin ject
po l
po sing
po rous
Ġl ip
it ed
Ġd ie
ou let
ab in
is an
ge on
Ġun t
ter ia
ra ge
ĠB ug
ĠB uck
ĠA S
ri joles
Ġth ins
Ġth ought
ĠM aggi
ĠT W
ĠT abbouleh
Ġn ests
ĠR are
ĠR abe
ĠR achael
Ġsh am
ĠF agioli
ĠD urkee
ĠD oreen
Ġfresh ness
Ġ5 50
Ġro e
Ġas h
ĠG erm
ĠCh ia
ĠH ead
rink led
co coa
Ġk ahlua
Ġk elp
Ġtender ize
mon ia
ess el
ag ger
ĠE AT
Ġbas in
ĠSa ucy
ĠTo ddy
Ġne c
ĠN es
Ġtor ch
ĠU P
ĠTh anks
Ġslow s
Ġkn ox
Ġfa ced
Ġar m
Ġpatt ie
Sp iked
uss ets
for ced
bl ers
oun ces
Ġburn ers
Ġman ag
ett one
ious ly
ĠCan apes
ĠSqu irt
Ġbul gar
ĠNut ty
ĠTri angles
** *
Sm all
Ġpr aline
Ġseper ately
ĠClean er
Ġcav atappi
Pepper y
Ġdef l
Ġdef initely
Ġavoid ing
Ġzes ter
Ġsho ck
ĠNew man
hyd rates
radit ionally
ĠSub stit
Ġsilk y
Crab meat
ĠPap er
ĠPap rik
Ġdec af
ĠMan icotti
Ġam monia
ĠBut t
ĠZip lock
ĠSP LEN
Ġsubs it
Bar efoot
Fa ced
ĠClam ato
ĠSAL T
ĠTater s
Ġbra unschweiger
Ġoc ean
IS H
Ġbak ers
Ġdelic ately
Pers immon
ĠEd amame
Por tobello
Ġpackag ing
iqu ant
Ġsign al
ĠSuggest ion
Miss issippi
Ġpref ers
Kar en
Ġda ily
Cor iander
ĠSpir als
ĠGLA ZE
Ġhotd ogs
Roma ine
Ġrandom ly
Ġoverc rowd
ĠBRO IL
Tun isian
gher ita
ylvan ia
Ġmc intosh
ĠSPLEN DA
2 40
A m
A mbrosia
D iced
F oil
F iery
K ids
L inguini
L isa
P ri
P om
R ustic
R oyal
S olo
V odka
V inegar
W estern
c enter
c abbage
i q
k ets
s ylvania
t anes
u le
v ar
Ġ $
Ġt ons
Ġb es
Ġb artlett
Ġto ge
at ini
al most
Ġl inguica
it ian
it alian
Ġd ips
Ġd ots
Ġd anish
ĠS ter
ĠS em
ĠS ip
ĠS and
ĠS till
ĠS zechuan
ĠS chool
ĠC ast
Ġun whipped
ĠP L
ĠP oulos
ra ct
ĠB et
ĠB ud
ĠB EN
ĠB ASE
Ġof fer
Ġsa uvignon
Ġover pow
ĠM ush
Ġgar banzos
ĠT sp
ĠR ip
ĠR ag
Ġre hydrated
wn y
Ġsp utter
ĠF udgy
Ġcan whole
Ġpan try
Ġju ic
st one
ad ella
Ġcl ou
Ġse en
Ġse ep
ĠG ENTLY
ĠCh ange
ĠL inguini
arm ite
Ġk aro
Ġ- ----
ies ling
Ġcar ibbean
me x
Ġclo ser
Ġra ita
ĠO cean
Ġup s
sh akes
iv ine
enn sylvania
Ġri mming
Ġham mer
ĠK o
ĠK ir
ec ted
ĠSh ave
ĠSh uck
Ġ7 8
ĠPe bbles
Ġroast s
Ġcro okneck
ĠWhisk ing
mo unt
Ġcur ve
Ġacc ord
wh ipping
crum b
izz le
Ġfil o
Ġca ution
isten cy
Qu iche
Sp rinkle
rig io
Ġsun ny
Ġind ef
Ġtart ness
Ġpres ent
ĠZ infandel
Th ere
Sh ake
rew ed
ats u
add itional
Ġshort ly
ors ch
Cr isco
alam i
ĠWatch er
ĠAr borio
Mom ma
Ġnic oise
cl ear
Ġcast or
men ian
ĠTw in
Ġrel atively
Mo st
Fruit ed
Brown ies
Ġdef at
Ġass ortment
ĠSun set
ĠSun shine
Ġfast en
Ġdamp ened
Ġear lier
Ġdec aff
Sun flower
Ġ*** *
ĠCor rect
Mex i
ĠOVER BAKE
ĠUN CLE
sal ad
ien na
Ġingr dients
ict or
tit ude
Ġdiamon ds
IS P
ĠNon stick
ĠCheeseburger s
Ġbak ery
Ġdig estive
Ġtra il
Ġindent ations
Ġaltit udes
Ġpen cil
ĠPim iento
ĠFinger ling
Short bread
Ġhapp ens
John ny
ju ices
Ġclement ine
Fil et
ĠCHO COLATE
ĠDan iel
Ġscra per
ĠAv oid
Altern atively
hl rabi
Ġglycer in
ĠPREP ARE
Absolut ely
ĠBagu ette
Garb an
Ġlitt leneck
tanes ca
) ).
. ;
E X
E ver
E ast
H el
L ondon
M ag
M iracle
M SG
N O
N ancy
P ret
P arsn
P urple
R ound
S ome
S alami
T ry
T aste
T ony
T ahini
Y ork
c rock
e very
f ied
h ole
j uli
j elly
n s
p asta
r alo
y ps
Ġ ream
er oll
Ġb razil
Ġo l
Ġm isture
Ġw ear
Ġw eather
Ġto basco
at ures
Ġl ac
Ġd ull
Ġd raft
Ġg em
pp ine
Ġ2 60
ĠS uc
ĠC antaloupe
ĠC andies
Ġun thawed
Ġmin u
ĠP hyllo
Ġpe pp
ch an
ch ops
ir al
ĠB er
ĠB LEN
ug hen
Ġsalt iness
ĠA hi
Ġcho ices
ĠAdd ed
Ġbro colli
ĠM ag
id ent
th aler
ĠT oll
ell er
ell as
ĠF abulous
mb u
mb ay
Ġe yed
ĠD al
ĠD EL
ĠD ilute
Ġgr ab
gr ant
ĠSt ream
st ar
Ġground ed
Ġdeg ress
op t
ink s
col at
Ġlemon y
ber e
ĠH e
ĠH ush
od s
od ge
Ġk ugel
ant ly
Ġve ges
Ġal phabet
Ġcar ve
pan adas
Ġsmooth ness
ĠSal isbury
ess on
Ġgold fish
Ġnot ice
ĠWh ipping
Ġmo cha
Ġpaper y
Ġmarin ates
os ed
ĠSh aved
Ġcrisp iness
ĠGar ten
Ġclean ing
sp icy
Ġany more
ĠEn ough
Ġwhen ever
ĠRef resh
wh ites
Ġkn ot
Ġper ch
13 0
Ġdissol ving
Ġdon ut
Ġlong est
ern e
Ġmon kfish
Ġad apted
Ġmed uim
Ġinst ruction
ĠTabasco TM
IN S
ĠSw itch
oul is
ĠPat ty
Ġbl anco
roll s
ĠPl atter
Ġstrong ly
Ġem men
ĠDon uts
Ġskewer ed
ph a
ĠAltern ative
bet ter
Ġcall ing
Brown ed
Cucumber s
Ġgro wn
Ġsuit s
ein ated
ĠIs raeli
Ġjig gle
Ġrecommend s
erd oodle
ĠPin ot
ĠOVER COOK
fir st
ĠPri or
Ġfr zn
ache l
uv ian
Ha ppy
ĠBR AND
ĠGall iano
Ġslee ves
Ġbeautif ully
Ġobtain ed
Ph iladelphia
Ġfle ur
MP LE
ĠHand ful
Ġrefresh ing
ww w
Ble nder
Ġimpro ve
ĠChew ies
Ġglut inous
ĠJuli us
Lim oncello
Tart ar
Ġresist ance
Ġblacken ing
ĠNor th
Muff ins
Ġhomog en
Ġresid ue
ĠPom odoro
Crum b
ĠNE ST
ĠCroiss ant
ĠThumb print
Ġpump kins
Ġabsolut ely
oug at
Ġcin ammon
Shir ley
ĠFav ourite
Ġgizz ards
Ġcru et
oti ja
thigh s
Ġcornich ons
Res erve
Ġreman ing
ĠRedd i
Ġmanag eable
ralo se
' '
. -
B ra
B ell
B uck
C rawfish
D S
D V
D irty
D addy
E spresso
F in
F all
F inger
F riendly
H idden
I OUS
K iller
M e
M ich
O P
P ol
R AN
S C
S an
S ub
T ap
Y oghurt
c ampbell
c luding
i ro
j e
l ite
l ers
p ets
r ub
t atas
w t
y ogurt
Ġ {
Ġa id
er ried
es ted
Ġb lo
Ġp resh
Ġp hot
Ġm illed
Ġm eyer
Ġm achines
ut ral
Ġf ile
Ġf udgy
Ġw rit
Ġw indow
Ġto ughen
poon s
at ian
al ape
Ġd ist
Ġg ill
or ra
Ġh um
Ġh urricane
ĠC UT
ĠC otija
is ch
Ġ3 30
ve in
ĠP ark
la ger
Ġpe pe
ĠB irds
ĠB uds
ĠA ut
ĠA las
et ta
ri ve
Ġst ate
ĠCo ated
Ġj erky
Ġbro ught
ĠM ain
ĠM alt
ĠM orton
ĠT zatziki
ĠR ES
Ġsp un
ĠF le
Ġy okes
ĠIn spired
gr eat
ĠW oman
Ġpot aotes
st orage
Ġsk illed
ĠL on
ĠL ife
co ffee
ub e
Ġcon g
Ġan s
Ġex pan
Ġte h
Ġfin es
Ġcrum pets
Ġ& ,
Ġpin enuts
can non
Ġnon alcoholic
Ġcans chopped
ĠV ietnamese
os ole
ĠK a
ĠK ellogg
ĠK uchen
ĠSh allow
Ġfirm ness
Ġket jap
fa ce
Ġbo ats
Ġsea ring
Ġ35 5
ĠBoil ing
int zes
St ar
St uffing
Ġ23 5
Ġmed ley
ĠLemon y
ĠQu art
not iq
ĠMo jo
ĠNut rition
ĠMar tha
uy per
ĠBl an
ĠBl ast
Ġtr ust
An ise
Ġsplash es
ical i
eath ery
Ġpass ed
Ġdamp en
ĠTbs ps
Ġscal d
Ġrig ate
ĠCal vados
her es
cub es
then ware
IP E
Ġcrunch ier
So uper
ĠJohn ny
Pa ul
Ġfingert ip
-------- ----
Ġsuc ralose
ĠProven cal
She ila
Ġest imate
Ġsouth west
ĠOP EN
Ġmer ingues
ĠParsn ip
ĠUs ed
Pass ion
Crack ed
ĠNa vy
Ġgoose berries
Ġdeb ris
Rot el
Ġliquef ied
Ba ham
Alo ha
Ġgla zing
ĠTost adas
zip an
Ġinteg rated
Ġbla des
tem perature
ulet ta
Ġclou dy
Garban zo
Ġpresh redded
Ġexpan sion
, )
. *.
2 45
? .
B ok
B ack
B aba
C our
C heck
C aper
D rop
E E
F ood
F arfalle
G eorgia
M ark
M ike
S e
S immer
S ec
T or
U B
a ing
d ressing
d ente
f an
f arfalle
g s
g enerous
h ire
h att
i u
i pp
i ener
i jo
k osher
m ing
p notiq
r ds
v l
w ip
} .
Ġ ie
Ġc at
Ġc abb
Ġc achaca
Ġt ru
on ally
ed der
ea ly
Ġp ak
Ġp olish
Ġm ood
il ity
ic ago
Ġw agon
re et
Ġl asagne
Ġh yd
Ġh ttp
Ġco w
ĠS y
ĠS li
ĠC ert
ĠC ord
ĠC razy
ĠC abernet
Ġ3 20
ĠP B
ĠP lay
ĠP aint
ver se
Ġor igin
ĠB ull
ĠB lu
ĠB osc
ĠB razil
Ġbutter cream
gh ts
Ġover do
ĠM ust
ĠM unch
Ġn et
Ġn ugget
Ġv i
Ġv essel
Ġsh are
Ġcan of
Ġy ears
gr ease
ad ia
Ġteaspoons ful
con t
con densed
ĠCh iffon
ĠL ef
ĠL OL
ĠH ealth
ĠH aystacks
Ġit em
Ġk im
amon d
Ġcar afe
uff led
Ġpro mp
Ġlo st
Ġsweet ner
ĠN u
ges ts
reg on
Ġsc reen
Ġham burg
ĠK ar
ĠK at
ĠK iller
14 0
ĠTh er
ĠY OUR
arb led
fe el
Ġca ppuccino
Ġfa v
Ġsquash es
ĠSalt y
Ġenjoy ed
for d
for ting
Ġsw ai
ĠGarlic ky
pot atoes
Ġkern als
Ġmed jool
Ġreg ul
ĠCan n
meat s
Ġfra g
fl aked
ĠSe ven
ĠHot dish
Ġmas ter
oz a
RE T
ĠPo pper
ĠSour ce
Ġkind a
ank et
Ġty pically
mar ine
Ġpic ture
mit ation
Ġnew sp
HE AD
Ġhelp ful
be er
ph ant
Ġsug gests
ĠGood ness
prefer red
Ġinter val
Meat less
Pl ease
Ġscal ding
Ġrose water
Ġmal ibu
Ġlady finger
ĠPh ase
ĠHea p
Mon te
ĠMa ui
Ġchan terelle
Jo e
ĠYUM MY
Ġfrankfur ter
vious ly
CO VER
IC IOUS
ĠHom estyle
Pam pered
Em ily
Tam ale
ĠTur meric
ĠPla ced
ĠMaster piece
Ġko mbu
ĠEt ou
Bul gur
rud el
seal ing
Ġlol li
Ġhomog ene
ĠAncho vy
pare ils
Ġintens ify
Ġpulver ized
ĠSides TM
ĠEqu ipment
Nect arine
Mince meat
ĠTru via
ulph ured
ĠRag out
orsch t
Ġemmen thaler
ĠCert ified
ĠCord ial
B owl
C indy
E nd
F ancy
G old
G LE
H uevos
I d
J enn
J udy
M akes
P res
P ower
P ank
R isotto
S ilk
T A
T rout
T iramisu
T abbouleh
c hef
d g
d inary
f rench
f ollow
h ulled
o mb
p ine
p each
p ul
p ura
p illsbury
p ensive
r inse
s ter
z i
z one
Ġt ar
Ġt an
Ġt int
on ath
Ġb land
Ġb ursts
Ġo recchiette
Ġp arboil
Ġm s
Ġm ul
Ġm iz
Ġm iss
Ġto ld
at ley
ro m
it ori
Ġg aps
Ġh awaiian
Ġco ti
ĠS K
ĠS elf
ĠS aran
ĠC ass
ĠC ould
Ġ3 1
ĠP OT
ĠP RO
ch unk
ch ni
ĠB at
ĠB unch
ĠB udd
ĠB uckwheat
ĠB ecause
ĠB irthday
ĠA re
et y
Ġsa chet
Ġoil y
Ġth inn
Ġfl ash
Ġover heat
ĠM ent
ĠM ulled
id ing
ll i
ĠT imes
ĠT ail
ĠT VP
Ġn am
ĠR iesling
Ġre ese
Ġv acuum
Ġflour y
Ġsp it
Ġsp uds
Ġsh er
ĠF r
ĠF low
Ġy ucca
Ġsm o
ĠD irty
ĠW inning
ĠSt one
ad ise
ĠSp aetzle
col our
ide o
ĠG nocchi
ct ively
ĠL ie
ub le
Ġcon stant
Ġk asha
ant asy
ass ies
ass ail
ee per
Ġbeef y
Ġra gu
iz ing
Ġsmooth ies
Ġup to
ag rette
Ġz infandel
ĠSa utÃ©
ĠWh ites
Ġlo ad
Ġsl im
Ġen riched
Ġpound ing
ich y
ĠU nder
Ch ow
Ch amp
Ġcrack le
ĠK entucky
Ġfill s
Ġ7 2
ĠJ umbo
sp ring
Ġcur led
Ġcor er
Ġpo ol
Ġbo b
ĠSimmer ed
so ak
Ġpuree ing
Ġinc r
ango on
Ġgood ness
ĠSc rew
ĠSc ented
ĠAl titude
ĠPrepar ed
Ġdri bble
Co ated
ĠQu ik
ĠFree zing
ĠZ aar
Ġscoop er
ĠBr atwurst
IN K
bon es
ĠLo ad
Ġzip top
Ġsec s
alo o
Ġcreat ed
ĠCrust y
ĠCl one
Ġshort est
ult igrain
IGH T
ĠMon ter
cl arified
Ġrepeat ing
In spired
Sc ented
Ġswirl s
ĠRom anoff
sk illet
ĠBar rel
butter milk
AR D
ĠSl iders
cr unchy
Ġmatch a
abo cha
Ġear thenware
ĠCla fouti
inc lude
Ġmult ip
AS CO
Ġvert ical
Min estrone
hea ds
Ġtim ing
ĠLim oncello
upp a
ĠDI VID
Ġcampbell s
leg s
Ġparm as
Ġfettuc ini
Ġrepla cing
crack ed
Ġspl utter
Ġtag liatelle
Ġassem bling
ĠTam ale
Ġlat te
ĠIdaho an
lap se
Ġmid way
Barb ara
ĠParm a
ĠPet e
imal ayan
Ġsaut A
Wa ffles
pet ite
Gramm y
ĠGingersn aps
Ġcolle cted
Ġlingon berry
ĠBri efly
Ġru in
Ġencl osed
Ġshrivel ed
Sur prise
ask ato
Ġmudd ler
Ġpenet rate
Fool proof
rogen ated
Ġchopp ped
ĠTAB ASCO
Ġindef initely
Pret zel
York shire
alape Ã±
orra ine
Sec ret
hatt an
Pank o
Ġcoti ja
! .
' )
9 6
B or
B one
B lend
B iscuit
B uckwheat
D ish
D ave
D ressing
E mer
F ra
H obo
J umbo
J iffy
K at
M ON
M eringue
O S
S A
S l
S or
T ime
W ill
\ \
b urn
c ir
c umin
d issolved
h ar
h at
h ome
j as
k g
k rain
p ers
r abb
s y
s ed
s low
t ips
u h
y oza
Ġ ries
Ġ ),
Ġ umb
Ġc ult
Ġt asted
Ġt ang
Ġt zatziki
Ġs at
Ġs ifter
Ġo m
Ġo reos
Ġm aggi
Ġf izz
Ġf its
Ġin tend
al le
ro mboli
Ġl ife
Ġl awry
Ġl uke
eas ing
Ġd or
Ġd rawn
Ġch am
le p
ĠC otta
Ġ( #
is i
Ġun cut
ak itori
ĠP t
ĠP ur
ter house
ch ange
to ff
us es
ĠA ir
ĠA ux
ck er
Ġsa voury
Ġbutter s
res t
ĠT able
Ġwh izz
ĠR ap
ĠR oni
ĠR angoon
ĠF lower
ĠD am
ĠD ave
ĠW ood
ĠSt ud
om i
ĠSp arkling
Ġ5 8
Ġcl ea
Ġcl oud
ain ed
Ġex pl
ran ian
Ġmar y
ĠRem oved
uff et
Ġra p
ĠO x
ers ey
eal ing
ps om
ĠTo pper
ĠAnd es
Ġsoy bean
ĠN og
Ġlight y
Ġnon porous
Ġsc um
Ġnut meats
Ch il
Ch imichurri
Ġbon ito
ĠV INA
os et
sa usage
abb y
ĠJ erry
Ġloaf pan
Ġslow cooker
mo ons
Ġshell fish
Ġacc ura
Ġpo or
Ġcann oli
ĠDi jonnaise
Ġcol lapse
Ġbox ed
free ze
Ġpackages liced
pl ease
Ġcand le
ĠFry ing
Ġunder cooked
ĠFl ash
Ġfull s
Ġreturn ing
vel ous
Ġjack fruit
Ġpres o
ys on
28 4
ĠLo aded
ĠSk irt
alo ppine
min us
ĠMar ble
ĠMar aschino
uk kah
AT O
Ġpier ogi
ĠFa ir
ĠFa ced
ĠAr thur
ĠCrisp ies
ĠTw ists
ĠTr iscuits
In f
ĠRot isserie
Ġ28 0
Ġrubber y
On ly
AM ON
Sugar ed
Ġscal es
Ġscatter ed
Summer time
ĠHa zel
Ġjig gly
Aunt ie
Ġwhe els
ĠVer ts
Ġcal vados
Ġact ual
ĠChil ean
ĠMa ine
Ġslight y
Ġdel ight
Ġeigh ts
Ġph iladelphia
ĠPri me
Ġcrimp ing
Ġblood y
poss ibly
Ġsurround ed
Ġdai quiri
Ġavacad os
ĠJu ly
sch lager
atar ain
Rom ano
ĠPers ian
Ġattra ctively
Ġimmedi atly
ĠTur tle
sw irl
Ġbear ds
Ġfoot ball
Ġwhit efish
ĠBAK ING
Wa ffle
bel ie
ĠGRE ASED
Ver mont
ĠEA CH
ĠEA GLE
Ġcolla nder
Ġaff ect
Ġsele ction
ĠLaw son
Ġsmal lest
zan ella
Ġbac ardi
ĠOcc asionally
Ġdecaff einated
ĠBLEN D
ĠDEL ICIOUS
ĠNEST LE
Ġphot o
ĠRES ER
Ġcabb ages
Ġhomogene ous
ĠMent he
ĠDIVID ED
krain ian
Ġries ling
Ġaccura cy
" )
* )
3 98
8 6
B oy
B iscuits
C ape
D is
D onna
D ipped
G nocchi
H ealth
H abanero
H einz
J immy
K e
K um
L unch
M art
P ulled
R og
R ye
R uth
R oman
S elf
T H
V in
V irgin
W isconsin
a u
c ia
d eep
j alapeno
l ots
l ty
m ash
m arshmallow
p umpkin
s ift
v o
w ick
z ah
z uki
Ã ¨
Ġc ra
Ġc uc
Ġc razy
Ġs an
Ġs us
on ica
on zu
Ġb at
Ġb low
Ġb osc
Ġp ing
Ġp as
Ġm ut
Ġm op
Ġm acaroon
Ġf iddle
ic olored
Ġin tern
Ġto ol
re mo
Ġl am
Ġl ifted
Ġd r
Ġd ol
or ma
Ġch edder
ab ouli
ĠC am
ĠC oke
is ee
Ġun processed
Ġun available
Ġpe koe
to o
to pped
rea cle
ir led
ir ataki
Ġfor ce
ĠB ite
ĠB OW
ĠB avarian
ĠB READ
ĠA c
ĠA unt
ĠA HEAD
ick ed
ĠCo unty
ure en
ĠM ORE
ĠM atzo
ĠT im
ĠT ouch
ĠR ise
ater s
all ion
Ġsp ider
Ġsp inner
und ry
ell ed
ĠF o
ĠF ace
Ġcan ss
Ġcan campbell
Ġpan eer
Ġy uca
Ġbe e
ĠD raw
ĠD av
ĠW ok
ĠSt evia
con fectioners
ber s
Ġsmall ish
ĠH urry
ĠH alloumi
co ction
Ġmel ons
Ġhot s
get te
Ġal ittle
Ġapp et
Ġcar ry
Ġcar nation
ime ter
me lets
ĠO l
ers ed
reas ure
Ġpl anks
eal ly
ĠSal ted
ag as
ĠE gyptian
Ġz ap
sh ort
zz le
Ġcont rib
Ġlo ins
can ola
Ġmo untain
ĠN ib
Ġen c
iss oles
Ch ris
ĠPot s
Ġcrisp ies
ĠGar am
lo va
ubb les
wh ichever
ĠTurn overs
Ġkn ots
Ġdark ened
te en
atch a
Ġcrock s
Ġsand ing
Ġar ils
ier e
Ġseal s
Ġmon te
ĠCorn flake
Ġunder done
ĠPepper ed
ters weet
Ġdri er
Ġjack ets
ĠCont in
cook ies
ĠPan na
Ġtart let
rett y
Ġtea ring
Ġcaramel ised
ĠLemon s
ĠMeat loaves
IN N
fl akes
ĠMexican a
ĠApp rox
Car olina
Â° )
Ġgoat s
ĠBlack ened
ĠMilk shakes
ĠMin ts
Honey ed
IG RET
ĠStraw s
no on
ĠCon centrate
ĠPeach y
Ġtr ue
ond ra
To ss
Ġgi ardiniera
Ġfrost y
pepper s
Ġfig ure
ĠFrost ed
Ar menian
Ġfar fel
Ġpass ata
Ġwor ld
Ġear l
ico ise
Ġrig id
ung eness
Mar ie
mi ddle
Ġfrit ter
Ġrefridger ated
ĠBag els
uri kake
ĠRE ALLY
Ġunders ides
rel la
ĠUN COVER
ĠTIP S
Ġing re
di ameter
ĠBul let
ict ive
ĠPa ella
Ġbra ise
ĠChar les
Ġmayon aisse
ID E
Ġrepla ced
Ġhang ing
jar red
ĠSu bs
Ġindent ion
scar ole
Fire cracker
ustr alia
Snick erdoodles
TO M
Ġbis que
Ġcrown s
Kick ed
Ġresist ant
Ġdeter mine
Ġdeter gent
Fil ipino
stem med
Ġresid ual
Tur meric
ĠSil pat
Ġcolla ps
Ġboy sen
Ġchang ed
Ġpun cture
ĠCel cius
Mc Cormick
Ġpi geon
ĠBOT TOM
Ġmadele ine
Ju icy
ĠPaprik ash
vl aki
Ġpromp tly
Ġnewsp aper
ĠFlow ers
ĠVINA IGRET
ĠVINAIGRET TE
. *
9 3
B erries
B ird
C os
C oll
C av
D ifferent
E at
F ettuccini
H alf
I R
M um
M ean
M ah
N estle
O il
O melet
P ak
P uppy
P acific
P ennsylvania
R ISP
R achel
d ate
h ave
h ear
m ill
n at
o F
p ink
r ubbed
s uper
s kins
t easpoon
v els
v ans
y ros
~ .
Ġ et
Ġc abernet
Ġt ator
Ġs ite
Ġs atur
Ġs ieved
nd a
Ġp ow
ut ti
Ġf t
Ġf er
Ġto ll
en ser
at en
it akes
Ġd all
ou x
le ge
Ġco intreau
ĠS in
ab ies
ab isco
Ġun even
la d
to x
ĠB oth
ĠB akers
ĠA N
ĠA id
um es
um ing
ol ten
edi bly
Ġsa use
Ġtablespoons ful
Ġ4 10
ĠM E
ĠM O
ĠM ai
ĠM onster
ĠM acaroon
ĠT akes
ĠT andoori
ĠR os
ĠR ack
Ġbow tie
im a
Ġsp rite
Ġsp ike
Ġe p
Ġe psom
ĠD E
ĠD ad
gr an
Ġpa pp
ad or
gredi ents
ber rie
ĠCh am
ĠH ickory
ger s
co d
Ġ10 5
ard ine
Ġk luski
Ġve in
ran ging
urn t
ĠRem aining
ul ent
est ing
Ġpackage of
ag en
ag an
Ġbas ically
Ġ9 6
ĠSa ut
Ġcub an
sh ape
Ġne utral
Ġliqu ify
ĠN B
ĠN ature
og ie
Ġgrill er
Ġri ghts
Ġmarin ad
Ch ia
Ch rist
ac ia
ĠK it
ĠK id
ĠK RISP
Ġuns ulphured
ĠJ us
Ġcur ling
Ġpat ient
Ġkn eed
Ġkn ock
Ġbit tern
Ġthaw ing
ĠRo bin
Ġprefer rably
Ġchop sticks
ĠSc aloppine
Ġball oon
Ġgraham s
Ġ23 8
Co b
Ġind ian
ĠOr tega
ĠCan ning
Ġ. ..
Th in
Th ousand
Ġfinish es
Ġac ini
Ġwas n
Ġdecor ations
orm al
Ġsix ths
ĠPl ank
Ġcombin es
As iago
IL K
oat meal
ĠAlmond ine
Ġstarch y
ĠSn aps
rot el
Ġunbl anched
ign oli
Ġass ure
itas se
eb ab
Ġsoon er
Ġmort adella
Nut meg
PP ERS
ĠHa ppy
ca uliflower
ĠIN TO
Un stuffed
Ġed am
omet hing
Ġlabel ed
ĠON ION
ĠSP R
ĠMa jor
Mint y
ĠRE C
abag lion
gra de
Ġfeed ing
Ġob ject
process or
uv res
Bo mbay
ĠBeet root
ĠBeg inning
ĠDI PPERS
ĠHar issa
ĠST EP
ĠCur rant
Ġpurch ase
ĠGl ory
ĠCop y
ĠTem per
ĠDoll ar
Ġ(* )
ĠWITH OUT
Por cupine
Ġassem bly
US H
wal nut
Ġskimm ed
Ġexp ensive
straw berry
aj illo
Kick in
ĠEt c
Ġarran ged
Ġliquef y
ĠBAK ER
Alo o
Ġconc ern
oto es
ĠShoot er
ĠRea Lemon
ĠSer ver
ĠTag ine
Ġkef ir
ĠSUGGEST ED
ĠFac ial
length wise
Ġsle nder
ĠRare bit
Ġsham poo
ĠSter ilize
Ġdefat ted
Parsn ip
Ġwrit ten
chni que
Ġsher bert
alapeÃ± o
ĠBOW L
INN AMON
ĠKRISP IES
Ġbittern ess
abaglion e
8 2
B usy
C ont
C atfish
D om
D ivine
E ye
F ail
H ungry
L ou
M illion
P S
R ick
R UP
R uby
S eed
S ara
T a
T iny
U E
V ari
V irginia
W itch
W eeknight
Y am
Y east
Y RUP
b ust
c ale
i ers
l tra
m om
p izza
s ure
s peed
t ables
t ag
t art
t iny
v ie
in ion
Ġt b
Ġs ens
Ġs ubbed
Ġs ifting
Ġs zechuan
er ated
Ġb ol
Ġb unt
Ġo oze
Ġp ract
il ver
ar n
Ġf ave
Ġf ist
ic ious
Ġw ih
re ll
at illo
ing ery
al ks
al tern
ro ugly
an tern
an ne
Ġl igh
un less
un whipped
Ġd eeper
Ġg odiva
or ing
el ine
ĠS ifted
ĠS YRUP
ĠC armel
ĠC INNAMON
Ġmin estrone
ak ia
Ġ3 80
til ly
ve gan
ĠP ad
ĠP ern
ĠP umpernickel
Ġor tega
ch ers
ch uj
ĠB ens
ĠB orscht
ĠA gua
Ġst roganoff
Ġsa m
Ġr ue
Ġj iffy
ĠM am
ĠR eg
ĠR abbit
ĠR atatouille
Ġgarlic ky
Ġsp eck
Ġsh ank
ĠF ork
ĠF ew
Ġe legant
Ġbe es
ĠD ab
ĠD ole
ĠD amp
ĠD iane
ĠW il
ĠW ondra
Ġpa ce
Ġpot ates
st ead
Ġis s
ĠSp elt
ore ts
ĠG ift
ĠG enoa
ĠCh amp
ĠL ick
ĠL AW
ĠH ood
ĠH OU
Ġcorn s
ap ric
and ine
ĠO scar
est ic
ĠE legant
ĠE vans
Ġ9 3
Ġgreas y
ĠTo blerone
fer ably
Ġmo chiko
Ġliqu ors
ĠN ever
ĠN uke
Ġtor te
Ġgl ove
Ġsc ent
urt les
Ġsoft ness
ĠK raut
ĠK eebler
Ġspread s
ĠJ ane
ĠGr ass
Ġslow er
Ġsqu ir
Ġlen gh
Ġca uli
Ġbay leaf
Ġfa ces
Ġprefer ed
Ġrea ctive
ino is
Ġmon ter
Ġgo ji
uck ers
of ta
Ġad ult
Ġhor s
Ġ\ .
ĠPro of
ĠMeat s
Gr ill
Ro quefort
isin art
Ġposs ib
ĠLo ok
Quick ie
ĠDe bone
oo o
io let
ĠKn ox
erran os
Pe el
ĠPam pered
no ck
ĠFa va
ĠTe le
Ġbrew ing
ĠFrit tatas
ĠBl anco
ĠSquar e
ob e
ĠWa x
In side
ud i
bell os
Ġkitchen s
Pepper corn
Ġatt empt
ĠLa it
chi ves
rid ay
ĠMed al
AKE S
Ġsho e
Ġlard ons
Ġuncover ing
Fl at
PP ED
rem ol
rem ember
ti h
Ġspo ut
Ġemuls ifies
Ġreplace ment
ĠIN ST
Ġstack ed
ĠHellman s
Ġam t
Hear ts
Ġpoblano s
Ġmult icolored
Ġart isan
AS H
ais y
ĠBE ST
ĠRE F
Ġfiber s
Ma ui
ĠPa ul
Ġproport ion
ĠCafe teria
ĠGel ato
ĠCH ILL
ĠIm perial
Ġclump y
Ġben eath
refriger ate
ĠTam ari
ĠAle x
Short cut
Snick erdoodle
ĠWont on
Lim a
Ġko hlrabi
yster y
cur d
ĠTon ic
Ġdunk ing
Ġchang ing
Hom estyle
ulf i
Dream y
Mem phis
fla voured
Ġenhan cer
blue berries
ĠâĢ ĵ
Ġsuace pan
Ġval ue
EX CEPT
Ġminu ets
chan ges
Ġhum id
ĠTher efore
End ive
alle l
ĠUNCOVER ED
ĠREC IPE
chuj ang
ĠHOU SE
% ,
3 9
A las
A IN
B un
B ER
B LT
D ay
D inner
E z
F rit
F rijoles
G i
G eorge
H ill
I CK
I mitation
J ean
J ambalaya
J ewish
K fc
M iche
M IX
N apa
O D
O ys
P in
P ound
P izz
P apa
R ib
S em
S ave
S yl
b ic
b ee
c aps
f lesh
g a
g ive
g rained
g laze
h h
h atch
i j
j itos
k er
k atsu
l id
n oodles
p ast
s emi
u el
u bs
Ġ %
in ternal
Ġc inn
Ġc ampari
Ġt iss
Ġt ony
er g
es c
Ġb ermuda
Ġp ounder
Ġm ag
Ġm ontreal
Ġm ealy
Ġf ond
Ġw at
Ġw it
Ġw ring
Ġw rinkled
al monds
ro uted
ro matic
Ġl ate
un ior
eas ants
Ġd an
Ġd emi
Ġd irty
Ġch oke
le ft
ce p
Ġh ush
Ġco s
ĠS M
ĠS us
ĠS um
ab ama
Ġun il
to s
dd ler
Ġsal ata
Ġminut s
ĠB razilian
ug al
ĠA round
ĠA mount
Ġst ates
ck y
Ġsa f
Ġcheese cakes
Ġover stir
ure n
ĠM im
ĠM uch
ĠM UFF
ur p
ĠT er
ĠT ai
ĠT ikka
ĠR and
ĠR ICE
Ġv elvety
all ed
ell ing
Ġsh ar
Ġsh own
ĠF ashion
ĠF usion
Ġsm ile
Ġsm other
ĠD H
ĠD AY
qu itos
ad ina
Ġdeg F
ĠG F
ĠG oose
ĠG han
ĠL it
ĠL ogs
ĠL IGHTLY
ĠL orraine
orn o
orn ay
ĠH I
ĠH en
ĠH atch
ĠH imalayan
co unt
Ġcon coction
Ġk orean
Ġex pect
ant ic
inn i
inn ie
Ġmar row
ul ate
ss oise
per iment
Ġout ward
Ġ9 5
ĠTo basco
Ġnot ic
Ġlo ved
ĠN ests
ĠPut tanesca
Ġnon pareils
Ġfla p
Ġfla mbe
Ch op
Ġfat back
os as
ĠK ind
ĠSh anks
oll ock
rum kake
ig as
sp aghetti
Ġlen thwise
Ġde vel
Ġcom pany
ens ational
udd ed
ape ppa
Ġsub marine
Ġdark ens
Ġta ct
Ġend less
Ġend ives
Ġafter wards
corn meal
Ġair y
Ġdou se
ĠAl ouette
Ġad n
Ġstore bought
Ġmois tening
ĠBeef y
Ġ* .
do esn
Ġchunk ier
Ġfra mb
Ġbul let
ĠLo ck
Sh allot
Sh erried
Ġpear ls
Ġac cept
ucc ulent
ira z
Ġrot is
Ġpulp y
Ġmoist ness
ĠAn na
Butter finger
ĠMar gherita
ĠCl oud
IG ER
ĠCho co
Al so
Ġdoll ar
ĠAr roz
Ġnic er
ĠPl an
Ġcent res
Ġpar allel
ON G
ĠWa fer
ĠEx cept
ĠEx changes
ĠTr iscuit
In salata
ST IT
Ġscr atch
ĠCaramel ize
Can nellini
Ġclos est
Ġmat zos
ĠMed jool
On ce
On ions
Ġrich ly
az ine
ĠMI x
Ġjig gles
Ġsomewh ere
Un belie
Ġsup per
IT Z
work s
ĠPast ries
ĠMas k
ĠMas on
Ġwonderful ly
Scall ion
ĠAss orted
ĠBra eburn
ĠSP READ
Ġsubs ide
fric a
Ġcling fil
Fa jita
aff y
ĠAny thing
ĠCOOK ING
Amazing ly
Pro sciutto
Ġrid ged
Out back
Ġplan ning
Ad ult
Ġdem itasse
Ġproceed ing
La ura
Ġcylinder s
ĠRadish es
Ġkir by
Ġcass is
ĠLE AST
kn ead
Ġlyc hees
Ġenamel ed
Ġreview s
Ed amame
leftover s
Ġreleas ing
Ne ely
Ġdiscolor ation
Ġdisp ersed
ĠCaps icum
ĠGingersn ap
Lea ve
Ġcarbo hydrate
Ġchic ory
inos aur
Ġmit ts
ĠTW O
ĠNes quik
ĠAut umn
ĠLon ger
Ġregul ator
ĠEtou ffee
ichy ssoise
Ġclea ver
Inf used
ĠHazel nuts
Ġfiddle heads
ĠCopy right
Oys ters
Ġdevel ops
Ġclingfil m
7 2
A part
B S
B ubb
C ole
C rushed
D en
D eath
D iane
D ressed
E K
F ill
G ina
G ETH
I la
K o
K en
K alamata
K ansas
L IC
N igella
O regano
P al
P ine
R on
R et
R IGER
S on
S ch
S om
S oda
T er
T ot
T angerine
U krainian
W ay
Z Z
a ito
b efore
c g
c ranberry
d rizzle
d efrost
e era
g irl
i ol
i itakes
k ernel
m art
m aple
p as
p armesan
r ranging
s un
s olid
t bs
z ac
Ġ er
Ġ ult
Ġc am
Ġt un
Ġt aro
Ġs ir
on shire
on ata
ed er
ea ve
nd y
Ġo scar
Ġp il
Ġm ir
Ġm ad
Ġm rs
ut ors
Ġf ac
Ġf eathery
Ġw reath
Ġw tih
po ps
en aise
Ġcup ful
al up
an gar
an cho
Ġl ighly
it ions
Ġd g
Ġd est
Ġd rambuie
Ġg m
Ġch at
Ġch eat
ĠS ister
ĠS icilian
ĠC at
ĠC ross
ĠC hee
ith in
ith ra
ĠP rea
ĠP ig
ch ick
ch unks
to ast
to bellos
Ġminut ed
ok i
ir no
ĠB re
ĠB RE
ly ing
ĠA j
ĠA lo
ĠA mish
ĠA uthentic
ĠA ustralia
Ġmix ure
ol ute
Ġsa u
Ġ4 4
ĠM ich
ĠT I
ĠT easpoon
ĠT ent
ĠT iger
ĠT assies
Ġn ougat
ĠR oy
Ġlar g
Ġre hydrate
und red
ell s
ĠF ancy
Ġy a
Ġy es
ĠD ont
ĠD rambuie
ay otes
ĠW W
ĠW ar
ĠW orchestershire
ĠSt eel
ĠSt rudel
Ġpa ds
st rained
ĠSp ark
Ġcl eans
Ġrem aing
ef riger
oth ouse
ĠG eorgia
ĠG OLD
ĠCh ablis
ĠL b
ĠH ole
ĠH unts
ĠH ints
ĠH usk
ger ian
ĠCook s
Ġcut e
Ġcon ch
Ġmel ded
Ġblack berrie
Ġmar zipan
Ġal ter
Ġal oe
Ġcar am
ĠO ur
ĠO IL
ĠO valtine
est eak
reas ed
mon o
Ġlea r
ray fish
Ġcrum pled
Ġref ill
Ġref reeze
Ġmeat loaves
ach i
ĠAnd rew
Ġcont r
ĠWh it
ĠWh izz
ĠN icoise
Ġstea d
Ġcrack ing
allow s
ĠV ermicelli
Ġoff set
other wise
ĠMelt away
ig gle
ĠJ im
rizz led
lo oking
ĠEn er
Ġtho rougly
ind eer
mer se
ist ani
Ġremo vable
Ġsub st
Ġapprox im
Ġfa jitas
ĠPre mium
Ġcrock ery
Qu eso
Ġrea rranging
ĠAl coholic
ĠFl aky
Ġtin ted
ah l
St reusel
ĠUn cooked
Ġind ic
ĠPro gram
Ġpres erving
ĠSqu ish
Ġcocktail s
Ġ200 1
ĠMo cktail
Ġmeal s
elve tta
ĠSe veral
Ġopen ings
Sh an
Ġbl iss
Be ets
Ġrot i
ĠMilk y
Ġflatten s
Peanut ty
oli ves
ĠAn g
ĠAn n
Ġgu est
Green s
Ġwe ights
Ġprov ide
Ġtemp ted
Ġcould n
ĠAr abic
mar etti
Ġwon der
ĠInc lude
Ġsnow peas
Ġlump ia
Ġpar cels
seed less
urrit o
Ġel k
ĠTO GETH
acadam ias
Ġtail ed
ĠHerb es
Ġsmok ies
ĠCob b
ĠCocktail s
AR T
bet ween
Ġcurd ling
ĠFran c
Ar gent
ĠGu is
Ġatt est
ero os
Ġven ted
ĠShort ly
ĠOptional ly
ret ion
Ġhom estyle
PP LE
ĠSmith field
yc hee
small er
Ġveg tables
ĠWill i
ĠCal zones
De pending
UM P
Br isket
ĠPier ogies
Ġpet al
ĠFollow ing
ĠJohn sonville
ĠPops icle
TION AL
ĠMa zola
ĠRib bons
Ġph easants
Cre pes
Ġdisc retion
Bl ood
ĠCole man
ĠProven cale
Ġsubstitut ion
Ex cellent
ĠSU B
ho pper
ho st
ĠSL IGHTLY
Out rage
ĠFRO M
Rock et
ĠIm merse
ĠLe vel
ĠAg ave
Ġexper ience
Ġfix ings
kn own
Bailey s
ĠMINUT E
Ġcircul ate
vis ion
Every thing
Mas ala
Per uvian
ĠRED UCE
stea m
== ==
ĠCroiss ants
Gramm ie
Ġhell mann
got ten
Ġlingon berries
Ġmic rop
Ġchap ati
Ġportab ello
Pim iento
Bay ou
Sup reme
Gingersn aps
breas ts
Ġcul inary
ĠFREE ZE
ĠWish bone
Ġutens il
Ġmarshmellow s
Ac adia
ĠEdit or
Ġincis ions
Ġsing les
ĠBug les
agger y
Ġnec cessary
ĠCast le
cont inue
Ġms g
Ġsmo osh
askato on
Ġcontrib utors
Ġfer ment
ĠPern od
ĠTele vision
remol ata
ĠREF RIGER
ĠAlex ander
Ġtiss ue
Ġframb oise
irno ff
ĠTOGETH ER
1 12
4 2
4 9
6 8
B ut
B ud
C el
D E
D or
D iscard
D eli
D ipping
J uli
K r
K al
K et
K itchen
L awry
M u
M er
M edium
M armalade
P et
P uff
P ioneer
P retty
S ix
S andy
S lice
T ake
T em
T ah
Y es
b ig
b by
b rewed
c asserole
d ont
f gh
f lied
g am
g lace
l ane
m ate
m ight
o st
p ic
p res
r resist
s ame
in z
Ġc ress
Ġc amp
Ġt ric
Ġt reacle
Ġa mazing
Ġs erranos
ed y
ea per
Ġo re
Ġo reg
Ġo oz
Ġo valtine
Ġp are
Ġp omegran
Ġp izzelle
Ġm en
Ġm ussel
Ġf iesta
Ġw all
Ġw and
po ll
en g
Ġl ec
Ġl uck
Ġd ent
Ġ2 70
Ġch ayotes
Ġh ing
Ġh anout
ĠS ix
ĠS ink
ab ac
ab lo
ĠC A
ĠC avender
ĠC ampari
is tle
ve y
our ico
ĠP O
ĠP ol
ĠP ub
ĠP aleo
ĠP urple
lic k
ir able
ĠB ing
ĠB uckle
ĠB LT
ĠA R
ĠA frica
Ġcho i
ĠCo ast
Ġ4 3
Ġj aggery
Ġover cooking
ĠM ILK
Ġso ck
id i
id al
ĠT yson
Ġwh ir
ĠR ome
ĠR utabag
Ġre warm
Ġv oila
ĠF oot
ĠF riday
Ġcan adian
Ġpan ettone
Ġe lect
Ġy umm
ĠD uty
ĠD addy
round s
Ġju dg
ĠIn ch
ĠW edge
ĠSt reet
Ġis raeli
Ġro d
con a
ĠCh ipped
ĠL ace
ĠH ors
ĠH uevos
imm ies
Ġk abob
Ġ- --
Ġhot test
se c
Ġte eth
mp s
ag ies
Ġ9 9
Ġhea p
Ġginger ale
Ġmo ose
Ġliqu ified
Ġsl ighly
ĠSalad s
Ġtortil li
Ch ickpeas
Ch utney
Ġpeanut butter
ac les
ĠV irginia
ĠK en
ĠK ittencal
ĠSh ish
ĠEn crusted
mo ist
Ġcom mon
Ġacc ent
Ġper fer
Ġmint es
ĠBread maker
Ġback fin
fection er
lect able
Ġconfection ary
Ġfluff ier
ĠCar nitas
int z
Ġenjoy ing
ĠSc ottish
ĠSm ucker
bl eached
Co vered
ĠQu iches
Ġmi utes
Gr ated
ĠZ atarain
ĠRec ommend
Ġgri ds
pro bably
Ġtherm os
av lova
ĠSe itan
Car ob
Wh ip
Ġhe el
Ġhe ight
Ġbl isters
Ġbl intzes
Ġfo ol
roll ed
Ġtast ier
Ġtight en
Ġshort cakes
fro sted
Ġcustard s
Al ton
ama ica
ĠOver lap
Ġsix teen
ĠFlour less
ĠDump ling
ĠTO LL
Ġpk t
imp lest
An ne
ĠCO CO
Ġtough er
ord en
Ġinter esting
ĠLa zy
ĠPr une
orch ata
ĠHal ves
Pan cake
ĠCrunch ies
Ġgro up
hyd rogenated
uns wick
OU GH
Ġladle ful
Fl aky
ĠFlavor s
irt ually
Ġins ulated
Ġmean t
ston es
En chiladas
Ġstack ing
act ually
ĠHea venly
real ly
Ġaccompan y
boil ing
Ġfr isee
Ġbutterf inger
sal ada
ĠBul gur
Ġcarmel ize
Ġmex ico
May onnaise
HIL E
end s
ĠQ U
Ġmozz a
ĠIm portant
ĠBow ls
ĠJu icy
Tr ue
ĠPers immon
Rot isserie
ĠComplet e
ĠPE EK
ua u
fill ing
Ġimag ine
rud h
Ġtog ther
Ġgrit ty
Bon eless
ĠNect arine
Ġdiscolor ing
Farm er
Ver onica
pure e
stea med
Deb bie
ĠMiss ion
ĠAm andine
Ġcoffe em
Ġstirr er
Ġcarbo hydrates
ĠCost co
ĠChi ppers
ĠLO VE
Pim ento
Ġwatt age
ĠFL OUR
Ġvers atile
He irloom
Ġclaw s
Ġfib rous
Cur rant
Ġelder flower
Ġpackager efriger
ĠBak ery
Sus an
Ġdefl ate
Ġbes ide
Id aho
onath an
Fra grant
Ġpreso aked
Rog ene
Cos mo
nat to
Ġbees wax
past ry
ĠSUB STIT
Ġlec ithin
Ġjudg ment
ĠCOCO A
A li
A ust
B eth
C asserole
D ar
F ar
G in
H ush
I da
J oy
K S
K h
K aro
L ee
L ess
L uby
M ine
M oose
M eyer
N at
P ure
P owder
P uffed
R ub
R ising
R agu
S y
T im
U CH
c u
c it
c ier
c ome
f o
g m
g al
h og
h ape
m ise
m af
m ark
o ib
p ear
w l
z oni
~ ~
Ġ ul
Ġc il
Ġt ape
Ġt ureen
Ġs chool
er ole
Ġb raising
Ġb urgundy
Ġb esan
Ġo j
Ġp ips
Ġm usc
Ġm acadamias
il ized
il ities
ar ger
ar ily
Ġf ab
Ġf eat
Ġw itch
Ġto ler
at te
Ġl azy
un es
un ces
Ġd ices
Ġd abs
Ġg a
Ġ2 90
Ġch imichurri
Ġch ablis
Ġh ill
Ġh ers
Ġh urt
Ġco ke
ĠS argento
ab ian
ĠC L
ĠC i
ĠC oulis
Ġ( **
our t
ĠP out
ĠP enn
ĠP UT
ch est
to oth
Ġfor ty
ĠB Y
ĠB ellini
ĠB oca
Ġsalt ing
ick ey
Ġst ages
Ġfl are
res erved
ĠM illet
ĠM ail
ĠM EAT
ĠM SG
ĠM ETH
Ġso p
Ġheat h
ĠT rans
ĠT int
ĠR usset
ĠR eggiano
ĠR ITZ
Ġre co
Ġre verse
Ġsp atter
Ġsp ills
ĠF all
ĠF eed
Ġbe y
ĠD ips
round ed
qu ette
ie ur
ĠW he
ĠW agon
ĠSt ores
st rength
ĠSp eed
ĠSp ears
op al
Ġred dish
illa mo
ĠL ump
od ian
Ġk it
Ġk ellogg
Ġdish wash
tra ct
Ġtender ized
ĠO unce
Ġpre tt
Ġpre packaged
uc ts
Ġbefore hand
Ġmore l
Ġref rig
na h
cc acia
ĠE AS
Ġbas kets
Ġrefriger ater
Ġz uch
ĠSa voury
Ġpro c
Ġpro gresso
Ġwarm er
ĠAnd ouille
ew el
ĠN aked
ĠN umber
Ġbatter s
og any
Ġpaper towel
Ġgl itter
Ġsc ented
Ch ard
Ch urch
Ġfoil ed
Ġsoft ball
Ġwal leye
ĠK E
ĠK e
ĠK al
ĠK aiser
Ġtemper ed
14 5
ang an
ĠEn sure
Ġtho rough
ren t
ĠRef ill
voc aat
crum ble
Ġno zzle
ĠDi amond
Ġper m
izz ling
ex pensive
Ġca va
Ġback ing
Ġback bone
ĠAll spice
ĠBe nd
amb odian
Ġchop ed
Ġar rive
Ġgood s
Ġgood ies
atin y
zer ella
ĠAl though
Ġad ap
Ġad heres
Ġ23 6
Ġmois ter
Ġind o
Ġless er
Ġstew s
ĠLow fat
Gr uyere
Ġho pper
ĠSugar ed
Ġgreat ly
ĠPat rick
ĠKeep ing
Ġmas k
ĠDe hydrate
RE US
Ġver a
Ġcreat es
rib ble
.. ...
Ġgu ac
Ġlik eness
Ġshred der
hy ll
Mom s
Ġcombin ations
ĠRe cover
Ġfrench ed
Ġtam ar
Ġgerm an
HE N
ĠEx periment
ĠPeas y
Ġsmok ey
prefer rably
ĠWater cress
AR LIC
ĠCO AT
Ġpatty pan
ĠFrost y
Ar abic
cr usts
ĠHal ibut
Ġsteep ed
ĠGreat est
Fl orida
deg C
Sk or
Ġspo ke
Ġfrit os
ĠMince meat
ĠDream s
Ġesc apes
Ġtro uble
Lo vely
ĠVer mont
ĠBra ise
ĠDor ito
Ġthumb print
gra dually
non fat
Ġrender s
ĠOVER MIX
Ġaccompan iments
ĠMade le
ĠStove top
Ġdisapp eared
ĠST REUS
Ġint ro
oren ce
Ġtent acles
ĠFar falle
Mary land
hand led
Ġclump ing
chn itz
ĠLe banese
ĠEd ges
Cla ms
ĠCR UM
Ġdarken ing
ĠDiv ine
Ġpair s
Ġsett led
MO ST
Little maf
Ġbis qu
ĠWAT CH
Ġsaut erne
Ġreason ably
ĠChest nut
ĠNect arines
Ġsuccess fully
fil tered
ĠSil ver
Ġideal ly
Ros y
ĠCons erve
Ġpulver ize
Na vy
Ġencl osing
Ġdam aged
ĠCosmo politan
resist ant
Ġvan ila
ĠFriend ship
Bag el
Ġchew ier
vegg ie
ĠGro uper
yps o
Ġorigin ally
ĠBlu es
Ġkim chi
Ġlolli pop
INK LE
ĠRap id
Chil ean
Vin aigrette
marshmallow s
Ġmut ton
Ġsatur ate
Ġdall op
ĠDamp en
Syl via
caps icum
angar oo
ĠPrea heat
Ġstead ily
rudh omme
Ġpackagerefriger ated
oib os
ĠMETH OD
illamo ok
ĠSTREUS EL
Littlemaf ia
' -
3 40
6 500
7 9
A F
A g
B urgundy
D ev
E C
F r
J uice
J ane
K ona
L yn
M atzo
M icrowaved
O ME
P ack
P rawns
P run
S ham
S tilton
T hen
Y ukon
Z a
a ir
b t
b ou
c rush
c ereal
c loves
d u
d eli
g ro
g ently
g ang
g luten
h ter
i ened
m ach
m ould
o v
o ats
p inch
p ints
p urch
r t
r aspberries
s age
s ealable
t ot
t ec
t ots
u les
x ing
Ġ ?
Ġ [
Ġt ass
ea ky
ea politan
Ġb od
Ġb uffet
Ġp eg
Ġp ole
Ġp uri
Ġp ollock
il o
ar ins
Ġw alls
Ġw ww
up es
Ġin ward
en i
Ġcup board
al da
Ġl ge
Ġd om
Ġg rained
Ġg oulash
or ge
Ġh ood
Ġh othouse
ĠS ue
ĠS ex
ĠC ab
ĠC one
ĠC rawfish
Ġ( &
eat ed
Ġun packed
Ġun ique
Ġmin ues
Ġ3 9
ĠP b
ĠP IE
ĠP antry
la va
la zing
ver ages
dd led
Ġsal e
lic hn
ĠB ed
ĠB elly
ĠB ologna
ĠB ody
ĠB aba
ĠB abies
um drop
ol or
ol ian
Ġbut er
Ġsugar y
Ġr ush
Ġr uffled
ast urt
Ġoil ing
ĠM it
ĠM ons
ĠM ode
ur y
ur ros
ĠT ree
ĠT reasure
ĠR uth
am an
Ġbow el
Ġsh y
Ġsh itake
Ġsh irataki
ĠF ull
Ġy og
ĠW HIS
ĠW esson
st ep
ĠSp ear
Ġsk ipped
Ġ5 6
Ġro ds
op er
ef lon
let tuce
ber ts
ĠCh a
ĠCh ol
ĠCh urn
edd ed
ĠH E
ĠH oriz
ĠH OUR
Ġan natto
ard ing
Ġk am
Ġk abocha
ant on
par gus
inn es
ran i
00 0
Ġal arm
Ġcover age
Ġcar ne
est ial
per ated
Ġpl ug
Ġlea ks
Ġpre washed
Ġref iger
ag ing
ĠE ating
ĠE yes
Ġdes irable
sh ortening
Ġne cks
uit s
ĠWh o
Ġlo vers
Ġsto pped
Ġsto mach
Ġeven t
enn is
asser i
Ġbag of
Ġbag frozen
Ġsc ramb
Ch ill
Ġfat s
ĠV ita
Ġcrust ed
ĠK C
ĠK ang
meg a
ĠSh o
ĠMelt ing
aw a
sp ices
Ġany time
ĠEn close
ubb ard
Ġde partment
Ġcom partment
Ġhas n
wh at
Ġper meat
Ġleaf s
Ġca uses
Ġpink ish
Ġta pping
Ġend ed
ĠBe chamel
ong olian
Ġchop stick
amel a
nut es
sing le
ome nd
erm its
ma id
Ġsit r
Ġpart ies
ĠFl ute
Ġad ults
Ġad obe
lit er
ĠDo es
Ġstiff en
de z
Ġman uf
ĠBr ats
ĠBr ussel
ĠBroil er
ĠSugar s
Ġconcent rates
Ġsteam s
ĠFruit s
Â° ,
Ġmet hi
top her
ĠDe v
ĠHoney crisp
Gar nish
ĠPo st
ĠRes erved
ĠOli ver
Honey dew
Ġdis colored
ĠCl eans
Ġgu ajillo
Ġknead ed
Ġrad iatore
Ġim print
AT TER
ĠCrack le
Ġrepeat ed
HE Y
beat ing
Ġanise ed
ĠDel ish
Sw ordfish
ĠLa uren
ĠThaw ed
ĠHal ved
ĠBatter ed
Ġpush ed
350 0
Ġpor terhouse
Herb al
Cl ean
PP ER
Ġprod ucts
car amel
car efully
ĠSoy milk
ung ent
ĠCom ing
ĠCro wn
Sun rise
pound ed
Ġjo hn
Ġpops icles
cub e
ĠAss em
Water cress
Gu inness
ĠMex icorn
ĠFla p
Fa ux
ĠWay s
ĠStack s
ĠCOOK ED
jack s
veget ables
ĠAL MOST
ĠDiet ary
Har icots
tent ion
utif ul
May o
tes y
Ġdescri bed
ĠFres co
Ġrid ges
MM MM
Ġbites ize
Ġscallop ini
Melt ing
ĠTam arind
App etizer
Ġcass ava
ĠRock y
Snick ers
van nah
Ġkumqu at
shell s
ĠChees esteak
igra de
itter lings
FF EE
Ġconven ience
ĠNor wegian
ĠNect ar
ĠGRE AT
Every day
Tur tle
equ als
Ġdev iened
Mal ibu
Ġhell man
Ġdelay ed
Ġber bere
Ġcomfort ably
Past ry
Ste ve
Ġconsider ably
ĠMean time
ĠSou vlaki
Cheat er
Ġholder s
ĠAB M
Ġcompl iments
how ever
enz ey
ĠTow ards
uzz y
ĠSubstit ution
Ġsubsit ute
mex ican
ictor ia
juli enned
Ġol der
ĠSuc cess
Mich ael
Sub stitute
Ġdist in
Ġcong eal
ĠTail s
ĠMonter rey
Ġumb rella
Ġdor itos
Ġlam ington
super fine
Ġmarinad ing
ĠSPR INKLE
Ġiss ue
ĠLAW RY
Ġpossib ilities
Ġult imate
ĠWilli ams
ĠREFRIGER ATE
Ġreco gn
Ġbey ond
Ġperm its
Ġindo ors
lichn aya
asturt ium
ĠWHIS K
) --
7 1
A z
A CK
A marula
A dobo
B oil
B arbeque
B oursin
B ritish
C ow
C ore
C ayenne
C raisins
C rostini
E xt
F la
F ind
F ace
F usilli
G oulash
G oose
G lor
G ingery
H alloumi
I na
J ar
J azz
L l
L ightly
N an
O VE
P antry
R ain
R ING
S poon
S at
S weetened
S atay
S uz
S ensational
T iger
T ennessee
U IT
U GH
U ltra
V alentine
W E
W ork
W edding
W acky
b ec
b lueberry
c la
c ient
d ust
f ries
g en
g ole
g urt
g rape
k as
l ide
n eed
p udding
p uffed
q i
r aten
s ug
s can
t asting
t ext
u ro
v ak
z anilla
Ġ nd
Ġ um
Ġt eff
Ġt errific
Ġt raditionally
Ġa gar
Ġs zechwan
Ġb ella
Ġp ig
Ġp asses
Ġm n
Ġm af
Ġm ache
il ee
ar ole
he m
ut ions
Ġf ul
Ġf abulous
Ġf urikake
Ġin n
Ġin ot
po le
Ġto rani
ing a
al ong
al ready
ro y
Ġl and
un ger
Ġd eal
Ġg ut
Ġch esse
Ġch eaper
Ġh at
Ġh its
Ġh pnotiq
Ġco o
el ini
ĠS OU
ĠC er
ĠC ra
ĠC ent
Ġ( "
is ine
is tening
ge es
Ġ3 7
ĠP il
ĠP ay
ĠP eek
ĠP uddings
ĠP illow
ĠP iquant
ra ir
Ġpe te
Ġor g
Ġor dinary
ch ard
us band
ĠB h
ĠB AR
ĠA ct
ĠA RE
ĠA jo
ri ents
ri bs
ri mmed
ol ved
Ġst iffer
Ġover fill
Ġbro w
ĠM A
ĠM u
ĠM em
ĠM ayer
ĠM icrow
ĠM ang
ĠM ates
ĠM ulti
ĠM ornay
ĠI ll
ur re
ĠT ooth
ĠT URN
Ġn igella
ĠR ind
im ize
Ġv ietnamese
Ġsp rit
und er
ĠF F
ĠF AT
ĠF ields
Ġy o
Ġbrown ish
Ġcr inkle
Ġsm okes
Ġsm oot
ĠD es
ĠD illy
ĠD RI
ĠD ribble
qu at
qu ito
gr ate
ĠW ow
ĠW eek
ĠSt ars
ĠSt arch
ĠSt romboli
Ġpa in
Ġpot stick
st a
st uff
st ess
Ġab d
ad icchio
ush ing
Ġsk inny
Ġ5 4
con uts
con ds
ĠG ai
ĠG ARLIC
ĠCh ris
ĠCh eap
ĠH olland
ĠH ERS
arm a
Ġ6 50
imm ing
ey lon
par ts
ran fer
Ġshe ep
we ight
ress ion
Ġte chnique
Ġapp x
ĠO re
ĠO RE
est ival
uc tose
ĠSal ts
ĠSal ata
na ppy
cc i
ĠTo scan
Ġdes ires
sh ots
can nellini
yr tle
iv re
ĠN eg
ĠN abisco
Ġsl at
Ġnon metallic
ĠTop s
Ch eap
Ġcans of
ĠK ie
ĠK ana
ĠSh oulder
Ġtw isted
Ġthicken er
ĠY es
ĠJ an
lo x
ang el
pt ation
ren e
Ġpit ta
Ġsome one
Ġcann elloni
osh ida
Ġtri p
Ġremo ves
unt es
ĠPre tty
Ġsubstit ue
Ġlong ways
ĠTom atillo
ĠCar ob
Ġfold s
Ġfre ely
Ġop inion
Sp elt
Ġrind less
Ġpackages of
ĠFl orida
lit tle
Cream sicle
St arbucks
ĠCont adina
ĠUn baked
Ġtea cup
ĠLemon grass
Ġ* *.
Ġsn ug
Ġsn ick
Ġmi ddles
ĠBr ick
ĠSweet ener
Ġconcent ric
Ġsteam y
ata wny
ne ct
ĠMo chi
av oid
ĠLo oks
Ġhe inz
Ġbl anc
Be v
alo upes
roll ing
Pot luck
ron to
Ġpoppy seed
Ġpoppy seeds
ĠGinger ed
Ġscrap ings
Ġhel ping
ĠCre ma
Sal ty
Ġtemp ura
ĠFa ux
Ġdistrib ution
Ġwish ed
Ġbrew er
ĠGran ular
ĠRe v
Ġreheat s
Ġpar ley
Ġpar ath
Red uce
ĠSeed ed
Bas mati
ĠTr ust
Ġpk ge
Mo untain
Mo jito
ĠPick apeppa
ios o
An g
Caramel ised
AR M
ign ets
ign ons
ĠWe igh
Pepper idge
Ġcant aloupes
Ġmat zah
Ġsteep ing
Ġsho pped
uns et
hod es
Ġflow s
Ġprod uces
ĠTart are
Light ened
SS E
ung le
ĠPort ab
En joy
En salada
Ġsup p
her bs
Scall op
ĠHalf way
Mex icali
gra vy
Ġretain ed
Ġsmash ing
Col omb
hell ed
Ġfr uctose
ĠSAL SA
ĠKet tle
ĠCur rants
Jack ie
onn ie
ĠGl en
Ġzipper ed
Ġsauc pan
Ġparm a
Ġfres ca
ĠColl ards
ĠSkewer ed
Im possibly
Ġcard board
ĠJu lep
Cap tain
Ġgener ic
oles ome
ĠThick ly
ĠPers onally
Any time
ĠLE MON
Ġsign ific
Ġdess icated
ĠCreat ions
Ġcrow ded
Ba ja
Com forting
Let tuce
Mas carpone
ĠCUP S
ĠEGG S
Ste el
Ġportab ellas
wax ed
Ġmedi un
ĠWHI P
Ġev oo
ĠMen u
ĠTBL S
Ġunit l
Ear th
Ġsatis fa
ĠMarz etti
Ġmajor ity
ĠBet ween
Ġhomogen ized
RAN GE
Ġblo bs
Simmer ed
Ġtru ly
ĠCass oulet
ĠBudd ig
colour ed
Ġcham ber
ĠDam per
ĠRESER VE
Ġsus pend
Ġpas illa
Pak istani
ĠAN Y
Ġconcern ed
Ġligh lty
Miche lle
flesh ed
ĠRand al
ĠBRE AK
ĠTI ME
ĠMeltaway s
rresist ible
Ġoreg eno
abac itas
ĠAR RANGE
Ġul tra
ĠMail le
angan ui
ĠMons ieur
Ġmanuf ac
Ġmaf alda
rair ie
ĠHERS HEY
% .
8 7
: ).
? ).
B ak
B ri
C ryst
C alorie
C ambodian
D rained
D uck
E ll
F RE
F eather
G l
G erm
G ala
H int
H IGH
I ts
I ron
J ell
K ate
L ipton
M eal
M alted
M ax
M ulti
M arbled
O e
O f
O ff
O oey
P it
R ita
R olled
R atatouille
S ar
S ex
S ingle
S unset
T ar
T oll
U s
U ICE
V i
W N
W ash
Z ip
Z wt
b ul
b asting
b asa
c as
c ucumber
c urry
d as
d ri
e ze
f amily
g ue
i w
k u
n ormal
p on
p it
r il
v p
w ain
w edges
z or
z ano
in ity
Ġc ms
Ġt er
Ġt ing
Ġt ipped
Ġt rees
Ġa j
Ġa la
Ġa ka
Ġa ction
Ġs ou
es es
Ġb ugs
Ġo v
Ġo melets
Ġp uppies
Ġm ats
Ġm nutes
il ies
il ding
he l
Ġf if
ic ul
Ġw ee
Ġw ob
Ġw isconsin
up pe
Ġin it
Ġto stitos
re ck
ing y
an ced
it ive
Ġd ar
Ġd ean
Ġg uid
Ġg ath
Ġg azpacho
Ġch achere
ou ss
le phant
Ġh atch
Ġco in
el ines
ĠS ame
ĠS amb
ĠS ambal
ĠS andies
ĠC AR
ĠC alamari
is se
is ette
eat ing
ge e
ow a
Ġmin ed
ak is
ĠP en
ĠP atch
ĠP eri
ĠP ikelets
ĠP osole
ter elles
ch ur
to lli
lic ious
us ual
Ġfor t
ĠB litz
ĠB ritish
ĠB arbequed
ĠB ATTER
ĠA side
um s
Ġcho se
ol la
Ġsa mple
Ġbutter ing
Ġcook book
ĠM ole
ĠM any
ĠI CE
Ġn or
ĠR ew
ĠR io
ĠR eroll
im an
im ilar
Ġsp am
Ġsp inkle
Ġsh ine
Ġsh ower
ĠF antastic
Ġe ct
ĠD illed
ĠD ragon
ĠD uper
ĠD ouse
ĠD IP
ĠD rip
ĠD aisy
ish ing
qu er
qu iles
ie f
li z
gr ind
ĠW or
ĠW ra
ĠW inner
ĠW eeknight
ĠW assail
ĠW ARM
ĠW anganui
Ġpot otoes
st ri
st alks
ĠSp ace
ĠSp uds
ĠSp iked
op ia
bs olute
ĠG h
ĠG ent
ĠG ob
ĠG OY
ĠG rigio
ĠCh ap
ĠCh imichangas
ĠCh icago
ĠMix er
illa ge
ĠL y
ĠL ou
ĠL and
ĠL ID
ĠH it
ĠH ang
ĠH ONE
ub ilee
Ġcut outs
Ġan g
Ġk risp
Ġk uyper
Ġhal oumi
Ġhot ness
Ġcorn ing
Ġvin i
Ġvinegar ette
Ġapp eal
tra chet
Ġclo ck
Ġra mps
ĠO UT
Ġpre pped
Ġpre cut
Ġpeel ings
ork screw
Ġmay er
Ġpast ina
Ġup wards
ĠE r
ĠE ve
ĠSa zon
ĠSa voy
ĠTo gether
Ġpin ot
uit to
ĠWh atever
iv alent
ĠN ear
ĠN UT
Ġpork chops
Ġsl iding
enn ese
Ġnon metal
Ġgl u
ump ed
Ch a
Ch ess
Ch oc
Ch erries
Ġcrack led
Ġtem ps
ĠK N
ĠK abob
ĠCream sicle
Ġcomp on
Ġcomp ress
Ġtemper atures
Ġpinch ed
ĠSo aked
ĠTh ird
ig atawny
ĠY a
ĠY OL
ĠJ umb
ĠJ ELL
ĠJ ewish
ĠJ erusalem
ĠOn to
Ġshor ting
ator y
mo isture
Ġde vour
ĠSet ting
Ġcom ine
wich es
ĠDi ppers
ĠThe m
ull igatawny
Ġca pped
so ften
Ġdi abetic
Ġdi agn
pick led
Ġback s
Ġafter noon
ĠSto ut
ĠBe ing
Sp am
ment aler
ĠSc rap
Ġsw ift
Ġbun ny
ĠFl orence
Ġad equ
bl anched
ener al
sc uitto
19 5
Ġcott a
Ġsn ake
Ġreg ister
ĠWash ington
ĠZ inger
ĠRec ommended
ari o
ĠAs ada
ĠRub y
28 0
Ġeat ers
erb raten
ĠCrum bles
Th row
Bro il
ĠHot el
Sh iitake
agon ally
ucc ini
ĠPo ly
ĠPo ivre
ĠBlack en
ĠMay be
ĠAn t
ĠAd apted
fro sting
ank ee
Al abama
Al gerian
Ġdoll up
Corn ish
ĠAr t
ĠSepar ated
rec ian
Ġlump ing
ĠBl ood
ĠCon d
ĠCon es
ĠCon fit
ao es
Mo jo
Ġpunch bowl
ĠNo ir
Ġsug er
Ġoutdo ors
beat ers
Ġcav atelli
ĠOri gin
ĠGu ilt
ĠLa va
AN S
Ġrav iol
Ġhollow s
ĠRel ax
Meat y
Ġvegetarian s
Cl ub
pr ints
UT E
ti is
Taco s
Sk ew
We ndy
Mini ature
Ġliver wurst
Mar velous
ĠCla y
ĠFil ets
Ġsup pose
Ġsink ing
AS ON
Ġ*** .
ĠCor ona
ĠHer dez
ĠFarm er
Ġfun ction
uds lide
Ġir regular
ĠAcc ording
Ġgroc er
ĠHo les
ĠHo agie
ĠSTIR RING
ĠFla y
ĠMa id
Ġsamb uca
Ġ26 5
ĠLast s
Ġoppos ed
Ġretain s
rel ease
ele br
ĠUN GRE
Bl onde
ĠNe ely
Ġsilic on
Ma ine
Ġfarm s
Har issa
ict ory
Pro ven
Ġbra id
Ġmaintain ing
ilit ate
ĠDrum ettes
Ġbrick s
cco flower
ĠSL ICE
MM ER
lot te
tri m
ĠEvery one
Ġche x
Ġbru ise
Ġbru lee
discard ing
ĠQ t
Ġingred ents
ĠCenter s
Ġdesign s
ĠInd ia
ĠInd onesian
ĠOF F
ĠNa an
Ġcass arole
ĠTH IN
Ġsett les
ĠRock et
Bob by
iqu illo
ĠPE PPER
Jam ie
Tam arind
Pic adillo
ĠPet ite
Com fort
ĠVeg enaise
ĠDevil s
Tra il
Ġchurn ing
ĠSI MMER
Devil ish
Ġstirr ers
ĠChan tilly
Smooth ie
ĠOk ada
Ġfri ge
Ġcompl iment
Ġdisturb ing
onc illo
onc inis
ARN ING
Ġjudge ment
Ġunt l
Ġtoge hter
ĠMag azine
isch mann
Baham a
ĠLef t
Silk y
Ġmul berries
Ġthinn est
Ġparmas an
ĠDav id
Coll ard
gran ulated
Vari ation
Ġlengh wise
Sem olina
cep tional
ĠSM ALL
ĠMUFF INS
Unbelie vable
Ġfac ilitate
Ġcontr ast
Ġpomegran ates
poll ini
Ġcoffeem aker
Ġfab ric
Ġfeat ure
tooth pick
innes ota
ĠLauren tiis
text ured
ĠORE O
Ġmanufac ture
ĠGOY A
ĠHONE Y
ĠUNGRE ASED
- )
. **
1 13
2 10
3 70
5 2
7 7
8 00
9 9
A G
A v
B it
B ur
B ush
B ubble
C as
C ereal
C zech
C edar
D es
D ot
D ust
E s
F ull
F uss
F eel
G al
G et
G odiva
H unt
I F
I ST
J elly
J eff
J alapeÃ±o
K iss
K raut
L es
L aw
L ING
L arge
M or
M ir
M oo
M agn
N uoc
P E
R un
S en
S ide
S irloin
S uccotash
T B
T re
T apenade
T errific
T affy
V elvety
V ictory
b ase
c ider
c hett
d is
d ice
f lip
h op
h ani
k uchen
m ac
n ies
o bs
p po
p ur
p ical
r r
u ing
v i
v ard
v ily
w on
y ram
z able
Ġ ic
Ġt ipping
Ġt acky
Ġa ges
Ġa ji
Ġs on
Ġs ch
Ġs ust
Ġs atiny
Ġs chnitz
on ic
ea h
Ġp ry
Ġp os
Ġp ikelets
Ġp onzu
Ġp ungent
Ġm ater
Ġm ars
Ġm arsh
Ġm ulled
Ġm armite
Ġf ans
Ġf owl
Ġw are
Ġin expensive
Ġto pper
at ella
ro ma
Ġl an
un ting
eas es
eas ured
Ġd rench
Ġg f
Ġg rigio
Ġg yoza
or an
pp on
pp ino
Ġch imichangas
Ġh ight
Ġco c
Ġco al
Ġco conuts
ĠS op
ĠS ole
ĠS opa
ĠS iu
ĠC ir
ĠC rinkle
ĠC arp
ĠC HI
Ġon line
Ġun lit
Ġun fold
Ġun tr
Ġun filtered
ĠP iri
ĠP acific
ĠP rudhomme
ver n
ch ip
to fu
rea n
ir ch
ĠB ee
ĠB aco
ĠB istro
ĠB ubbles
ĠA ust
ĠA do
ĠA ged
ĠA ussie
ĠA PPLE
um bs
ri mi
ri zon
ol in
ol ean
Ġsa ur
gh i
gh ai
Ġover process
ĠM ess
ĠM ia
ĠM ah
Ġegg whites
ĠT E
ĠR insed
Ġre ce
all ots
all ized
Ġsp ark
Ġsp rin
und i
ĠF uss
ĠF oo
ĠF antasy
Ġpan fry
Ġbrown er
Ġbe verages
ĠD em
ĠD elic
ĠD eseed
ĠD UMP
ish ed
Ġgr at
ĠW ant
ĠW ilt
ĠW earing
ĠSt ab
ĠSt ate
ĠSt arbucks
st ructions
om s
om on
om en
om as
Ġat tention
ĠSp in
Ġro ula
Ġcl uster
ain s
let e
ĠG renadine
ĠL IT
ĠL uscious
ĠH ugs
ger ator
ard elle
od ized
ash m
ant as
ant ation
ant abulous
Ġ- .
ent ire
ole ts
Ġdrain s
Ġdish towel
ĠRem over
ĠRem edy
Ġal ouette
Ġapp lic
Ġapp etit
ul d
ul den
me ister
Ġextra cted
Ġclo sing
ĠO b
Ġpl unger
low fat
Ġmore ls
ĠE lectric
ĠE scarole
ian ne
Ġhea ven
Ġpro scuitto
sh red
Ġhoney comb
Ġlo ver
Ġwhole grain
Ġmo ves
Ġmo jo
ĠN utter
Ġturn overs
ĠBeat ing
Ġgrill s
ĠU nd
ĠRed uction
ac qu
ĠV an
ĠV alentine
Ġfill er
ec ts
stick y
Ġres ts
Ġres eal
ĠTh rough
ĠTh irty
Ġfirm ed
ĠJ ean
ĠJ UICE
ĠJ ubilee
ĠPe pe
Ġdown ward
Ġneed le
lo ok
lo ad
Ġqu aker
ric iana
ric otta
mo osh
Ġcur ried
ĠTurn ips
Ġkn obs
Ġno ddles
Ġper ogies
Ġper imeter
ĠRo cks
ĠPre cook
Ġfluff ing
Sp ritz
nut meg
Ġ24 5
OT H
ĠSm other
burger s
rit ious
Ġreturn ed
Ġad vent
Ġad zuki
St ring
Gr ass
ĠBr ickle
ĠBr unswick
Ġbr eats
Ġreach ing
ne ver
ĠMo jitos
Â° ).
ĠLay ers
ĠHoney ed
Be cky
Ġmanufact ures
ĠMay tag
Butter cream
ĠCl ove
ĠCl ear
ila quiles
Ġfoam ed
ĠKn ow
Ġchuck s
Ġshort cut
ĠCho colat
Ġsolid ified
cup ines
Corn y
ĠDO UGH
AT ION
pre f
ĠPl eas
ĠPl astic
ĠDon ut
ĠBl anket
Ġpower ful
Ġtr icky
To ast
ĠGrand mother
be ing
ĠRot i
Ġsmok ie
An nie
Or ganic
ĠCO MPLE
Ġdot ting
Ġmound ed
cr unch
ĠVari able
dit ion
ĠPr unes
ĠLight ened
Ġthread ing
TI P
eb hard
Ġens ures
Ġgro ups
Ġpalm ful
Ġmort on
LE T
ĠTHE N
Fl uff
Fl orentine
Ġrich ness
az ote
Ġsu rimi
esh ire
ĠHa as
VER Y
Ġrecommend ations
ĠCal cium
ĠPar cels
ĠMan wich
cor bic
Ġam ino
All ow
ĠSwirl s
Cal ypso
ĠPin wheel
OO M
Ġmand arins
Ġcal cium
Pick le
ĠHea ping
ĠHea vily
ĠBra id
Ġtend ency
Ġla id
Ġla undry
-------- --------
oya ux
muff ins
Bl ushing
ĠGrain s
Ġacid ic
Ġrip eness
Ġflo or
ĠPic adillo
keep ing
ĠBul gogi
Ġsauc ier
ĠTem pura
ĠId eas
Ġsouth western
ĠHoliday s
ĠFres no
ĠNon fat
Beet root
Ġsurround ing
ĠWell ington
ĠFast en
Ġgener al
ĠPlum s
Ġben ch
Ġben ef
At ar
ĠMost accioli
ĠALL OW
Ġimmedi atley
Jan et
Jam es
Pic ante
ager meister
uj ad
seal ed
Ġholiday s
Ġox o
Refriger ate
ĠSE ASON
ĠTor ani
ĠKim chi
Per fectly
pure ed
Ġscra pping
Cro atian
Ġloc ation
ĠSI MPLE
Ġproble ms
Hellman s
Ġglycer ine
ĠBur rata
ĠThumb prints
ĠShoot ers
Ġspill ing
apples auce
Mid night
sandwich es
ĠSprink e
ĠEs pecially
RU CTIONS
Gingersn ap
breas t
paste urized
sn ipped
ĠMarz ano
Ancho vy
Hel en
every thing
Ġlac tose
Ġgem elli
ĠHe irloom
Tap ioca
ĠAlas ka
ĠBlan che
Cour gette
ĠCann oli
pul p
Ġmiz ithra
ĠPOT ATO
ĠBunch es
Ġmultip le
cir cles
Ã¨ me
remo ving
ĠNib bles
Ġep azote
ĠINST RUCTIONS
Ġhumid ity
Ter esa
ZZ LE
ĠRoy ale
undred s
Ġcaram al
ĠGuis ada
Ġmicrop lane
ĠCavender s
Ġsock eye
idal ias
Sy rian
ĠPenn ies
opal itos
Ġadap t
Ġbod ies
orge ous
Ġscramb ling
ĠAssem bly
WE ET
cla ir
gole mono
Ġorg eat
ĠDRI ZZLE
Ġpotstick ers
Ġting ed
ĠYOL KS
Skew ered
Ġschnitz els
ĠBaco s
rizon a
- ).
. .)
/ .
2 75
3 10
3 20
4 3
A V
A p
A ir
A gua
A lex
A fgh
B ite
B LE
B urnt
C ous
D ulce
F rog
G AR
H g
H ass
H ello
J ill
K E
K ay
L ick
L ove
L ong
L ori
L ucky
L iqu
M et
M aster
M ultigrain
N atural
N achos
P i
P lay
R ise
S ole
S cones
S ushi
S ilver
S ucculent
S nappy
T y
V al
V egemite
V ermicelli
W ont
W AY
Y ams
Y ankee
a ire
b d
b ug
b od
b ird
b illy
c our
c ore
c ord
d ated
f ork
f eta
f ive
f ying
g lazed
g oat
h as
h older
h usk
j an
l Ã©
m easured
n an
o ard
o lyn
p in
r eat
s it
s se
u ka
u erbraten
v in
w asser
z ag
Ġ >
Ġ Ã
in al
in ato
in id
in ding
Ġc uke
Ġc ram
Ġc abin
Ġc rayfish
Ġt ucked
Ġt ase
Ġa li
Ġa mple
on ite
es ter
ea nd
ea ke
Ġb rain
Ġb lu
Ġo ak
Ġp b
Ġp izz
Ġp oking
Ġf ake
Ġf riendly
Ġf usion
Ġf umes
Ġw el
Ġw rong
Ġw ord
Ġin v
po int
en joy
at ic
al ot
ro se
an to
Ġl akes
Ġl ucky
un hee
it to
eas ier
Ġd ew
Ġd icing
Ġd urkee
Ġg low
Ġg ound
or se
Ġch ourico
Ġh unt
Ġh ubby
ĠS po
ĠS ol
ĠS ake
ĠS HE
ĠS assy
Ġun frosted
Ġmin is
ak or
ĠP uffed
ra qi
ch ar
ch ment
ch uck
ch illi
Ġfor got
ĠB i
ĠB al
ĠB rain
ĠA p
ĠA verage
ĠA SSE
ick i
ri m
Ġpepper oncinis
ol ph
Ġsa w
Ġsa mm
Ġr ussets
Ġfl ush
em a
em p
Ġj ob
Ġj immy
Ġover done
ure l
ĠM and
ĠM allow
ĠT A
ĠT angerine
Ġn og
Ġn asturtium
ĠR as
ĠR IN
ĠR osa
ill ar
Ġcream s
Ġv elvet
Ġsh iitakes
ĠF ridge
ĠF IN
Ġsm ush
ĠD om
ĠD ove
ĠD hal
ĠD ulce
Ġju icing
ĠIn ternal
ĠW ieners
ĠW reath
Ġpa il
Ġat e
heat ing
Ġro bust
op es
Ġcl ar
if ul
Ġse nd
Ġas pargus
ĠG yros
ct ic
ct or
ĠL ad
ĠL oc
ĠL ighter
ĠL AND
ĠL yn
ĠL asagne
ĠL agas
ĠL ONG
ĠH P
ĠH AND
ĠH ermits
ff og
co s
Ġ8 50
Ġan imal
Ġex posing
Ġcorn ish
se veral
erv o
Ġmar ie
tra dit
ul u
ul co
ugh ter
Ġsof tening
Ġra mi
ĠO regon
pan elle
Ġpl ant
Ġpl easant
Ġpre c
uc atini
Ġref er
Ġref le
Ġref ri
Ġgold schlager
ag a
Ġlet s
ĠE ats
Ġz ig
Ġ9 7
Ġside ways
gar et
Ġhea ps
ach er
Ġpro mise
sh allots
Ġwarm s
Ġroll ups
ade w
Ġsoy sauce
ĠWh ilst
can o
Ġmo jito
iv ed
ĠN illa
Ġsl ot
Ġsl ides
Ġsl ider
enn onite
Ġbag shredded
Ġbatter ed
Ġlight ens
iss y
Ġri dge
Ġbring s
Ġliquid ise
ĠU r
ump ets
Ch i
Ch ick
Ch ipped
ĠPot luck
tt es
ĠIt aly
ac ious
ĠV ichyssoise
ĠK orma
ĠCream s
Ġlit res
ĠSo ba
ĠTh ose
ĠY oshida
ĠY unhee
Ġfirm s
ĠJ agermeister
ĠPe pp
ivid ually
Ġstick ers
lo oks
lo vak
sp iral
ĠGr as
Ġpeas ant
mo on
Ġcur ing
Ġacc ur
Ġacc om
Ġpat ch
Ġpit chers
Ġchi pol
Ġpo ppers
ĠDi ablo
Ġfew er
ex cluding
Ġbo unce
Ġbo ost
ĠBread s
Ġrec ently
Ġsub tract
Ġdark ness
ont ally
ĠCr iss
ĠCr Ã¨me
Sp aetzle
int he
int eg
part ially
pl astic
Ġdou bt
ĠSc out
Ġsw izzle
Ġsw imming
Ġmon de
ĠAl most
Ġplatter s
Ġjack et
Ġwet ting
sc allion
Ġsn akes
ĠCan s
Ġskim p
Ġspat ul
umm ery
Car la
Car olyn
ĠLo ops
Sh ip
Sh aron
Ġki k
ĠBas ed
ĠBas ket
ĠDe vein
Ġac ai
app earing
Ġfo ccacia
ĠBlack berries
Ġtub ular
Ġlower ing
Ġmoist uri
ĠAn tipasto
ĠMar cona
Ġdis integ
ĠAd ults
ĠKn ots
IG IN
Cr unch
Cr abby
Ġim press
Ġflesh ed
ko ek
Ġpier ces
Ġme ets
ĠAr m
Sm art
ĠMon o
ĠPl ug
Ġem panadas
Ġdoesn t
Ġcent igrade
ĠRe con
ĠBl ush
ĠBl onde
ĠTw enty
ao xing
Ġpr alines
ĠTO AST
ĠHerb al
ST AN
Ġmicrow aves
ĠPeas ant
bur gh
prefer able
An zac
ĠCrab s
ĠCO FFEE
ĠWe et
ĠEver clear
ls ey
Pepper s
Ar abian
water ing
LE S
!! !)
For gotten
Ġtater s
OU ND
Ġwor ried
ĠTHE M
ĠChe vre
deg F
Ġear th
rem aining
ific ation
Ġveg at
Ġscorch ed
Ġspiral izer
De er
De lectable
Un known
Cal do
Ġinf ant
ĠMini ature
Ġsink s
Tw isted
ĠADD I
ĠMas ters
ĠTOPPING S
Gu ava
Ġmand arine
ĠMex i
Ġeff ort
Min ced
Ġperfor ated
Ġlunch es
Ġ= ).
ĠFla vour
Ġbea u
Col cannon
Ġspoons ful
FT ER
hell s
Ġtim ed
Ġwid est
Ġdehyd rate
Ġing rid
ĠMal don
Ġint rod
ĠSkin less
Ex otic
23 6
ĠSU RE
Ġheav ier
Ho ppin
itam ix
bas ic
ĠFar ro
ĠEvery day
Mel issa
Ġaccum ul
GRE ES
Ġfle cks
iant i
tow els
ĠIm possible
ĠInf use
Ġtra vel
ĠKick in
Ġsna ils
At kins
App rox
Ġswitch ing
Man icotti
Ġpackag el
separ ate
ĠPit cher
ĠHel p
ĠEar l
Wil ton
Ġoverhang ing
soup y
sw eat
Ġfoot note
Bul gogi
Ġox id
Muff uletta
Ne ufchatel
Incr edibly
Ġintens ity
ĠCons istency
Tra der
cap ulco
Ġasaf etida
ĠGLA SS
Ġpeek ing
Ġthousand s
Ġhotd og
Ġdra g
Sin ful
Sin fully
Pier ogi
she et
ols ka
Ġvers ions
Ġdiss ip
stand ing
RU IT
ĠLOT S
ĠVii i
Ġchee ks
ĠCu isinart
ĠCON STAN
ĠBarb ie
vegg ies
ĠBuck eyes
Pom mes
ĠBud get
Ġoverpow er
Ġoverpow ering
ĠAlas kan
Ġvi olets
Ġincr edients
Emer ald
rabb a
Ġcult ured
Roman ian
Ġcanss liced
ĠDE GREES
agan aki
ĠONION S
Witch es
Alas kan
ĠMim osa
ĠAj illo
ĠWar ning
Juli a
gam ot
Ġtric olor
Ġelect ic
Ġtoler ance
ĠEAS Y
Prun e
purch ased
Ġpuri fied
ĠChol ula
anton ese
Ġalarm ed
Ġevent ually
Goose berry
Ġgut ted
ĠToscan a
ĠKie v
Colomb ian
Vi ennese
eze bel
akis oba
ĠJumb les
elebr ation
Proven cal
Ġsaur kraut
uld ron
Grass hopper
ĠCOMPLE TEL
ĠASSE MB
ĠLagas se
ffog ato
Unknown chef
ĠCONSTAN TLY
2 34
3 60
3 95
5 4
5 7
6 2
7 6
A ioli
A lice
A romatic
B y
B ed
B at
B ix
B ear
B urgers
B istro
C ast
C ong
C oca
C atalina
C amembert
C heez
C eviche
E rin
F e
F ries
F ava
G h
G ro
G recian
H ole
H eath
H eather
I ranian
J asmine
J enny
J olean
K it
K ellogg
L ast
L OW
L ibb
L iver
M illet
M old
M ousse
M ahi
O k
O VER
P ig
P umpernickel
P iquant
R h
R en
S er
S eas
S par
S ally
S of
T ie
T LE
U DS
V ers
V elvet
W ake
Y akitori
Z uppa
\ >
a a
a q
a can
b lock
b esan
b ecause
c us
c orkscrew
d rink
d ipped
d elli
e venly
f un
f ts
f ef
f ashion
g ium
g ency
i als
j ete
k eeps
l os
l odge
p reheat
s old
u ah
v ada
w agon
y y
y al
y east
y lit
z etti
in cess
in ac
in stead
Ġt ies
Ġt ennis
Ġa ut
Ġs argento
es el
es ap
ea bly
Ġb i
Ġb re
Ġb ain
Ġp ol
Ġp om
Ġp ices
Ġp ong
Ġp isco
Ġp ike
Ġp ealed
Ġp iling
Ġp sy
Ġp yram
Ġp olska
Ġm un
Ġm am
Ġm ates
Ġm ud
ar ita
ar ugula
Ġf ideo
Ġw w
Ġw ave
Ġw orces
Ġw eak
up h
Ġin ger
ro ved
an ly
an other
Ġl il
Ġl ick
Ġd rape
Ġd anger
Ġg ap
Ġg ai
or p
Ġch aat
Ġh ab
Ġh unts
Ġco pha
el o
ĠS erv
Ġteaspoon fulls
ĠC uts
as er
Ġun w
Ġun pared
Ġ3 95
ve g
ve t
ĠP i
ĠP izz
ĠP oz
ĠP itted
la ise
Ġpe bbles
ch erries
ok o
ok ies
us to
us ks
us tom
Ġminutes s
ĠB an
ĠB urn
ĠB IG
ĠB ones
ĠB occoncini
ĠB AC
ĠA FTER
et ly
um ed
Ġcho l
Ġst ation
ck et
Ġr eroll
Ġr issoles
ĠCo pha
Ġfl ipped
Ġ4 30
Ġj et
ĠM illion
ĠI gn
ll ium
ĠT en
ĠT own
ĠT iny
ĠT raditionally
ĠT ube
ĠT abouli
Ġn y
Ġn eg
Ġn ail
Ġn iblet
Ġn oyaux
ater p
Ġre cc
Ġre gg
Ġv ita
Ġv iolet
Ġv irtually
Ġsp ead
Ġsp ong
Ġsh edded
ĠF ound
ĠF ind
ĠF ield
ĠF usilli
Ġcan condensed
Ġcan pillsbury
Ġcan rotel
Ġe vely
Ġcr akers
ĠD runken
der o
der ate
qu ake
ĠW ould
ĠW ARNING
Ġpot luck
Ġpot aoes
Ġpot holder
st ewed
ĠSp ect
ĠStir fry
Ġro man
op y
Ġrem oulade
ink ie
con tain
con fectioner
ĠG a
ĠG ard
ĠG RA
ĠG ods
ĠCh alup
ĠL il
ĠL ard
ĠL AKES
ĠH anout
ub lin
Ġfrom age
Ġtop side
Ġan tipasto
Ġk ulfi
Ġk asseri
Ġex cluding
ash imi
ant ity
inn ati
ap ing
Ġyou gurt
pan s
pan ada
Ġpl op
Ġchil ly
Ġchil ie
iz ation
uc opia
Ġpast es
cess or
ery l
Ġup ward
ag ar
ĠSa uced
ĠSa uces
Ġhea venly
Ġdes ert
Ġnot ch
sh aved
Ġne cess
Ġthick end
Ġroll er
uit oni
Ġlo oked
Ġwhole wheat
can e
ĠN ana
Ġen ergy
Ġen oki
af Ã©
Ġpaper ed
Ġpaper towels
Ġri pped
Ġnon aluminum
Ġfla ming
Ġocc ass
Ġnut rition
Ġoccas ions
Ch est
ĠV ol
ĠV ig
ĠV ienna
ĠK ab
ĠK ee
ĠSh ut
ĠSh am
ĠSh op
ĠSh are
Ġuns helled
Ġtur k
ĠTh ing
ĠTh ings
ĠTh erm
ĠY o
ĠY et
ĠJ if
ĠPe ople
Ġstick iness
lo os
Ġclean ly
sp lash
Ġqu ater
Ġqu ah
gg s
gg ed
Ġform ula
Ġde can
Ġde gees
Ġcur ries
ind aloo
Ġpat is
Ġpo ly
Ġread ily
Ġfil ing
Ġros ettes
ift y
ead ow
Ġcol der
ĠRo b
ep ression
Ġdon ess
ĠPre fer
Ġcons ume
Ġcons uming
amb a
Ġtsp n
Sp iral
Ġcap tain
ula o
erm oula
rig ade
ĠEgg less
Ġsw anson
Ġsw ede
ĠCorn ing
ĠAl cohol
Ġcas erole
rit s
Ġtransfer ing
Chocolate y
ĠRoast ing
St art
ĠDo esn
Ġtrans port
Ġind gredients
ĠPan zanella
elb ack
do es
ĠZ a
ĠBr ut
Ġbr ined
ĠSqu eezed
Ġjars liced
ĠCa ution
Ġpop ular
ĠSw irled
ru esel
Ġsplit ting
erb y
erb oard
Ġgreat er
umm ies
ĠMo ose
Apple bee
av it
ĠCrum bed
Th an
ĠSe ction
ĠPure ed
Car away
Car rabba
ĠLo vely
ĠSk inny
Ġtouch es
Sh o
Wh o
ĠDe tox
Ġac ids
Ġbl ondies
oz y
ĠTablespoon fuls
ira delli
ĠMin is
ĠMin ted
ĠAn ne
oo h
iel ding
ĠCup cake
Ġlim as
Al ways
ĠDO OR
pre mium
land ia
Mom my
IL LET
ĠRe nder
Ġpar lsey
iry ani
Ġel ong
HE D
To ad
To blerone
ST ONE
be et
Ġcontinu ous
ĠRom an
ED IAT
brown s
Ġchip its
pack age
An na
Free ze
OR M
AL S
Ġdef in
Ġloosen ing
Ġatt ain
ĠMango es
ĠHal va
ĠStick ers
Ġven ting
awai i
Pan ini
Pan zanella
Ġovermix ing
Ġbright ly
uns easoned
LE ASE
Blue berries
Herb y
Fl ounder
Add ictive
ĠBrand ied
Ġpattern s
Ġris oni
hn ic
crisp y
Ġveg s
ca jete
Mar garet
ĠMan is
ĠMan hattan
ĠPh easant
ĠEX AC
DD ING
Ġweight ed
ĠCol lege
inc rease
inc innati
ha ji
Ġdevelop ed
ĠPer fection
Ra ita
ĠSor rel
Ġdiet ary
Ġcrunch ed
ĠEas e
Ġcal ab
Gra vy
ĠSnow ball
ĠHo stess
ene zu
ĠMa e
ĠPoppy seed
Cho colat
ĠPor cupine
Ġfeed er
Ġdel ish
-------- ---.
sto ve
acc io
lement ine
sal mon
Ġguess ed
Sn ap
Sn eaky
Ġmass aging
ĠBR ING
ĠEl bow
Har ry
Ġmush ro
ĠSmok ey
ĠId eally
Ġtum blers
She lly
ĠMorning star
Ġdred ged
Ġvineg rette
Ġbu ilding
Ġoc asionally
IS E
Fran gelico
Pat ty
ki ver
eros ol
Ġingred ints
El vis
Ġdisol ves
Ad just
Ġunmold ing
Ġstretch ing
hand ful
Ġtra ce
Ġtag ine
Ġsquish y
ĠTH AT
ĠTH AW
ĠStar ters
Man hattan
Ġshrink s
Ġcertain ly
Ġunroll ed
Ġrecon stitute
Ġcri ps
ĠAncho vies
Farm house
ĠKrisp y
Dump lings
Fun nel
Hom iny
ĠNeed ed
Ġdam age
Ġsele cted
Ġcomfort able
ĠSam m
ĠEm mentaler
Ġmit t
ĠYumm ies
Pier ogies
Que en
ĠBa ja
Ġoverflow ing
Ġele v
Sand ra
ĠBit tersweet
Ġfib re
ays ian
ĠSUGGEST ION
ĠGi ada
Ġspecific ations
ĠQue en
Ġutens ils
Da wn
Mi ka
brand y
ĠTy pe
******** ********
err ine
Pri ze
ĠKir by
Mag gie
ĠRefresh er
Ġhomogen ous
Tap as
ĠKar toff
Bor der
Ġom lette
Ġboysen berries
Mah ogany
Ġpapp ad
Ġpract ice
ĠLick in
apric ot
Fill ing
defrost ed
Ġdest em
Ġlear ned
ĠFranc isco
Outrage ous
Tah itian
ĠQU ICK
Cosmo politan
Powder ed
Ġhill shire
Ġprett ier
hyll is
Ġtamar illos
ĠHoriz on
Ġsitr ring
Ġrepeated ly
ĠSOU P
ĠPillow s
ĠChris topher
Ġsatisfa ction
bul k
hel ps
Ġgath ering
liz abet
Ġraviol is
ĠLIT TLE
ashm iri
Wont on
ĠÃ Ģ
ĠTA CO
Ġspatul as
ĠCOMPLETEL Y
fef fer
ylit ol
esap eake
Ġregg iano
ĠGard ens
EDIAT ELY
4 10
7 3
7 00
A A
A sh
A GE
A rizona
A capulco
B al
B each
B rush
B arbequed
B urrito
C i
D ragon
D ixie
E r
E lectric
E agle
E VOO
F ake
F ield
F riend
F rito
G all
G len
H OT
H av
H amburgers
H olly
H urricane
H aystacks
K a
K ev
L y
L eeks
M ul
M erry
M ud
M ongolian
M innesota
N y
N in
N as
O ma
O LE
O cean
O regon
P ub
P ance
P uffy
R ag
R sc
S ER
S ometimes
S aturated
S implest
S izzling
T en
T an
T ips
U D
U CK
U DDING
V an
W olf
W ickle
W iener
W icked
Y et
Z ING
Z EN
Z iti
a e
b la
b ush
b age
b alsamic
b reakfast
c ious
c omes
c alled
d ec
d eseed
h es
i oc
i ata
j ell
j ello
k le
m L
m ary
o ves
p ull
p ong
p rising
s ts
s li
t ub
t una
t ortilla
t oush
u rous
u bert
w en
Ã ¸
Ã ¼
Ġ <
Ġ !!
Ġc p
Ġc afe
Ġc heez
Ġc amping
Ġt al
Ġt ubs
Ġa erosol
Ġs askatoon
er ds
on el
on bu
es ers
es pecially
ed ed
ea z
Ġb loom
Ġb reeze
Ġo h
Ġp um
Ġp ts
Ġp armes
Ġp ark
Ġp iquillo
Ġm u
Ġm x
Ġm im
Ġm ah
Ġm akers
il te
ar ry
ar range
ar oni
ar ones
ut er
Ġf ed
Ġf al
Ġf alafel
Ġw in
Ġw ig
Ġw ider
po x
po ix
Ġto pp
en ly
en cia
at ives
an z
Ġl ab
Ġl ouis
Ġl eather
it er
it ate
Ġd ur
Ġd iners
Ġg h
Ġg hirardelli
Ġg host
or ro
or ia
Ġch amp
Ġch itterlings
ou m
le ep
Ġco pped
Ġco upe
ĠS eas
ĠS el
ĠS ab
ĠS eg
ĠS os
ĠS ET
ĠS undried
ĠS WEET
ab ub
les kiver
ĠC ort
ĠC lip
ĠC ored
ĠC RA
ĠC edar
ĠC raisin
is ite
Ġun waxed
Ġmin ces
Ġmin cing
ak h
ak o
ak sh
our d
our gu
ot er
ĠP un
ĠP ump
ĠP uck
ĠP ila
ĠP armesean
ĠP ods
la ine
ra do
to ber
us er
us ch
ĠB L
ĠB il
ĠB akes
ĠB anan
ĠB ang
ĠB ons
ĠB alm
ĠB orden
ĠA way
ick el
um a
um er
Ġpepper y
ol ed
Ġst ud
Ġst rata
Ġr isk
gh ur
ĠCo mm
Ġth rown
Ġ4 1
Ġj amon
Ġj oy
Ġj immies
Ġover all
Ġbro ther
ts burgh
ĠM s
ĠM ak
ĠM od
ĠM iller
ĠM olly
ĠM AYER
ĠM icrowaved
ĠM ystery
ĠM udslide
ĠI mp
ĠI MM
egg y
ll abub
ces ary
ĠT un
ĠT AST
ĠT ennessee
ĠT urtles
Ġn ib
im portant
Ġwater chest
Ġv a
Ġv ing
Ġv ib
Ġv ienna
Ġsp routed
ell ie
Ġsh op
ĠF ly
ĠF eather
ĠF innish
ĠF alafel
ĠF RUIT
Ġcan petite
ĠD u
ĠD ol
ĠD ente
ĠD iner
qu a
Ġgr as
ĠIn formation
li o
li pping
ĠW orces
ĠW isconsin
ĠW estern
ĠW elsh
st iff
st rong
Ġis le
ad r
ad es
ust eaz
ring s
ĠSp rinkles
ĠSp inkle
Ġdeg lazing
Ġ5 3
Ġro yal
op la
Ġas a
ĠCh ianti
ĠL ake
ĠL ily
ĠL ychee
ĠH ad
ĠH omes
ĠH ock
ĠH ours
ĠH AVE
ĠH cg
ĠH OME
ff er
Ġcon f
Ġan e
imm ed
od as
od acious
Ġit o
Ġk eebler
Ġex c
Ġex ceed
Ġhal va
ant i
par chment
inn ers
Ġmar nier
Ġal la
Ġal umin
ap rox
and e
ugh ty
Ġra zor
ire poix
ĠO SC
ins on
pan ko
per se
uc he
Ġbroth s
Ġref ined
cc ino
Ġbas ter
Ġz uccini
ĠSa fe
gar banzos
gar ashi
zz ard
ĠWh y
vor ites
Ġmo ro
Ġmo ved
ĠN orm
Ġchill is
Ġri pple
Ġgl istening
ich uan
Ġsc rod
ump y
Ġoccas ional
Ch an
Ch iles
Ch icago
ac ular
ĠV erb
ĠV ictoria
ĠV indaloo
Ġcrust less
ĠK ern
ĠK ashi
ĠK fc
ĠK ernel
ĠK ebab
els on
ĠSh oyu
ĠSh iraz
Ġtw eak
ĠSo f
ig ator
ĠY oung
ĠJ ava
ĠPe pitas
Ġneed les
Ġclean er
sp ace
ĠGr unt
Ġloaf s
ĠWhisk y
mo zzarella
Ġenough t
Ġaddit onal
Ġchi ken
ĠTurn ip
udd y
ta co
Ġbo oze
ĠBread ing
ist ou
osh i
Ġrec aito
Ġinser ts
ots ie
Ġsub tle
Ġcol lect
Ġta wny
Ġpick y
ĠPre bake
ĠCr uz
ĠBe cel
Ġsand which
ĠSalt ine
Ġop posing
Ġsur prise
tern ational
Ġpackages frozen
ula as
Ġcand rained
ĠSc andinavian
Ġunder cook
ĠFl orets
ĠMuff uletta
Ġtransfer red
Ġdri ve
Co q
Co pper
rock et
Ġmed iterranean
sc rubbed
Ġman zanilla
ĠMeat less
ĠCan ada
ĠZ ap
Ġbr ining
Ġthickness es
Ġkidney s
ĠRecipe zaar
ĠAs k
ĠCa ctus
ĠShrimp s
ĠSw ai
bon d
umm ing
Sa uced
Sa vannah
fl uff
Ġdrop lets
Ġbegin ing
ĠApp et
ĠLo x
Sh aker
Sh aved
Sh erri
Wh at
Ġcross hatch
Ġloos es
Ġloos ened
ĠNut ri
Ġbl ind
Gar am
Ġfo ie
ĠIce berg
Ġpoint y
Ġdis lodge
Ġgu ilt
ĠKn ock
Ġwe iners
Ġresemb ling
ĠCoffee cake
Pe ppy
ina ire
AT ED
agna c
Sal ata
pre cooked
Ġem er
mat riciana
ĠQuick ie
Ġpar faits
Ġblanch ing
ĠCon stantly
Ġle nd
Ġnew man
ON I
ĠTw ix
ĠTO O
Bas que
Sc ar
be h
ĠDough nut
ĠPul ver
ĠRanch ero
CE SS
Veget ables
An ita
Ġ19 5
Ar tichokes
Ġsor ry
Ġrequ est
Ġcolour s
AN GE
Ġven til
Po ss
eb leskiver
Pan era
Ġpor c
Ġpor tobellos
OU LD
Ġwing ettes
az s
irin ha
ific ent
ĠMac intosh
anger s
but ton
Ġspo il
ĠCal zone
ĠMart inis
ĠPar adise
De es
ĠCom pound
Ġdec adent
ILL A
Ġed ged
Ġsup port
ĠPier ogi
Ġam d
ax aca
Cal abacitas
Ġinf o
Ġ*** **
ĠFarm ers
ĠMex ic
ĠMex icali
Ġcal zones
nam ents
ĠHo ot
ĠHo ppin
ony field
hal ves
hea ped
Ġther ea
non stick
ĠMom my
pow ered
ĠPri de
-------- -.
fur ter
veget arian
ĠLim on
Steak house
mish ed
Eas tern
Ġing read
ĠAL TER
ĠMary land
Jo an
ĠDI SH
ĠEl vis
ĠCur ve
ĠBul k
Pro volone
Ġapply ing
Ġjal ape
ĠScotch ies
ĠTem ple
Ġma ine
Ġma ui
Ġoc assionally
ĠFRO ZEN
Rock in
ĠQ T
Ġingred s
ĠJu iced
Ġtra der
Ġap x
eral la
ĠEd ible
Por ridge
Ġsna pping
ĠInd ividual
App roximately
uckle berry
Ġpair ing
RAIN ED
Man chego
Ġdepress ions
Rot ini
Batter ed
Ġappropri ately
ĠOut back
Campbell s
Flavor ful
squar es
Ġflatbread s
ĠBun ny
ĠFun nel
Ġcrud ite
Ġmod e
Ġmod el
ĠDON E
Ġox tails
ĠCHO PPED
Muff in
cur rant
ĠFRE SH
ĠDai kon
ĠTor ta
ĠCOVER ED
Fig s
ram undi
Fun fetti
Hellman n
Ġpun net
Ġru le
ĠBear d
Ġstab ilize
Ġchap atis
ĠPal est
ĠMil ano
ĠDis ney
Hal ibut
Ġbal kan
ĠCour se
ĠNest les
marin ate
ĠBOT H
tablespoon s
Ġcul antro
Sandwich es
ĠGal ette
ĠChild ren
Ġthro at
ĠKr ab
Ġincis ion
Am anda
center s
Ġlac inato
Buck eyes
Ġblo b
Ġwindow s
ĠFle ischmann
ĠSli vered
Ġfrag ile
rom ano
Ġbob oli
Emer gency
Kat ie
rabb iata
slow ly
ĠOx o
Ġbat ons
Ġintern ational
ĠFo am
Ġboysen berry
Ġet hnic
Ġcuban elle
Ġattempt ing
Gi ada
ĠGhan oush
Ġnotic eably
Ġpil oncillo
Ġwreath s
Cel eriac
Ġooz ing
ĠFoot ball
Ġmusc les
Ġga uge
Ġdishwash ing
ĠMadele ines
ĠFlap jacks
Ġdistin ct
Az tec
ĠMem phis
ĠTooth pick
Ġparath as
Us ually
icul ously
ĠWra ppers
ĠKN UDS
Ġuntr eated
ĠDUMP LING
Ġgrat ings
ebhard t
bod ied
husk ed
inid ad
Ġglow ing
Ġkik koman
Ġaccumul ates
Vers atile
uah ua
Ġpsy llium
ĠPoz ole
aterp illar
Ġturk ish
ĠQUICK LY
lizabet h
Friend ship
Pance tta
Wickle wood
deseed ed
ĠIMM EDIATELY
Ġvib rant
ĠOSC AR
ĠVerb ena
ĠALTER N
ĠKNUDS EN
* ).
. **.
. ***.
2 13
9 00
A cc
A pr
A hi
A ward
A mber
B re
B ab
B et
B ad
B ee
B anan
B ologna
C ass
C and
C athy
D uncan
E ric
F ir
F alafel
F antasy
G ame
G ift
G io
G eor
G hirardelli
G rown
H un
H ave
I cing
I VE
I rresistible
I raqi
J ay
J unior
J amaica
K osher
L il
L eg
L ean
L ibby
M ole
M ile
M alt
M ond
M uesli
M atcha
M olten
M ystery
N elson
O C
O recchiette
P ars
P unch
P ud
P hyllo
P rog
P AM
P igs
R el
R ay
R ated
R ack
R ead
S ou
S nack
S napper
S oph
T ag
T astes
U C
U TION
V eg
V era
W ar
W assail
Y em
Y umm
Z aar
\ ;
b lo
b ud
b ubble
b etty
b ottle
c ran
c ue
c andy
d ash
d iet
e ese
e lectric
f les
g i
h ickory
j am
j era
l ok
m ove
m alt
n ival
o h
p ea
p eanuts
r n
r ir
s an
s ur
s coop
s omething
t in
t inned
u ine
v as
v age
v ador
w orcestershire
w reck
x ic
y m
y am
y nam
y nolds
Ã ¤
Ã ¶
in ella
Ġc ou
Ġc armal
Ġc eviche
Ġc oulis
Ġc ustom
Ġt erri
Ġt abbouleh
Ġa w
Ġa mb
Ġs edi
Ġs ell
Ġs tilton
Ġs chnitzel
Ġ1 12
ea m
Ġb ead
Ġb arbec
Ġb oca
nd ar
Ġp ron
Ġm is
Ġm ice
Ġm unch
Ġm mm
Ġm organ
Ġf erm
ic ard
ic ient
Ġw r
po ached
re p
at em
at ma
al an
ro lose
an che
Ġl ee
Ġl ack
it ing
eas y
Ġd et
Ġd im
Ġd ents
Ġd ies
Ġd ead
Ġd ye
Ġg un
Ġg ross
Ġg iblet
or al
Ġch im
Ġch iffon
ou j
ce llo
Ġh arm
Ġco p
Ġco il
Ġco ast
el n
ĠS C
ĠS ic
ĠS ate
ĠS olid
ĠS OUR
ĠS QU
ĠS moosh
ab oko
les eed
ĠC ri
ĠC ough
ĠC ec
ĠC amp
ĠC atsup
ĠC abin
as ion
as ol
as ota
is ta
eat en
ow s
Ġun melted
Ġun refrigerated
ĠP uppy
ĠP ioneer
ĠP avlova
ĠP ACK
ĠP ronto
ĠP UDDING
ra d
ra h
eg l
eg o
ch ile
ir is
ir ate
ir ley
ir cher
us ions
Ġfor giving
Ġfor ward
ĠB ad
ĠB ian
ĠB oo
ĠB ison
ĠB ottled
ĠA P
ĠA range
ĠA ustralian
ĠA maretti
ri er
Ġcho co
Ġcho cl
ol li
Ġst ire
Ġst able
Ġst ray
Ġst amp
ck ed
Ġsa ves
Ġr an
Ġr iced
Ġr ussian
Ġbutter cup
ĠCo mine
Ġcook es
Ġoil ve
Ġfl uting
Ġ4 9
Ġj arm
Ġover sized
ĠM i
ĠM r
ĠM es
ĠM is
ĠM ight
ĠM cc
ĠM mm
ĠM ori
ĠM ackerel
ĠM mmm
ĠM achines
ĠM armite
ĠM arbled
ĠM ultigrain
ĠM olten
Ġso ooo
ĠI x
ĠI da
ĠI ranian
ĠI DE
id eally
Ġegg roll
Ġegg white
th ree
ĠT in
ĠT ab
ĠT ast
ĠT aking
ĠT HICK
Ġwh ack
ĠR ig
ĠR oca
ĠR OL
ĠR ancho
ven tional
Ġbow n
im ble
im itation
Ġre ynolds
Ġv itam
read ed
Ġsh ops
Ġsh uck
Ġsh aving
ĠF age
ĠF RY
ĠF ISH
ĠF IR
ĠF orno
Ġpan ir
Ġpan na
Ġy oke
Ġbrown ness
Ġsm uckers
ĠD ri
ĠD ur
ĠD irect
ĠD ividing
ĠD ungeness
ĠD ahl
ay e
Ġfresh er
qu avit
li zed
li zzard
ĠW OW
ĠW AY
ĠW ASH
ĠW eave
ĠW HILE
ĠSt e
ĠSt amp
Ġpa using
Ġab ut
ad s
ad ence
Ġingredi ets
om ash
ĠSp ain
ĠSp ec
ip irinha
Ġsk or
Ġsk ill
op ales
ink y
ef lex
ef ilte
col l
col ator
ain er
ain able
nder s
if er
Ġas corbic
ĠG ARN
ĠG remolata
ĠCh allah
ĠCh oux
Ġgreen beans
ĠL es
ĠL ing
ĠL ucky
ĠL ighly
ĠH i
ĠH ay
ĠH eal
ĠH urricane
ĠH orchata
ĠH ORM
ff y
Ġ8 1
Ġcon dens
Ġan isette
Ġk angaroo
Ġk onbu
Ġex otic
ant or
inn a
Ġhot plate
we in
Ġmar gin
Ġal der
Ġal coholic
Ġcar ved
and s
Ġlow ball
ĠO elek
ins ide
est ion
Ġpl ated
Ġpl ants
Ġhalf s
Ġpre pping
Ġpre bake
Ġseed ing
Ġpackage fresh
Ġ& /
ree ce
ĠE st
ĠE clair
ĠSa utÃ©ed
sh o
sh ot
sh allot
Ġlo op
Ġlo aded
Ġmo ck
Ġmo zerella
ĠN am
ĠN ancy
ĠN igella
ile en
Ġsl ant
enn ie
Ġturn table
Ġri per
Ġri blets
ĠCool ers
Ġmarin ation
Ġliquid iser
Ġfla g
Ġsc ale
Ġnut rients
Ġcrack ling
ac ie
ac ru
ĠV ie
ĠV elvetta
ĠV idalias
ĠV itamix
ĠK i
ĠK l
ĠK een
ĠK razy
Ġstock s
ĠSh ower
ĠSh irley
Ġres hape
Ġcrisp ing
ĠSo ap
14 9
ig on
kin ess
ia v
abb ies
ĠJ unior
ĠJ ewel
ĠPe ter
lo ver
lo ose
Ġqu ince
Ġqu adr
Ġchun kiness
ang a
Ġstri pe
unch okes
Ġsqu ashed
ren ts
Ġdo z
ens alat
Ġcor re
ting u
ĠDi agonally
Ġfil leted
ĠThe ir
ist les
Ġthaw s
ĠGra de
ola is
ĠRo jo
Ġplain tain
ont ana
ont inella
Ġcons erve
ĠCr usts
ĠSto li
ĠSto lichnaya
Sp aghettini
ier a
Ġinc lined
Ġhard wood
part ame
Ġrum s
Ġsw ish
Ġgo al
Ġgo chujang
Ġlean er
Ġsun light
ah a
lit re
St and
St roganoff
edge hog
amp ire
oun ced
ener ally
Co sta
Ġind ex
ĠPan eer
Ġtea cups
ĠPro v
ĠQu ail
sc al
sc all
sc rape
Ġinst ance
Ġbar illa
Ġman ually
Ġsn eak
ett ia
ili eg
Ġho b
ĠZ uppa
Ro bin
ĠBr ined
ĠSqu eak
eri b
eri o
eri or
Ġsprink e
ĠAs ia
ne cessary
Ġpim ent
umm in
umm ous
Sa uerbraten
Ġbri quettes
av as
av rie
bo at
ĠSe ve
Ġadjust ments
Car rie
ĠHot pot
ĠSk ip
Sh ish
ĠBas kets
ĠDe er
ĠDe pends
Ġac ording
Ġbl otted
ĠTri mmed
ĠPo ss
Ġoptional ly
Ġver mont
ĠBlack well
min ce
Ġbase ball
ĠAn gus
ĠMar cus
Ġjuli ened
Ġwe ird
ĠLea gue
atur als
fro st
food s
Ġsolid ifies
ĠWal leye
Ġflesh y
ĠDO WN
ĠCre mini
Ġem bers
Ġchar ring
Ġflavour ings
Ġflavour ful
Ġcheck ed
Ġvari ed
Ġpr int
ĠTO SS
Grand mas
ĠTender ize
ĠTr ash
ĠGrand e
ph erds
Ġfinger lings
Ġlevel ed
Ġ28 5
ĠAt kins
sk ip
Ġdump ing
ĠBar efoot
Oat y
Can n
Can ning
Ġdiffer ently
ĠWe en
sm ash
Ġdepend ent
ĠĠ ĠĠ
ĠFran co
Ġ19 68
Fruit cake
ĠGu ava
ĠMint y
ord inaire
Sw anson
chi ato
Ġabsorb ing
AN UT
ĠHal oumi
Po povers
ĠNew burg
Ġlot us
Ġopt imal
Ġpor ce
Ġflower et
ĠJam es
ĠChe er
ĠBo ar
ĠScr umptious
Pl antain
che vre
Ġsu ite
Delicious ly
Fro sting
ĠHa agen
Ġsimilar ly
ĠSummer time
ĠCal le
ĠFil ter
ĠFil ipino
ĠPar rot
ĠMc Butter
Ġempt ied
Un til
Un baked
Ġjo es
ĠKitchen Aid
And y
Ġinf usion
Ġheart ier
ĠCol cannon
Ġwhere ver
inc i
Ġhar icot
ĠPast ies
Tw inkie
ĠFinish ed
ĠGold fish
ĠGold schlager
ĠBasic s
Ġcrunch iness
ĠVer a
Ġhoneydew s
ĠReplace ment
ĠAcc ompan
ĠBE ANS
Ġact iv
ĠFla mbe
Ġpip ed
ĠRE AL
comb ination
gra ham
ĠMom ents
Ġbea ds
Ġbea uty
Col lege
ped o
fur ters
Stea ks
tend ed
ĠMore l
Ġchan terelles
turn ed
âĢ Ŀ
Ġsuc rolose
ĠST OVE
ĠBR USH
Ġbra eburn
Ġmush ed
ĠSmok er
ĠSmall er
May an
Sto re
Ġremember ing
Leftover s
ĠSlush ie
ELL O
ĠFire cracker
Ġbu zz
Mel ted
Ph easant
Ġche erios
start ing
extra ct
Ġmozz eralla
Del ight
Milk y
UL L
ĠInf o
ĠInf usions
Ġap pox
ĠMoro cco
oe uvres
Ġsquish ing
Rem oulade
ĠMad ness
ĠLiquid ise
Ġestim ates
Tr uffle
rik le
rik as
Ġclassic o
Fire house
ĠLE AVE
Ġfix ins
Ġpackag ess
ĠPock et
Ġbis quik
Ġhull s
ju iced
ĠSH AP
ĠSH OULD
Ġtrick le
Ġwhit ing
Ġmod ified
Ġweigh ing
ĠCarbo hydrates
Ġsplatter s
Bea utiful
ĠLI FT
cur rants
Ġcasser ol
ĠBea m
ĠDiabetic s
equ ivalent
Pre p
Ġdisp enser
ih ana
Mal aysian
Cran berries
Ġwip ing
ĠPeppercorn s
Na an
ĠBri oche
Scotch eroos
Ġask ed
Ġgrand mother
ĠTa quitos
__ __
empt y
Ġmedi m
Ġpeper oncini
ĠMil anese
Ġenhan ces
ĠBagu ettes
Mad ras
Mam ma
Ġfore ver
Ben ihana
Ġlad les
Ġele phant
Dog gie
Ġpad ano
stand ard
ĠSprink ling
Ġfact or
Cur ly
Ġwar n
Kn orr
Ġthro roughly
Ear l
ĠSem olina
ĠPL ace
Ġjuic ier
Ġ----- --
juli enne
yps y
Buck eye
Ġcong ealed
------------ .
ĠCann elloni
Pres ident
chunk ed
cir cle
pers onal
Ġexpl ode
Dis ney
Dis appearing
agas car
Ġpow eder
ĠMO IST
Ġsens itive
Ġspeck led
BER RY
Frit tata
esc afe
Ġfond ant
Ġlate x
ĠSum ac
Ġsaf ely
Den ver
ĠSpark ler
ĠWhit efish
Argent ine
Bud get
Tem pura
ĠRutabag a
Ġtortilli as
Aust rian
ĠLump ia
Ġzuch ini
tot al
Ġpermeat e
ĠCleans er
Ext reme
Ġinn ards
Ġtrip les
Ġsignific antly
ĠBREAK STONE
Pit tsburgh
Sar asota
Ġfif th
Ġinit ial
Ġguid elines
ĠSamb uca
ĠLy onnaise
ĠCond iment
Mir j
ĠCarp accio
Ġadvent urous
tradit ional
Ġrefle cts
ĠADDI TIONAL
Ġingrid ients
Ġoxid ation
Libb ie
Ġinger dients
ĠBAC ON
Ġspong y
Ġoccass ionaly
Chest nut
loos ely
Ġquah ogs
Ġelong ated
ĠEXAC TLY
Kev in
Tips y
bla ded
ourgu ignon
opla it
Ġane jo
ĠPulver ize
Ġventil ation
Ġingread ients
ĠPalest ine
Prog resso
Ġsedi ment
omash io
ĠHORM EL
acru z
ĠSHAP E
) (
0 5
2 70
6 7
6 9
6 00
> >
A maretti
A bsolute
B ou
B ella
B ren
B ull
B acardi
B onnie
C ra
C ould
C amp
C alamari
C raisin
C amping
C incinnati
D ie
D av
D oro
D iana
D epression
E scarole
E cu
F le
F old
F ud
F ondue
F ocaccia
F uji
F ires
F uzzy
G g
G el
G erry
G ouda
G rits
H urry
H unter
H addock
I M
J ess
K ef
K rist
K ugel
K ris
K nock
L atin
M il
M ight
M ack
M arsala
M att
M mmm
M ATO
M ulligatawny
M ujad
N ice
N am
N ik
N eapolitan
O x
O ther
P il
P en
P ate
P AR
P ete
P rairie
R id
R iver
S po
S op
S yrup
S kin
S ized
S erb
S ky
S lightly
T arts
T ru
T ortillas
T abouli
V en
V ictor
V icki
V enezu
W orcestershire
W inning
a gr
b re
b ay
b aste
b ear
b uy
b uds
b idden
c ers
c aster
c ashew
c ottage
d ent
d ue
d utch
f y
f ing
f ew
f ind
f ridge
f oli
f riend
g ate
g rim
h t
h ound
h ale
h ttp
h wein
j es
j ol
j eel
k h
l arger
m ear
m olasses
m ama
m ls
n ik
o in
p d
p im
p ons
r ab
r edients
s emble
t ar
t as
t ion
t ap
t ransfer
t Add
v odka
v arian
w or
w ings
w att
y um
z imm
Ġ ____
in ian
Ġc ab
Ġc um
Ġc ale
Ġc atalina
Ġt eddy
Ġt eflon
Ġa im
Ġs in
Ġs ol
Ġs uce
Ġs oul
Ġs undaes
Ġs ashimi
on ing
on to
on aise
Ġb ash
Ġb old
Ġb ud
Ġb eak
nd ula
Ġo i
Ġo dd
Ġp ay
Ġp uts
Ġp arch
Ġp uppy
il ty
ar es
he er
Ġf olks
Ġw rist
Ġin stantly
po re
po ul
Ġto wn
Ġto garashi
en h
poon fuls
at ionally
al k
al um
al one
Ġl age
Ġl ies
Ġl atter
Ġl acy
un ion
un greased
Ġd d
Ġd iv
Ġd ance
Ġd iner
Ġg er
Ġg re
Ġg en
Ġg omashio
or bed
or ah
pp es
Ġch a
Ġch okes
Ġch pd
le vel
ce y
Ġh ok
Ġh olly
Ġh ersheys
Ġh undreds
Ġco pper
Ġco st
Ġco ca
el an
el out
ĠS i
ĠS ing
ĠS ure
ĠS uch
ĠS ens
ĠS ipper
ĠS lap
ĠC all
ĠC ous
ĠC ampfire
as es
as paragus
as onic
is ion
Ġun ble
Ġun pasteurized
Ġmin ites
our age
ĠP S
ĠP amel
ĠP ao
ĠP ouch
ĠP RESS
ĠP enzey
ĠP ulao
ĠP LEASE
la mb
Ġpe ice
ch u
ch ickpea
to ve
us a
us se
ĠB uy
ĠB ELL
ĠB urnt
Ġsalt ier
pper y
ĠA li
ick s
um i
Ġst udded
Ġst ruesel
Ġsa mp
uce t
Ġr ices
Ġbutter beans
ĠCo ve
ĠCo ins
ĠCo unter
Ġcook ers
ine x
ĠAdd itions
em ent
Ġj erusalem
Ġover blend
Ġover load
ĠM or
ĠM ur
ĠM iche
ĠM ott
ĠM ax
ĠM att
ĠM MMMM
ur ts
ur ant
Ġegg y
Ġegg beaters
Ġgar net
th ink
th rit
ĠT ill
ĠT ILL
ĠT aj
ĠT IGHTLY
Ġwh ish
Ġwh ips
igh th
Ġn ea
Ġn ama
Ġn ickel
ĠR ust
ĠR ita
ĠR oula
ĠR yan
ĠR ussets
ĠR issoles
ĠR adicchio
Ġbow s
Ġsp ritzer
Ġsh r
Ġsh ield
Ġsh ards
ĠF ully
ĠF LA
ĠF OLD
ĠF rijoles
Ġcan h
Ġcan ro
Ġcan peeled
Ġstir s
Ġsm ucker
ĠD en
ĠD ick
ĠD ead
ĠD ixie
ĠD rizzled
ish ma
qu ats
qu isite
Ġgr istle
ĠIn t
ĠIn side
ĠIn ject
li ance
ĠW H
ĠW ring
ĠW indow
ĠSt ay
st ew
st eel
Ġfro ther
Ġfro ze
Ġfro thing
ad illa
ad bury
ĠSp ider
ĠSp ead
ĠSp rin
Ġdeg res
Ġro me
Ġro lo
op en
op ted
ef eller
Ġred hot
col i
if lower
if esa
Ġas partame
ĠG la
ĠG one
ĠG OOD
ber ies
ĠCh ic
ĠCh rist
ĠCh ayote
ĠCh ilaquiles
ĠL av
ĠL odge
orn e
ĠH y
ĠH ag
ĠH ots
ĠH olly
ĠH ungry
ĠH orns
ger ate
ff lÃ©
co b
co ating
Ġpie ced
Ġk ool
Ġk entucky
Ġk rumkake
Ġblack ens
Ġex change
Ġ- --------
Ġ- ---
par able
Ġble ed
Ġcorn st
Ġshe en
get tes
we iser
ass ium
Ġal as
Ġal dente
Ġapp ro
Ġapp liance
Ġchocolate y
ul ina
Ġcool whip
Ġli q
Ġli pped
Ġli bby
Ġra y
ĠO M
ĠO c
ĠO TH
ins ettia
per cent
Ġpl ating
mon ico
Ġhalf ed
Ġpre cook
Ġpast el
ĠSal ade
Ġref lect
ps i
na il
ag gy
ian g
Ġpro t
sh ucked
Ġne ither
10 6
ĠCut outs
Ġwarm th
zz e
zz y
Ġspray er
ĠAnd y
pe pitas
Ġpin apple
Ġlo ss
iv ian
ĠN OW
ĠN OOD
Ġen v
Ġtor illa
Ġbag gy
Ġbell as
15 5
iss ant
Ġgl isten
Ġgra du
Ġocc ur
ke nd
Ġoat cakes
Ch am
Ch ina
Ch ayote
Ġglass y
ĠBro ad
Ġcans diced
ĠV ary
ĠV ern
os er
ĠK ELLO
els alat
ec ap
ĠSh u
ĠSh an
Ġuns weet
Ġtw igs
rap ing
ĠSauce pan
Ġtur ing
ig i
ĠY akitori
ĠJ ars
ĠJ ump
ĠJ azz
Ġneed ing
ser ves
sp lenda
uch o
Ġjar of
Ġcran k
Ġform ation
Ġcur ved
ĠRef reshing
Ġund issolved
ind t
ind ividual
Ġpo atoes
Ġcann elini
ĠChill ing
fa ir
ull ing
Ġrec ip
Ġtri vet
stit o
Ġdi pper
pick ed
Ġta ffy
ĠRo sti
Ġbalsamic o
Ġfa ucet
ĠPre ferably
ĠTom ate
Qu esadillas
ĠBe urre
Ġsand y
ĠCar bs
hett i
amb urg
Ġar ms
Ġbou lion
Ġdeep en
Sp ider
ango st
erm outh
for est
ĠSc ramb
Ġsw edish
uck les
Ġget her
Co ars
ĠUn stuffed
ĠPan asonic
Ġcaramel ise
Ġcaramel izing
Ġfour s
Ġjam s
Ġbottle of
Ġman ge
ĠOr dinary
ĠOr chard
kra ft
ĠMeat y
ĠZ ing
Ro b
ĠBr isk
Ġbr unch
Ġtransl us
ĠToast ies
peel ing
ĠSw ish
Ġincor perated
Ġeat s
Sa udi
ĠMo zz
fl orets
Ġbri gh
ty pically
bo ats
Car nation
ĠSmooth y
Wh olesome
ath a
Ġes cal
ĠDe vour
ĠDe cker
Ġbl ush
ĠHoney dew
min ts
Butter flied
Ġdis perse
Ġgu ys
Ġgu avas
Ġlik ings
io x
io ppino
ĠCho col
Sal at
land ic
ĠFa vorites
omeg rown
don eness
ĠImm edi
man i
ĠPl op
ĠPl oy
ĠPl easing
ĠInc r
thick ness
Ġpar che
ĠOven s
ĠTO UCH
ĠTO MATO
ĠTr ue
ud rey
To st
To asty
etiz ing
be cca
Ġcontinu es
Ġ28 4
ami ka
sk immed
pack et
An gie
butter fly
ign ature
Ġpur is
ĠOR IGIN
ĠOR ANGE
ĠSl ushy
sm ashed
ĠFran ca
EN D
EN S
EN ED
cr ab
Ġdrizz les
ĠPr ince
Ġchard onnay
ĠStick er
Ġcob b
ĠExtra ordinaire
Po ints
ura d
eb oshi
flour s
Ġspir it
Ġflow ing
Ġvis ual
ĠJam ie
pr ises
green s
ĠBo unty
Fl an
ĠSmith s
ev i
che l
Fro thy
Ġscatter ing
Ġsear ch
pec ted
ĠMac chiato
Mar ble
ĠCampbell s
Ġmethod s
ĠAu bergine
Br atwurst
ĠGo ats
En ergy
Un cooked
Ġcrystall ize
Ġam chur
Ġthrow ing
Ġjo in
Ġpet it
Ġmot ions
erd ue
RA Y
IT E
And rea
And ouille
ane ously
ĠPast rami
ĠFarm house
Ġspear ed
ĠUp on
Ġdiet ing
Gu atem
ĠVer acruz
ĠBon bons
Ġcal iflower
RO P
Ġfan ned
Ġfan cier
ĠAcc ents
ĠHo cks
ĠHo agies
atal an
ĠRE G
Ġci pollini
Ġever thing
Ġfe ijo
Ranch ero
ĠHellmann s
ĠPri ze
-------- --.
adjust ing
ĠMark ets
abul ously
Ġing ri
agu ette
Ġflaxseed s
ĠDI PPING
saute ed
Ġfarm ers
ĠST ORE
Ġint ake
recipe zaar
Ġsum aq
gu ac
23 8
Ġbra ve
Ġkum era
com mercial
Ġsweeten ers
Ho ly
Ġtum ble
Ġpal ette
Ġ38 5
Ġfroth ed
crack ers
end a
Ġextend s
Snow ball
Im perial
merc ially
Con densed
Ġhang s
Ad am
Ad apted
Ġap roximately
ĠFlax seed
Four th
ĠVi ola
Ġincre ment
refriger ator
ĠNa vel
wal k
Ġlat ke
ĠDiv inity
Pr alines
ĠPers onal
Ġswitch es
Ġseas me
ĠRock efeller
ĠLE FT
ĠLE AF
Spring time
Ġdraw ing
Ġfix ed
cons istency
uz u
ĠPE ANUT
John sonville
oven s
ĠSH RI
ĠBund le
Ġreview er
Ġut il
toss ing
ĠCryst allized
ĠDa uph
Ġbailey s
Ġabs inthe
Ġox tail
Ġsplatter ing
ĠRO AST
ĠLI QU
ĠSE PAR
ĠAbsolut ely
Ne iman
ĠBea uty
Ritz y
Ġdev ice
Ġconc ord
Ġkirsch wasser
ĠNE ED
Cro que
Cro issant
ĠTost ada
Ġboy s
Ġtables oon
Past el
ĠTa vern
ĠEm panadas
ĠPassion fruit
Ġinteg rate
Garb age
Ġguar ant
ĠSch ubert
Ġpenet rates
Ġbur sting
ĠSou fflÃ©
Ġev ap
marin ated
marin ade
ĠAB OUT
Chuck wagon
ĠKum ara
ĠFREE ZING
Ġwar ned
ĠCu isine
Ġmadele ines
ĠQue ijo
Par adise
Ġsatis fying
Ġconst anly
ĠVal ue
Ġnec cesary
Ġbes ides
ĠSem isweet
Ġjuic iness
Ġ----- ---
Mag ical
OP TIONAL
je ction
Passion fruit
ipp ie
Ġmaster piece
peach es
pul se
Ġmiss ion
Ġfizz y
Ġintend ed
isi enne
Ġrap eseed
Mart ini
Ġappet ite
Toss ed
Ġingre ients
Cob b
rell as
ĠWil ted
apric ots
Ġproportion ately
Hill billy
ĠTer re
Ret urn
Tot ally
Ġdg rees
Ġsau age
ĠMich ael
Ġsubst ance
Shan non
idi ately
Moose wood
Pure ed
fo am
Ġcil anto
ĠCi abatta
ĠKE EP
ĠCOAT ING
Ġbisqu its
Dev onshire
Fr ugal
Sham rock
Ġdom estic
omend ed
Ġrecogn ize
uro pe
Ġum eboshi
inga pore
ĠCer to
Ġsmoot he
Ġsnick ers
ĠPortab ellas
Ġsuspend ed
Cryst al
Ell ie
Ġaj wain
Ġwob bly
ouss aka
Ġcompon ents
Bit tersweet
Les lie
ĠCHI PS
ĠDem erara
Ġcabin et
ĠRIN SE
ĠLyn ch
ĠLONG ER
Ġaccom odate
Ship wreck
ĠRecon stitute
OVER S
Ser iously
Spar eribs
ĠIgn ite
Ġny lon
ĠVig orously
Ġdecan ter
sli vered
Ġpum kin
Ġwin egl
ĠPump kins
ĠSof rito
bond igas
Ġporc inis
ĠMexic ano
ĠDUMPLING S
Ġpron ounced
Ġchocl ate
Ġvitam ins
ĠGARN ISH
acie nda
iav olo
ilieg ine
Ġporce lain
Delight ful
Doro thy
Fires ide
Serb ian
jeel ing
zimm es
Ġ____ _
Ġunble mished
ĠPamel as
ĠOTH ER
ĠKELLO GG
Ġescal opes
ĠSHRI MP
* :
* ~
3 7
3 30
4 75
6 80
7 30
8 8
; )
; ,
A ffogato
B u
B an
B reas
B ang
B itter
B irthday
B rigade
C at
C ity
C AKES
D rink
D rizzle
D ates
D ivide
D elic
D ecor
D rew
D ON
E W
E ven
E va
E ls
E lephant
F ort
F ah
F ER
F lash
F oot
F usion
G a
G reg
G oo
G ob
G yro
G umdrop
G eneral
H our
H ollandaise
H ibiscus
H ubby
H cg
H uckleberry
I owa
J a
J ose
J ezebel
K ir
K risp
K ath
L ine
L acy
L antern
L ychee
M at
M allow
M ari
M acaroons
M igas
M ennonite
N u
N ic
N ick
N im
N iger
P on
P ad
P ER
P otted
P oultry
P easant
P ecorino
P avlova
P feffer
R T
R as
R eg
R inse
R anger
R SC
R OOM
S O
S ize
S ock
S ister
S upper
S emi
S chool
S ardine
S askatoon
S lovak
T bs
T ia
T ina
T ouch
T eddy
U gly
V e
W illi
Z ingy
a ine
b es
b ath
b ananas
b urrito
b aguette
c ro
c ul
c ustard
c hees
c ms
c av
c hee
c hewy
c icle
d uce
d oll
d ivide
d ance
e ints
f i
f all
f utti
g ard
g led
g rap
g ali
h oriz
h amburger
i ing
i ate
i ola
j alapenos
k iki
k idney
l ast
l og
m ic
m em
m all
m acaroni
m eadow
n es
n uoc
o up
o ch
p enne
r h
r ating
r ina
s l
s ix
s ushi
s ilver
t ea
t ree
t abasco
t ied
t man
u rie
v ine
w ing
y ard
z ar
z ers
} )
Ã §
Ġ ery
Ġ east
in ated
in co
Ġc t
Ġc ummin
Ġt i
Ġt p
Ġt uscan
Ġa unt
Ġa erate
Ġs ick
er en
er le
ea ux
Ġb ast
Ġb ins
Ġb asted
Ġb usc
Ġb agett
Ġb ucatini
Ġo d
Ġo per
Ġp out
Ġp umpernick
Ġp iri
Ġp ignoli
Ġp estic
Ġm ead
Ġm yrtle
Ġm irepoix
il basa
ar at
Ġf ly
Ġf esh
Ġf amous
ic ola
Ġw ea
Ġw ake
Ġw rinkle
Ġw ind
Ġw ants
Ġw ines
Ġw orch
Ġw rite
Ġw estern
Ġin utes
po urri
po cket
Ġto blerone
en y
at y
at iki
al ata
ro r
ro le
an ca
Ġl l
Ġl ake
Ġl ace
Ġl assi
un n
un iere
eas iest
eas semble
Ġd ome
Ġd are
Ġd ukkah
Ġd ungeness
Ġd enser
Ġg remolata
Ġg orgeous
pp el
pp led
Ġch ess
Ġch ump
Ġch ina
Ġch ristmas
ou ds
Ġh ide
Ġh eal
Ġco k
ĠS ingle
ĠS OY
ĠS isters
ĠS MO
ĠS cone
ĠS IDE
ĠS omething
ĠC ure
ĠC AL
ĠC RO
as age
is ode
eat tle
ow ave
Ġun mould
Ġmin um
Ġmin ted
Ġmin imal
til e
ot ie
ĠP I
ĠP ain
ĠP aw
ĠP UL
ĠP uerto
ĠP izzelle
ĠP igs
ĠP OP
ĠP onzu
ter y
eg round
ch os
ch ata
ch eap
ch iles
to le
dd ies
Ġsal d
ok ie
ok ee
ir ing
us hetta
ĠB ubb
ĠB lock
ĠB ought
ĠB AN
ĠB elle
ĠB UIT
ĠB iryani
ĠB haji
ĠB ourguignon
ĠA G
ĠA b
ĠA h
ĠA ug
ĠA part
ĠA my
ĠA ji
ĠA petite
ĠA romatic
ĠA matriciana
et ition
ri mon
Ġpepper mints
Ġmix ute
ol ve
ol ate
edi es
Ġsa ver
Ġsa cue
Ġr h
Ġr in
Ġonion y
Ġcheese burger
Ġth ich
Ġj if
Ġj azz
Ġover brown
ĠM Y
ĠM at
ĠM ir
ĠM asa
ĠM agn
ĠM USH
ĠM ickey
Ġso othing
egg plant
ces or
ces ter
th icken
th umb
ĠT ons
ĠT ranfer
Ġwh ick
Ġn u
ĠR iced
ĠR ame
ĠR hodes
am ilies
im on
Ġcream cheese
Ġre use
ry s
Ġv irginia
all ly
Ġsp e
Ġsp ent
Ġsh imp
Ġsh iso
Ġsh runken
ĠF I
ĠF i
ĠF re
ĠF ric
ĠF are
Ġcan crushed
mb ers
Ġcr it
Ġsm irnoff
ĠD ra
ĠD id
ĠD ue
ĠD rape
ĠD olly
ĠD rive
ĠD ROP
ish op
Ġfresh est
qu in
qu iris
ĠIn ternational
li a
ĠW ashed
ĠW ON
ĠW ines
ĠW acky
ĠW HEN
ĠSt ire
Ġpa c
Ġpa ul
Ġpa di
Ġpa ddles
ves ted
st e
st ein
ad orean
ring le
om ix
om ole
om ps
ĠSp y
ĠSp are
ip illa
Ġsk iller
Ġro ad
ink en
ore ver
if es
ĠG I
ĠG ay
ĠG low
ĠG ray
ĠG oo
ĠCh arm
ct ored
ĠL ater
ĠL ink
ĠL ots
ĠL inks
ĠH ut
ĠH um
ĠH erman
ĠH ero
ĠH ARD
ĠH usband
ĠH orse
co la
co cktail
Ġcut out
Ġ6 75
Ġcon nect
Ġcon dition
imm e
Ġpie plate
Ġk ill
Ġk ofta
Ġk ilo
ash ire
ant ucket
Ġble mish
ole y
Ġvin agrette
Ġmar bles
Ġmar garitas
ass orted
Ġal tered
ap illas
uff er
ss o
Ġfin o
Ġfin ley
Ġfin est
ire ctly
ĠO uzo
ĠO melets
ĠO unces
ĠHeat ing
per i
Ġ15 4
Ġmay onna
Ġcrum pet
Ġ20 5
hen s
hen ny
Ġref re
Ġup date
ĠE xt
ĠE ITH
Ġz abaglione
Ġnot ed
Ġnot iced
sh i
sh iitake
zz o
ĠSpread able
Ġcont est
Ġsto od
can s
iv ated
ĠN othing
Ġlime juice
Ġen ter
Ġen ch
Ġturn over
og an
Ġquar k
row ding
ĠCool ed
ĠU K
ĠU ND
art a
Ġocc ationally
Ġsc ape
Ġsc ampi
Ch arm
Ch ops
ĠPot ion
ĠBro ther
ĠBro colli
Ġcrack ly
Ġtem ptation
Ġspoon able
ous ed
ĠV erd
ĠV illage
ĠV ermouth
os ts
ĠK ix
ĠK ai
ĠK ofta
ĠSh aron
Ġcomp lement
Ġcomp ressed
Ġlike ing
Ġcomplet es
Ġcontain ed
Ġmuff ing
Ġuns c
Ġtw ink
Ġtur tle
kin d
ĠY olk
ĠJ a
ĠJ ose
ĠJ ersey
ĠJ alapeÃ±o
ĠJ onathan
ĠPe p
ĠGar ni
Ġfork ed
Ġchun cks
oni al
Ġsquar ed
Ġshor ten
ĠRoll ing
Ġcur rents
Ġcom ino
Ġcom ments
Ġcom parable
Ġcom mercially
Ġgran a
ĠRef reeze
Ġpat ience
Ġpat ches
ack ed
Ġpo pper
Ġpo sting
Ġpo ols
Ġkn uckles
Ġbubb led
udd in
udd enly
Ġno st
Ġper fection
Ġper ox
Ġper colator
izz y
Ġpumpkin seed
Ġbo unces
ĠBread crumb
Ġca uldron
Ġdi ets
Ġevery where
), .
Ġag ing
Ġag ent
Ġfluff ed
ĠCr u
ĠCr umpets
Qu esadilla
ĠSto up
ĠCar ol
ong ue
amb ola
ĠRet ain
Sp ain
free zer
Ġconsisten tly
part ments
ino ise
Ġcand les
cho pper
sor ry
Ġwant ing
ĠCorn flakes
ĠSm irnoff
ĠAl ton
Ġpart ial
ĠFl u
ĠFl aked
of ten
Ġad mit
Ġad vocaat
Ġabsor ption
St ew
St romboli
Co intreau
ĠUn bleached
Ġind iv
Ġport uguese
Ġmed allion
Ġless en
ĠQu ality
sc ramble
Ġflore ttes
Ġman age
Ġman ioc
Ġsn ifter
ett les
ĠApple wood
Ġmi untes
Ġho agies
ĠZ ero
Ro by
ĠSweet corn
ĠSqu ee
ĠCa ffe
Ġfra me
ĠSw ap
Ġ200 0
Lemon grass
!) ;
fl ounder
Ġ. ...
Ġbul ghur
ib e
ĠSe conds
ĠFruit ed
Car nival
ĠSk ippy
Sh ould
Sh aksh
Ġsec ured
Wh it
Quick est
Ġloos er
Ġac ts
Ġac qu
Ġbl unt
ban ian
RE D
Ġboard s
ĠOli o
ING ER
Ġdis jo
Ġlim it
Ġmetal lic
atur day
Pe pp
Pe per
ĠJack et
Tom my
Ġim part
Ġim pur
Al ouette
Al pine
ult anas
cup cake
Ġmold ed
cm x
uy u
Ġty pical
any thing
ĠAr rabbiata
ĠMon th
ĠMon de
ĠMon kfish
ĠMon trachet
Ġwild flower
Ġcontin ously
Ġcontin ental
mat ically
ĠDon ald
ĠQuick ies
ĠBl ank
ĠBl ond
ĠBl intzes
Ġle vels
Ġcheck erboard
Ġvig orous
ĠTO RT
Bas ed
ĠPound s
ĠAlmond milk
ond ant
In structions
Sc d
Ġstarch es
Ġscr unch
Ġrom ain
ĠCheck ing
stir red
Ġproof ed
Or tega
ik es
ĠBay ou
ĠWe b
ĠWe il
OR K
Ġi odized
Ġsomet ime
Ar k
ĠGu ests
ibs on
ather ine
ĠLa ct
ĠLa undry
Ġfall en
eath ers
Ġass uring
Ġwatch ed
Ġwatch ers
ĠHal wa
Ġappear ed
Ġglo bs
Ġpass over
ĠShort cakes
eb ra
Ġimmer sed
Ġvegan s
Ġgro oves
ori atiki
AM P
ĠSnack ers
Sugar less
Cl oud
ĠBo ok
Ġ48 0
Pl antation
az a
Ġharden ing
Ġsil ly
Ġveg ie
ĠUS ING
Ġrecommend ation
Mar aschino
ĠCal ab
De tox
Ġdec ent
Ġdec ided
Ġemuls ification
ston ed
ĠCro que
ĠCro sse
Ġid ent
Un fried
Ġduck s
ĠPh il
ĠEX T
Ġam out
Ġbor age
RA W
mini ature
bow tie
Ġaro mas
ues day
ĠBel Gio
AS IC
Tw enty
ĠHer ring
ha et
ĠMocha ccino
ĠPer ogies
Ġmixt ue
Ġprick ing
Ġprick ly
ĠDream y
22 7
ĠBon nie
Oli ves
ĠBut ton
ĠBlanch ed
ĠON CE
Ġlunch box
ĠSP RAY
ĠStri ped
ĠFla g
hal ibut
ĠYum s
Fa ir
aff a
ĠCOOK IE
Col onial
Ġpackaged ry
gelic a
pow er
ache lor
Stea m
uv re
utabag a
Ha itian
ĠBOIL ING
ĠNe ck
Ma e
Ġgolf ball
Har vard
oren g
squ ash
ĠScotch eroos
ettuc ini
Sto li
Ġpal ate
Ġma zola
Ġspec ify
ĠMe uniere
IS C
ĠDec adent
Fran ce
Fran ks
run ny
Pat ri
Del ish
Ġingred in
El der
ĠII I
anc ashire
Ġdisol ve
Cap ellini
Ġsquish ed
ĠComb ination
ĠInd ividually
Rem ember
Tr inidad
ĠTH R
Ġgal ette
ĠOff er
osc ato
ĠHel en
Char ishma
Ġbis to
ĠPla cing
ju ana
ĠSH AKE
Ġreview ers
uj olais
ĠCryst als
Ġwhit ish
Ġliquef ies
ĠDa wn
North west
ĠDRAIN ED
ingon berry
Ġspar erib
Ġshoot er
Ġza ar
Ġza atar
Smok in
Kar toff
Ġda ughter
Ġgather ed
ĠMAKE S
ĠLong meadow
Ġ:- )
Ġdisp lay
Ġgla d
Ġgla zes
ĠDan non
Ġintens ifies
Ġconc ave
flow ers
stock ed
Ġhell mans
Altern ately
Che x
ĠCel estial
Dream sicle
alaf els
ĠBur y
ĠBear naise
ĠTwink ie
Ġber tolli
Ġber gamot
ĠBomb s
Mouth watering
Ġchic hen
COOK ED
Mid ori
Ġcin amon
imichang a
Mam aw
ĠBa ham
ĠWHI TE
ĠChan terelle
Step h
Ġbal anced
Ġbur rata
Ġgizz ard
bar ely
Ġkef alot
Ġswell s
Guilt less
Ab c
Kn ead
ĠTow ard
Ġwalk er
Ġinject or
ĠSubstit utions
crock pot
Ġream aining
Bra unschweiger
Pol ka
ĠPark er
ĠPark ay
------------ -.
Tor ani
Ġhyd rogen
Ġnet ting
Jenn ifer
Ġtar tlets
ĠSK ILLET
ĠPRO CESS
Ġthinn ly
Sor bet
burn er
ĠPur cell
Kum quat
Ġcuc mber
Ġcuc mbers
Ġsan sho
Ġintern ally
ĠContin ental
Ġingre id
hear t
Ġpow ed
Ġsause pan
Ġpapp ardelle
ĠSaut A
Cont in
ĠMam as
Ġmonter y
Peel ed
Bun ny
Pizz elles
Rib bon
ĠSus an
Ġnotic eable
Ġaccept able
ĠCapsicum s
Den ise
Ret ro
sun flower
Ġcam panelle
Ġtun nel
ĠAlo o
ĠAlo ha
Ġlarg ely
Ġindic ates
Shan ghai
ĠAng laise
Ket chup
ĠRutabag as
Ġtortilli a
ĠSUBSTIT UTE
ourt iere
ĠCRUM B
ĠCab ot
Ġyog urts
Ġkam ut
Jar lsberg
Rain forest
sug gest
ĠMu ir
Ġsprit zed
Ġpackagesof tened
FRE SH
Oe uvres
cas ings
iw ifruit
stri ps
ĠChap ati
Ġvini agrette
Ġclock wise
Ġsust ainable
ĠAdo vada
Ġapplic able
ĠPOTATO ES
Liqu id
WAY S
cour se
Ġsamm ie
Ġchipol te
Ġvegat ables
ĠASSEMB LY
Bear naise
preheat ed
Ġaut om
Ġnecess arily
Ġdestem med
ĠSeg ment
ĠCort land
ĠPila u
ĠTAST E
Ġwaterchest nuts
Ġmoro ccan
umming bird
ĠALTERN AT
Apr il
Geor gian
Pars lied
ynam ite
Ġcarmal ized
ĠSic il
ĠROL L
ĠFIR ST
ĠSte ve
Ġcondens ation
Ġcorre ctly
Ġpiment on
Bren nan
Dav id
Rid iculously
Ġcale ndula
ĠNOOD LES
ĠBrisk ly
Ġtranslus cent
Guatem alan
ĠLIQU ID
Ġwinegl asses
Ġpumpernick le
Ġminum um
ĠBAN AN
ĠBUIT ONI
ĠMUSH ROOM
ĠEITH ER
Ġperox ide
Roby n
Ġdisjo inted
ĠBelGio ioso
% -
' !
) &
3 65
3 85
4 1
4 7
4 15
5 3
5 6
5 9
8 3
9 7
= \
A then
B B
B h
B ry
B aker
B ison
B iscotti
B ermuda
C T
C enter
C ac
C hees
C ons
C elebration
D al
D ai
D ana
D anny
D ublin
D azs
D RAINED
E vil
E uropean
E laine
E ileen
F u
F abi
F unky
F rik
F lying
F antabulous
G il
G la
G uy
G ulf
G iblet
H i
H en
H op
H atch
H ER
H ara
H ouse
H orchata
H usband
H awaii
I mp
I cy
J ava
J oey
J ungle
K no
K ool
K ikkoman
K asha
L in
L ay
L ef
L iz
L one
L ouis
L icorice
L uau
L arry
M es
M and
M AN
M ontreal
M olly
M ackerel
N ight
N orm
N orthern
O c
O ran
O ats
P as
P ark
P eri
P ace
P alm
P oulet
P amela
P eggy
R andy
R ev
S um
S erving
S quar
S pe
S als
S hell
S ambal
S oba
S zechwan
T i
T bsp
T empt
U don
V Y
V ichyssoise
V ampire
W ell
W ood
W HILE
Y I
Y Y
Z ED
Z abaglione
\ !
a pping
a ola
a part
a vocado
b iscuit
b arbecue
b isquick
b undt
b uckwheat
b ubbles
c ot
d C
d og
d rum
d ig
e z
e ctive
e vaporated
f ar
f olk
f lipping
g ill
g ula
g then
h ini
h aw
h orseradish
i ge
i ue
i vers
i ros
k ick
k itchen
l la
l antic
m ers
m ined
m atch
m achine
m ara
m atcha
n u
n as
n ts
n ear
n ected
p uff
p less
p into
s imilar
t to
t am
t age
t ough
t rans
t imes
t bl
t land
t ube
t ario
v ese
v eless
v ari
w er
w id
w ie
w ild
y u
y ams
Ġ Â
Ġ ill
Ġ heck
in j
in ally
in ting
in ette
Ġc k
Ġc le
Ġc ure
Ġc arm
Ġc alf
Ġc lip
Ġt erm
Ġt rapped
Ġt ikka
Ġt illamook
Ġa ce
Ġs es
Ġs ab
Ġs ate
Ġs co
Ġs ufa
Ġs ister
on est
on ian
es st
es ach
ed es
Ġ1 13
Ġb ug
Ġb each
Ġb isc
Ġb als
Ġb ens
Ġb uck
Ġb illow
Ġb inding
Ġo mega
Ġp up
Ġp el
Ġp iz
Ġm or
Ġm all
Ġm armel
Ġm ulling
ar ia
he ther
ut re
Ġf elt
Ġf uss
Ġf iery
Ġf lick
ic ting
Ġw th
Ġw rack
Ġw esson
Ġw iener
Ġw iggle
up ia
Ġin se
Ġin spired
Ġin hale
po ol
po ts
po ds
Ġto e
Ġto ppers
Ġto day
Ġto ddy
Ġto xic
re tain
en cil
at ano
ing tons
al ep
al ways
an ium
an oush
an ukkah
Ġl ap
Ġl ips
un flavored
un ity
un baked
un wrapped
un oise
un bleached
it ure
it zer
it ious
it ron
it ude
eas er
Ġd os
Ġd ental
Ġd hal
Ġd ixie
Ġg ash
Ġg irl
Ġg yros
or ies
or row
or igin
pp ie
pp ons
Ġch pped
Ġch art
Ġch urros
ou ka
ou cester
le en
Ġh im
Ġh unks
Ġh omegrown
Ġco ils
Ġco unting
Ġco hes
el ope
ĠS on
ĠS izz
ĠS ons
ĠS ago
ĠS ardines
ĠS ardine
ĠS ignature
ab t
ab erry
ab ia
ab sor
ĠC oney
ĠC amping
ĠC eylon
Ġ( $
Ġ( '
Ġ( =
as see
Ġon io
Ġon oin
Ġun seeded
Ġun husked
Ġun necessary
Ġun shucked
Ġmin ich
Ġmin imize
Ġmin untes
ak ota
til y
our i
ĠP ak
ĠP ip
ĠP eal
ĠP OW
ĠP reserve
ĠP AST
ĠP URE
la g
la da
eg er
Ġpe p
ch on
ch oc
ch ang
ir rel
ĠB ON
ĠB umble
ĠB ASIC
ĠB ISC
ug ala
ĠA M
ĠA ch
ĠA ven
ĠA nder
ĠA ld
ĠA NOT
ĠA mber
et re
et ker
ol is
ol ok
ol ia
Ġst ips
Ġst arbucks
Ġbut te
Ġr oni
ĠCo me
ĠCo unt
Ġcook e
Ġth umbs
Ġfl atter
Ġ4 15
em ima
Ġj onathan
Ġbro ke
Ġbro ccoflower
Ġbro coli
res aola
ĠM us
ĠM ate
ĠM ars
ĠM ould
ĠM ull
ĠM atch
ĠM aque
ĠM usc
ĠM irin
ĠM ung
ĠM ounds
ĠM atz
ĠM ASH
ĠM UCH
ĠM oussaka
Ġso men
id an
id os
ll ing
th row
ĠT u
ĠT ight
ĠT orn
ĠT so
ĠT ango
ĠT atin
ĠT ah
ĠT asting
ĠT ummy
ĠT aro
ĠT idbits
Ġn til
Ġn opalitos
Ġn escafe
Ġn ettles
ĠR I
ĠR h
ĠR ou
ĠR is
ĠR ick
ĠR ush
ĠR iv
ĠR ince
ĠR anger
ĠR AW
ĠR UB
am es
Ġbow ties
im o
im bo
ill in
Ġwater s
Ġwater ed
Ġre ll
Ġre pl
Ġre coat
Ġv elvetta
Ġsp ay
Ġsp iders
Ġsp heres
und ido
Ġsh atter
Ġsh ark
Ġsh rooms
Ġsh aoxing
ĠF ake
ĠF ud
ĠF UD
ĠF ULL
Ġ12 9
Ġy e
Ġcr ink
Ġcr uz
Ġbe cel
Ġsm othered
ĠD ar
ĠD rew
ĠD iavolo
Ġoven ware
ish ly
ean or
ie ves
li fe
ĠW o
ĠW all
ĠW itch
ĠSt ain
ĠSt if
Ġpa w
Ġpa nd
Ġpa pper
st ring
st rain
st raight
st uffing
st rom
Ġab o
Ġab it
Ġab ou
Ġall igator
Ġfro g
ad ai
ust y
ust rated
ring e
ĠSp ike
ted es
Ġro ka
op ie
op ita
Ġrem ining
Ġred s
let on
ore hound
Ġse ize
oth ers
Ġas ks
ĠG ir
ĠG ri
ĠG lace
ĠG ator
ĠG ems
ĠG ET
ĠG umdrop
ĠG oreng
ber i
ber r
ĠCh in
ĠCh iffonade
ct ional
ĠL u
ĠL an
ĠL am
ĠL ip
ĠL ips
ĠL atin
ĠL ank
ĠL inda
ĠL IGHT
ĠL arger
ĠL UCK
ĠH at
ĠH all
ĠH obo
co untry
ub a
ub ens
arm en
Ġ6 2
Ġan t
Ġan ti
Ġba varian
od g
). "
Ġk c
Ġk alam
Ġk iller
Ġk orma
Ġk ebab
Ġex presso
Ġex ude
ant al
par ation
ran ch
se ction
ood a
erv ative
Ġmar zano
Ġapp ealing
Ġcover d
Ġcar a
ul s
Ġdry s
Ġdry ed
and an
Ġtender izing
Ġli g
Ġra c
Ġra ys
Ġra gged
ĠO perate
riger ate
ers ion
reas ing
Ġpl ater
Ġlea king
Ġpre go
Ġpeel d
Ġsaucepan s
Ġpackage chopped
Ġpackage pillsbury
Ġout come
ag ue
ĠE ight
ĠSa igon
gar t
ĠTo aster
ach ing
Ġdes olved
Ġpro g
Ġpro s
sh oulder
sh aken
ĠCut let
Ġcont antly
Ġlo vage
Ġcoat ings
Ġmo chi
ĠN Z
ĠN ame
ka ido
Ġen tered
Ġice box
Ġlight est
Ġri vels
row ave
Ġmarin aded
art ich
Ġocc ais
ke es
Ġsc ar
Ch ips
Ch eryl
ĠPot ter
Ġsoft end
ĠBro chett
Ġcans whole
ĠRed neck
ze k
ac le
ĠV E
ĠV ar
ĠV alent
ĠK am
ĠK idd
ĠK ho
ĠSh er
ĠSh ock
Ġ7 1
Ġcomplet ley
Ġres eason
ĠSpoon s
Ġuns ulf
Ġrais ons
oll en
rum ent
ĠSo o
sa ving
ĠTh ro
ig old
ĠY em
ĠY ung
Ġcoars er
12 1
Ġ45 4
ĠJ un
ĠJ amaica
ĠJ ungle
ĠFor get
Ġimm ed
sp ir
ĠButter ball
oni o
Ġcomb ing
rop ic
mo unts
Ġcur ves
Ġcom al
Ġcom partments
ens ion
Ġdill s
ark ist
Ġpo upon
Ġkn ifes
Ġbubb ley
ĠDi ppin
Ġper f
Ġper k
Ġread ing
Ġfil ters
Ġbo ck
Ġros es
Ġros ette
Ġtow l
Ġtow elling
Ġwa vy
ort ega
Ġpick ing
Ġag o
ĠPre haet
Ġfluff ly
inse ed
ĠCr uda
Ġfre qu
Ġbox of
Sp ir
Sp ray
ier ra
Ġinc he
Ġcolor ings
int age
Ġrea ction
uss en
ĠPress ed
Ġpackages tove
Ġeas tern
ham mara
ĠEgg plants
Ġml s
ĠSc ape
Ġsw apping
Ġgo o
ĠAl bacore
ĠAl pine
ĠPepper y
ĠPepper oncini
iff in
rit os
Ġpul sed
St uff
St ained
Ġclear s
ĠCont ainer
ener o
bread crumbs
ĠUn mould
Ġind ul
Ġjelly beans
Ġtart are
Ġmed al
Ġcaramel ization
ai kiki
Ġinst rument
Ġbar ramundi
ĠFro sts
Gr atin
ĠZ wt
Ġalong with
ĠRec aito
ĠBr eath
Ġbr eat
Ġbr eath
Ġha z
Sweet corn
Ġfra is
ĠForm an
flavor ings
Ġ200 2
Ġsplit s
Ġdro wn
ĠMo zarella
oul anger
ĠPat ak
ĠPat atas
ib achi
Th erm
Car eful
ĠHot cakes
ĠLo ves
Wh ile
Ġmild ly
ath i
ĠBas que
Ġcross es
Ġwil ting
ĠDe ter
Ġbl eached
Ġbl onde
Be cel
Be chamel
)) )
Ġ' .
cher a
ĠFin al
ĠRes eason
ĠRes ist
ĠRes hape
Ġcaps ules
Ġcreat ions
ĠAn nie
Butter fly
ĠMar velous
alt i
Ġdis covered
Ġdis colour
ĠCl uster
ĠCl ouds
ĠAd ult
ĠAd vocaat
elbow s
Ġlim ited
Ġwe b
Ġprov ides
ank y
Ġsolid ly
Ġim possible
ult ana
ult aneously
ko ol
pre made
cm ange
anish ing
Ġpier og
ĠX ylitol
ĠTea cake
No el
ĠWarm er
ĠPl enty
Fresh ly
ĠMy ers
Ġem panada
Ġcent imeter
Ġsnow ball
Ġchar grilled
ĠCrack les
thick er
omes co
ĠRe hydrate
ĠRe indeer
ĠCon cord
Ġsee ps
Ġtam ale
Ġnew ly
cream ed
Ġtr uss
Ġtr iscuits
ĠTr uss
In stead
To dd
To pping
ott es
Ġseam side
ĠCaramel ised
ĠBar ely
ĠGood ie
An ti
ĠCO R
ĠSl op
Ġcurd les
ĠPart ly
ĠShe lf
ĠShe pherds
Ġcour tesy
Ġkitchen aid
Ġi vory
Ar t
Ar borio
Ġatt ained
Ġthink ing
ord alia
Ġinter mit
ĠHash browns
Ġwatch ful
ĠPr incess
AN WHILE
Ġmatch ing
ĠCap ellini
ĠCap onata
ĠFrom age
Po blano
Ġlot ion
Ġcloth es
hyd rator
radit ion
ans i
AM EL
ĠSnack ing
Ġwor ds
Whole meal
ĠTHE SE
AD Y
Ġhen ce
Pl easing
Ġsu agr
Ġdesire e
ĠDelight ful
Mar ia
Mar go
Mar gherita
Ġspo tty
ĠCal i
ĠMart in
ĠRun ner
ĠDog gie
Ġdec reased
ĠCro atian
Br ined
Ġsup ple
Ġbuy ing
All i
ĠDay s
ĠFrank el
work ing
whole meal
Ġhar vest
Ġart fully
Wal la
Indian a
ĠPer fectly
ĠPer uvian
Ġfun ny
ĠSor ry
ais ers
ĠSur prises
Ġesc aping
ĠVegetarian s
Ġcal zone
ĠBut tons
Ġeff ective
uds on
Ġir rit
ĠSTI CK
ĠTest ani
Up dated
nam ent
Ġtend ons
ĠChil ie
ĠStand ard
hal ve
ĠWay ne
ĠMom ma
ĠPor cini
ĠBob by
Ġeigh th
Col ored
Vegg ies
Ġob viously
den se
ĠUN COOKED
OIL A
Ġ; -).
Bl ondies
Bl intz
CK TA
Bo hem
Ġtreat ed
Ġtreat ment
Eas ier
Ġchan na
Angel a
ĠChef s
Ġflo ss
Ġflo ppy
ils ner
Ma id
Ġmac erated
Ġstro mboli
Ġrepres ent
Pear l
Ġpam pered
ĠST E
Ġea u
ĠEl k
sauce pan
Ġwisk ing
Ġbra ided
rip en
Ġ29 5
andel ions
com p
Ġsauc ers
ĠGall on
With out
ĠTem p
ĠTem ptation
ĠId ea
Ġsweeten ing
Ġpli ers
Re indeer
Re becca
ĠChar lie
ĠChar lotte
Ġcatch ing
Ġnumber s
eye ball
Ġma id
Ġvineg er
Ġsilver side
ĠPres erved
IS CO
ĠDec ide
Ġgot ten
Ġingred eints
han ia
ĠMid night
anc aster
ĠJu ices
ĠJu icer
ĠKick ed
Ġtblsp n
ĠEd am
**** .
Ġcole man
Ġmax imize
ĠAg lio
ĠComb o
ĠInd uction
ĠEnd s
Salt ine
ĠTex ture
ĠBu on
ĠSpritz ers
ĠDress ed
ĠNa pole
Ġseas o
ĠTH AN
ĠFour th
Short cake
Ġgrinding s
kn ife
kn orr
ĠBor ra
ĠPE EL
Ġimmedi ate
Tam my
Char les
Char oset
ĠPla ces
found land
Ġbear naise
tel ope
ĠNight cap
Ġdeter mined
ĠPinto s
ĠFun fetti
ĠRequ ired
ĠDa ily
Ġconven ient
rud els
Ġdecorator s
Ġtog ather
Ġtog eather
ĠLI ME
ĠSE ED
ĠTon katsu
ayst ack
ih uahua
ĠCons omme
ĠPom mes
ĠFool proof
ĠSpir al
Ġcres ents
ĠMiss issippi
Ġisland s
Ġston eground
Beat en
Che erios
tr ust
flat ten
Mem a
Ġaff ord
Ġdra matically
Ġdam per
Ġgrand ma
Ġpicnic s
ĠBomb ay
ĠCost a
Ġinstruc ts
ALL S
Frank furter
Ġsy stem
Ġmarg aine
Mid west
Ġwatt leseed
Ġenhan ced
Kelly mac
Ġmudd led
Ġoverc rowding
Dan iel
Pier ogie
Ġfore ign
Ġlie u
ĠWHI PPED
Ġbal oney
Ġlad el
Ġlad led
ĠCour tesy
Ġleak age
ĠBit tman
ĠEs pan
koe ken
break ing
ĠâĢ ľ
Ġsq a
Bag els
Ġsatay s
ĠCON T
ĠMELT ED
Mi ami
Ġmol ten
Ġmol cajete
enz eller
ĠKr usteaz
Ġsle ep
ĠFan nie
ĠBud weiser
Most accioli
Mich igan
ĠFle ur
ĠBlan ca
Baham ian
Back pack
Se itan
ĠSy llabub
Ġorigin als
ĠLef se
ĠNu wave
Ġlolli pops
Ġparmas ean
Ġumb rellas
Ġcult ivated
Ġtang ier
Ġlawry s
ĠAir fryer
Ġcloud berries
Ġrap ini
Ġdelight ful
Kum ara
ĠDav is
Ġenc ase
Ġcollaps ing
ĠME AS
ĠME ANWHILE
Ġep isode
Ġsam osas
Ġsquir ts
Ġsquir rel
Ġmonter rey
Alas ka
Ġwat ts
Ġwat kins
Ġdan iel
ĠHen ry
Bubb a
Som ers
ĠBre ton
Ġconch ig
Ġwonder s
Outrage ously
pres erves
Aust in
ĠPout ine
ĠBY OC
ĠSpeed y
ĠKal ua
EC T
Lyn n
bou illon
ĠHOUR S
Ġrefiger ator
ĠDev onshire
Jazz ed
Suz anne
cci atella
Ġsupp ly
Earth quake
ĠCAR AMEL
ĠPen uche
Ġkrisp y
Ġkrisp ie
Ġglu ey
Ġadequ ate
Ġadequ ately
ĠOrigin als
Dust ed
Magn ificent
hani ya
Ġpos itions
Ġmater ial
Ġcoc nut
Ġsprin le
Ġroula den
ĠOb viously
ĠSEASON ING
Afgh an
Hass elback
bug er
Ġblu efish
ĠLoc atelli
Ġpleasant ly
Ġaccur ate
Ġmoisturi zer
Ġdisinteg rate
Cheez y
Seas hells
Ġunw anted
Ġroman a
Ġquater ed
Ġdefin ite
Ġelev ation
Ash ley
Mul berry
Rag ged
Wolf gang
Ġparmes ian
Ġmx ture
ĠCRA CK
oter koek
ĠPun cture
ĠBL UE
Ġtherea fter
Mond ay
Read y
Ġferm ented
Ġchiffon aded
ĠCec i
ĠVie ja
Ġquadr uple
scall oped
Cann oli
Tru ly
Venezu elan
pons ibly
alum inium
thrit ol
Ġnea rest
ĠRoula des
ĠFLA V
angost inos
iox id
amika ze
ĠFranca ise
Ġingri edients
Fah renheit
Nic ole
Nim bu
Niger ian
Pfeffer n
horiz ontally
Ġery thritol
Ġbagett e
ĠCRO CK
rimon ial
omps on
Ġblemish es
Ġunsc ented
Ġtwink ies
Ġimpur ities
Ark ansas
Ġpowed ered
Contin ental
Fabi enne
Frik ad
Ġsufa ce
Ġmarmel ade
alep eno
itzer land
origin ally
ĠBISC UIT
ĠANOT HER
imbo cca
Ġrepl en
ĠFUD GE
Ġcruz an
ĠLank an
ĠLUCK Y
Ġunsulf ured
CKTA IL
Bohem ian
% ),
) *
* -
. --
4 4
: -
A ke
A aron
A udrey
B E
B all
B rain
B ree
B enn
B ron
B uy
B urrit
B ibb
B artlett
B acky
B rewed
B achelor
C ree
C oney
C ross
C ON
C rowd
C eltic
C COL
C HEN
C antonese
C afÃ©
C lementine
C atalan
C inco
D u
D ra
D ol
D iv
D ont
E v
E ight
E mp
F o
F ly
F illet
F lo
F lower
F OR
F iber
F ontina
F ij
F estival
G en
G ul
G rease
G ail
G ES
G host
G ypsy
G igi
H on
H um
H and
H oot
H pnotiq
H ummingbird
I AN
I rene
J ade
J olly
J erusalem
J ewel
J acqu
J affa
K ab
K ah
K rumkake
K ashmiri
K iwifruit
K amikaze
L on
L ion
L oc
L ex
L ucy
L icious
L atte
M en
M us
M ur
M ain
M ass
M ang
M ellow
M arsh
M ont
M ai
M mm
M andy
M irin
M uenster
M ccormick
M orton
M AIN
N ord
N ative
N UT
N ava
N ippy
O ranges
P ur
P ay
P app
P are
P ao
P iri
P ikelets
P osole
P enzey
P ooh
R iz
R ipe
R ON
R ibs
R olo
R abbit
R IES
R adicchio
S u
S ri
S law
S odium
S no
S ouffle
S ION
S chnitzel
S aint
S ummery
S aganaki
S ingapore
S eattle
T in
T on
T ed
T one
T erry
T ES
T erri
T VP
V ED
V AR
V iolet
W ee
W alt
W AT
W indow
X X
Y o
\ ),
^ .
a ide
b al
b un
b ot
b ubb
b ye
b lade
b bly
b iscuits
c z
c ie
c umber
c otch
c afe
c reme
c raisins
c andied
c ase
c lam
d le
d el
d rops
d ogs
e h
f ore
f est
f oot
f lax
g ms
g hee
h s
h ed
h all
h int
h ollow
h ib
i enne
j umbo
j oba
j ects
k ie
k land
k alamata
k aka
k uyper
l m
l our
l ini
l ear
l ucent
l ines
l antern
m or
m ass
m ies
m oked
n al
n is
n od
o is
o cc
p ith
p ush
p ressing
p routs
p rawns
p uppies
r usset
s up
s at
s ince
s ambal
s eye
t ur
t ier
t orch
t asty
t ures
t Bake
u als
v ice
v ise
v ably
w ok
w ens
x ie
y er
y led
z as
z art
z iti
Ġ ix
Ġ :.
Ġ urad
in ean
in vert
in illo
Ġc ay
Ġc li
Ġc ough
Ġc rais
Ġc rip
Ġt ired
Ġt iramisu
Ġt ranfer
Ġt errine
Ġt eflex
Ġa range
Ġa pr
Ġa uth
Ġs ine
Ġs unchokes
Ġs uddenly
er ia
on zoni
ed o
ed en
ea gle
Ġb rea
Ġb out
Ġb oc
Ġb arb
Ġb irthday
Ġo dor
Ġp uy
Ġp iled
Ġp ucker
Ġp illow
Ġm ing
Ġm ole
Ġm ouse
Ġm mmmm
Ġm allows
il ant
ar ra
ar ney
ar ters
Ġf f
Ġf y
Ġf uri
Ġf eather
Ġf oreman
Ġf lying
Ġf uzzy
Ġf amilies
ic ial
Ġw aste
Ġw orches
Ġw eave
Ġin between
[...]
