{"":0,"<pad>":1,"<s>":2,"</s>":3,"<unk>":4,"<mask>":5,"!":6,"\"":7,"#":8,"$":9,"%":10,"&":11,"'":12,"(":13,")":14,"*":15,"+":16,",":17,"-":18,".":19,"/":20,"0":21,"1":22,"2":23,"3":24,"4":25,"5":26,"6":27,"7":28,"8":29,"9":30,":":31,";":32,"<":33,"=":34,">":35,"?":36,"@":37,"A":38,"B":39,"C":40,"D":41,"E":42,"F":43,"G":44,"H":45,"I":46,"J":47,"K":48,"L":49,"M":50,"N":51,"O":52,"P":53,"Q":54,"R":55,"S":56,"T":57,"U":58,"V":59,"W":60,"X":61,"Y":62,"Z":63,"[":64,"\\":65,"]":66,"^":67,"_":68,"`":69,"a":70,"b":71,"c":72,"d":73,"e":74,"f":75,"g":76,"h":77,"i":78,"j":79,"k":80,"l":81,"m":82,"n":83,"o":84,"p":85,"q":86,"r":87,"s":88,"t":89,"u":90,"v":91,"w":92,"x":93,"y":94,"z":95,"{":96,"|":97,"}":98,"~":99,"¡":100,"¢":101,"£":102,"¤":103,"¥":104,"¦":105,"§":106,"¨":107,"©":108,"ª":109,"«":110,"¬":111,"®":112,"¯":113,"°":114,"±":115,"²":116,"³":117,"´":118,"µ":119,"¶":120,"·":121,"¸":122,"¹":123,"º":124,"»":125,"¼":126,"½":127,"¾":128,"¿":129,"À":130,"Á":131,"Â":132,"Ã":133,"Ä":134,"Å":135,"Æ":136,"Ç":137,"È":138,"É":139,"Ê":140,"Ë":141,"Ì":142,"Í":143,"Î":144,"Ï":145,"Ð":146,"Ñ":147,"Ò":148,"Ó":149,"Ô":150,"Õ":151,"Ö":152,"×":153,"Ø":154,"Ù":155,"Ú":156,"Û":157,"Ü":158,"Ý":159,"Þ":160,"ß":161,"à":162,"á":163,"â":164,"ã":165,"ä":166,"å":167,"æ":168,"ç":169,"è":170,"é":171,"ê":172,"ë":173,"ì":174,"í":175,"î":176,"ï":177,"ð":178,"ñ":179,"ò":180,"ó":181,"ô":182,"õ":183,"ö":184,"÷":185,"ø":186,"ù":187,"ú":188,"û":189,"ü":190,"ý":191,"þ":192,"ÿ":193,"Ā":194,"ā":195,"Ă":196,"ă":197,"Ą":198,"ą":199,"Ć":200,"ć":201,"Ĉ":202,"ĉ":203,"Ċ":204,"ċ":205,"Č":206,"č":207,"Ď":208,"ď":209,"Đ":210,"đ":211,"Ē":212,"ē":213,"Ĕ":214,"ĕ":215,"Ė":216,"ė":217,"Ę":218,"ę":219,"Ě":220,"ě":221,"Ĝ":222,"ĝ":223,"Ğ":224,"ğ":225,"Ġ":226,"ġ":227,"Ģ":228,"ģ":229,"Ĥ":230,"ĥ":231,"Ħ":232,"ħ":233,"Ĩ":234,"ĩ":235,"Ī":236,"ī":237,"Ĭ":238,"ĭ":239,"Į":240,"į":241,"İ":242,"ı":243,"Ĳ":244,"ĳ":245,"Ĵ":246,"ĵ":247,"Ķ":248,"ķ":249,"ĸ":250,"Ĺ":251,"ĺ":252,"Ļ":253,"ļ":254,"Ľ":255,"ľ":256,"Ŀ":257,"ŀ":258,"Ł":259,"ł":260,"Ń":261,"Ġc":262,"in":263,"Ġt":264,"Ġs":265,"Ġa":266,"on":267,"er":268,"es":269,"Ġ1":270,"ed":271,"ea":272,"Ġb":273,"nd":274,"Ġo":275,"Ġp":276,"Ġm":277,"ar":278,"il":279,"Ġand":280,"up":281,"ic":282,"he":283,"Ġf":284,"Ġin":285,"Ġw":286,"po":287,"ut":288,"Ġcup":289,"poon":290,"en":291,"at":292,"an":293,"Ġto":294,"re":295,"al":296,"un":297,"ro":298,"ing":299,"le":300,"it":301,"eas":302,"Ġthe":303,"pp":304,"Ġg":305,"Ġd":306,"or":307,"Ġ2":308,"ce":309,"Ġch":310,"Ġl":311,"ĠS":312,"ur":313,"el":314,"Ġh":315,"Ġ(":316,"ab":317,"ĠC":318,"les":319,"Ġteas":320,"Ġteaspoon":321,"as":322,"Ġco":323,"is":324,"ge":325,"Ġon":326,"ables":327,"ow":328,"ablespoon":329,"Ġtablespoon":330,"Ġ3":331,"ĠP":332,"our":333,"ith":334,"la":335,"ve":336,"rea":337,"Ġun":338,"ra":339,"ix":340,"ot":341,"Ġwith":342,"Ġmin":343,"til":344,"ak":345,"gar":346,"eat":347,"Ġor":348,"ter":349,"ver":350,"ice":351,"ch":352,"us":353,"Ġuntil":354,"ĠB":355,"Ġsal":356,"Ġpe":357,"Ġoun":358,"to":359,"ion":360,"red":361,"dd":362,"ri":363,"lic":364,"ine":365,"Ġfor":366,"Ġcho":367,"ok":368,"ĠA":369,"Ġminut":370,"Ġsalt":371,"Ġsu":372,"pper":373,"um":374,"ol":375,"Ġmix":376,"Ġe":377,"ir":378,"Ġpepper":379,"ts":380,"Ġminutes":381,"ck":382,"ese":383,"ick":384,"Ġtablespoons":385,"Ġsugar":386,"Ġst":387,"Ġof":388,"ly":389,"Ġj":390,"heese":391,"ĠCo":392,"Ġcups":393,"ĠM":394,"utter":395,"pped":396,"uce":397,"gh":398,"res":399,"et":400,"Ġinto":401,"Ġcheese":402,"Ġsa":403,"Ġounce":404,"Ġbutter":405,"ream":406,"mon":407,"Ġ4":408,"ces":409,"ake":410,"Ġchopped":411,"ast":412,"Ġonion":413,"ll":414,"ato":415,"ĠAdd":416,"Ġcream":417,"ill":418,"Ġth":419,"Ġover":420,"Ġcook":421,"Ġoil":422,"Ġv":423,"Ġso":424,"th":425,"ĠI":426,"ry":427,"ater":428,"Ġju":429,"gg":430,"Ġsauce":431,"Ġwh":432,"ĠT":433,"im":434,"ien":435,"Ġbro":436,"Ġwater":437,"Ġgar":438,"mb":439,"ate":440,"gred":441,"Ġ12":442,"icken":443,"gredien":444,"Ġingredien":445,"Ġcan":446,"Ġingredients":447,"Ġjuice":448,"rou":449,"all":450,"ure":451,"id":452,"ĠR":453,"Ġle":454,"Ġn":455,"read":456,"ell":457,"ilk":458,"igh":459,"Ġegg":460,"owl":461,"ĠD":462,"Ġbowl":463,"Ġslic":464,"Ġfl":465,"ĠF":466,"Ġgarlic":467,"Ġre":468,"ad":469,"mo":470,"Ġsp":471,"Ġheat":472,"ay":473,"ish":474,"Ġcr":475,"Ġsh":476,"Ġy":477,"ou":478,"edi":479,"wn":480,"Ġbe":481,"Ġall":482,"Ġmilk":483,"atoes":484,"mbine":485,"resh":486,"qu":487,"Ġlar":488,"der":489,"Ġlarge":490,"ie":491,"erve":492,"ven":493,"Ġpa":494,"ĠW":495,"lace":496,"Ġfresh":497,"ean":498,"Ġr":499,"ber":500,"Ġgr":501,"Ġchicken":502,"ther":503,"edium":504,"owder":505,"ture":506,"Ġmedium":507,"st":508,"ĠSt":509,"ip":510,"na":511,"round":512,"Ġstir":513,"Ġpowder":514,"Ġbrown":515,"rain":516,"Ġounces":517,"lend":518,"ĠMix":519,"Ġmixture":520,"Ġteaspoons":521,"aking":522,"Ġadd":523,"ĠIn":524,"ight":525,"Ġflour":526,"Ġlemon":527,"oil":528,"op":529,"li":530,"ust":531,"ves":532,"eg":533,"Ġfro":534,"Ġbaking":535,"am":536,"age":537,"Ġpan":538,"ĠSp":539,"Ġwell":540,"Ġat":541,"Ġpot":542,"gether":543,"ush":544,"Ġtogether":545,"Ġground":546,"Ġoven":547,"out":548,"ĠBake":549,"ely":550,"Ġtom":551,"Ġse":552,"col":553,"Ġis":554,"ĠPlace":555,"50":556,"ĠCh":557,"om":558,"mall":559,"Ġhour":560,"oth":561,"ĠG":562,"Ġlb":563,"ite":564,"ring":565,"ger":566,"Ġoli":567,"aste":568,"ated":569,"reen":570,"ain":571,"ef":572,"con":573,"Ġcon":574,"ted":575,"ff":576,"Ġpack":577,"ink":578,"illa":579,"ĠStir":580,"anilla":581,"ey":582,"Ġblend":583,"co":584,"Ġsliced":585,"ass":586,"ĠCombine":587,"ĠPour":588,"Ġro":589,"Ġcl":590,"Ġab":591,"od":592,"Ġvanilla":593,"Ġeggs":594,"orn":595,"ars":596,"ub":597,"Ġdeg":598,"ard":599,"Ġdegre":600,"ct":601,"Ġ6":602,"Ġ8":603,"Ġgreen":604,"Ġ-":605,"Ġboil":606,"ore":607,"Ġsmall":608,"Ġred":609,"ĠL":610,"Ġ5":611,"ĠH":612,"Ġolive":613,"Ġba":614,"Ġabout":615,"ash":616,"rink":617,"pple":618,"ĠServe":619,"Ġdegrees":620,"ional":621,"colate":622,"Ġtaste":623,"ress":624,"Ġbread":625,"Ġpie":626,"each":627,"heat":628,"Ġ14":629,"Ġas":630,"Ġsk":631,"ĠCook":632,"if":633,"ced":634,"eason":635,"arm":636,"Ġmel":637,"Ġtop":638,"inegar":639,"ange":640,"Ġice":641,"Ġ350":642,"Ġvinegar":643,"reheat":644,"lack":645,"we":646,"Ġ10":647,"Ġte":648,"Ġhal":649,"Ġk":650,"ant":651,"ries":652,"ee":653,"Ġslices":654,"Ġdrain":655,"and":656,"Ġpin":657,"Ġhot":658,"rinkle":659,"Ġclo":660,"Ġsl":661,"iced":662,"imm":663,"ime":664,"Ġus":665,"Ġan":666,"ise":667,"let":668,"Ġex":669,"ten":670,"Ġmar":671,"Ġcut":672,"Ġwhite":673,"Ġpotatoes":674,"Ġblack":675,"Ġit":676,"ole":677,"Ġcorn":678,"Ġtomatoes":679,"riger":680,"ood":681,"ried":682,"se":683,"mooth":684,"erv":685,"Ġmay":686,"ide":687,"weet":688,"Ġminced":689,").":690,"Ġpackage":691,"ent":692,"inna":693,"innamon":694,"Ġchocolate":695,"Ġdish":696,"Ġonions":697,"Ġhours":698,"par":699,"uts":700,"Ġli":701,"ightly":702,"old":703,"Ġdiced":704,"Ġfrom":705,"nder":706,"move":707,"ressing":708,"Ġeach":709,"ap":710,"umb":711,"Ġcinnamon":712,"ĠSal":713,"ustard":714,"Ġcooked":715,"Ġcar":716,"ĠPreheat":717,"mp":718,"ĠO":719,"00":720,"ers":721,"Ġve":722,"Ġserv":723,"Ġsmooth":724,"Ġdry":725,"Ġlow":726,"ies":727,"Ġfla":728,"Ġrem":729,"Ġcombine":730,"eans":731,"Ġal":732,"Ġremain":733,"Ġserve":734,"Ġthen":735,"ded":736,"ĠCover":737,"Ġmelted":738,"Ġshe":739,"get":740,"zen":741,"redded":742,"Ġseason":743,"oney":744,"ul":745,"ĠRe":746,"Ġseed":747,"ss":748,"tra":749,"Ġremaining":750,"Ġserving":751,"berries":752,"naise":753,"ĠE":754,"onnaise":755,"ree":756,"illet":757,"Ġorange":758,"Ġsoup":759,"Ġshredded":760,"Ġmustard":761,"tional":762,"Ġcover":763,"Ġgl":764,"Ġsour":765,"Ġgrated":766,"Ġmayonnaise":767,"uc":768,"Ġbeef":769,"Ġpeel":770,"Ġinch":771,"ag":772,"Ġref":773,"ley":774,"Ġif":775,"Ġcub":776,"berry":777,"uff":778,"Ġfin":779,"ire":780,"Ġfrozen":781,"immer":782,"reas":783,"Ġsof":784,"rough":785,"Ġglass":786,"Ġdried":787,"Ġ30":788,"Ġrice":789,"Ġhalf":790,"Ġ&":791,"Ġveget":792,"quar":793,"me":794,"Ġstirring":795,"Ġare":796,"Ġyou":797,"pan":798,"Ġdrained":799,"Ġskillet":800,"Ġbeans":801,"iz":802,"optional":803,"uit":804,"tt":805,"ks":806,"room":807,"ue":808,"Ġchil":809,"ips":810,"Ġextra":811,"ins":812,"Ġrefriger":813,"ushroom":814,"eal":815,"Ġtender":816,"urn":817,"Ġpre":818,"Ġsaucepan":819,"anan":820,"Ġfinely":821,"Ġ15":822,"Ġdressing":823,"Ġhoney":824,"arsley":825,"cess":826,"Ġcloves":827,"Ġpap":828,"Ġparsley":829,"Ġcrush":830,"Ġdes":831,"ĠSprinkle":832,"eapple":833,"ute":834,"Ġbacon":835,"ĠSalad":836,"ĠRemove":837,"Ġlime":838,"fore":839,"Ġbefore":840,"og":841,"ery":842,"rack":843,"ach":844,"Ġyour":845,"raw":846,"Ġlea":847,"Ġcool":848,"Ġbeat":849,"Ġcrushed":850,"ĠSa":851,"ld":852,"Ġchips":853,"Ġcrumb":854,"10":855,"vor":856,"Ġpieces":857,"ave":858,"Ġblender":859,"Ġuse":860,"ĠHeat":861,"ka":862,"ian":863,"able":864,"pping":865,"Ġmushroom":866,"armes":867,"Ġchill":868,"elery":869,"ired":870,"Ġpro":871,"Ġ20":872,"armesan":873,"ps":874,"Ġpeeled":875,"inger":876,"yr":877,"est":878,"yrup":879,"Ġpl":880,"ray":881,"Ġcelery":882,"edd":883,"ade":884,"ran":885,"Ġdesired":886,"ork":887,"nish":888,"ĠWh":889,"ess":890,"Ġtomato":891,"ini":892,"eddar":893,"Ġapp":894,"Ġpineapple":895,"Ġsimmer":896,"da":897,"Ġcarro":898,"'s":899,"Ġseasoning":900,"isk":901,"ough":902,"Ġpour":903,"Ġcont":904,"Ġup":905,"ĠTo":906,"ĠSpread":907,"Ġsyrup":908,"Ġgreas":909,"Ġthin":910,"cc":911,"Ġsweet":912,"Ġplace":913,"ĠAnd":914,"Ġmore":915,"Ġmargar":916,"Ġ9":917,"eanut":918,"sh":919,"pe":920,"ruit":921,"Ġliqu":922,"Ġmeat":923,"hen":924,"Ġfir":925,"Ġbanan":926,"Ġmargarine":927,"Ġbas":928,"ds":929,"Ġlbs":930,"Ġhea":931,"oy":932,"Ġsoda":933,"urt":934,"ĠPut":935,"Ġsoy":936,"Ġginger":937,"Ġsheet":938,"Ġsalad":939,"Ġwine":940,"Ġz":941,"Ġbake":942,"Ġpast":943,"tened":944,"Ġbot":945,"can":946,"Ġlightly":947,"olden":948,"75":949,"Ġne":950,"Ġwhi":951,"Ġgra":952,"tle":953,"Ġbag":954,"Ġstraw":955,"asted":956,"Ġen":957,"conut":958,"ĠCut":959,"east":960,"ogurt":961,"Ġcooking":962,"Ġone":963,"zz":964,"ately":965,"Ġset":966,"Ġcheddar":967,"Ġgolden":968,"Ġprocess":969,"Ġslice":970,"Ġcrack":971,"asser":972,"Ġwhole":973,"Ġchili":974,"low":975,"asserole":976,"Ġextract":977,"iss":978,"Ġbroth":979,"Ġvegetable":980,"row":981,"Ġbasil":982,"ĠTop":983,"Ġthrough":984,"joy":985,"Ġcontain":986,"ĠN":987,"ich":988,"Ġ13":989,"Ġroll":990,"Ġgreased":991,"Ġside":992,"one":993,"ĠWith":994,"Ġbreas":995,"very":996,"ang":997,"ffee":998,"Ġout":999,"Ġapple":1000,"Ġtor":1001,"ke":1002,"ĠChicken":1003,"inch":1004,"15":1005,"Ġquar":1006,"Ġyogurt":1007,"stant":1008,"Ġsoftened":1009,"Ġthick":1010,"Ġwarm":1011,"ved":1012,"ions":1013,"Ġnot":1014,"ne":1015,"Ġtoss":1016,"Ġhigh":1017,"ĠDrain":1018,"Ġcoconut":1019,"led":1020,"icrow":1021,"Ġpeanut":1022,"Ġcoat":1023,"Ġri":1024,"Ġcontainer":1025,"inach":1026,"Ġparmesan":1027,"af":1028,"ĠSh":1029,"erry":1030,"Ġflak":1031,"Ġcans":1032,"ano":1033,"Ġalmon":1034,"Ġcubes":1035,"ĠCream":1036,"umber":1037,"ĠPot":1038,"Ġpasta":1039,"ear":1040,"Ġapples":1041,"Ġsprinkle":1042,"ĠCool":1043,"Ch":1044,"ucumber":1045,"Ġseeds":1046,"Ġspray":1047,"Ġfood":1048,"Ġcarrots":1049,"Ġpork":1050,"ĠBlend":1051,"ĠBring":1052,"ĠBro":1053,"icrowave":1054,"Ġra":1055,"ently":1056,"Ġmo":1057,"lue":1058,"Ġlight":1059,"Ġjust":1060,"Ġboiling":1061,"ac":1062,"vy":1063,"ĠV":1064,"ew":1065,"Ġleaves":1066,"Ġprepar":1067,"fer":1068,"Ġlo":1069,"alian":1070,"Ġsto":1071,"Ġmushrooms":1072,"isp":1073,"ĠDip":1074,"aw":1075,"Ġnuts":1076,"ĠJ":1077,"Ġstea":1078,"Ġwhipped":1079,"ayer":1080,"Ġcold":1081,"25":1082,"art":1083,"ze":1084,"oc":1085,"ĠSauce":1086,"Ġcake":1087,"ump":1088,"ĠK":1089,"Ġminute":1090,"umin":1091,"Ġpecan":1092,"Ġres":1093,"Ġleast":1094,"ĠBeat":1095,"antro":1096,"ĠCheese":1097,"rika":1098,"ilantro":1099,"ccol":1100,"ĠGar":1101,"Ġclove":1102,"ccoli":1103,"Ġtortil":1104,"12":1105,"ĠDi":1106,"Ġnon":1107,"Ġeven":1108,"bs":1109,"16":1110,"ĠEn":1111,"alls":1112,"sa":1113,"reg":1114,"Ġpaprika":1115,"Ġrefrigerate":1116,"Ġcoffee":1117,"Ġprepared":1118,"Ġonto":1119,"atter":1120,"Ġcran":1121,"ĠSeason":1122,"Ġfruit":1123,"shire":1124,"udd":1125,"ile":1126,"ĠLet":1127,"ally":1128,"Ġoat":1129,"range":1130,"Ġturn":1131,"Ġ34":1132,"tershire":1133,"fat":1134,"aln":1135,"orces":1136,"elt":1137,"Ġbeaten":1138,"Ġjar":1139,"orcestershire":1140,"eep":1141,"Ġgarnish":1142,"Ġcookie":1143,"Ġlet":1144,"rimp":1145,"Ġunco":1146,"Ġpeppers":1147,"Ġcilantro":1148,"Ġnut":1149,"ĠIt":1150,"Ġflavor":1151,"ĠU":1152,"Ġfat":1153,"Ġfill":1154,"os":1155,"Ġgrill":1156,"ĠChill":1157,"ened":1158,"regano":1159,"Ġflakes":1160,"Ġcucumber":1161,"ound":1162,"ta":1163,"Ġdash":1164,"Ġby":1165,"Ġbut":1166,"Ġoregano":1167,"Ġlett":1168,"ature":1169,"aked":1170,"unch":1171,"udding":1172,"ĠRef":1173,"Ġwhisk":1174,"Ġlike":1175,"Ġstrawberries":1176,"Ġbrowned":1177,"usage":1178,"Ġpecans":1179,"isc":1180,"ĠWorcestershire":1181,"rock":1182,"Ġthem":1183,"Ġlettuce":1184,"Ġfry":1185,"Ġother":1186,"Ġthinly":1187,"Ġmarin":1188,"Ġpaper":1189,"Ġfree":1190,"Ġdough":1191,"Ġfirst":1192,"ĠMelt":1193,"Ġpinch":1194,"coa":1195,"pt":1196,"Ġwill":1197,"abb":1198,"Ġcrust":1199,"Ġprocessor":1200,"ined":1201,"Ġbanana":1202,"Ġbell":1203,"ame":1204,"Ġwaln":1205,"Ġ7":1206,"Ġdi":1207,"ediately":1208,"Ġevenly":1209,"Ġskin":1210,"ĠRefriger":1211,"Ġchilled":1212,"tom":1213,"Ġpit":1214,"Ġimm":1215,"Ġliquid":1216,"Ġspinach":1217,"Ġtopping":1218,"ig":1219,"ary":1220,"Ġblended":1221,"Ġchun":1222,"Ġocc":1223,"Ġde":1224,"meg":1225,"ĠRefrigerate":1226,"Ġbring":1227,"ashed":1228,"abbage":1229,"ionally":1230,"enne":1231,"Ġdone":1232,"Ġ375":1233,"voc":1234,"Ġcasserole":1235,"oked":1236,"14":1237,"Ġlon":1238,"vocad":1239,"Ġoccas":1240,"Ġ400":1241,"oodles":1242,"Ġnutmeg":1243,"kin":1244,"ĠButter":1245,"Ġcumin":1246,"ator":1247,"Ġoccasionally":1248,"less":1249,"Ġblue":1250,"oll":1251,"Ġmixing":1252,"arb":1253,"Ġtemp":1254,"ĠY":1255,"Ġbottom":1256,"roughly":1257,"Ġimmediately":1258,"ĠPe":1259,"ren":1260,"Ġspread":1261,"ĠSo":1262,"Ġtw":1263,"Ġbon":1264,"Ġcocoa":1265,"ocolate":1266,"Ġsc":1267,"Ġvegetables":1268,"ens":1269,"asy":1270,"Ġtime":1271,"vered":1272,"Ġrais":1273,"Ġlit":1274,"akes":1275,"ĠTh":1276,"ges":1277,"cept":1278,"als":1279,"Ġ45":1280,"Ġsoft":1281,"Ġham":1282,"issol":1283,"Ġstick":1284,"ĠFor":1285,"Ġspoon":1286,"Ġmicrowave":1287,"arch":1288,"Ġcrumbs":1289,"arin":1290,"ucch":1291,"Ġpound":1292,"urk":1293,"apen":1294,"Ġwalnuts":1295,"Ġsiz":1296,"ĠEnjoy":1297,"Ġcrisp":1298,"Ġbroccoli":1299,"uid":1300,"edges":1301,"Ġbreasts":1302,"ucchini":1303,"Ġpowdered":1304,"Ġslightly":1305,"Ġfluid":1306,"ĠRed":1307,"ayenne":1308,"ides":1309,"Ġaside":1310,"els":1311,"ĠItalian":1312,"Ġheavy":1313,"eless":1314,"wich":1315,"Ġdill":1316,"alapen":1317,"rap":1318,"esame":1319,"Ġrefrigerator":1320,"meal":1321,"Ġthis":1322,"Ġmake":1323,"Ġcayenne":1324,"ĠGr":1325,"ĠToss":1326,"urkey":1327,"ser":1328,"ĠSpoon":1329,"ella":1330,"Ġfoil":1331,"Ġnoodles":1332,"Ġboneless":1333,"lo":1334,"asp":1335,"Ġusing":1336,"umpkin":1337,"oni":1338,"ord":1339,"Ġtill":1340,"Ġslow":1341,"Ġmint":1342,"Ġshall":1343,"ric":1344,"Ġcubed":1345,"Ġtemper":1346,"Ġtoasted":1347,"Ġsausage":1348,"Ġsides":1349,"dens":1350,"ctions":1351,"Ġalmonds":1352,"Ġuns":1353,"Ġdire":1354,"Ġtemperature":1355,"ĠGarnish":1356,"densed":1357,"odka":1358,"ĠBrown":1359,"ark":1360,"rop":1361,"Ġtho":1362,"rans":1363,"Ġoff":1364,"Ġlayer":1365,"yme":1366,"Ġput":1367,"cr":1368,"Ġremove":1369,"Ġshrimp":1370,"eta":1371,"Ġ18":1372,"rizz":1373,"Ġpreheat":1374,"Ġcabbage":1375,"Ġexcept":1376,"Ġthaw":1377,"Ġpotato":1378,"urpo":1379,"Ġpudding":1380,"Ġ25":1381,"night":1382,"urpose":1383,"Ġcrackers":1384,"Ġvery":1385,"Ġsalsa":1386,"Ġraisins":1387,"gin":1388,"urger":1389,"Ġsaute":1390,"Ġket":1391,"ices":1392,"Ġcovered":1393,"Ġcrumbled":1394,"Ġneed":1395,"Ġsqu":1396,"Ġmixed":1397,"Ġthyme":1398,"ĠRoll":1399,"milk":1400,"Ġthicken":1401,"arsh":1402,"tail":1403,"Ġvodka":1404,"Ġavocad":1405,"jon":1406,"eed":1407,"Ġcondensed":1408,"erries":1409,"Ġfirm":1410,"ĠCr":1411,"Ġjalapen":1412,"cktail":1413,"rizzle":1414,"Ġolives":1415,"amb":1416,"Ġroast":1417,"Ġmuff":1418,"chup":1419,"ellow":1420,"Ġbananas":1421,"Ġroom":1422,"ider":1423,"Ġpeach":1424,"Ġsesame":1425,"mallow":1426,"Ġinstant":1427,"Ġdissol":1428,"rench":1429,"Ġovernight":1430,"arshmallow":1431,"ĠOn":1432,"rand":1433,"purpose":1434,"Ġshell":1435,"ĠWhip":1436,"ned":1437,"Ġbatter":1438,"Ġsecon":1439,"Ġthoroughly":1440,"Ġthawed":1441,"Ġchi":1442,"stick":1443,"ubb":1444,"eur":1445,"ec":1446,"Ġzest":1447,"Ġcur":1448,"Ġrum":1449,"Ġfork":1450,"Ġcoars":1451,"Ġbo":1452,"Ġketchup":1453,"Ġany":1454,"Ġlittle":1455,"Ġacc":1456,"una":1457,"ĠSoup":1458,"yle":1459,"Ġoats":1460,"Ġfish":1461,"ind":1462,"em":1463,"Ġchops":1464,"ĠWhisk":1465,"Ġliqueur":1466,"ets":1467,"Ġ16":1468,"arella":1469,"ex":1470,"Ġmarshmallow":1471,"Ġcomp":1472,"ous":1473,"Ġgently":1474,"about":1475,"ĠFill":1476,"own":1477,"Ġquart":1478,"ording":1479,"Ġtea":1480,"zzarella":1481,"Ġpreheated":1482,"rrange":1483,"Ġstand":1484,"amic":1485,"Ġaccording":1486,"Ġchunks":1487,"lower":1488,"Ġtwo":1489,"Ġpeas":1490,"ĠWhen":1491,"starch":1492,"Ġsquar":1493,"ĠDijon":1494,"other":1495,"ually":1496,"Ġyellow":1497,"cent":1498,"Ġread":1499,"Ġpla":1500,"Ġcomplet":1501,"alsamic":1502,"Ġcornstarch":1503,"Ġcider":1504,"fe":1505,"Ġshor":1506,"Ġpacked":1507,"Ġloaf":1508,"flower":1509,"uch":1510,"ple":1511,"te":1512,"Ġcherry":1513,"Ġuncovered":1514,"ings":1515,"Ġzucchini":1516,"Ġcor":1517,"izz":1518,"Ġtortilla":1519,"ransfer":1520,"ĠPie":1521,"ĠReduce":1522,"ĠRice":1523,"ĠBread":1524,"Ġrasp":1525,"Ġqu":1526,"Ġtri":1527,"Ġdown":1528,"Ġcompletely":1529,"Ġballs":1530,"Ġcrock":1531,"Ġdo":1532,"Ġthat":1533,"emon":1534,"Ġturkey":1535,"ack":1536,"ĠDressing":1537,"Ġfilling":1538,"high":1539,"Easy":1540,"Ġmozzarella":1541,"ĠIf":1542,"ages":1543,"Ġu":1544,"Ġpaste":1545,"13":1546,"ango":1547,"ive":1548,"por":1549,"ĠSl":1550,"dge":1551,"sem":1552,"Ġboth":1553,"ĠGrill":1554,"Ġstri":1555,"ĠSaute":1556,"Ġevery":1557,"parag":1558,"semary":1559,"aker":1560,"paragus":1561,"sp":1562,"Ġseeded":1563,"Ġmelt":1564,"mer":1565,"anch":1566,"Ġfreshly":1567,"Ġgran":1568,"Ġsm":1569,"crumb":1570,"Ġpo":1571,"Ġlen":1572,"Ġready":1573,"Ġcarrot":1574,"Ġbubb":1575,"Ġbox":1576,"ull":1577,"ops":1578,"Ġml":1579,"ĠFold":1580,"Ġstock":1581,"Ġconstant":1582,"Ġskinless":1583,"stit":1584,"ist":1585,"Ġwheat":1586,"Ġconstantly":1587,"Ġplate":1588,"Ġenjoy":1589,"Ġmuffin":1590,"Ġpat":1591,"Ġhalves":1592,"aco":1593,"Ġfa":1594,"Ġcomb":1595,"Ġseconds":1596,"Ġjalapeno":1597,"Ġpure":1598,"med":1599,"iscuit":1600,"Ġwhen":1601,"Ġglasses":1602,"20":1603,"acar":1604,"Ġenough":1605,"ĠRo":1606,"rox":1607,"Ġplain":1608,"va":1609,"Ġbreast":1610,"ĠSto":1611,"Ġsize":1612,"ble":1613,"Ġanother":1614,"Ġbreadcrumb":1615,"Ġbit":1616,"Ġsub":1617,"ĠParmesan":1618,"enter":1619,"Ġmarinade":1620,"Ġ40":1621,"'t":1622,"Ġcranberries":1623,"aple":1624,"Ġdirections":1625,"Ġpumpkin":1626,"Ġcenter":1627,"tening":1628,"Ġsalmon":1629,"unt":1630,"ting":1631,"Ġheated":1632,"reak":1633,"rush":1634,"au":1635,"ĠSimmer":1636,"acaroni":1637,"ould":1638,"Ġpick":1639,"Ġwa":1640,"Ġhand":1641,"Ġcracker":1642,"izza":1643,"ĠCasserole":1644,"astic":1645,"hett":1646,"ction":1647,"Ġlonger":1648,"ia":1649,"free":1650,"ites":1651,"erb":1652,"Ġshortening":1653,"Ġclean":1654,"lets":1655,"Ġbroil":1656,"Ġbalsamic":1657,"fter":1658,"ipe":1659,"Ġfine":1660,"Ġstrips":1661,"Ġripe":1662,"vid":1663,"Ġfil":1664,"Ġbreadcrumbs":1665,"int":1666,"ĠArrange":1667,"Ġsome":1668,"Ġmashed":1669,"Ġcocktail":1670,"ĠFrench":1671,"irgin":1672,"Ġcanned":1673,"Ġcranberry":1674,"cy":1675,"isten":1676,"ug":1677,"Ġform":1678,"ĠShake":1679,"Ġcons":1680,"ĠBoil":1681,"ĠChocolate":1682,"Ġplastic":1683,"Ġhas":1684,"Ġround":1685,"ful":1686,"ah":1687,"Ġhave":1688,"ican":1689,"Ġsubstit":1690,"ĠStore":1691,"Ġneeded":1692,"ĠPotatoes":1693,"rt":1694,"oke":1695,"Ġx":1696,"Ġreduce":1697,"Ġdark":1698,"Ġrosemary":1699,"Ġrest":1700,"ham":1701,"Qu":1702,"ead":1703,"Ġavocado":1704,"Ġhalved":1705,"las":1706,"Ġcreamy":1707,"ĠCookies":1708,"Ġcombined":1709,"Ġprefer":1710,"Ġquarter":1711,"itional":1712,"ape":1713,"ĠSlice":1714,"Ġper":1715,"Ġpackages":1716,"Ġalmond":1717,"fa":1718,"Ġwedges":1719,"ĠDrop":1720,"aghett":1721,"wise":1722,"Ġfew":1723,"Ġcol":1724,"Ġbuttermilk":1725,"Sp":1726,"Ġhard":1727,"ĠThe":1728,"ĠTurn":1729,"Ġshake":1730,"aghetti":1731,"Ġbottle":1732,"Ġshallow":1733,"Ġturning":1734,"insed":1735,"Ġblueberries":1736,"Ġleaf":1737,"vorite":1738,"ort":1739,"weetened":1740,"Ġtortillas":1741,"Ġ50":1742,"Ġyol":1743,"Ġchives":1744,"porated":1745,"rease":1746,"Ġcer":1747,"so":1748,"Ġsepar":1749,"ĠTransfer":1750,"amburger":1751,"inue":1752,"Ġcooker":1753,"ĠTom":1754,"Ġno":1755,"Ġrinsed":1756,"Ġgrap":1757,"Ġtuna":1758,"Ġmixer":1759,"aby":1760,"Ġthey":1761,"Ġscall":1762,"Ġrack":1763,"ĠMarin":1764,"Ġsweetened":1765,"Ġstrawberry":1766,"ĠCake":1767,"Ġsea":1768,"anana":1769,"Ġonce":1770,"Ġmarshmallows":1771,"ĠPre":1772,"Ġcoated":1773,"lish":1774,"Ġfillets":1775,"centr":1776,"Ġpress":1777,"Ġrec":1778,"ola":1779,"ina":1780,"arbec":1781,"Ġasparagus":1782,"gth":1783,"ĠYou":1784,"Ġfrying":1785,"Ġconsisten":1786,"Ġwhile":1787,"Ġcereal":1788,"Ġcurry":1789,"Ġapprox":1790,"Ġgraham":1791,"Ġwhites":1792,"ĠBe":1793,"ma":1794,"ĠCar":1795,"ĠSmooth":1796,"Ġag":1797,"Ġconcentr":1798,"Ġconsistency":1799,"auli":1800,"Ġfeta":1801,"Ġsand":1802,"Ġsubstitute":1803,"Ġ325":1804,"atin":1805,"auliflower":1806,"wh":1807,"Ġbiscuit":1808,"Ġcoarsely":1809,"Ġunsweetened":1810,"ĠUse":1811,"corn":1812,"ĠDrizzle":1813,"ots":1814,"Ġcand":1815,"Ġlid":1816,"Ġmaple":1817,"imes":1818,"Ġmango":1819,"Ġsandwich":1820,"Ġday":1821,"ern":1822,"Ġvirgin":1823,"Ġbet":1824,"Ġlength":1825,"dually":1826,"Ġconcentrate":1827,"Ġmacaroni":1828,"zer":1829,"Ġair":1830,"Ġkeep":1831,"fection":1832,"Ġshaker":1833,"Ġsteak":1834,"Ġallow":1835,"thing":1836,"Ġdissolved":1837,"Ġeva":1838,"icy":1839,"ates":1840,"Ġ35":1841,"reased":1842,"Ġused":1843,"Ġbun":1844,"ĠCorn":1845,"sc":1846,"Ġfavorite":1847,"Ġkn":1848,"greased":1849,"Ġconfection":1850,"ĠPeel":1851,"fla":1852,"amp":1853,"Ġchilies":1854,"Ġadditional":1855,"cle":1856,"rained":1857,"ĠSmoothie":1858,"Ġwrap":1859,"Ġrolls":1860,"Ġbou":1861,"pric":1862,"Ġcom":1863,"ĠEgg":1864,"Ġthickened":1865,"adish":1866,"Ġdon":1867,"ĠSpray":1868,"arbecue":1869,"ĠGra":1870,"Ġgel":1871,"anges":1872,"lect":1873,"ino":1874,"Ġsquash":1875,"Ġinches":1876,"Ġhead":1877,"law":1878,"Ġmini":1879,"Ġbrand":1880,"ĠSet":1881,"Ġrea":1882,"Ġtoo":1883,"Ġdip":1884,"Ġpatt":1885,"Ġcolor":1886,"Ġhamburger":1887,"Cream":1888,"Ġpuree":1889,"Ġspices":1890,"Ġremo":1891,"Ġoranges":1892,"amel":1893,"Ġspaghetti":1894,"Ġuncooked":1895,"osh":1896,".)":1897,"ugar":1898,"rtich":1899,"andwich":1900,"arp":1901,"amo":1902,"ĠPotato":1903,"Ġevaporated":1904,"inse":1905,"Ġaround":1906,"Ġstuff":1907,"Ġpeaches":1908,"uced":1909,"illon":1910,"Ġtaco":1911,"Ġsteaks":1912,"Ġhor":1913,"alf":1914,"ĠFree":1915,"Ġsem":1916,"Ġgood":1917,"Ġcucumbers":1918,"ling":1919,"seradish":1920,"175":1921,"ĠGrease":1922,"Ġgranul":1923,"imately":1924,"Ġwhipping":1925,"reme":1926,"Ġbouillon":1927,"Ġamo":1928,"Ġchoice":1929,"eanuts":1930,"Ġbite":1931,"iscard":1932,"cho":1933,"ier":1934,"Ġ24":1935,"Ġgelatin":1936,"vide":1937,"Ġbunch":1938,"ĠSandwich":1939,"ridge":1940,"Ġpink":1941,"Ġpint":1942,"Ġconfectioners":1943,"osher":1944,"Ġungreased":1945,"Ġtow":1946,"Ġwax":1947,"ong":1948,"ĠFry":1949,"ully":1950,"Ġsco":1951,"ving":1952,"Ġrind":1953,"ift":1954,"achine":1955,"Ġspeed":1956,"Ġend":1957,"Ġchop":1958,"lu":1959,"Ġreserv":1960,"Ġlong":1961,"ĠThis":1962,"Ġsquares":1963,"ĠAll":1964,"Ġreduced":1965,"Co":1966,"Ġeverything":1967,"ddle":1968,"mel":1969,"Ġmash":1970,"Ġpeanuts":1971,"Ġpiece":1972,"atch":1973,"ĠStrain":1974,"imple":1975,"Ġafter":1976,"rig":1977,"Ġcherries":1978,"Ġcomes":1979,"elly":1980,"Ġyeast":1981,"Ġkosher":1982,"alted":1983,"Ġcube":1984,"Ġsit":1985,"Ġtooth":1986,"Ġquick":1987,"zed":1988,"Ġpitted":1989,"Chocolate":1990,"Ġranch":1991,"),":1992,"Ġmon":1993,"pick":1994,"Ġbubbly":1995,"ney":1996,"veral":1997,"Ġberries":1998,"di":1999,"Ġlengthwise":2000,"Ġsalted":2001,"Ġseparate":2002,"ĠLayer":2003,"wiss":2004,"ĠLemon":2005,"Ġbaby":2006,"tight":2007,"hees":2008,"uss":2009,"ears":2010,"Ġseveral":2011,"half":2012,"Ġpatties":2013,"lenda":2014,"Ġfreeze":2015,"Ġtoast":2016,"ĠPro":2017,"Ġund":2018,"ander":2019,"Ġyolks":2020,"way":2021,"ĠBeans":2022,"Ġfreezer":2023,"esto":2024,"Ġfridge":2025,"Ġgrease":2026,"ĠStea":2027,"Ġagain":2028,"Ġtoothpick":2029,"ppy":2030,"rag":2031,"Ġcauliflower":2032,"Ġstem":2033,"Ġseasoned":2034,"Ġfre":2035,"ĠCheddar":2036,"Ġroasted":2037,"Ġback":2038,"ĠAl":2039,"ized":2040,"Ġalso":2041,"exican":2042,"Ġcookies":2043,"vided":2044,"Ġpizza":2045,"vel":2046,"mmed":2047,"quently":2048,"Chicken":2049,"Ġflavors":2050,"Ġapproximately":2051,"Ġfold":2052,"Ġeas":2053,"ont":2054,"Ġhorseradish":2055,"Ġfrequently":2056,"ĠPork":2057,"Ġnonstick":2058,"Ġrun":2059,"18":2060,"ĠFl":2061,"Ġjuices":2062,"Ġstore":2063,"balls":2064,"Ġsprig":2065,"Ġbeer":2066,"cakes":2067,"edge":2068,"ĠMicrowave":2069,"Ġdrink":2070,"Ġrefrigerated":2071,"Ġ425":2072,"iander":2073,"such":2074,"Ġflat":2075,"Ġspice":2076,"pend":2077,"Ġcap":2078,"cher":2079,"Ġinc":2080,"Ġdou":2081,"vored":2082,"Ġshould":2083,"Ġstal":2084,"ĠPepper":2085,"Ġop":2086,"auce":2087,"Ġwant":2088,"illed":2089,"cake":2090,"uffy":2091,"30":2092,"Ġsun":2093,"Ġseal":2094,"Ġraspberry":2095,"Ġseasonings":2096,"Ġcrab":2097,"ĠGarlic":2098,"Ġfull":2099,"Ġrecipe":2100,"Ġapric":2101,"rett":2102,"Ġsheets":2103,"Ġsquee":2104,"ild":2105,"Ġsticks":2106,"ĠMake":2107,"ĠThen":2108,"Ġslowly":2109,"rtichoke":2110,"Ġgranulated":2111,"OT":2112,"Ġdivided":2113,"Quick":2114,"lectric":2115,"Ġbuns":2116,"Ġairtight":2117,"Ġedges":2118,"ĠAllow":2119,"ation":2120,"Ġstrain":2121,"Ġunsalted":2122,"sting":2123,"rette":2124,"Ġlemonade":2125,"Ġbroiler":2126,"Ġsharp":2127,"Ġcoriander":2128,"ĠPress":2129,"ĠPrepar":2130,"Ġbuttered":2131,"ĠFro":2132,"Ġraspberries":2133,"Ġbags":2134,"bon":2135,"Ġelectric":2136,"inaig":2137,"Ġsure":2138,"Ġjelly":2139,"ĠBrush":2140,"Ġcanola":2141,"inaigrette":2142,"Ġcott":2143,"Ġgreens":2144,"Ġamount":2145,"pot":2146,"style":2147,"Ġquartered":2148,"Ġ23":2149,"Ġadding":2150,"ĠDivide":2151,"asses":2152,"Ġpitcher":2153,"ai":2154,"ĠPrepare":2155,"tern":2156,"Ġoatmeal":2157,"ĠFruit":2158,"Ġribs":2159,"lit":2160,"Ġgo":2161,"ĠSalt":2162,"Ġdrizzle":2163,"sor":2164,"asta":2165,"Ġmachine":2166,"Ġcro":2167,"asco":2168,"Ġdegree":2169,"flavored":2170,"iff":2171,"peat":2172,"Ġcas":2173,"reat":2174,"olasses":2175,"Ġbest":2176,"Ġball":2177,"Ġ450":2178,"Ġcottage":2179,"ĠGreen":2180,"Ġvegg":2181,"Ġsquare":2182,"Ġcontinue":2183,"Ġcooled":2184,"ness":2185,"Ġbay":2186,"do":2187,"Ġpart":2188,"otch":2189,"Ġbarbecue":2190,"Ġorder":2191,"of":2192,"ĠApple":2193,"ener":2194,"Ġcored":2195,"Ġpul":2196,"ĠBean":2197,"St":2198,"Ġlean":2199,"ĠSplenda":2200,"Ġcornmeal":2201,"ĠTomato":2202,"Ro":2203,"ĠCan":2204,"Ġman":2205,"ular":2206,"abasco":2207,"--":2208,"uck":2209,"ĠBeef":2210,"melon":2211,"ily":2212,"ila":2213,"kra":2214,"zo":2215,"Ġpounds":2216,"bread":2217,"fuls":2218,"Ġmug":2219,"acon":2220,"ula":2221,"Ġdeep":2222,"umm":2223,"Ġraw":2224,"for":2225,"ĠLightly":2226,"spice":2227,"ranberry":2228,"Ġcandy":2229,"till":2230,"Ġskim":2231,"av":2232,"ici":2233,"Ġpop":2234,"ĠSc":2235,"Ġwire":2236,"ello":2237,"Ġoz":2238,"Ġmayo":2239,"Ġgrapes":2240,"ters":2241,"Baked":2242,"Ġpastry":2243,"Ġmarinate":2244,"ote":2245,"Ġfluffy":2246,"ife":2247,"mar":2248,"just":2249,"sing":2250,"reek":2251,"Ġsec":2252,"ĠWrap":2253,"rew":2254,"ĠPan":2255,"Lemon":2256,"side":2257,"Ġtightly":2258,"erves":2259,"quila":2260,"Ġlef":2261,"Ġremoved":2262,"Ġget":2263,"Ġbiscuits":2264,"terey":2265,"ib":2266,"ineapple":2267,"ĠSweet":2268,"Ġdouble":2269,"Ġfour":2270,"ĠShape":2271,"Ġchunk":2272,"Ġtrimmed":2273,"hew":2274,"Ġstill":2275,"Ġpickle":2276,"Ġmolasses":2277,"ĠChop":2278,"Ġjack":2279,"de":2280,"ny":2281,"oiled":2282,"Ġcoarse":2283,"rit":2284,"Ġless":2285,"ĠEasy":2286,"Sweet":2287,"Ġlay":2288,"Creamy":2289,"ili":2290,"Ġunder":2291,"Ġkern":2292,"Ġdiscard":2293,"ĠRoast":2294,"Ġnonfat":2295,"eri":2296,"Ġjam":2297,"ingle":2298,"ton":2299,"Ġtin":2300,"Ġroma":2301,"ĠSift":2302,"ĠMo":2303,"Ġknife":2304,"ĠTabasco":2305,"ĠWash":2306,"pending":2307,"Ġstuffing":2308,"routs":2309,"rops":2310,"Ġlast":2311,"ĠSqu":2312,"ĠBreak":2313,"ĠMuff":2314,"elb":2315,"leslaw":2316,"Ġbaked":2317,"ĠLow":2318,"Ġveggies":2319,"tini":2320,"laze":2321,"thy":2322,"Ġreserved":2323,"ĠDo":2324,"ĠBroil":2325,"scotch":2326,"ĠSalsa":2327,"Ġtall":2328,"Ġinser":2329,"ĠMeat":2330,"Ġwhip":2331,"Ġpans":2332,"ĠVe":2333,"chopped":2334,"Ġapplesauce":2335,"ĠUsing":2336,"Ġbrandy":2337,"ĠGradually":2338,"while":2339,"Ġallspice":2340,"ĠRub":2341,"ĠSpinach":2342,"Ġ\\":2343,"ween":2344,"ĠOr":2345,"ĠToast":2346,"use":2347,"ĠBanana":2348,"Ġinst":2349,"ĠPasta":2350,"Ġoften":2351,"ett":2352,"ĠAs":2353,"Ġpres":2354,"Ġher":2355,"Ġbetween":2356,"ĠLine":2357,"Ġcaref":2358,"Ġfloured":2359,"meat":2360,"arts":2361,"Ġflaked":2362,"Ġsmoked":2363,"ĠHot":2364,"Ġsingle":2365,"Ġclear":2366,"ĠProcess":2367,"ĠMar":2368,"omem":2369,"Ġjars":2370,"omemade":2371,"eanwhile":2372,"Ġtil":2373,"Ġtequila":2374,"boiled":2375,"Ġdrops":2376,"ĠMushroom":2377,"ize":2378,"ĠSlow":2379,"ĠMash":2380,"Ġki":2381,"ner":2382,"Ġbrush":2383,"ragon":2384,"Ġshells":2385,"ira":2386,"elve":2387,"xt":2388,"Ġchile":2389,"glish":2390,"ĠBaked":2391,"andarin":2392,"fast":2393,"Stra":2394,"und":2395,"Ġstew":2396,"Ġmelts":2397,"ĠMeanwhile":2398,"ĠMuffins":2399,"Ġsherry":2400,"ita":2401,"Ġpacket":2402,"velop":2403,"Ġscallions":2404,"ĠSugar":2405,"ĠRepeat":2406,"ĠOnion":2407,"Ġ300":2408,"Ġavocados":2409,"Straw":2410,"Ġflavored":2411,"Ġcaramel":2412,"ĠMarinade":2413,"most":2414,"Ġlemons":2415,"ĠRet":2416,"quart":2417,"Ġ--":2418,"part":2419,"Ġsized":2420,"Ġtart":2421,"Ġbreak":2422,"ats":2423,"ĠPudding":2424,"ĠReturn":2425,"ickp":2426,"ĠNOT":2427,"Ġscoop":2428,"udge":2429,"arragon":2430,"Ġonly":2431,"ĠZ":2432,"Ġwedge":2433,"Crock":2434,"ĠApp":2435,"Ġtray":2436,"ru":2437,"Ġmed":2438,"Car":2439,"djust":2440,"Ġundrained":2441,"ĠMakes":2442,"ĠTea":2443,"uring":2444,"cook":2445,"ĠNote":2446,"Ġflore":2447,"ment":2448,"Ġtimes":2449,"uffed":2450,"ĠCoat":2451,"Ġswiss":2452,"zel":2453,"Ġwee":2454,"uted":2455,"Ġstiff":2456,"aj":2457,"Ġnext":2458,"Ġgrain":2459,"not":2460,"Ġdel":2461,"Ġrelish":2462,"man":2463,"ale":2464,"ĠPeanut":2465,"loin":2466,"Ġreg":2467,"Ġkid":2468,"ĠUn":2469,"Ġdays":2470,"ĠGently":2471,"outh":2472,"Ġsur":2473,"ĠFreeze":2474,"Bro":2475,"cessary":2476,"Ġweed":2477,"Ġhear":2478,"ty":2479,"Apple":2480,"Ġartichoke":2481,"Ġcreme":2482,"aca":2483,"hub":2484,"Ġinserted":2485,"Ġnecessary":2486,"Ġbar":2487,"isqu":2488,"amom":2489,"Ġapricot":2490,"icious":2491,"Ġplatter":2492,"ĠOrange":2493,"hubarb":2494,"Ġeat":2495,"ifted":2496,"Ġthree":2497,"Ġapart":2498,"ons":2499,"Ġsemi":2500,"atmeal":2501,"agne":2502,"Ġreach":2503,"Ġale":2504,"Ġrolled":2505,"Ġpita":2506,"Ġwet":2507,"iracle":2508,"bl":2509,"ĠCarro":2510,"ys":2511,"Ġ60":2512,"Ġalmost":2513,"peel":2514,"Ġmeatballs":2515,"Strawberry":2516,"ĠMilk":2517,"ail":2518,"Ġsage":2519,"pl":2520,"Ġmuch":2521,"Ġhearts":2522,"Ġabsor":2523,"Gr":2524,"Ġpesto":2525,"Ġsli":2526,"elveeta":2527,"ual":2528,"Ġburn":2529,"Ġret":2530,"bsp":2531,"ĠForm":2532,"sweet":2533,"Ġlined":2534,"Ġbits":2535,"tover":2536,"Ġstems":2537,"11":2538,"Ġpim":2539,"pps":2540,"Ġmartini":2541,"Banana":2542,"chna":2543,"Ġtsp":2544,"ere":2545,"ĠBr":2546,"Ġnect":2547,"ampagne":2548,"Ġpreserves":2549,"Ġherbs":2550,"chnapps":2551,"per":2552,"uer":2553,"Ġgrape":2554,"Ġitalian":2555,"Ġsprouts":2556,"ellini":2557,"Ġsurfa":2558,"ĠIce":2559,"Ġdog":2560,"Ġbean":2561,"Ġwatermelon":2562,"ĠDel":2563,"40":2564,"kraut":2565,"Ġabsorb":2566,"elf":2567,"ĠChops":2568,"Ġenvelop":2569,"Ġbars":2570,"asch":2571,"Hot":2572,"Ġtarragon":2573,"potle":2574,"Ġexcess":2575,"Ġstart":2576,"peeled":2577,"ari":2578,"efruit":2579,"Ġtowels":2580,"Ġdri":2581,"uminum":2582,"aschino":2583,"Ġha":2584,"Ġbutterscotch":2585,"Ġquarts":2586,"Ġgravy":2587,"Ġshape":2588,"Ġmonterey":2589,"icing":2590,"Ġminiature":2591,"Ġstalks":2592,"nut":2593,"Ġmandarin":2594,"gel":2595,"ning":2596,"Ġmins":2597,"ĠEggs":2598,"afe":2599,"ĠCont":2600,"!)":2601,"Ġbr":2602,"ollow":2603,"ĠSlowly":2604,"The":2605,"ussels":2606,"its":2607,"adine":2608,"Ġflorets":2609,"ardamom":2610,"Ġsurface":2611,"Ġmaraschino":2612,"Ġkidney":2613,"ome":2614,"acao":2615,"ĠPure":2616,"Ġsetting":2617,"ĠRinse":2618,"Ġleave":2619,"Ġdepending":2620,"Wh":2621,"heesy":2622,"Grilled":2623,"Gar":2624,"Ġport":2625,"Ġ200":2626,"isquick":2627,"Honey":2628,"Ġreturn":2629,"ĠHoney":2630,"Ġaluminum":2631,"Sh":2632,"ms":2633,"Ġicing":2634,"Ġsifted":2635,"Ġwork":2636,"Ġgri":2637,"etto":2638,"Ġbec":2639,"Ġlayers":2640,"ght":2641,"Cr":2642,"alo":2643,"Ġ250":2644,"maretto":2645,"Ġ*":2646,"ĠCoffee":2647,"Ġcrabmeat":2648,"Ġway":2649,"Ġdates":2650,"Ġequ":2651,"uper":2652,"uerkraut":2653,"))":2654,"ied":2655,"Ġregular":2656,"Ġeasily":2657,"Ġsprigs":2658,"Ġir":2659,"ahlu":2660,"Ġwashed":2661,"ĠEnglish":2662,"Ġgren":2663,"Ġskew":2664,"Ġmanu":2665,"ahlua":2666,"Ġcrispy":2667,"Sa":2668,"Ġpopcorn":2669,"Ġmade":2670,"ĠDe":2671,"Ġrinse":2672,"Ġgrenadine":2673,"Ġbowls":2674,"fact":2675,"Garlic":2676,"fu":2677,"ĠStraw":2678,"rish":2679,"Ġwor":2680,"Ġmanufact":2681,"Ġschnapps":2682,"ĠWhile":2683,"Peanut":2684,"Ġrings":2685,"Ġtops":2686,"ĠSm":2687,"Ġgriddle":2688,"Orange":2689,"ĠMiracle":2690,"Ġcrockpot":2691,"Ġmanufactur":2692,"Ġclub":2693,"urgers":2694,"nuts":2695,"Ġsplit":2696,"ĠVelveeta":2697,"ĠPuree":2698,"Ġes":2699,"Ġpea":2700,"ĠShrimp":2701,"Ġgall":2702,"ĠContinue":2703,"olid":2704,"Ġ100":2705,"ken":2706,"Ġpear":2707,"ĠMexican":2708,"Ġseedless":2709,"utch":2710,"Ġstove":2711,"Spicy":2712,"icot":2713,"Ġsprink":2714,"rie":2715,"Ġhands":2716,"ĠSeasoning":2717,"ĠSe":2718,"ĠMarinate":2719,"19":2720,"Ġcardamom":2721,"asting":2722,"Ġmeas":2723,"ĠChili":2724,"cooked":2725,"baked":2726,"rescent":2727,"ĠSalmon":2728,"ĠVeget":2729,"Ġslivered":2730,"Ġbrew":2731,"Ġbetter":2732,"Ġtriple":2733,"Ġsunflower":2734,"Ġgradually":2735,"Ġreal":2736,"tc":2737,"Ġwood":2738,"Ġsn":2739,"Ġwould":2740,"ĠBacon":2741,"Ġsprayed":2742,"liced":2743,"Ġcashew":2744,"ickpeas":2745,"Ġnectar":2746,"Ġenvelope":2747,"28":2748,"ial":2749,"ĠMay":2750,"Ġroasting":2751,"Ġfirmly":2752,"vocado":2753,"Ġthickens":2754,"It":2755,"Ġdrop":2756,"Ġho":2757,"ĠTomatoes":2758,"meric":2759,"Ġgrapefruit":2760,"Ġpine":2761,"app":2762,"Ġinside":2763,"aspberry":2764,"ĠSteak":2765,"ajun":2766,"sert":2767,"size":2768,"Ġherb":2769,"Ġrub":2770,"cor":2771,"Ġfive":2772,"Ġindi":2773,"aki":2774,"ĠCocktail":2775,"Ġindivid":2776,"ĠQu":2777,"Ġdirec":2778,"Ġsqueezed":2779,"Ġshallots":2780,"Butter":2781,"Ġwaxed":2782,"Ġ.":2783,"Ġetc":2784,"ĠTake":2785,"ĠChe":2786,"Roasted":2787,"fresh":2788,"lt":2789,"Ġfrosting":2790,"ove":2791,"Ġcola":2792,"Ġcreamed":2793,"ppings":2794,"Ġmois":2795,"isin":2796,"Ġpepperoni":2797,"Ġleftover":2798,"Ġmanufacturer":2799,"Th":2800,"ipped":2801,"pro":2802,"Ġtur":2803,"ĠPizza":2804,"Ġabsorbed":2805,"Ġbott":2806,"Ġflax":2807,"ĠKeep":2808,"ible":2809,"men":2810,"resso":2811,"icotta":2812,"Ġbeets":2813,"Ġself":2814,"ramb":2815,"ĠAfter":2816,"Ġwings":2817,"lazed":2818,"ĠBisquick":2819,"ĠJust":2820,"Ġromaine":2821,"Ġdirected":2822,"Low":2823,"iddle":2824,"mond":2825,"Ġboiled":2826,"ĠHam":2827,"Ġver":2828,"Ġgreat":2829,"Ġmelon":2830,"ĠPo":2831,"ĠOatmeal":2832,"Ġtorn":2833,"cut":2834,"45":2835,"Simple":2836,"Ġmaking":2837,"ĠGreek":2838,"ĠOnce":2839,"ball":2840,"Ġbeen":2841,"Ġgallon":2842,"Ġtake":2843,"Ġpoppy":2844,"Ġpunch":2845,"ĠCl":2846,"lueberry":2847,"ĠPancakes":2848,"IN":2849,"eness":2850,"Ġhow":2851,"ĠBars":2852,"Ġsteam":2853,"mint":2854,"ĠJu":2855,"ĠPunch":2856,"ĠBas":2857,"Ġkernel":2858,"yaki":2859,"Ġmy":2860,"ĠSour":2861,"Ġrounds":2862,"Ġtofu":2863,"ĠPat":2864,"Ġwithout":2865,"ĠBroccoli":2866,"Ġsauerkraut":2867,"Ġpret":2868,"Ġplus":2869,"ity":2870,"Ġcapers":2871,"Ġ11":2872,"omeg":2873,"ium":2874,"eriyaki":2875,"vour":2876,"Ġwooden":2877,"Ġcrescent":2878,"Ġzip":2879,"ĠKahlua":2880,"Ġwaf":2881,"Ġchickpeas":2882,"Green":2883,"tils":2884,"omme":2885,"Ġends":2886,"enn":2887,"cous":2888,"ucc":2889,"Ġfilled":2890,"ructions":2891,"isweet":2892,"ĠIi":2893,"ath":2894,"Ġthickness":2895,"oro":2896,"asa":2897,"ĠIrish":2898,"loaf":2899,"Ġtowel":2900,"inner":2901,"unchy":2902,"ĠSandwiches":2903,"Ġturmeric":2904,"Ġserved":2905,"ĠJell":2906,"Ġsemisweet":2907,"Ġchunky":2908,"omegran":2909,"ĠBest":2910,"ising":2911,"Ġdrippings":2912,"Ġpears":2913,"ĠMustard":2914,"Be":2915,"ĠCrumb":2916,"Ġdissolve":2917,"bq":2918,"Ġstyle":2919,"Ġbroken":2920,"Ġthan":2921,"Ġcoloring":2922,"Ġdoneness":2923,"Ġtrans":2924,"ably":2925,"land":2926,"Ġtransfer":2927,"Ġcoup":2928,"Ġrhubarb":2929,"Ġfried":2930,"Ġleaving":2931,"Ġjalapenos":2932,"Ġdissolves":2933,"Ġbegin":2934,"Ġglaze":2935,"ĠVinaigrette":2936,"Ġvinaigrette":2937,"Ġplum":2938,"omegranate":2939,"ER":2940,"Ġjuiced":2941,"Ġbasting":2942,"Ġmild":2943,"Ġcracked":2944,"Ġdipping":2945,"ĠCucumber":2946,"ĠStyle":2947,"Ġchampagne":2948,"Ġalong":2949,"ĠMin":2950,"ft":2951,"Ġ'":2952,"Ġcouple":2953,"safe":2954,"Ġabove":2955,"erbet":2956,"Ġinstructions":2957,"Ġlim":2958,"Ġstr":2959,"Ġunbaked":2960,"ĠChip":2961,"ctive":2962,"Ġdoes":2963,"Ġ500":2964,"No":2965,"ously":2966,"Italian":2967,"usts":2968,"Sal":2969,"ban":2970,"Ġtbsp":2971,"Ġhash":2972,"Ġpulse":2973,"sized":2974,"Ġindividual":2975,"lime":2976,"ower":2977,"Ġboiler":2978,"elbasa":2979,"Cranberry":2980,"uscous":2981,"ence":2982,"itr":2983,"ĠSausage":2984,"Ġyolk":2985,"Corn":2986,"Ġsoften":2987,"ashion":2988,"Ġlimes":2989,"Ġsandwiches":2990,"lash":2991,"ighs":2992,"Ġtight":2993,"Ġaway":2994,"Ġdis":2995,"Ġbrewed":2996,"que":2997,"archment":2998,"Ġcutting":2999,"Ġmuffins":3000,"merican":3001,"presso":3002,"ata":3003,"Ġarrange":3004,"io":3005,"ĠStrawberry":3006,"Ġparchment":3007,"ither":3008,"Ġcrusts":3009,"ĠRoasted":3010,"Ġcashews":3011,".).":3012,"ĠNut":3013,"Ġlentils":3014,"gan":3015,"Ġmeal":3016,"ĠPumpkin":3017,"ĠLo":3018,"Ġmiddle":3019,"Ġusually":3020,"Ġcarefully":3021,"oun":3022,"Ġespresso":3023,"Al":3024,"Ġbeg":3025,"ĠMushrooms":3026,"ĠTuna":3027,"Ġbeating":3028,"Ġchipotle":3029,"Tom":3030,"Ġshallot":3031,"dried":3032,"ĠCrock":3033,"ĠGrilled":3034,"Ġgranu":3035,"the":3036,"ĠSco":3037,"cha":3038,"Ġwhiskey":3039,"ennel":3040,"Ġplates":3041,"proof":3042,"Ġworks":3043,"root":3044,"..":3045,"Ġchees":3046,"any":3047,"Ġbegins":3048,"Ġcy":3049,"Ġsugars":3050,"ĠLay":3051,"armal":3052,"Ġadjust":3053,"ĠWhite":3054,"ĠFrosting":3055,"Ġiron":3056,"wi":3057,"ĠFat":3058,"ĠPecan":3059,"Ġgener":3060,"armalade":3061,"ette":3062,"ama":3063,"Ġdessert":3064,"Ġwaff":3065,"bo":3066,"mm":3067,"iche":3068,"utney":3069,"ealthy":3070,"Ġquarters":3071,"Cheese":3072,"iluted":3073,"issolve":3074,"ĠTurkey":3075,"ĠFudge":3076,"ĠLime":3077,"Ġar":3078,"ilad":3079,"ĠSpice":3080,"Ġwarmed":3081,"Ġsecond":3082,"istach":3083,"Pot":3084,"ĠDissolve":3085,"Ġaltern":3086,"Ġricotta":3087,"Ġcoating":3088,"Ġsqueeze":3089,"Ġkind":3090,"Ġstrong":3091,"Ġsame":3092,"Pe":3093,"atur":3094,"ĠTablespoon":3095,"head":3096,"Ġchest":3097,"verage":3098,"Ġscoops":3099,"Ġcheeses":3100,"oz":3101,"ĠBalls":3102,"rape":3103,"Ġstewed":3104,"ĠCarrots":3105,"Mexican":3106,"cipe":3107,"orm":3108,"ĠCranberry":3109,"ĠPineapple":3110,"irl":3111,"Ġservings":3112,"Ġmost":3113,"plant":3114,"Ġcoleslaw":3115,"atever":3116,"Ġdeli":3117,"dish":3118,"uac":3119,"Ġ180":3120,"ĠJuice":3121,"Pineapple":3122,"add":3123,"eeze":3124,"ahini":3125,"dium":3126,"RE":3127,"oli":3128,"Ġskewers":3129,"Ġroughly":3130,"Ġtins":3131,"ert":3132,"Ġsodium":3133,"ĠFried":3134,"you":3135,"Ġmold":3136,"ĠBlack":3137,"amole":3138,"Ġspring":3139,"Ġdishes":3140,"Ġlook":3141,"Ġdice":3142,"ourbon":3143,"fry":3144,"Ġnice":3145,"cooking":3146,"Ġequal":3147,"risp":3148,"Ġold":3149,"ĠAmerican":3150,"tein":3151,"ummus":3152,"ĠSyrup":3153,"ĠStuff":3154,"Ġpeaks":3155,"Ġincor":3156,"Ġopen":3157,"Ġfit":3158,"Ġfully":3159,"ento":3160,"itz":3161,"nack":3162,"Ġjello":3163,"ths":3164,"ĠTopping":3165,"ummy":3166,"rozen":3167,"Ġste":3168,"ulled":3169,"Ġgranules":3170,"uacamole":3171,"iry":3172,"orous":3173,"Ġright":3174,"Ġinclu":3175,"Ġsafe":3176,"Ġvig":3177,"Homemade":3178,"ĠBreakfast":3179,"itrus":3180,"ieve":3181,"ĠGinger":3182,"drained":3183,"food":3184,"Ġhe":3185,"Mom":3186,"Ġgrate":3187,"Ġdecor":3188,"inely":3189,"Ġfo":3190,"ĠTri":3191,"cover":3192,"Ġchiles":3193,"Ġrolling":3194,"Ġsherbet":3195,"ĠSqueeze":3196,"orously":3197,"min":3198,"Ġspicy":3199,"Spinach":3200,"igg":3201,"ĠCabbage":3202,"Ġadded":3203,"ating":3204,"Ġlik":3205,"artini":3206,"Ġliter":3207,"Ġsoymilk":3208,"atsup":3209,"35":3210,"Ġsimple":3211,"ĠGrand":3212,"ashioned":3213,"Ġlamb":3214,"ssible":3215,"Ġthighs":3216,"Ġpulp":3217,"are":3218,"ĠCur":3219,"Ġspoonfuls":3220,"inese":3221,"alt":3222,"ĠRanch":3223,"ente":3224,"Ġcycle":3225,"Ġvigorously":3226,"BQ":3227,"Ġbul":3228,"rye":3229,"Ġcatsup":3230,"Ġsolid":3231,"heit":3232,"Black":3233,"ĠCooker":3234,"ĠOli":3235,"aff":3236,"Ġcarbon":3237,"ounce":3238,"tender":3239,"ommend":3240,"Fresh":3241,"Ġrye":3242,"iscuits":3243,"ein":3244,"Ġoys":3245,"Ġgoat":3246,"Ġmaker":3247,"Ġcrout":3248,"iut":3249,"Ġrim":3250,"ĠBrussels":3251,"Ġmoistened":3252,"vil":3253,"Ġbl":3254,"Ġpeppermint":3255,"ĠMartini":3256,"Ġcarbonated":3257,"ĠTaste":3258,"Ġbubbles":3259,"Tomato":3260,"Ġduring":3261,"no":3262,"erm":3263,"Ġmarmalade":3264,"Cheesy":3265,"Ġsweetener":3266,"Ġscallion":3267,"Ġoptional":3268,"ĠApples":3269,"raft":3270,"Ġlee":3271,"banzo":3272,"60":3273,"Ġchuck":3274,"ĠRecipe":3275,"aloup":3276,"top":3277,"ĠVanilla":3278,"ĠZucchini":3279,"Ġtast":3280,"erran":3281,"agon":3282,"rispies":3283,"mong":3284,"Ġbagu":3285,"arkling":3286,"iutto":3287,"Ġfennel":3288,"Ġweeks":3289,"ĠCrumble":3290,"qt":3291,"Ġamong":3292,"ingers":3293,"ĠHigh":3294,"Ġwhisking":3295,"Ġremoving":3296,"ested":3297,"Ġdente":3298,"sciutto":3299,"ĠSquash":3300,"Ġradish":3301,"Ġtub":3302,"Ġmakes":3303,"away":3304,"Ġsmoke":3305,"Ġpeppercorn":3306,"Ġfollow":3307,"aster":3308,"Ġunpeeled":3309,"ĠBurgers":3310,"lined":3311,"ĠCon":3312,"ĠCup":3313,"Ġpickles":3314,"Ġbig":3315,"ĠColeslaw":3316,"Ġpancake":3317,"ĠVegetable":3318,"South":3319,"Ġreserving":3320,"Ġim":3321,"Ġcouscous":3322,"inoa":3323,"Ġcaps":3324,"ace":3325,"oo":3326,"Ġahead":3327,"Ġdeve":3328,"Broccoli":3329,"Pumpkin":3330,"ĠOp":3331,"Ġwalnut":3332,"Ġquickly":3333,"aloupe":3334,"Ġcrumbly":3335,"ĠOnions":3336,"Ġpomegranate":3337,"Ġfrench":3338,"oram":3339,"rant":3340,"ĠStew":3341,"Ġfrothy":3342,"Ġcross":3343,"sliced":3344,"ĠWatch":3345,"Ġtossing":3346,"Ġstalk":3347,"ingu":3348,"ĠAn":3349,"ĠSk":3350,"joram":3351,"Ġstarts":3352,"Ġcontainers":3353,"ĠCrust":3354,"Ġpossible":3355,"Ġundiluted":3356,"ailey":3357,"Ġdogs":3358,"Ġtahini":3359,"ĠPeach":3360,"ially":3361,"Ġ,":3362,"ĠCoconut":3363,"ĠHerb":3364,"ugula":3365,"gr":3366,"zels":3367,"Ġstor":3368,"Ġmet":3369,"Ġsparkling":3370,"Ġbeverage":3371,"ico":3372,"more":3373,"Ġits":3374,"ĠScoop":3375,"fred":3376,"Ġwhatever":3377,"vent":3378,"odium":3379,"Ġmarjoram":3380,"ĠJello":3381,"ettucc":3382,"Ġpimento":3383,"ummer":3384,"ĠTaco":3385,"ĠDiscard":3386,"egan":3387,"Ġcrumble":3388,"Ġdiagon":3389,"190":3390,"IG":3391,"fish":3392,"Ġsw":3393,"iento":3394,"ĠOld":3395,"essert":3396,"renheit":3397,"fredo":3398,"met":3399,"Ġcarton":3400,"Ġweek":3401,"Ġchestnuts":3402,"umps":3403,"ĠSeal":3404,"ĠBiscuits":3405,"Ġkiwi":3406,"atural":3407,"Ġscallops":3408,"Ġkielbasa":3409,"Ġfoam":3410,"Egg":3411,"Ġac":3412,"Ġwra":3413,"ĠBBQ":3414,"ĠLi":3415,"White":3416,"Ġbatch":3417,"Fruit":3418,"Ġpar":3419,"Ġhold":3420,"ĠRitz":3421,"ĠOil":3422,"Ġfruits":3423,"Ġbarley":3424,"Ġliking":3425,"As":3426,"ĠCreme":3427,"ĠDrink":3428,"Ġbri":3429,"ĠFresh":3430,"ĠYogurt":3431,"ĠCrisp":3432,"Ġsplash":3433,"wns":3434,"cing":3435,"nier":3436,"Ġgin":3437,"ĠCinnamon":3438,"eade":3439,"Ġreaches":3440,"ara":3441,"roll":3442,"Ġthese":3443,"Ġspat":3444,"Ġeither":3445,"Ġrefried":3446,"Ġdashes":3447,"Ġforms":3448,"Grand":3449,"Ġty":3450,"ĠJo":3451,"Ġsteamed":3452,"Ġwok":3453,"Ġtenderloin":3454,"Ġprevent":3455,"Ġtriang":3456,"Ġapricots":3457,"Cinnamon":3458,"oca":3459,"Ġouts":3460,"ĠSeed":3461,"Ġgingerroot":3462,"Ġtort":3463,"Ġspatula":3464,"luc":3465,"ĠDutch":3466,"oodle":3467,"Ġpressed":3468,"Ġcareful":3469,"Ġparts":3470,"Ġleft":3471,"Ġbaguette":3472,"Mo":3473,"rs":3474,"Ġcant":3475,"Ġtex":3476,"Ġcaraway":3477,"ĠCaref":3478,"Ġtartar":3479,"Ġjul":3480,"berg":3481,"Ġfinish":3482,"Ġtoppings":3483,"ĠLemonade":3484,"ĠSteam":3485,"ĠAsparagus":3486,"ding":3487,"Ġshap":3488,"Ġangel":3489,"approx":3490,"Ġtransluc":3491,"Ġdeveined":3492,"by":3493,"ĠRa":3494,"ĠCrush":3495,"Ġjulien":3496,"ermo":3497,"usages":3498,"Ġjigg":3499,"ĠKrispies":3500,"elbow":3501,"Ġflavour":3502,"coh":3503,"vory":3504,"ĠCris":3505,"Ġtortellini":3506,"Sm":3507,"ond":3508,"Ġsuch":3509,"ryst":3510,"ĠDessert":3511,"ĠMarnier":3512,"ĠUncover":3513,"Ġtranslucent":3514,"ĠCrack":3515,"Ġsteep":3516,"ĠFah":3517,"Ġshred":3518,"Ġmoder":3519,"Ġrecommend":3520,"Bas":3521,"iel":3522,"Ġelbow":3523,"Ġflavoring":3524,"uten":3525,"ĠAmaretto":3526,"etiz":3527,"ĠFla":3528,"Ġcandies":3529,"ĠDelicious":3530,"ĠBaby":3531,"lock":3532,"Ġrunning":3533,"cream":3534,"Ġ\"":3535,"Ġgarbanzo":3536,"Ġpimiento":3537,"Bacon":3538,"ĠFahrenheit":3539,"sugar":3540,"Ġcla":3541,"Ġsix":3542,"Ġbone":3543,"ĠOf":3544,"Ġkernels":3545,"aes":3546,"ik":3547,"Ġshort":3548,"untry":3549,"IGH":3550,"mix":3551,"Ġpou":3552,"Ġpistach":3553,"Ġreserve":3554,"ĠCarefully":3555,"ogh":3556,"Ġreally":3557,"Ġfillet":3558,"ĠDO":3559,"ami":3560,"ĠNo":3561,"Ġcutter":3562,"Ġactive":3563,"Ġcreamer":3564,"aya":3565,"ĠNOTE":3566,"Red":3567,"ition":3568,"Ġeggplant":3569,"ĠLea":3570,"ĠBasil":3571,"Ġbrowns":3572,"ĠMashed":3573,"Ġroot":3574,"Ġrib":3575,"Ġcleaned":3576,"21":3577,"with":3578,"ĠMacaroni":3579,"isted":3580,"ĠCreamy":3581,"Ġgrilled":3582,"sticks":3583,"Super":3584,"Ġpancakes":3585,"Ġkale":3586,"Ġoutside":3587,"oghurt":3588,"Herb":3589,"Ġ0":3590,"reole":3591,"Ġgi":3592,"Ġancho":3593,"ĠSoak":3594,"dobo":3595,"Ġwil":3596,"adle":3597,"ĠWater":3598,"In":3599,"iv":3600,"ala":3601,"Ġgerm":3602,"Ġpretzels":3603,"Ġtexture":3604,"nog":3605,"Ġcir":3606,"Ġteaspoonfuls":3607,"Ġthermo":3608,"ĠCherry":3609,"Ġcroutons":3610,"chilad":3611,"Ġfrost":3612,"Ġhalfway":3613,"Ġpreferred":3614,"kes":3615,"pre":3616,"hey":3617,"ĠPl":3618,"like":3619,"Ġloin":3620,"200":3621,"Fried":3622,"Ġedge":3623,"uth":3624,"rib":3625,"Ġsoak":3626,"ĠRot":3627,"Ġcrunchy":3628,"ouse":3629,"Ġwaffle":3630,"ĠBay":3631,"ĠFish":3632,"ĠCho":3633,"Ġcantaloupe":3634,"Peach":3635,"bro":3636,"bell":3637,"arian":3638,"ĠPam":3639,"Ġtwice":3640,"ĠMeatballs":3641,"ph":3642,"Ġwas":3643,"ines":3644,"Ġwide":3645,"Ġdinner":3646,"ĠFeta":3647,"ĠWheat":3648,"ĠGood":3649,"Ġpeppercorns":3650,"Best":3651,"Blueberry":3652,"My":3653,"ĠSwiss":3654,"ĠDump":3655,"Slow":3656,"Ġwe":3657,"ettuccine":3658,"OY":3659,"rout":3660,"ĠAvocado":3661,"Ġdoll":3662,"Ġoiled":3663,"Ġhazel":3664,"sodium":3665,"Ġmas":3666,"Ġfig":3667,"alam":3668,"Ġlumps":3669,"ĠTe":3670,"ĠGlaze":3671,"meter":3672,"JOY":3673,"NJOY":3674,"OW":3675,"Ġtouch":3676,"ĠPesto":3677,"ĠAdjust":3678,"Ginger":3679,"Â°":3680,"Ġess":3681,"ĠBlue":3682,"Ġcrosswise":3683,"ron":3684,"ĠHIGH":3685,"Ġprotein":3686,"Ġincorporated":3687,"aesar":3688,"Ġown":3689,"alor":3690,"ĠENJOY":3691,"Ġloos":3692,"undt":3693,"Ġwafers":3694,"Ġthermometer":3695,"Ġlisted":3696,"Ġsausages":3697,"Ġbase":3698,"Ġflatten":3699,"ical":3700,"fect":3701,"AT":3702,"rising":3703,"ampbell":3704,"ĠX":3705,"Ġfrag":3706,"ĠWarm":3707,"Ġpureed":3708,"Ġmugs":3709,"ING":3710,"32":3711,"Ve":3712,"ioli":3713,"Ġberry":3714,"ĠBl":3715,"ĠTw":3716,"Ġlower":3717,"cl":3718,"Ġtype":3719,"Ġvari":3720,"ushy":3721,"Ġcornbread":3722,"uld":3723,"except":3724,"*.":3725,"apia":3726,"Ġmeasure":3727,"Ġbottles":3728,"ori":3729,"ĠMeatloaf":3730,"Zucchini":3731,"ĠQuick":3732,"rom":3733,"ors":3734,"Ġrise":3735,"Ġskins":3736,"seed":3737,"An":3738,"Ġteriyaki":3739,"Ġnatural":3740,"Ġblending":3741,"ante":3742,"Ġseparated":3743,"Ġagave":3744,"Greek":3745,"redge":3746,"Ġblackberries":3747,"Ġhighball":3748,"Ġprepare":3749,"Ġlimeade":3750,"rite":3751,"Ġtap":3752,"anish":3753,"reo":3754,"rawns":3755,"ĠBailey":3756,"ĠMint":3757,"Ġshot":3758,"ĠWaln":3759,"Ġprosciutto":3760,"Cherry":3761,"Ġbitters":3762,"ĠMargar":3763,"Potato":3764,"Raspberry":3765,"ob":3766,"ye":3767,"ĠStuffed":3768,"ause":3769,"ping":3770,"Ġtopped":3771,"Ġflip":3772,"Ġsimmering":3773,"Carro":3774,"ltry":3775,"Ġchutney":3776,"ĠFa":3777,"Ġnew":3778,"Cucumber":3779,"Ġster":3780,"Ġwish":3781,"ĠFran":3782,"Ġpackets":3783,"bet":3784,"ease":3785,"ĠMango":3786,"Ġwhich":3787,"Ġrect":3788,"ĠOver":3789,"avender":3790,"Ġpoint":3791,"sorted":3792,"Ġrectang":3793,"Ġassorted":3794,"Coconut":3795,"Ġstrainer":3796,"ality":3797,"ott":3798,"Ġrot":3799,"ĠJack":3800,"Ġent":3801,"Ġ150":3802,"nap":3803,"ĠNow":3804,"Avocado":3805,"Ġhulled":3806,"ĠPick":3807,"okes":3808,"Ġnight":3809,"ĠAlmond":3810,"Ġarugula":3811,"ky":3812,"ross":3813,"ĠSpicy":3814,"Ġpinto":3815,"aved":3816,"Ġsieve":3817,"Ġadobo":3818,"Ġwash":3819,"Ġline":3820,"reau":3821,"Ġ125":3822,"ĠFrit":3823,"ĠBrownies":3824,"ĠCrab":3825,"Ġknead":3826,"Ġthir":3827,"ult":3828,"Shrimp":3829,"Ham":3830,"Ġfries":3831,"alia":3832,"istrib":3833,"Ġmangoes":3834,"Beef":3835,"cup":3836,"ose":3837,"ĠTablespoons":3838,"ĠOlive":3839,"Ġbatches":3840,"Sc":3841,"Tuna":3842,"Ġmicrow":3843,"ĠBarbecue":3844,"org":3845,"rid":3846,"ams":3847,"Ġsmaller":3848,"Ġmoist":3849,"alamata":3850,"vol":3851,"virgin":3852,"your":3853,"rost":3854,"intreau":3855,"Ġbran":3856,"icante":3857,"ank":3858,"Ġtheir":3859,"ĠKn":3860,"pricot":3861,"Ġinstead":3862,"ĠCarrot":3863,"750":3864,"Ġ).":3865,"ĠPeas":3866,"vers":3867,"French":3868,"To":3869,"oat":3870,"ance":3871,"unts":3872,"Ġtwist":3873,"alapeno":3874,"rambled":3875,"Ġlingu":3876,"Ġquinoa":3877,"ways":3878,"Ġgenerously":3879,"ĠPop":3880,"Ġsnipped":3881,"Marin":3882,"ĠSlaw":3883,"Ġcome":3884,"Ġcould":3885,"Ġorzo":3886,"ĠNoodles":3887,"Mango":3888,"ĠCob":3889,"ulse":3890,"Ġmonths":3891,"Ġtoothpicks":3892,"Ġentire":3893,"Ġcoals":3894,"ggie":3895,"ĠOven":3896,"arbe":3897,"Ġmeasuring":3898,"ĠTrim":3899,"zing":3900,"erman":3901,"ĠSnack":3902,"anola":3903,"ĠSepar":3904,"uy":3905,"Ġche":3906,"andy":3907,"ĠOri":3908,"Ġraisin":3909,"che":3910,"ĠSquar":3911,"Ġyoghurt":3912,"ĠGravy":3913,"volone":3914,"grain":3915,"ioca":3916,"may":3917,"ĠBbq":3918,"ĠGran":3919,"CE":3920,"Ġcryst":3921,"Ġfudge":3922,"Ġbottled":3923,"Cur":3924,"Ġrounded":3925,"Ġmetal":3926,"ĠRotel":3927,"dough":3928,"Ġdust":3929,"fl":3930,"Ġthere":3931,"Ġnear":3932,"Ġcorned":3933,"Ġpoultry":3934,"abi":3935,"imp":3936,"Ġspears":3937,"Ġkg":3938,"Ġsmith":3939,"Ġpopped":3940,"Ġfragrant":3941,"ĠBreas":3942,"iano":3943,"Caramel":3944,"Ġmoderate":3945,"Ġdollop":3946,"'re":3947,"70":3948,"orbet":3949,"ĠBar":3950,"ĠDon":3951,"Parmesan":3952,"wes":3953,"igin":3954,"ropical":3955,"Ġboard":3956,"ĠClean":3957,"Grandma":3958,"ĠBerry":3959,"Ġsugg":3960,"ĠCornbread":3961,"rtichokes":3962,"Style":3963,"Ġradishes":3964,"Ġcustard":3965,"Ġbath":3966,"irloin":3967,"Ġportions":3968,"ganic":3969,"ĠCacao":3970,"ĠStart":3971,"Ġgranny":3972,"Ġsprinkles":3973,"Ġ)":3974,"easure":3975,"ĠPulse":3976,"acad":3977,"ĠLeave":3978,"Oven":3979,"Ġtam":3980,"Ġpower":3981,"alib":3982,"ĠDill":3983,"ĠEat":3984,"ĠEver":3985,"ments":3986,"arbeque":3987,"ĠSquares":3988,"diced":3989,"ĠWra":3990,"isket":3991,"ĠFlat":3992,"Del":3993,"Ġgu":3994,"ĠMachine":3995,"IL":3996,"ool":3997,"ĠDice":3998,"ĠLadle":3999,"Ġshelled":4000,"Ġmasher":4001,"ĠFlour":4002,"Ġtry":4003,"ĠSouth":4004,"Ġjigger":4005,"ĠFilling":4006,"Ġbubbling":4007,"Ġwon":4008,"ĠBall":4009,"Ġsalami":4010,"ĠTor":4011,"ginal":4012,"Ġamaretto":4013,"Ġgranola":4014,"ealable":4015,"Ġamounts":4016,"Ġpartially":4017,"bler":4018,"Pepper":4019,"Ġcrea":4020,"ĠDog":4021,"ĠSpaghetti":4022,"ĠSeparate":4023,"iginal":4024,"Maple":4025,"ĠSw":4026,"lesh":4027,"ĠSplit":4028,"ĠSprite":4029,"Brown":4030,"Ġ:":4031,"Ġpod":4032,"idalia":4033,"arsn":4034,"Chili":4035,"ubbed":4036,"Ġeasy":4037,"Ġleeks":4038,"ĠCheesy":4039,"ĠLower":4040,"Free":4041,"salt":4042,"Ġgive":4043,"ĠSimple":4044,"ĠCointreau":4045,"Ġdivide":4046,"Ġsnow":4047,"ĠGlazed":4048,"Ġbecause":4049,"ĠSelect":4050,"ED":4051,"Ġel":4052,"urrit":4053,"ĠWine":4054,"Ġsection":4055,"Ġrose":4056,"Ġsecure":4057,"Pork":4058,"ud":4059,"Ġlump":4060,"Ġ32":4061,"ĠEx":4062,"Ġears":4063,"ĠPack":4064,"Ġseper":4065,"awai":4066,"Ġresealable":4067,"Ġtube":4068,"chilada":4069,"ĠChopped":4070,"ĠMeasure":4071,"melet":4072,"Ġheads":4073,"Ġmarinated":4074,"Ġcolander":4075,"zola":4076,"Ġheaping":4077,"ĠCaramel":4078,"Ġoyster":4079,"Carrot":4080,"ĠCauliflower":4081,"ĠRaspberry":4082,"ĠFood":4083,"Ġconten":4084,"ĠCheesecake":4085,"Ġracks":4086,"Ġdiagonally":4087,"rist":4088,"Ġme":4089,"Ġflesh":4090,"ĠSun":4091,"rais":4092,"ppers":4093,"ffer":4094,"Ġcontin":4095,"Ġseafood":4096,"efore":4097,"Ġprovolone":4098,"Spiced":4099,"errano":4100,"Ġrecommended":4101,"imply":4102,":.":4103,"Ġprawns":4104,"Ġslicing":4105,"ĠChips":4106,"Ġgrilling":4107,"ĠMinute":4108,"Ġmicrowav":4109,"ridger":4110,"rum":4111,"cell":4112,"ĠBrand":4113,"dairy":4114,"ĠAppetiz":4115,"hy":4116,"Ġad":4117,"Ġpier":4118,"Ġcore":4119,"tilled":4120,"ĠWe":4121,"Ġkalamata":4122,"acho":4123,"Ġdoesn":4124,"Vegan":4125,"gs":4126,"oe":4127,"Ġpur":4128,"ana":4129,"Ġstar":4130,"ĠLight":4131,"Ġstrip":4132,"Ġdistilled":4133,"Ġsteril":4134,"frozen":4135,"mas":4136,"Ġaddition":4137,"ershey":4138,"Ġ**":4139,"Ġtapioca":4140,"Ġpk":4141,"ramble":4142,"Ġwafer":4143,"Ġalternately":4144,"ĠCurry":4145,",.":4146,"Ġfettuccine":4147,"ents":4148,"omes":4149,"Ġhel":4150,"ĠSkillet":4151,"!).":4152,"Up":4153,"Ġpenne":4154,"Ġrock":4155,"Ġprocessed":4156,"Ġcaster":4157,"viled":4158,"Ġartichokes":4159,"onzola":4160,"Ġwild":4161,"Ġdistrib":4162,"Ġcrusty":4163,"Ġhair":4164,"Ġtastes":4165,"Ġwilted":4166,"beat":4167,"ĠFinely":4168,"Ġshaved":4169,"Ġramen":4170,"Ġpickled":4171,"ĠMayonnaise":4172,"alorie":4173,"awaiian":4174,"ftened":4175,"utes":4176,"itation":4177,"ĠBlueberry":4178,"ĠRum":4179,"Ġpints":4180,"arty":4181,"Ġloosely":4182,"orgonzola":4183,"Ġseg":4184,"Ġquality":4185,"Ġtriangles":4186,"Ġjulienned":4187,"ondue":4188,"ĠBaileys":4189,"Bread":4190,"Ġsirloin":4191,"ĠDot":4192,"Ġbeet":4193,"Ġclose":4194,"lose":4195,"ecial":4196,"ĠFluff":4197,"Ġpr":4198,"ĠMon":4199,"ĠRel":4200,"Ġgrind":4201,"Ġgranular":4202,"ĠFlatten":4203,"ĠCO":4204,"ĠBefore":4205,"ĠCom":4206,"loppy":4207,"Ġi":4208,"ĠRes":4209,"ĠCooking":4210,"Ġspreading":4211,"Ġclams":4212,"Ġlinguine":4213,"Blue":4214,"Healthy":4215,"Taco":4216,"Ġserrano":4217,"Ġart":4218,"mpty":4219,"ĠRolls":4220,"ext":4221,"Ġpreference":4222,"ĠFlip":4223,"Marinated":4224,"be":4225,"itas":4226,"Ġchip":4227,"used":4228,"Ġrequ":4229,"Ġsections":4230,"Ġpretzel":4231,"24":4232,"Fat":4233,"Ġworcestershire":4234,"ĠJam":4235,"Ġsteamer":4236,"Ġbecomes":4237,"On":4238,"lea":4239,"Ġhus":4240,"ĠPowder":4241,"efly":4242,"ĠOne":4243,"ĠCrisco":4244,"ield":4245,"Veget":4246,"Ġcajun":4247,"Ġav":4248,"Ġpicante":4249,"ĠBalsamic":4250,"Ġ55":4251,"Ġcornfla":4252,"Ġfind":4253,"estle":4254,"Ġstarting":4255,"Ġincluding":4256,"Turkey":4257,"inder":4258,"ĠArtichoke":4259,"iest":4260,"ĠDipping":4261,"Ġblueberry":4262,"ĠFrost":4263,"Ġleftovers":4264,"flour":4265,"Di":4266,"chen":4267,"Ġdutch":4268,"orning":4269,"Can":4270,"\\.":4271,"Ġqt":4272,"atill":4273,"Ġmine":4274,"Ġoriginal":4275,"Ġscr":4276,"ĠRaisin":4277,"bur":4278,"mouth":4279,"Ġbeing":4280,"Ġlarger":4281,"Ġflake":4282,"Ġproof":4283,"ĠAlfredo":4284,"ĠOriginal":4285,"ipotle":4286,"ls":4287,"Â®":4288,"Ġsaff":4289,"ĠRom":4290,"ĠChinese":4291,"assic":4292,"Ġcombin":4293,"ĠDelight":4294,"Ġshapes":4295,"aves":4296,"kins":4297,"Ġtable":4298,"imate":4299,"ified":4300,"uffalo":4301,"tty":4302,"ĠGrate":4303,"Ġsuper":4304,"icle":4305,"ĠCocoa":4306,"ĠIced":4307,"Ġiceberg":4308,"ĠNoodle":4309,"ĠNext":4310,"Sausage":4311,"minced":4312,"ristmas":4313,"Ġ#":4314,"Ġpuff":4315,"ĠFries":4316,"Ġrepeat":4317,"Ġrom":4318,"Stuffed":4319,"butter":4320,"ints":4321,"Ġbaste":4322,"anese":4323,"itchen":4324,"ĠBites":4325,"Ġscrap":4326,"Ġcurd":4327,"icial":4328,"erfect":4329,"Ġpers":4330,"ĠBeer":4331,"Cook":4332,"Ġbriefly":4333,"Ġgiven":4334,"ĠFavorite":4335,"EL":4336,"ants":4337,"kew":4338,"Ġ160":4339,"!!":4340,"De":4341,"Ġburgers":4342,"ancy":4343,"Ġrese":4344,"stir":4345,"Ġfigs":4346,"ios":4347,"ket":4348,"iny":4349,"ĠDry":4350,"Ġcuracao":4351,"Ġstuffed":4352,"ĠPeppers":4353,"affles":4354,"You":4355,"place":4356,"otted":4357,"Ġnic":4358,"ĠOreo":4359,"Ġsoups":4360,"Ġthicker":4361,"Ġdiffer":4362,"Ġscrape":4363,"Ġskewer":4364,"Summer":4365,"don":4366,"mit":4367,"tilla":4368,"ria":4369,"ĠImm":4370,"Ġpreferably":4371,"ussian":4372,"Ġartif":4373,"Rice":4374,"Ġovenproof":4375,"Ġgarnished":4376,"Ġromano":4377,"AR":4378,"Sour":4379,"ava":4380,"asty":4381,"thick":4382,"Ġwhat":4383,"apanese":4384,"Ġpapaya":4385,"Ġliquor":4386,"Ġbagel":4387,"Ġreached":4388,"Ġacross":4389,"Lime":4390,"filled":4391,"Ġind":4392,"Ġsum":4393,"ĠScall":4394,"ĠTender":4395,"Ġpods":4396,"Water":4397,"bits":4398,"Ġfingers":4399,"Ġlavender":4400,"Ġones":4401,"ĠTbsp":4402,"Ġsee":4403,"Ġboxes":4404,"Ġresemb":4405,"If":4406,"Mushroom":4407,"idd":4408,"Ġbarbeque":4409,"ĠSub":4410,"ĠCarb":4411,"ipton":4412,"ĠLOW":4413,"Ġstemmed":4414,"Ġblanch":4415,"Ġartificial":4416,"ibs":4417,"pack":4418,"aro":4419,"ĠCakes":4420,"ellman":4421,"reakfast":4422,"Ġdelicious":4423,"Ġimitation":4424,"ĠKnead":4425,"Ġcontents":4426,"Ġsterilized":4427,"Frozen":4428,"ST":4429,"Sugar":4430,"Ġokra":4431,"ĠCider":4432,"ĠIs":4433,"venly":4434,"Ġpretty":4435,"angria":4436,"oliday":4437,"Ġvermouth":4438,"alibu":4439,"Ġslaw":4440,"ĠPea":4441,"usc":4442,"idbits":4443,"ealth":4444,"Ġdozen":4445,"avings":4446,"loc":4447,"ests":4448,"alm":4449,"alley":4450,"Ġshavings":4451,"ĠImmediately":4452,"Po":4453,"Ġcast":4454,"Ġ36":4455,"Ġorganic":4456,"ety":4457,"amily":4458,"Ġeasier":4459,"Ġbourbon":4460,"Ġyams":4461,"ĠShred":4462,"Ġdijon":4463,"Ġbrisket":4464,"Almond":4465,"cloth":4466,"Ġnicely":4467,"Breakfast":4468,"Ġbundt":4469,"ĠBrie":4470,"ĠGuacamole":4471,"eeps":4472,"ĠCrunch":4473,"iffy":4474,"ca":4475,"hot":4476,"ĠSn":4477,"ĠSec":4478,"Ġsoaked":4479,"shake":4480,"Ġsticky":4481,"ibb":4482,"ĠOpen":4483,"ĠPopcorn":4484,"dew":4485,"olic":4486,"ost":4487,"ugh":4488,"Ġpressing":4489,"Ġdot":4490,"Ġhummus":4491,"Ġna":4492,"Ġrel":4493,"Ġslotted":4494,"Ġcolored":4495,"prefer":4496,"Ġpkg":4497,"ĠReserve":4498,"zy":4499,"Ġtidbits":4500,"Ġ28":4501,"assion":4502,"Ġboils":4503,"Ġremainder":4504,"ĠMargarita":4505,"Vanilla":4506,"cm":4507,"Ġ/":4508,"ĠCola":4509,"Ġingredient":4510,"ĠWalnut":4511,"ON":4512,"Ġgold":4513,"Ġbrowning":4514,"Ġbubble":4515,"Ġmany":4516,"ormick":4517,"Ġessence":4518,"HE":4519,"ruff":4520,"ĠCub":4521,"Ġwithin":4522,"ĠHummus":4523,"shredded":4524,"angy":4525,"arbecu":4526,"Ġbunches":4527,"Ġhoisin":4528,"ĠLoaf":4529,"coholic":4530,"finely":4531,"Ġparsn":4532,"ĠCajun":4533,"ĠMy":4534,"Ġreheat":4535,"ĠHash":4536,"165":4537,"softened":4538,"Ġcirc":4539,"airy":4540,"lings":4541,"Ġgets":4542,"ĠSup":4543,"Ġcour":4544,"ĠIcing":4545,"Ġnow":4546,"ĠDough":4547,"ĠMocha":4548,"Ġanchovy":4549,"Cajun":4550,"Ww":4551,"fried":4552,"via":4553,"oriz":4554,"ĠPound":4555,"ĠAb":4556,"Ġstream":4557,"Ġsomet":4558,"oda":4559,"Ġmolds":4560,"icama":4561,"Ġfran":4562,"Ġlater":4563,"ison":4564,"Ġmince":4565,"Ġdoub":4566,"Salmon":4567,"ĠOptional":4568,"Or":4569,"tal":4570,"ations":4571,"olut":4572,"ĠDust":4573,"ĠDinner":4574,"ĠStick":4575,"Ġturns":4576,"ĠFrom":4577,"Ġtilapia":4578,"Ġbecome":4579,"Ġsprinkled":4580,"medium":4581,"yc":4582,"Ġingred":4583,"uns":4584,"ĠCap":4585,"Ġeggnog":4586,"ĠSprouts":4587,"efrost":4588,"antain":4589,"ĠJoes":4590,"idden":4591,"Cl":4592,"Old":4593,"ĠMel":4594,"amia":4595,"ĠSpiced":4596,"ickpea":4597,"Ġcontinu":4598,"Nut":4599,"ĠBourbon":4600,"idori":4601,"covered":4602,"Ġmargarita":4603,"acadamia":4604,"Delicious":4605,"rog":4606,"Ġlog":4607,"ĠTO":4608,"ĠGreat":4609,"ctly":4610,"Ġkraft":4611,"ĠVinegar":4612,"fait":4613,"white":4614,"usset":4615,"ettes":4616,"ĠRelish":4617,"Ġrequired":4618,"arbecued":4619,"Ġlin":4620,"Ġstarch":4621,"Ġcheesecloth":4622,"ĠRibs":4623,"ĠWaffles":4624,"Ġrimmed":4625,"Smoked":4626,"Basic":4627,"Microwave":4628,"cini":4629,"Ġsilk":4630,"ĠCookie":4631,"Ġdiet":4632,"stitute":4633,"grated":4634,"Ġvariety":4635,"nellini":4636,"ĠHomemade":4637,"Ġsealed":4638,"door":4639,"Ġpistachios":4640,"sk":4641,"Ġpri":4642,"Ġfile":4643,"uty":4644,"Ġhomemade":4645,"ĠAt":4646,"ĠFin":4647,"Ġspir":4648,"Ġtomatill":4649,"ĠOR":4650,"bster":4651,"melted":4652,"depending":4653,"Ġtiny":4654,"Asian":4655,"bury":4656,"tain":4657,"Ġtip":4658,"ero":4659,"Ġpops":4660,"Ġfur":4661,"Ġanise":4662,"Ġsmoothie":4663,"Ġsourdough":4664,"Ġcooling":4665,"esty":4666,"Ġcheck":4667,"orizo":4668,"Apricot":4669,"luten":4670,"Ġtots":4671,"ĠIngredien":4672,"ental":4673,"pepper":4674,"Ġheart":4675,"from":4676,"arge":4677,"ito":4678,"ills":4679,"Ġgrinder":4680,"Ġbutton":4681,"ĠThai":4682,"ĠSteaks":4683,"ĠCobbler":4684,"time":4685,"Ġcakes":4686,"utee":4687,"orseradish":4688,"ĠPar":4689,"chi":4690,"Ġrusset":4691,"Ġflame":4692,"ĠGrind":4693,"ĠAltern":4694,"Ġbrushing":4695,"Ġportion":4696,"Ġirish":4697,"Ġfollowing":4698,"Ġstored":4699,"Yummy":4700,"crease":4701,"her":4702,"Ġsift":4703,"Ġfe":4704,"this":4705,"ĠWings":4706,"ipes":4707,"ought":4708,"Ġpock":4709,"Ġseperate":4710,"For":4711,"Glazed":4712,"carp":4713,"Ġ@":4714,"Ġten":4715,"Ġbrie":4716,"Ġpull":4717,"ĠMaple":4718,"ĠSpanish":4719,"ĠNew":4720,"ĠThese":4721,"ĠThaw":4722,"Ġbreakfast":4723,"Ġcornflakes":4724,"AL":4725,"Ġpuffed":4726,"Ġguacamole":4727,"ĠSea":4728,"urst":4729,"ĠClose":4730,"ĠDredge":4731,"adian":4732,"ĠGround":4733,"carpone":4734,"AK":4735,"Berry":4736,"LE":4737,"ever":4738,"ties":4739,"Ġbed":4740,"garlic":4741,"ĠFlo":4742,"ago":4743,"ananas":4744,"ĠThin":4745,"ĠRosemary":4746,"Crab":4747,"ĠStuffing":4748,"Ġsaffron":4749,"ritional":4750,"Ġtail":4751,"ati":4752,"Ġbrownie":4753,"amels":4754,"ĠLa":4755,"Ġcreate":4756,"Ġperson":4757,"Ġdifferent":4758,"oid":4759,"Ġchow":4760,"ĠCampbell":4761,"iso":4762,"ĠBaste":4763,"Ġring":4764,"ĠChowder":4765,"Ġhandle":4766,"Crisp":4767,"sed":4768,"Ġbla":4769,"Ġfast":4770,"porate":4771,"Ġtrays":4772,"Mar":4773,"Ġcitrus":4774,"Ġtough":4775,"ĠWill":4776,"oped":4777,"ĠYour":4778,"exas":4779,"Ġsprinkling":4780,"ĠPecans":4781,"Southern":4782,"Ġfoamy":4783,"ĠBreasts":4784,"ĠSouthern":4785,"Ġblanched":4786,"All":4787,"Balsamic":4788,"Oatmeal":4789,"aque":4790,"rise":4791,"Ġwatch":4792,"Ġsaltine":4793,"thaw":4794,"Ġlegs":4795,"ctin":4796,"easoned":4797,"Ġhoneydew":4798,"Ġbasket":4799,"ĠMozzarella":4800,"Ġoysters":4801,"Ġsuggested":4802,"Dried":4803,"OR":4804,"blend":4805,"ko":4806,"icum":4807,"Ġoils":4808,"ĠHellman":4809,"Ġgluten":4810,"Ġbasic":4811,"ĠNuts":4812,"ambord":4813,"Curried":4814,"rumsticks":4815,"Ġfilets":4816,"enison":4817,"atte":4818,"Ġdump":4819,"pends":4820,"ĠAsian":4821,"Saute":4822,"Ġbulk":4823,"beaten":4824,"Ġfurther":4825,"water":4826,"eak":4827,"leu":4828,"ĠBaking":4829,"parent":4830,"Ġpressure":4831,"ĠScrape":4832,"riend":4833,"Watermelon":4834,"ĠCandy":4835,"ĠShort":4836,"Ġloaves":4837,"ign":4838,"eribs":4839,"Ġholes":4840,"Ġfitting":4841,"Onion":4842,"thawed":4843,"46":4844,"Tropical":4845,"fine":4846,"fort":4847,"ler":4848,"Ġomit":4849,"ĠDream":4850,"Ġslushy":4851,"ersion":4852,"Ġchilli":4853,"Ġpatty":4854,"Ġopaque":4855,"ĠFrozen":4856,"ottage":4857,"Ġsegments":4858,"Sun":4859,"Ġlink":4860,"ĠSoy":4861,"Ġpectin":4862,"Ġfair":4863,"Ġtransparent":4864,"preferably":4865,"Meat":4866,"NOT":4867,"Pasta":4868,"VE":4869,"We":4870,"ax":4871,"Ġtie":4872,"Ġmort":4873,"ĠSesame":4874,"thin":4875,"Ġenchilada":4876,"ĠQuiche":4877,"ĠCheck":4878,"Re":4879,"Ġsorbet":4880,"ĠShe":4881,"rad":4882,"eseed":4883,"Ġbutternut":4884,"Ġshaking":4885,"semb":4886,"Ġvegan":4887,"Ġoutdoor":4888,"ĠVegetables":4889,"ĠQues":4890,"Ġdoubled":4891,"Ġmein":4892,"ane":4893,"ald":4894,"ĠMc":4895,"ĠChampagne":4896,"Ġkettle":4897,"ousse":4898,"ĠCups":4899,"Sauteed":4900,"ND":4901,"areribs":4902,"Ġchar":4903,"Ġhole":4904,"ĠMed":4905,"ĠHamburger":4906,"ults":4907,"Ġsticking":4908,"Ġspoonful":4909,"gelico":4910,"ively":4911,"ĠWraps":4912,"Ġpurple":4913,"see":4914,"Ġtater":4915,"rey":4916,"ĠSoda":4917,"ĠCat":4918,"ĠPuff":4919,"Ġthink":4920,"ĠDec":4921,"ouble":4922,"ĠMixture":4923,"ĠWhole":4924,"Ġmeatloaf":4925,"Ġcroiss":4926,"Ġmoisture":4927,"Asparagus":4928,"Ġscrubbed":4929,"uces":4930,"Ġcreole":4931,"Ġ19":4932,"Ġfinger":4933,"Ġalways":4934,"Ġprod":4935,"Ġbeginning":4936,"cohol":4937,"ĠTortilla":4938,"Ġscraping":4939,"Ġfairly":4940,"ona":4941,"Ġbow":4942,"entil":4943,"ĠSummer":4944,"Ġsuit":4945,"ĠDish":4946,"berally":4947,"Ġcaramels":4948,"Ġliters":4949,"ĠThread":4950,"Ġgenerous":4951,"UT":4952,"ĠPr":4953,"ĠMousse":4954,"imum":4955,"Ġcannellini":4956,"eyed":4957,"ĠLipton":4958,"ameter":4959,"Ġskinned":4960,"hetta":4961,"ĠCondensed":4962,"Ġfinished":4963,"Ġpistachio":4964,"Ġprior":4965,"Light":4966,"Pizza":4967,"Ranch":4968,"Ġtoaster":4969,"ĠPops":4970,"reats":4971,"Ġstring":4972,"Ġfluff":4973,"Ġsplenda":4974,"enta":4975,"anoff":4976,"Ġrame":4977,"Ġchia":4978,"Ġsmashed":4979,"ĠPatties":4980,"Ġsteel":4981,"raisins":4982,"fused":4983,"Ġmill":4984,"iterran":4985,"asiest":4986,"ĠChutney":4987,"Ġrefridger":4988,"eltzer":4989,"Ġbones":4990,"loss":4991,"Ġwasabi":4992,"wesome":4993,"Ġhelp":4994,"ycat":4995,"iterranean":4996,"400":4997,"SS":4998,"ĠServes":4999,"aban":5000,"abella":5001,"ĠBatter":5002,"olish":5003,"enthe":5004,"Ġ90":5005,"ĠKraft":5006,"Ġdiameter":5007,"Ġcandied":5008,"Ġbarely":5009,"Ġthirds":5010,"AD":5011,"Fl":5012,"oot":5013,"ret":5014,"itos":5015,"abag":5016,"ĠMidori":5017,"monds":5018,"Ġflower":5019,"ĠSpecial":5020,"Ġcovering":5021,"ĠJiffy":5022,"ĠKaro":5023,"uddle":5024,"ĠAbout":5025,"ĠFloat":5026,"'ll":5027,"Ġburger":5028,"Ġok":5029,"Ġmors":5030,"ĠScr":5031,"ĠBo":5032,"derful":5033,"ĠGo":5034,"pec":5035,"Ġrav":5036,"port":5037,"Ġavoid":5038,")),":5039,"Bake":5040,"Sesame":5041,"Ġcob":5042,"Ġstage":5043,"amame":5044,"ĠHa":5045,"Ġcolby":5046,"Savory":5047,"Thai":5048,"Ġdecorate":5049,"Ġleek":5050,"Ġcapsicum":5051,"Basil":5052,"Ġhazelnuts":5053,"Ġelse":5054,"uschetta":5055,"my":5056,"Ġcm":5057,"Ġcall":5058,"Ġsnack":5059,"Ġseltzer":5060,"ering":5061,"Ġfashioned":5062,"Ġrotini":5063,"ĠVari":5064,"----":5065,"Ġpimentos":5066,"Ġhazelnut":5067,"Ġlumpy":5068,"Ġravioli":5069,"Br":5070,"Mustard":5071,"dr":5072,"Ġach":5073,"ndian":5074,"Ġvidalia":5075,"erving":5076,"Ġmoisten":5077,"ĠSeasoned":5078,"Coffee":5079,"Ġtasty":5080,"Ġrotel":5081,"ĠIsland":5082,"dy":5083,"Ġsnap":5084,"ilable":5085,"until":5086,"Ġchoy":5087,"olenta":5088,"Ġspiced":5089,"ĠStirring":5090,"Ġbagels":5091,"Ġquite":5092,"ĠMarinated":5093,"Ġmonth":5094,"Ġincrease":5095,"brown":5096,"Ġliners":5097,"Citrus":5098,"Mix":5099,"Pan":5100,"Warm":5101,"gy":5102,"Ġtakes":5103,"Ġem":5104,"Ġeight":5105,"ushed":5106,"arden":5107,"ĠHershey":5108,"Ġmeld":5109,"Ġdesire":5110,"ached":5111,"Chinese":5112,"ĠSlush":5113,"ternal":5114,"17":5115,"Ori":5116,"iago":5117,"Ġtips":5118,"ative":5119,"Ġcountry":5120,"ĠPh":5121,"Ġovercook":5122,"Ġlevel":5123,"Ġgrits":5124,"ĠChambord":5125,"ĠCooler":5126,"Ġhandful":5127,"Buttermilk":5128,"Ġsummer":5129,"skim":5130,"Ġinter":5131,"ĠParty":5132,"Ġeye":5133,"ĠLamb":5134,"Ġplantain":5135,"Ġswirl":5136,"Ġresembles":5137,"lossom":5138,"PT":5139,"ti":5140,"eable":5141,"Ġmat":5142,"ilaf":5143,"Ġgone":5144,"Ġglazed":5145,"Ġflank":5146,"Ġliver":5147,"rants":5148,"ĠShredded":5149,"ĠSof":5150,"Ġcrystals":5151,"ĠAppetizer":5152,"Pink":5153,"pid":5154,"Ġmatch":5155,"anger":5156,"ĠBowl":5157,"elli":5158,"umbo":5159,"Ġziplock":5160,"Ġwaffles":5161,"Ġtamari":5162,"ĠTenderloin":5163,"Ġblade":5164,"Ġmortar":5165,"Cormick":5166,"ez":5167,"ect":5168,"Ġlots":5169,"Ġunbl":5170,"racha":5171,"ĠTeriyaki":5172,"ardi":5173,"Ġlove":5174,"Ġmarinara":5175,"Ġcolour":5176,"ather":5177,"ĠLiqu":5178,"illsbury":5179,"Ġole":5180,"Ġfire":5181,"utabag":5182,"ĠSangria":5183,"Ġcloth":5184,"Ġharden":5185,"ĠAlso":5186,"ĠStrawberries":5187,"ĠSmith":5188,"ĠApplesauce":5189,"ĠFrangelico":5190,"Ġrectangle":5191,"ĠSubstitute":5192,"cress":5193,"mati":5194,"uk":5195,"unky":5196,"ĠCaesar":5197,"riracha":5198,"Ġflow":5199,"ĠHal":5200,"ĠWhipped":5201,"ĠThey":5202,"phia":5203,"Ġcircles":5204,"Crispy":5205,"App":5206,"fal":5207,"hod":5208,"sour":5209,"Ġbok":5210,"Ġtoffee":5211,"abet":5212,"Ġ48":5213,"Ġnorm":5214,"eached":5215,"enty":5216,"Ġcrumbles":5217,"Ġthroughout":5218,"Ġanything":5219,"ĠUnroll":5220,"Whole":5221,"Crunchy":5222,"ĠChex":5223,"Pecan":5224,"Ġlooks":5225,"Ġmascarpone":5226,"Ġ:).":5227,"**":5228,"Japanese":5229,"Pesto":5230,"Perfect":5231,"Zesty":5232,"over":5233,"Ġmacadamia":5234,"alif":5235,"Ġcoll":5236,"ĠPear":5237,"lam":5238,"Ġjell":5239,"Ġsoap":5240,"ĠTart":5241,"crisp":5242,"ĠMilkshake":5243,"cello":5244,"Aunt":5245,"hn":5246,"Ġcent":5247,"Ġmorning":5248,"elphia":5249,"ĠBran":5250,"ĠTear":5251,"ĠDay":5252,"ĠChile":5253,"Ġdirectly":5254,"Ġsmok":5255,"Ġfilter":5256,"Ġparty":5257,"Ġprun":5258,"AKE":5259,"Ar":5260,"car":5261,"ielbasa":5262,"Ġtbs":5263,"Ġpassion":5264,"ans":5265,"raiche":5266,"ird":5267,"Ġseem":5268,"marula":5269,"Ġburning":5270,"Ġziploc":5271,"Ġrelease":5272,"Ġparsnips":5273,"Ġoleo":5274,"Hawaiian":5275,"green":5276,"yes":5277,"ĠSloppy":5278,"ashew":5279,"Ġjicama":5280,"ĠOmelet":5281,"ĠVegan":5282,"ĠButtermilk":5283,"Salsa":5284,"Ġdistribute":5285,"packed":5286,"ĠSoften":5287,"350":5288,"ius":5289,"esh":5290,"Ġmight":5291,"Ġmenthe":5292,"Ġinternal":5293,"Ġcount":5294,"irt":5295,"Ġjug":5296,"ĠDash":5297,"ĠIncrease":5298,"Ġke":5299,"ĠNot":5300,"ĠJalapeno":5301,"Ġnutritional":5302,"Ġbottoms":5303,"crushed":5304,"Ġcurrants":5305,"ortellini":5306,"Rosemary":5307,"urrito":5308,"hydr":5309,"ĠColada":5310,"roganoff":5311,"Ġspiral":5312,"aliforn":5313,"German":5314,"HI":5315,"illy":5316,"ory":5317,"Ġhollow":5318,"irin":5319,"ĠMI":5320,"ĠInsert":5321,"iladelphia":5322,"Bbq":5323,"LY":5324,"OU":5325,"RA":5326,"Ġed":5327,"Ġton":5328,"Ġdefrost":5329,"ĠCilantro":5330,"olog":5331,"Ġheating":5332,"ominy":5333,"Ġrapid":5334,"Ġresults":5335,"Ġsubstituted":5336,"ĠVeggie":5337,"Herbed":5338,"Ġmorsels":5339,"Jalapeno":5340,"Ġcacao":5341,"Ġsavory":5342,"Ġrising":5343,"ĠLatte":5344,"Ġalcohol":5345,"agna":5346,"vourite":5347,"Ġfrosted":5348,"Ġunbleached":5349,"alifornia":5350,"small":5351,"ux":5352,"Ġear":5353,"Ġcav":5354,"Ġbel":5355,"Ġbark":5356,"Ġlite":5357,"real":5358,"Ġoverla":5359,"Ġspear":5360,"ĠVodka":5361,"Ġstep":5362,"Vegetable":5363,"Ġsuperfine":5364,");":5365,"29":5366,"Min":5367,"Mint":5368,"obs":5369,"Ġdrumsticks":5370,"Ġlot":5371,"ĠCustard":5372,"ĠAr":5373,"ĠMan":5374,"moncello":5375,"Ġblackberry":5376,"ential":5377,"Ġliberally":5378,"ĠEvenly":5379,"Ġplacing":5380,"Ġfavourite":5381,"ĠAlmonds":5382,"Ġcircle":5383,"Ġtomatillos":5384,"semble":5385,"Aid":5386,"Sn":5387,"Un":5388,"Yogurt":5389,"orange":5390,"ĠST":5391,"Ġhrs":5392,"Ġtablespoonfuls":5393,"ĠBananas":5394,"ready":5395,"Ġseven":5396,"Ġcornflour":5397,"uls":5398,"Ġwait":5399,"ĠScramble":5400,"Ġeating":5401,"Ġbrine":5402,"Ġdiagonal":5403,"Ġflavours":5404,"Ġcombination":5405,"ĠMcCormick":5406,"ĠScrub":5407,"26":5408,"Med":5409,"Raw":5410,"ipping":5411,"Ġsave":5412,"mber":5413,"Ġkiss":5414,"eets":5415,"Ġalfredo":5416,"tta":5417,"Ġthinner":5418,"Ġsoya":5419,"Ġthroughly":5420,"Cheddar":5421,"awry":5422,"ĠGraham":5423,"ĠDeviled":5424,"Ġpearl":5425,"ĠBasic":5426,"Ġplums":5427,"Ġlima":5428,"Ġinclude":5429,"Ġwrapped":5430,"Ġpimientos":5431,"En":5432,"ittle":5433,"urp":5434,"armig":5435,"180":5436,"Ġbright":5437,"seeded":5438,"ibbean":5439,"AM":5440,"Iced":5441,"Mini":5442,"dry":5443,"uf":5444,"zes":5445,"Ġrough":5446,"Ġpestle":5447,"Ġtotal":5448,"Ġdid":5449,"ĠCore":5450,"ĠStroganoff":5451,"Ġkitchen":5452,"Ġtenders":5453,"ĠYield":5454,"Ġrunny":5455,"hewy":5456,"Ġcaramelized":5457,"ĠCrackers":5458,"ĠComfort":5459,"Classic":5460,"tuce":5461,"Ġsil":5462,"Ġbbq":5463,"Ġmound":5464,"icer":5465,"Ġminimum":5466,"ĠBag":5467,"Ġspreadable":5468,"Ġveggie":5469,"...":5470,"ĠWatchers":5471,"ĠExtra":5472,"leaf":5473,"abanero":5474,"Artichoke":5475,"bake":5476,"cub":5477,"ock":5478,"Ġiced":5479,"Ġfall":5480,"Ġlg":5481,"Ġcod":5482,"rapped":5483,"Ġvary":5484,"iesta":5485,"reeze":5486,"agie":5487,"ĠIii":5488,"Beer":5489,"Ġbittersweet":5490,"ĠMonterey":5491,"ealthier":5492,"Ġemuls":5493,"Hamburger":5494,"ground":5495,"iri":5496,"Ġwhe":5497,"Ġdredge":5498,"ĠPilaf":5499,"Ġthickly":5500,"ernick":5501,"Ġnearly":5502,"Do":5503,"fashioned":5504,"vals":5505,"Ġdrizz":5506,"ĠTreats":5507,"nac":5508,"ĠGerman":5509,"Ġcond":5510,"ĠHealthy":5511,"ĠHouse":5512,"ĠEX":5513,"Ġnote":5514,"Ġ750":5515,"ĠPret":5516,"uccino":5517,"ĠTwo":5518,"Ġmicrowavable":5519,"ĠĠ":5520,"oncini":5521,"Ġmussels":5522,"anks":5523,"oritos":5524,"arsely":5525,"umpernick":5526,"Ġliquids":5527,"Ġsometimes":5528,"ĠDecor":5529,"Mediterranean":5530,".\"":5531,"Cauliflower":5532,"New":5533,"Ġ75":5534,"Ġcupcake":5535,"rex":5536,"ĠMalibu":5537,"ĠTip":5538,"Ġfloat":5539,"ĠJelly":5540,"Ġhoriz":5541,"Ġparfait":5542,"eringue":5543,"'m":5544,"'ve":5545,"Rhubarb":5546,"fit":5547,"mine":5548,"sure":5549,"Ġsim":5550,"Ġ275":5551,"Ġchorizo":5552,"ĠCelery":5553,"ister":5554,"ourmet":5555,"lain":5556,"lices":5557,"Ġthread":5558,"allow":5559,"ccan":5560,"regular":5561,"Ġdepends":5562,"Ġtrim":5563,"Ġrecipes":5564,"Ġending":5565,"Ġdiscarding":5566,"einz":5567,"approximately":5568,"ĠDogs":5569,"Ġhorizont":5570,"Sk":5571,"gnac":5572,"Ġtest":5573,"Ġmiso":5574,"alina":5575,"Ġgro":5576,"asagna":5577,"reactive":5578,"Ġwatercress":5579,"ĠKool":5580,"Ġsizz":5581,"mazing":5582,"ĠSmoked":5583,"Ġstovetop":5584,"Ġsteaming":5585,"raditional":5586,"ologna":5587,"NT":5588,"Sw":5589,"ju":5590,"west":5591,"yrex":5592,"inter":5593,"ilit":5594,"ĠBrew":5595,"Ġspareribs":5596,"Ġcutlets":5597,"ĠUp":5598,"ĠYummy":5599,"ĠThrow":5600,"Ġinsert":5601,"abetic":5602,"Ġcentre":5603,"Gluten":5604,"edish":5605,"Ġfar":5606,"rees":5607,"abobs":5608,"ĠRussian":5609,"oul":5610,"Ġappear":5611,"Ġseam":5612,"Ġjulienne":5613,"Ġessential":5614,"umpernickel":5615,"Add":5616,"Ġwont":5617,"unter":5618,"Ġstone":5619,"ĠFir":5620,"Ġsprout":5621,"Ġpanko":5622,"eftover":5623,"Ġhalib":5624,"Ġvegetarian":5625,"Chipotle":5626,"bsolut":5627,"loins":5628,"Ġlids":5629,"ival":5630,"Ġweight":5631,"Ġrocks":5632,"Ġhalibut":5633,"55":5634,"Tasty":5635,"Ġhealthy":5636,"ased":5637,"ĠBell":5638,"reserve":5639,"Ġsoon":5640,"Ġ80":5641,"ĠCooked":5642,"agic":5643,"ĠWhiz":5644,"Ġfryer":5645,"Ġconfectioner":5646,"Ġburner":5647,"ĠCrisps":5648,"ĠGranny":5649,"CEPT":5650,"Ġhusks":5651,"Ġcre":5652,"Ġsna":5653,"Ġpor":5654,"Ġfamily":5655,"ady":5656,"Ġscrambled":5657,"Ġsauteed":5658,"ĠScrambled":5659,"Ġhoagie":5660,"Ġsolids":5661,"Ġtriangle":5662,"Ġshaped":5663,"Ġmicrowaveable":5664,"Ġpopsicle":5665,"Ġflowers":5666,"made":5667,"pes":5668,"Ġpalm":5669,"ilar":5670,"Ġfondue":5671,"Ġfraiche":5672,"atel":5673,"unk":5674,"Ġforks":5675,"ĠMac":5676,"ggies":5677,"thern":5678,"Ġglo":5679,"canned":5680,"Ġconsomme":5681,"Ġseparately":5682,"ĠGrape":5683,"ĠGreens":5684,"Ġincorporate":5685,"Ġlinks":5686,"Ġintervals":5687,"220":5688,"Pick":5689,"Ġite":5690,"Ġcaesar":5691,"Ġava":5692,"Ġmushy":5693,"orch":5694,"orthern":5695,"abel":5696,"ĠCoke":5697,"isco":5698,"vert":5699,"ĠAmarula":5700,"ĠCouscous":5701,"Ġbreads":5702,"Ġslit":5703,"iants":5704,"Ġmeats":5705,"ĠBrowns":5706,"ĠCanadian":5707,"Ġvers":5708,"ĠSupreme":5709,"Ġcourse":5710,"ĠDecorate":5711,"Ab":5712,"Non":5713,"Ra":5714,"Te":5715,"ware":5716,"arter":5717,"ani":5718,"ung":5719,"ĠCitrus":5720,"usand":5721,"Ġisland":5722,"heated":5723,"andied":5724,"ĠLettuce":5725,"Ġthousand":5726,"etti":5727,"ĠOlives":5728,"ĠTacos":5729,"Ġfrank":5730,"Ġtails":5731,"Oriental":5732,"deg":5733,"Ġcat":5734,"ically":5735,"ura":5736,"ĠMrs":5737,"ĠRun":5738,"ĠGrap":5739,"ĠVery":5740,"ĠYum":5741,"arines":5742,"ĠGratin":5743,"ĠCracker":5744,"ĠThinly":5745,"Ġedamame":5746,"armigiano":5747,"Ġavailable":5748,"250":5749,"Golden":5750,"Holiday":5751,"Pl":5752,"UM":5753,"cheese":5754,"ep":5755,"iber":5756,"large":5757,"inds":5758,"Ġ17":5759,"Ġmirin":5760,"Ġlu":5761,"ĠBundt":5762,"Ġempty":5763,"Ġthough":5764,"ients":5765,"Ġnacho":5766,"Ġpouring":5767,"Ġstop":5768,"ĠThat":5769,"Ġbreaking":5770,"Ġfollowed":5771,"Ġstorage":5772,"urritos":5773,"Ġpierced":5774,"Ġhorizontally":5775,"So":5776,"Tangy":5777,"VER":5778,"pen":5779,"ilapia":5780,"Ġunflavored":5781,"Ġcooks":5782,"ĠDeep":5783,"Ġflute":5784,"Christmas":5785,"Ġlobster":5786,"Ġface":5787,"ĠScatter":5788,"This":5789,"RESS":5790,"Ġmasala":5791,"Scall":5792,"Ġramekins":5793,"Sea":5794,"erk":5795,"Ġblossom":5796,"ures":5797,"iment":5798,"Ġnoodle":5799,"Ġlard":5800,"ĠSauerkraut":5801,"ption":5802,"Ġraising":5803,"amous":5804,"ĠFritos":5805,"Ġingrediants":5806,"Ġsilken":5807,"ĠHellmann":5808,"ĠPuffs":5809,"Ġmatzo":5810,"150":5811,"light":5812,"wrap":5813,"Ġam":5814,"ĠFarm":5815,"adill":5816,"color":5817,"oody":5818,"ĠEmpty":5819,"acaro":5820,"Ġstevia":5821,"Ġkept":5822,"fitting":5823,"Swiss":5824,"oroughly":5825,"ues":5826,"Ġid":5827,"ĠSkew":5828,"ram":5829,"Ġsult":5830,"Ġpepperoncini":5831,"Ġvenison":5832,"Ġchickens":5833,"Ġatt":5834,"ĠGall":5835,"ĠHorseradish":5836,"Ġrims":5837,"ĠKeeps":5838,"Ġequally":5839,"Ġpocket":5840,"Ġplantains":5841,"ĠEXCEPT":5842,"RESSING":5843,"aine":5844,"ha":5845,"wurst":5846,"Ġbought":5847,"ĠAcc":5848,"ĠDRESSING":5849,"ĠFil":5850,"ĠFashioned":5851,"ĠGoat":5852,"aged":5853,"Crust":5854,"added":5855,"western":5856,"'d":5857,"Cabbage":5858,"Teriyaki":5859,"gur":5860,"vance":5861,"Ġtbl":5862,"Ġmult":5863,"ĠSimply":5864,"asts":5865,"Ġcognac":5866,"Ġpet":5867,"ĠFondue":5868,"Ġrutabag":5869,"odi":5870,"Ġdipped":5871,"ĠThoroughly":5872,"appuccino":5873,"ĠWalnuts":5874,"Weight":5875,"ĠHalve":5876,"Ġsimilar":5877,"%)":5878,"Barbecue":5879,"Tw":5880,"house":5881,"jito":5882,"vies":5883,"čĊ":5884,"Ġsake":5885,"roasted":5886,"Ġgorgonzola":5887,"Ġ22":5888,"ĠSlices":5889,"ĠAu":5890,"ĠMas":5891,"ada":5892,"ĠSteep":5893,"ĠLentil":5894,"ĠHalf":5895,"eek":5896,"ĠOats":5897,"Ġbasmati":5898,"Ġsalads":5899,"Ġdevelop":5900,"Alcoholic":5901,"Ġcontinuously":5902,"ufch":5903,"Awesome":5904,"DD":5905,"La":5906,"Ġblock":5907,"Ġmot":5908,"atively":5909,"ĠCreole":5910,"Ġcounter":5911,"gets":5912,"ĠPort":5913,"ĠApricot":5914,"olina":5915,"ĠTbs":5916,"ĠFollow":5917,"ouda":5918,"Ġslits":5919,"Ġtenderloins":5920,"Ġendive":5921,"ĠProtein":5922,"Stir":5923,"Ġfloret":5924,"ltimate":5925,"Ġmostly":5926,"ĠFlavor":5927,"Ġadvance":5928,"uxe":5929,"Ġbelow":5930,"ufchatel":5931,"Hear":5932,"Irish":5933,"OL":5934,"Ref":5935,"act":5936,"ike":5937,"wheat":5938,"Ġ;":5939,"Ġcraisins":5940,"onion":5941,"urg":5942,"Ġhominy":5943,"ĠPap":5944,"ĠTHE":5945,"qual":5946,"Ġrich":5947,"Ġlock":5948,"Ġdec":5949,"ĠYellow":5950,"zelnut":5951,"ĠSnow":5952,"ĠShell":5953,"ĠCatalina":5954,"iliter":5955,"odiva":5956,"One":5957,"Pear":5958,"calorie":5959,"uds":5960,"Ġpush":5961,"icles":5962,"cetta":5963,"ised":5964,"ĠPer":5965,"ĠBon":5966,"Ġveal":5967,"Ġreplace":5968,"ĠHeinz":5969,"ĠKiss":5970,"Ġhardboiled":5971,"Cool":5972,"Ġnectarines":5973,"Ġportabella":5974,"ĠSmok":5975,"ĠPoints":5976,"ĠMince":5977,"istachio":5978,"Ġthird":5979,"ĠIngredients":5980,"LA":5981,"bow":5982,"bone":5983,"lemon":5984,"ĠSliced":5985,"ĠBeets":5986,"Ġformed":5987,"Ġmixes":5988,"ĠMarshmallow":5989,"ggiano":5990,"Ġcane":5991,"ĠWork":5992,"ĠGorgonzola":5993,"achos":5994,"Ġturnips":5995,"Ġuncover":5996,"Ġfrypan":5997,"Ġzesty":5998,"ĠRose":5999,"untain":6000,"Ġclam":6001,"Ġnavel":6002,"Cilantro":6003,"Ġtested":6004,"Ġatop":6005,"Ġpolenta":6006,"Ġmace":6007,"Ġdate":6008,"ĠSorbet":6009,"ured":6010,"Ġyet":6011,"ounder":6012,"Ġveg":6013,"elsius":6014,"Ġques":6015,"whole":6016,"Country":6017,"form":6018,"ĠPancake":6019,"Butterscotch":6020,"Ġmethod":6021,"ĠCube":6022,"Ġcalled":6023,"Ġwonton":6024,".,":6025,"Che":6026,"Ice":6027,"Macaroni":6028,"Texas":6029,"non":6030,"Ġomelet":6031,"Ġmalt":6032,"Ġfun":6033,"ĠPink":6034,"ours":6035,"ĠBurger":6036,"ĠADD":6037,"ĠCole":6038,"ĠDoritos":6039,"ĠWedges":6040,"omet":6041,"ĠHer":6042,"ĠReheat":6043,"Ġscramble":6044,"uggets":6045,"Spaghetti":6046,"iki":6047,"ĠMIX":6048,"Mashed":6049,"az":6050,"ged":6051,"uct":6052,"iled":6053,"att":6054,"raight":6055,"ĠBy":6056,"Ġstain":6057,"ids":6058,"ĠRhubarb":6059,"Ġspace":6060,"ĠChristmas":6061,"Ġusual":6062,"Ġenglish":6063,"Creamed":6064,"aiqu":6065,"Ġalternating":6066,"ĠTwist":6067,"portant":6068,"ukon":6069,"Gran":6070,"Very":6071,"clu":6072,"ince":6073,"orr":6074,"ĠBel":6075,"Ġbrownies":6076,"ĠChipotle":6077,"agle":6078,"Ġ70":6079,"Ġthose":6080,"Ġrubber":6081,"ĠPoppy":6082,"ĠWatermelon":6083,"ĠQuickly":6084,"Ġcrystall":6085,"Ġsectioned":6086,"urprise":6087,"adillas":6088,"And":6089,"Oli":6090,"iger":6091,"mium":6092,"Ġpumpernickel":6093,"Ġwing":6094,"pos":6095,"Ġdamp":6096,"Ġ225":6097,"Ġlunch":6098,"uyere":6099,"ĠBreast":6100,"kewarm":6101,"ĠShortbread":6102,"Ġitems":6103,"Dill":6104,"Easiest":6105,"Mex":6106,"PP":6107,"cal":6108,"Ġtanger":6109,"erie":6110,"ores":6111,"Ġchoose":6112,"ĠReal":6113,"entle":6114,"Ġalready":6115,"Ġbeater":6116,"Ġsteady":6117,"aula":6118,"ĠMayo":6119,"Mocha":6120,"cubed":6121,"ivalent":6122,"Ġlukewarm":6123,"ES":6124,"Good":6125,"Span":6126,"bably":6127,"set":6128,"iness":6129,"Ġtear":6130,"icelli":6131,"Ġhabanero":6132,"ottom":6133,"Ġstrained":6134,"ĠMini":6135,"ĠMary":6136,"etter":6137,"Ġvalley":6138,"ĠDiced":6139,"ĠFres":6140,"ĠLawry":6141,"Ġbamb":6142,"wee":6143,"Ġsweetness":6144,"Ġzested":6145,"Ġallowing":6146,"ĠZip":6147,"ĠBarley":6148,"ĠWrapped":6149,"oulder":6150,"AS":6151,"Pro":6152,"iwi":6153,"Ġbologna":6154,"Ġ(,":6155,"ĠPin":6156,"Ġuntill":6157,"ado":6158,"ieved":6159,"ople":6160,"amen":6161,"Ġkey":6162,"Ġcools":6163,"ĠSautee":6164,"ĠVer":6165,"Ġloose":6166,"ĠNutella":6167,"Ġanchovies":6168,"ĠAppetizers":6169,"ĠFirst":6170,"Ġversion":6171,"drain":6172,"Ġmust":6173,"orld":6174,"Ġjumbo":6175,"ĠIN":6176,"ĠTry":6177,"ify":6178,"entation":6179,"ĠOat":6180,"ucy":6181,"ĠCucumbers":6182,"cellent":6183,"Ġmilliliter":6184,"ĠVariation":6185,"ĠPhiladelphia":6186,"Apples":6187,"Ġcatfish":6188,"100":6189,"Fry":6190,"cer":6191,"fruit":6192,"ji":6193,"ked":6194,"ses":6195,"Ġtests":6196,"ros":6197,"ĠSou":6198,"Ġteaspoonful":6199,"garnish":6200,"Ġstraight":6201,"ĠMex":6202,"ĠDried":6203,"ĠWay":6204,"ĠHave":6205,"Ġchilis":6206,"Ġensure":6207,"ĠDiet":6208,"Ġimmersion":6209,"Ġmelting":6210,"Three":6211,"Ġfitted":6212,"Ġproduct":6213,"Ġbamboo":6214,"IR":6215,"IT":6216,"cts":6217,"egg":6218,"itch":6219,"Ġhome":6220,"Ġhidden":6221,"ĠCol":6222,"ĠClam":6223,"Ġeyes":6224,"ĠCountry":6225,"ĠMedium":6226,"Ġcanning":6227,"ody":6228,"acardi":6229,"erios":6230,"ĠFrank":6231,"ruffle":6232,"ruffles":6233,"riendly":6234,"Spanish":6235,"Cold":6236,"pote":6237,"ĠPor":6238,"ĠPita":6239,"rapp":6240,"ĠMuddle":6241,"Ġwhere":6242,"ĠTB":6243,"ĠWw":6244,"ĠGu":6245,"cones":6246,"Ġappetiz":6247,"Ġouter":6248,"ĠBroth":6249,"Ġscrew":6250,"crust":6251,"Ġstockpot":6252,"ĠStove":6253,"ĠEggnog":6254,"Ġbulb":6255,"ĠDumplings":6256,"ĠFritters":6257,"stirring":6258,"Ġfeel":6259,"Ġpersonal":6260,"Ġprunes":6261,"Ġoverlapping":6262,"ĠAccent":6263,"Real":6264,"chilled":6265,"Ġjuicer":6266,"ĠHear":6267,"Ġhalve":6268,"Ġnever":6269,"isserie":6270,"Ġcurls":6271,"Ġreads":6272,"Ġpickling":6273,"Cocktail":6274,"Ġgoes":6275,"ĠBruschetta":6276,"Ġwheel":6277,"acaroons":6278,"Cottage":6279,"Moro":6280,"ae":6281,"but":6282,"bag":6283,"fur":6284,"lightly":6285,"sal":6286,"Ġhen":6287,"Ġ170":6288,"Ġpurpose":6289,"Ġgher":6290,"ĠServing":6291,"garian":6292,"ĠBreeze":6293,"ripe":6294,"cks":6295,"Ġrare":6296,"ĠGolden":6297,"ĠGarden":6298,"Ġsource":6299,"Ġnutella":6300,"Ġforming":6301,"Ġperfect":6302,"what":6303,"Ġenvelopes":6304,"Ġwrappers":6305,"chee":6306,"Olive":6307,"Bl":6308,"GE":6309,"then":6310,"Ġswee":6311,"Ġbuy":6312,"Ġpith":6313,"Ġmalted":6314,"Ġgentle":6315,"orf":6316,"ĠTon":6317,"Ġnorthern":6318,"Ġheatproof":6319,"vence":6320,"Ġclosed":6321,"ĠEagle":6322,"ĠValley":6323,"Ġscorch":6324,"Ġhere":6325,"Broiled":6326,"Mock":6327,"Â°.":6328,"Ġrectangles":6329,"ĠSecure":6330,"Ġnormal":6331,"Ġseems":6332,"Pickled":6333,"Ġcrystallized":6334,"Moroccan":6335,"Bar":6336,"Feta":6337,"Sloppy":6338,"uncooked":6339,"ĠCal":6340,"Ġever":6341,"ĠCoarsely":6342,"monterey":6343,"Ġthrow":6344,"ĠTilapia":6345,"ĠFamous":6346,"Ġplenty":6347,"ĠKielbasa":6348,"ĠBeaters":6349,"Ġindividually":6350,"Ġdecorative":6351,"ĠPickles":6352,"ĠGranola":6353,"ĠFinish":6354,"Ġcroissants":6355,"falfa":6356,"ION":6357,"Indian":6358,"ais":6359,"well":6360,"Ġau":6361,"Ġbor":6362,"Ġmexican":6363,"enough":6364,"Ġduty":6365,"ĠSnap":6366,"urant":6367,"Ġhad":6368,"ists":6369,"ĠBeach":6370,"irds":6371,"ĠFe":6372,"Ġlowfat":6373,"iana":6374,"Ġpicked":6375,"Ġknow":6376,"grass":6377,"ĠRomano":6378,"ĠLiqueur":6379,"aiquiri":6380,"Ġsweeter":6381,"34":6382,"300":6383,"Note":6384,"mite":6385,"Ġtong":6386,"Ġpipe":6387,"ĠSP":6388,"ĠCro":6389,"asmine":6390,"ĠParsley":6391,"ĠPier":6392,"razy":6393,"toasted":6394,"ĠAbsolut":6395,"ouis":6396,"ĠGold":6397,"pari":6398,"Ġlimoncello":6399,"Ġpeeler":6400,"Ġfreezing":6401,"ĠGrated":6402,"Ġlengths":6403,"Ġsealable":6404,"Ġslivers":6405,"ĠAngel":6406,"ĠPeaches":6407,"Ġribbon":6408,"ĠSeafood":6409,"blended":6410,"juice":6411,"230":6412,"Fla":6413,"iar":6414,"infused":6415,"onge":6416,"ereal":6417,"Ġpale":6418,"Ġmain":6419,"upper":6420,"alance":6421,"ungarian":6422,"isters":6423,"ĠPull":6424,"ĠBra":6425,"ĠMom":6426,"illi":6427,"Ġgaram":6428,"reshing":6429,"ĠLite":6430,"Ġalfalfa":6431,"Ġchilling":6432,"Ġsyrupy":6433,"Ġstopping":6434,"Ġpinches":6435,"ĠVeggies":6436,"Ġbulgur":6437,"Ġcrouton":6438,"Dijon":6439,"aldorf":6440,"Ġachieved":6441,"Cop":6442,"Mel":6443,"Pomegranate":6444,"ba":6445,"gi":6446,"ict":6447,"Ġinf":6448,"abs":6449,"usters":6450,"Ġpeople":6451,"ĠAND":6452,"ĠGrey":6453,"ards":6454,"ĠEqual":6455,"Cho":6456,"attern":6457,"Ġscatter":6458,"Ġconsist":6459,"Steak":6460,"etty":6461,"Ġdecoration":6462,"Ġpared":6463,"ields":6464,"Curry":6465,"Vegetarian":6466,"Ġtonic":6467,"Ġdefrosted":6468,"Swedish":6469,"ometimes":6470,"Barbecued":6471,"Mon":6472,"fric":6473,"full":6474,"Ġburrito":6475,"hee":6476,"Ġfound":6477,"Ġfeed":6478,"Ġlabel":6479,"ĠCashew":6480,"llo":6481,"ĠTortellini":6482,"Ġcrunch":6483,"ĠInto":6484,"ffle":6485,"Ġbreadsticks":6486,"Ġasiago":6487,"izer":6488,"Ġpremium":6489,"ĠTofu":6490,"Ġdrip":6491,"Ġequivalent":6492,"ĠDeen":6493,"ĠCupcakes":6494,"ĠAng":6495,"Smok":6496,"Ġwonderful":6497,"ridgerate":6498,"Poppy":6499,"Col":6500,"Gra":6501,"Kahlua":6502,"Layer":6503,"Not":6504,"Rum":6505,"duty":6506,"go":6507,"hi":6508,"ychee":6509,"Ġspo":6510,"Ġpattern":6511,"Ġshoulder":6512,"ĠWild":6513,"ampari":6514,"ĠSpam":6515,"estive":6516,"ĠButterscotch":6517,"Ġdrinking":6518,"Caribbean":6519,"Ġkids":6520,"Ġhowever":6521,"chiladas":6522,"Ġsuggest":6523,"ĠSwirl":6524,"Ġdistributed":6525,"Bailey":6526,"Lo":6527,"OO":6528,"Ups":6529,"ious":6530,"micelli":6531,"noc":6532,"Ġ~":6533,"Ġparmigiano":6534,"iley":6535,"ena":6536,"ĠPolish":6537,"Ġsalty":6538,"ĠTime":6539,"Ġflipping":6540,"ĠSprit":6541,"ushi":6542,"ĠThyme":6543,"ĠSmoothies":6544,"ĠCheerios":6545,"Ġchestnut":6546,"Fruity":6547,"Ġcavity":6548,"ĠFillets":6549,"press":6550,"skin":6551,"zil":6552,"Ġtrout":6553,"Ġsriracha":6554,"Ġmeringue":6555,"itake":6556,"orean":6557,"Ġ(.":6558,"ĠCran":6559,"ĠPillsbury":6560,"Ġsautee":6561,"Ġwhirl":6562,"ĠFOR":6563,"Ġyummy":6564,"ĠWon":6565,"Ġpancetta":6566,"ĠLim":6567,"ordfish":6568,"Ġcenters":6569,"plants":6570,"Ġimportant":6571,"ĠMargaritas":6572,"Copycat":6573,"Cola":6574,"Party":6575,"Simply":6576,"eb":6577,"hing":6578,"ives":6579,"rated":6580,"sely":6581,"val":6582,"Ġcass":6583,"onger":6584,"ĠSurprise":6585,"ĠBut":6586,"ĠRE":6587,"ĠRib":6588,"ĠRicotta":6589,"arsala":6590,"ĠHea":6591,"ĠHOT":6592,"Ġextracts":6593,"Ġturnip":6594,"tact":6595,"ĠRefridgerate":6596,"Ġmarinating":6597,"izzas":6598,"Ġsomewhat":6599,"ontreal":6600,"Ġbrat":6601,"Ġvermicelli":6602,"fryer":6603,"Angel":6604,"ĠFinally":6605,"nocchi":6606,"Russian":6607,"ml":6608,"wrapped":6609,"Ġcampbell":6610,"ones":6611,"Ġmex":6612,"ica":6613,"icc":6614,"Ġins":6615,"Ġintact":6616,"ĠCold":6617,"Ġvit":6618,"iments":6619,"ĠInstant":6620,"uben":6621,"Ġsweeten":6622,"Ġ98":6623,"ĠCreamed":6624,"Ġlayering":6625,"eady":6626,"Roast":6627,"yster":6628,"ĠQuinoa":6629,"Ġmoderately":6630,"ĠScalloped":6631,"Snow":6632,"ĠSTIR":6633,"ĠPretzel":6634,"Skillet":6635,"Ġstainless":6636,"Ġconsistancy":6637,"Baby":6638,"Double":6639,"Great":6640,"Har":6641,"Port":6642,"sch":6643,"iti":6644,"Ġgum":6645,"Ġchard":6646,"Ġhar":6647,"gemite":6648,"ĠPast":6649,"ĠBacardi":6650,"ickers":6651,"Ġthing":6652,"ĠRay":6653,"ighter":6654,"ĠChickpea":6655,"Ġroaster":6656,"shine":6657,"rength":6658,"acore":6659,"ahi":6660,"Ġjellyroll":6661,"Ġgoing":6662,"undy":6663,"Ġgrainy":6664,"ĠSeeds":6665,"alories":6666,"Ġdumplings":6667,"Ġ190":6668,"Raisin":6669,"cluding":6670,"Ġtangerine":6671,"Buffalo":6672,"Soy":6673,"Use":6674,"bacore":6675,"Ã©":6676,"ester":6677,"Ġing":6678,"Ġwhey":6679,"atz":6680,"reos":6681,"Ġ220":6682,"Ġchick":6683,"ĠSund":6684,"ĠCor":6685,"ĠBarbecued":6686,"ĠAd":6687,"Ġmixt":6688,"ggy":6689,"ĠTot":6690,"ient":6691,"mbran":6692,"Ġspecial":6693,"ompan":6694,"ĠHawaiian":6695,"Ġbailey":6696,"pared":6697,"Ġprobably":6698,"alnut":6699,"Stea":6700,"ĠMojito":6701,"ĠClub":6702,"ĠHerbed":6703,"Diabetic":6704,"ĠIngredient":6705,"Fluffy":6706,"Ġfrankfur":6707,"Bean":6708,"Paula":6709,"Sto":6710,"lass":6711,"mish":6712,"rx":6713,"yed":6714,"Ġbea":6715,"Ġcupcakes":6716,"rel":6717,"Ġhr":6718,"abul":6719,"ĠPile":6720,"ĠBAKE":6721,"ĠRough":6722,"Ġeggplants":6723,"Ġkeeps":6724,"Ġcuts":6725,"Ġmayona":6726,"Ġapply":6727,"ĠKitchen":6728,"Ġcomplete":6729,"Ġkeeping":6730,"flavor":6731,"Ġchunked":6732,"ĠMoisten":6733,"Ġdusting":6734,"Ġguava":6735,"ĠFoods":6736,"Ġcombining":6737,"ĠScallops":6738,"ĠPrick":6739,"Ġokay":6740,"urgundy":6741,"ĠHerbs":6742,"ĠFresca":6743,"ĠSouffle":6744,"frican":6745,"22":6746,"Don":6747,"Pap":6748,"aid":6749,"gu":6750,"key":6751,"mold":6752,"Ġgas":6753,"Ġdeseed":6754,"Ġchange":6755,"urs":6756,"urric":6757,"ĠCereal":6758,"ĠPart":6759,"ĠDark":6760,"Ġshots":6761,"oulash":6762,"Ġlemongrass":6763,"ogies":6764,"sharp":6765,"Ġscal":6766,"Ġputting":6767,"Ġ165":6768,"ĠApply":6769,"oose":6770,"ĠPickled":6771,"ĠAlternate":6772,"Applesauce":6773,"AN":6774,"EAT":6775,"OIL":6776,"Rich":6777,"acc":6778,"hea":6779,"whe":6780,"ered":6781,"Ġbra":6782,"Ġbund":6783,"atic":6784,"atoni":6785,"lee":6786,"ĠSkin":6787,"ĠColl":6788,"ĠPerfect":6789,"eath":6790,"ĠAny":6791,"Ġcheesecake":6792,"Ġpanini":6793,"Ġcarob":6794,"Ġtenderness":6795,"Ġdevil":6796,"porates":6797,"Ġevaporates":6798,"ĠMuffin":6799,"Ġeaten":6800,"ĠTriple":6801,"raised":6802,"ĠMedley":6803,"pecially":6804,"urricane":6805,"FT":6806,"Make":6807,"Nor":6808,"ho":6809,"jo":6810,"pycat":6811,"Ġdairy":6812,"ĠMacaroons":6813,"Ġsauces":6814,"Ġthru":6815,"ĠTr":6816,"Ġspec":6817,"ĠOz":6818,"Ġdehydr":6819,"Ġjiggers":6820,"hyllo":6821,"Ġkisses":6822,"Ġ;).":6823,"giving":6824,"Au":6825,"Wild":6826,"ager":6827,"boy":6828,"finger":6829,"fetti":6830,"gle":6831,"iitake":6832,"Ġtreat":6833,"eral":6834,"icorn":6835,"pow":6836,"Ġladle":6837,"ĠCopycat":6838,"ĠTarts":6839,"Ġnap":6840,"ĠStri":6841,"Ġlowest":6842,"ĠReplace":6843,"irect":6844,"ĠSherbet":6845,"ĠJar":6846,"ĠKet":6847,"ĠKabobs":6848,"Ġspoons":6849,"Ġneeds":6850,"Ġplaced":6851,"ĠAssemble":6852,"Ġkiw":6853,"Salad":6854,"Ġholds":6855,"ĠJoe":6856,"Nutty":6857,"Ġcroissant":6858,"Ġrefridgerate":6859,"Mixed":6860,"Ġjellied":6861,"Hearty":6862,"Walnut":6863,"ael":6864,"burger":6865,"bottom":6866,"ippy":6867,"Ġact":6868,"Ġacorn":6869,"Ġ175":6870,"Ġbleu":6871,"Ġmiracle":6872,"upp":6873,"ĠCow":6874,"ĠPoke":6875,"Ġbuttery":6876,"Ġ475":6877,"ĠHard":6878,"Ġpits":6879,"Ġgrapeseed":6880,"ucky":6881,"Ġstewing":6882,"Southwestern":6883,"Ġcutters":6884,"Ġmembran":6885,"ostura":6886,"Ġtongs":6887,"Amazing":6888,"fle":6889,"make":6890,"Ġtumb":6891,"Ġbuffalo":6892,"ilt":6893,"ups":6894,"rem":6895,"ĠCottage":6896,"Ġ120":6897,"ĠReady":6898,"Ġflo":6899,"Ġflours":6900,"ĠChai":6901,"Ġ600":6902,"ĠEither":6903,"Ġupon":6904,"Ġrig":6905,"Chunky":6906,"Ġtwists":6907,"Ġceramic":6908,"Ġregisters":6909,"Cornbread":6910,"Blackberry":6911,"Ġwrapper":6912,"Ġnavy":6913,"anksgiving":6914,"Scalloped":6915,"Ġtbls":6916,"abulous":6917,",&":6918,"Cake":6919,"Candied":6920,"Ex":6921,"TM":6922,"cinnamon":6923,"cents":6924,"den":6925,"try":6926,"erd":6927,"Ġfancy":6928,"reggiano":6929,"ĠCelsius":6930,"ĠBurritos":6931,"Ġoverbake":6932,"ĠTexas":6933,"ĠFig":6934,"ĠFrapp":6935,"adilla":6936,"Ġgrater":6937,"Ġgruyere":6938,"Ġisn":6939,"coal":6940,"ĠHome":6941,"weed":6942,"Ġcare":6943,"ĠOther":6944,"Ġfinal":6945,"Ġchillies":6946,"issa":6947,"Chickpea":6948,"Ġchive":6949,"Ġsmell":6950,"ĠCheez":6951,"Ġflaxseed":6952,"Ġalternate":6953,"ĠHair":6954,"Ġattach":6955,"90":6956,"Amaretto":6957,"Fast":6958,"Gu":6959,"Ha":6960,"des":6961,"day":6962,"pie":6963,"Ġtr":6964,"Ġtaking":6965,"ergy":6966,"Ġmean":6967,"ĠSide":6968,"Ġcoarsley":6969,"ĠPaste":6970,"raising":6971,"aken":6972,"ĠTie":6973,"Ġcanchopped":6974,"naps":6975,"Ġpackaged":6976,"comb":6977,"Ġalbacore":6978,"Ġdesicc":6979,"rance":6980,"ĠToasted":6981,"Ġflaky":6982,"acing":6983,"ĠKale":6984,"arind":6985,"ordial":6986,"acks":6987,"ĠOrzo":6988,"ĠUnwrap":6989,"ĠSkim":6990,"ĠLike":6991,"ILL":6992,"ĠCompote":6993,"Ġindirect":6994,"OUR":6995,"atziki":6996,"Ġdesiccated":6997,"Aut":6998,"Creole":6999,"California":7000,"Mandarin":7001,"Mama":7002,"including":7003,"nds":7004,"ils":7005,"Ġfus":7006,"alla":7007,"ĠPush":7008,"ĠPinch":7009,"ĠPRE":7010,"ĠBob":7011,"ĠBuffalo":7012,"ĠAle":7013,"ĠMontreal":7014,"rescents":7015,"Ġsamb":7016,"ĠTra":7017,"ĠTasty":7018,"idge":7019,"ĠDI":7020,"quef":7021,"Ġris":7022,"stuffed":7023,"ĠChil":7024,"coated":7025,"ĠHoliday":7026,"Ġthickest":7027,"Ġpreparing":7028,"ĠUS":7029,"ĠWhiskey":7030,"Ġquant":7031,"whatever":7032,"Strawberries":7033,"blong":7034,"Ġbrussels":7035,"iblets":7036,"ĠScore":7037,"amaican":7038,"ĠCuracao":7039,"Ġloosen":7040,"Veggie":7041,"Ġrotisserie":7042,"Ġcreating":7043,"Ġhelps":7044,"ĠSticks":7045,"Ġpockets":7046,"Meatloaf":7047,"Ġsilver":7048,"uesli":7049,"375":7050,"Guacamole":7051,"Seasoned":7052,"Yellow":7053,"iet":7054,"mins":7055,"washed":7056,"zatziki":7057,"Ġ=":7058,"Ġtabasco":7059,"ene":7060,"anas":7061,"Ġghee":7062,"ĠCafe":7063,"ĠPine":7064,"olly":7065,"Ġstay":7066,"Ġleg":7067,"ĠDairy":7068,"ĠDouble":7069,"Ġrow":7070,"ĠHass":7071,"Ġslush":7072,"ĠVersion":7073,"120":7074,"Ġjarred":7075,"Ġbutt":7076,"divided":7077,"plum":7078,"ĠQuarter":7079,"ĠMinced":7080,"Ġpouch":7081,"ĠMelon":7082,"Ġcontinuing":7083,"pecial":7084,"Ġemulsified":7085,"Ġhens":7086,"Ġmixtures":7087,"Dad":7088,"ET":7089,"Horseradish":7090,"May":7091,"com":7092,"dog":7093,"oh":7094,"plain":7095,"âĢ":7096,"Ġsor":7097,"Ġpyrex":7098,"Ġmesh":7099,"Ġfarm":7100,"Ġwere":7101,"Ġdress":7102,"Ġ26":7103,"ĠSchnapps":7104,"abe":7105,"lay":7106,"Ġunif":7107,"Ġjasmine":7108,"Ġovermix":7109,"Ġflounder":7110,"ĠWipe":7111,"ĠHar":7112,"antaloupe":7113,"ĠEl":7114,"ĠVidalia":7115,"apenade":7116,"Ġbroiling":7117,"amomile":7118,"ĠVegetarian":7119,"Ġlimp":7120,"Ġlooking":7121,"ĠJohn":7122,"bergine":7123,"mixture":7124,"Deviled":7125,"Ġrefridgerator":7126,"ĠSmokies":7127,"ĠPierce":7128,"quefort":7129,".(":7130,"El":7131,"Fa":7132,"UP":7133,"Ultimate":7134,"lin":7135,"uild":7136,"vanilla":7137,"inda":7138,"Ġsink":7139,"Ġoblong":7140,"anted":7141,"rec":7142,"Ġ21":7143,"Ġhouse":7144,"ĠCumin":7145,"Ġsouth":7146,"ĠRamen":7147,"ĠDeg":7148,"oman":7149,"ĠGener":7150,"Ġcorner":7151,"aped":7152,"Ġyours":7153,"ĠNachos":7154,"ĠButtercream":7155,"ĠYUM":7156,"Ġpatted":7157,"ĠProsciutto":7158,"Ġfourths":7159,"blano":7160,"Potatoes":7161,"Southwest":7162,"Ġwraps":7163,"rystal":7164,"Instant":7165,"Ġrectangular":7166,"Ġstarter":7167,"oston":7168,"Ġcollard":7169,"Ġdrizzled":7170,"Abm":7171,"Ġrutabaga":7172,"Granny":7173,"upperware":7174,"Ġuniform":7175,"Sof":7176,"Tor":7177,"ait":7178,"een":7179,"fire":7180,"mini":7181,"raspberry":7182,"Ġob":7183,"Ġwisk":7184,"ĠSu":7185,"ĠBou":7186,"olland":7187,"ĠMe":7188,"ĠMandarin":7189,"Ġvine":7190,"quet":7191,"nam":7192,"ĠGe":7193,"ĠLittle":7194,"armel":7195,"Ġprocessing":7196,"inches":7197,"Ġpitas":7198,"Ġcurrant":7199,"Ġpoints":7200,"Ġgetting":7201,"ĠCrusted":7202,"ĠBlanch":7203,"ĠQuesadillas":7204,"Ġmotor":7205,"ĠTBS":7206,"ĠCranberries":7207,"Hea":7208,"Pistachio":7209,"based":7210,"ped":7211,"save":7212,"Ġci":7213,"inis":7214,"Ġmouth":7215,"Ġgingers":7216,"Ġgouda":7217,"ĠScones":7218,"ĠBark":7219,"tob":7220,"ĠMolasses":7221,"Ġvis":7222,"ĠIndian":7223,"Ġpam":7224,"ĠWet":7225,"ĠHo":7226,"ĠHold":7227,"Ġ145":7228,"Ġpina":7229,"erved":7230,"park":7231,"esta":7232,"rowd":7233,"loom":7234,"cored":7235,"prepared":7236,"ĠQueso":7237,"Ġcharcoal":7238,"ĠAngostura":7239,"Layered":7240,"Steamed":7241,"Cal":7242,"Li":7243,"Tex":7244,"aise":7245,"bb":7246,"gian":7247,"nie":7248,"oey":7249,"squ":7250,"sicle":7251,"uke":7252,"Ġ!":7253,"Ġtruffle":7254,"Ġarea":7255,"ĠSuper":7256,"ume":7257,"icky":7258,"ĠMore":7259,"ĠFizz":7260,"ĠChive":7261,"ĠGel":7262,"ĠGoulash":7263,"assi":7264,"assage":7265,"ĠHungarian":7266,"anta":7267,"Ġpeels":7268,"Ġplease":7269,"osition":7270,"Ġdippers":7271,"ĠButternut":7272,"Ġquiche":7273,"Ġfilet":7274,"Ġhardened":7275,"ĠSweeten":7276,"ĠClusters":7277,"romatic":7278,"Toasted":7279,"Ġavacad":7280,"Ġsomething":7281,"ĠTartar":7282,"Ġgloss":7283,"Ġappetizer":7284,"ouisiana":7285,"Ġfrankfurters":7286,"Ġdeseeded":7287,"estaurant":7288,"Con":7289,"EN":7290,"Ground":7291,"Im":7292,"Is":7293,"Leftover":7294,"Tri":7295,"ptional":7296,"wood":7297,"Ġrou":7298,"Ġsup":7299,"Ġph":7300,"Ġphyllo":7301,"alk":7302,"Ġduck":7303,"ĠSAL":7304,"urry":7305,"ĠCalorie":7306,"ĠPres":7307,"raut":7308,"ĠBul":7309,"ĠBurgundy":7310,"Ġeigh":7311,"Ġeff":7312,"cky":7313,"Ġstrength":7314,"ĠCoca":7315,"ĠTater":7316,"ĠTruffles":7317,"Ġshoe":7318,"ĠStand":7319,"cold":7320,"cond":7321,"eye":7322,"Ġbreadstick":7323,"ĠOregano":7324,"Ġremains":7325,"shaped":7326,"Ġcoats":7327,"ĠBlender":7328,"ĠUps":7329,"Ġteabag":7330,"ugel":7331,"aviar":7332,"Lemonade":7333,"undrained":7334,"ĠSmash":7335,"INE":7336,"Ġsprings":7337,"Caramelized":7338,"Ġguess":7339,"Ġfranks":7340,"ĠParfait":7341,"ignon":7342,"Ġcharred":7343,"Ġrapidly":7344,"English":7345,"Ġcondiments":7346,"Seafood":7347,"wheels":7348,"Bourbon":7349,"Cafe":7350,"Candy":7351,"MM":7352,"ele":7353,"good":7354,"lot":7355,"ris":7356,"serve":7357,"Ġcupfuls":7358,"aline":7359,"Ġgift":7360,"Ġlychee":7361,"Ġhershey":7362,"ase":7363,"ĠPit":7364,"ĠPears":7365,"chicken":7366,"ĠBleu":7367,"ĠMade":7368,"ĠFire":7369,"Ġyukon":7370,"ĠGodiva":7371,"Ġlivers":7372,"apes":7373,"ĠToffee":7374,"Ġneufchatel":7375,"ĠKick":7376,"ĠEnchilada":7377,"ĠThighs":7378,"ĠBrownie":7379,"crumbled":7380,"Ġbitter":7381,"ugu":7382,"ĠMountain":7383,"Ġherbes":7384,"Ġdisapp":7385,"Ġtouching":7386,"ĠPickle":7387,"Ġmincemeat":7388,"ĠGallo":7389,"ĠPaprika":7390,"tobello":7391,"Ġroux":7392,"Amish":7393,"Cub":7394,"Fish":7395,"\\)":7396,"baking":7397,"ipper":7398,"tic":7399,"uv":7400,"uens":7401,"yn":7402,"Ġsear":7403,"era":7404,"Ġbuck":7405,"Ġpoke":7406,"Ġwanted":7407,"eno":7408,"atta":7409,"ĠSER":7410,"ĠCrescent":7411,"Ġmineral":7412,"ĠAL":7413,"irty":7414,"Ġthigh":7415,"ĠTest":7416,"ĠFriendly":7417,"ĠWaldorf":7418,"eyer":7419,"immy":7420,"ulated":7421,"ĠWhirl":7422,"ĠYields":7423,"Ġcrisply":7424,"Ġaged":7425,"scar":7426,"ĠEggplant":7427,"avioli":7428,"Ġworking":7429,"freshly":7430,"itron":7431,"they":7432,"ĠRais":7433,"ĠBloody":7434,"Pepperoni":7435,"Ġfeet":7436,"Ġinsides":7437,"uenster":7438,"'.":7439,"Better":7440,"Marshmallow":7441,"Pina":7442,"Rec":7443,"Ste":7444,"cross":7445,"pit":7446,"ras":7447,"rinsed":7448,"vely":7449,"Ġcalorie":7450,"Ġpip":7451,"Ġmuddle":7452,"ĠPate":7453,"Ġunwrapped":7454,"Ġjo":7455,"ĠTbl":7456,"immon":7457,"ĠRound":7458,"Ġstirred":7459,"Ġsets":7460,"Ġmaybe":7461,"ĠON":7462,"ĠOVER":7463,"ĠEasiest":7464,"Ġprecooked":7465,"oyal":7466,"arti":7467,"ĠThan":7468,"Spice":7469,"avarti":7470,"Ġgrains":7471,"plus":7472,"Ġcolada":7473,"Ġdisol":7474,"Ġacid":7475,"ĠFlake":7476,"ĠFlavored":7477,"Peppermint":7478,"Ġgroc":7479,"aiser":7480,"uguese":7481,"AY":7482,"Date":7483,"HIL":7484,"Jo":7485,"cco":7486,"lf":7487,"Ġinvert":7488,"remove":7489,"ales":7490,"Ġchai":7491,"ĠCappuccino":7492,"ĠMold":7493,"Ġcanes":7494,"Ġkum":7495,"Ġclosely":7496,"Ġalone":7497,"Ġbeaters":7498,"ĠSavory":7499,"oya":7500,"Ġsubstitut":7501,"ampfire":7502,"Ġmashing":7503,"rittle":7504,"banese":7505,"Peachy":7506,"alibut":7507,"ĠSupper":7508,"thinly":7509,"Ġcollins":7510,"ohl":7511,"ĠRaisins":7512,"Cap":7513,"Caesar":7514,"Fiesta":7515,"Ho":7516,"Just":7517,"Kid":7518,"Le":7519,"Tof":7520,"UST":7521,"tip":7522,"Ġcal":7523,"icor":7524,"Ġdro":7525,"ĠSweetened":7526,"ĠBuns":7527,"ĠMorning":7528,"astes":7529,"Ġthings":7530,"Ġnumber":7531,"ĠFaj":7532,"ĠFettuccine":7533,"ĠChow":7534,"ĠGrain":7535,"ĠGluten":7536,"ĠLeftover":7537,"ific":7538,"andel":7539,"ĠEas":7540,"Ġupside":7541,"Ġbased":7542,"Chile":7543,"ĠVER":7544,"ousand":7545,"Ġteapot":7546,"Ġsmash":7547,"Ġapproximate":7548,"process":7549,"Beet":7550,"minutes":7551,"ettuccini":7552,"ĠCrushed":7553,"ĠMelted":7554,"Ġachieve":7555,"Ġsultanas":7556,"ĠPastry":7557,"ietnam":7558,"parkling":7559,"Ġgrocery":7560,"48":7561,"Ad":7562,"Brand":7563,"Hummus":7564,"Korean":7565,"Mary":7566,"Pr":7567,"bin":7568,"boil":7569,"back":7570,"eh":7571,"iod":7572,"nic":7573,"rabi":7574,"son":7575,"Ġcel":7576,"Ġcalls":7577,"hell":7578,"polit":7579,"alcoholic":7580,"abatta":7581,"asabi":7582,"Ġ38":7583,"tered":7584,"ĠBR":7585,"ĠBath":7586,"Ġstack":7587,"ĠMark":7588,"llion":7589,"mbros":7590,"Ġnuggets":7591,"ĠDate":7592,"ĠDaiquiri":7593,"Ġcriss":7594,"Ġshiny":7595,"Ġshiitake":7596,"quality":7597,"ĠGet":7598,"ĠHidden":7599,"Ġassemble":7600,"hentic":7601,"ĠNe":7602,"angos":7603,"Ġturned":7604,"ĠButtered":7605,"merc":7606,"Ġsubstitutes":7607,"Ġperfor":7608,"Ġcolors":7609,"Ġpresentation":7610,"Ġcaramelize":7611,"corino":7612,"Ġblood":7613,"mixed":7614,"Ġgives":7615,"routons":7616,"ĠTequila":7617,"ĠKnorr":7618,"Ġprick":7619,"leave":7620,"Ġresemble":7621,"HEAT":7622,"ĠStrips":7623,"ĠKetchup":7624,"Ġpiping":7625,";.":7626,"Bra":7627,"Big":7628,"Bisquick":7629,"Garden":7630,"IP":7631,"Ind":7632,"Jack":7633,"Mrs":7634,"Special":7635,"either":7636,"mesh":7637,"esqu":7638,"Ġmal":7639,"Ġmillet":7640,"ille":7641,"Ġfan":7642,"entils":7643,"Ġtot":7644,"orge":7645,"Ġ29":7646,"ĠSU":7647,"ĠPeanuts":7648,"garine":7649,"Ġsund":7650,"Ġsubs":7651,"Ġsoggy":7652,"ĠTarragon":7653,"ĠTangy":7654,"ieners":7655,"ĠDr":7656,"Ġrump":7657,"Ġrubbed":7658,"ĠStack":7659,"ĠLee":7660,"edding":7661,"ranges":7662,"Ġrip":7663,"ache":7664,"ĠKey":7665,"ĠCrunchy":7666,"Ġseams":7667,"Ġlengthways":7668,"flake":7669,"Ġsealing":7670,"ĠMoist":7671,"ocacc":7672,"ĠRomaine":7673,"Ġsumac":7674,"ĠHamburgers":7675,"anson":7676,"Ġhollowed":7677,"ĠBagel":7678,"ĠGrapes":7679,"ĠGrapefruit":7680,"ĠSkewers":7681,"oursin":7682,"Ġmexicorn":7683,"Ġmayonaise":7684,"Aubergine":7685,"ĠGenerously":7686,"Soft":7687,"ollandaise":7688,"Heavenly":7689,"ĠVERY":7690,"mbrosia":7691,"Cow":7692,"Frost":7693,"Sau":7694,"cean":7695,"hal":7696,"maker":7697,"sto":7698,"Ġsince":7699,"Ġopt":7700,"Ġpass":7701,"Ġmom":7702,"upon":7703,"lement":7704,"Ġlift":7705,"Ġlasagna":7706,"ĠCre":7707,"ĠPim":7708,"using":7709,"uscan":7710,"ĠBUT":7711,"right":7712,"ickory":7713,"iller":7714,"Ġjuicy":7715,"Ġgarden":7716,"straw":7717,"combine":7718,"Ġkir":7719,"Ġuses":7720,"Ġcansliced":7721,"ĠSeasons":7722,"Ġscotch":7723,"ĠThree":7724,"ĠSlightly":7725,"Ġpoblano":7726,"faits":7727,"Cocoa":7728,"Ġsits":7729,"Ġstiffly":7730,"ĠBrisket":7731,"Saucy":7732,"Buttery":7733,"Eggs":7734,"ĠCrispy":7735,"Carrots":7736,"Ġ***":7737,"Ġparsnip":7738,"Margar":7739,"Two":7740,"ĠVerde":7741,"ohlrabi":7742,"ietnamese":7743,"ocaccia":7744,"Fran":7745,"Fudge":7746,"Kiwi":7747,"MB":7748,"OK":7749,"Oreo":7750,"World":7751,"bought":7752,"fir":7753,"mild":7754,"smo":7755,"Ġcalories":7756,"into":7757,"Ġtropical":7758,"Ġsimply":7759,"Ġpuffy":7760,"Ġmand":7761,"Ġmangos":7762,"arified":7763,"ilute":7764,"icro":7765,"Ġwipe":7766,"utif":7767,"uncan":7768,"Ġgnocchi":7769,"Ġchinese":7770,"ĠCaviar":7771,"ĠPipe":7772,"ĠPomegranate":7773,"rawn":7774,"iron":7775,"Ġsays":7776,"Ġvelveeta":7777,"ados":7778,"adjust":7779,"Ġsponge":7780,"ĠInvert":7781,"Ġfroth":7782,"amin":7783,"ĠGive":7784,"ĠLasagna":7785,"Ġslight":7786,"Ġalum":7787,"ĠCovered":7788,"Ġdesc":7789,"Chilled":7790,"oster":7791,"Ġpounded":7792,"ĠFlank":7793,"rito":7794,"Ġruby":7795,"Ġopening":7796,"affin":7797,"Ġswordfish":7798,"Ġtamarind":7799,"Ġguests":7800,"Ġsecurely":7801,"ELL":7802,"Minute":7803,"Ġsizzling":7804,"Ġinfuse":7805,"Ġrigatoni":7806,"Tofu":7807,"CH":7808,"Out":7809,"Ph":7810,"Pat":7811,"She":7812,"Squ":7813,"Tel":7814,"Tortellini":7815,"With":7816,"lers":7817,"wash":7818,"warm":7819,"Ġ+":7820,"Ġtester":7821,"Ġfiber":7822,"Ġfacing":7823,"unge":7824,"rot":7825,"cel":7826,"ĠSL":7827,"urple":7828,"ĠPyrex":7829,"Ġjerk":7830,"ĠComp":7831,"ĠIv":7832,"ĠTap":7833,"Ġsho":7834,"Ġyear":7835,"ĠWait":7836,"Ġcorners":7837,"ĠEd":7838,"racker":7839,"Ġapprx":7840,"ĠNon":7841,"kets":7842,"Ġmove":7843,"ĠKids":7844,"ĠKugel":7845,"Ġwhisky":7846,"Ġliqueurs":7847,"spresso":7848,"Ġperiod":7849,"Ġboullion":7850,"Ġdiscarded":7851,"ĠAsiago":7852,"ĠMaria":7853,"Whipped":7854,"Ġespecially":7855,"ĠChef":7856,"ĠLobster":7857,"istribute":7858,"ĠSnacks":7859,"ĠSunrise":7860,"Ġcourget":7861,"ĠVariations":7862,"ĠExtract":7863,"Ġdrizzling":7864,"Lazy":7865,"Melon":7866,"zilian":7867,"Ġglossy":7868,"23":7869,"BBQ":7870,"Eyed":7871,"Optional":7872,"apple":7873,"rese":7874,"vinegar":7875,"Ġcard":7876,"Ġchewy":7877,"Ġcordial":7878,"Ġcarmel":7879,"Ġap":7880,"Ġbird":7881,"Ġmer":7882,"posed":7883,"atar":7884,"anth":7885,"organ":7886,"ĠCroutons":7887,"Ġcole":7888,"ĠPri":7889,"ĠBOIL":7890,"ddess":7891,"Ġforget":7892,"Ġsaving":7893,"ida":7894,"ĠRye":7895,"ĠFiesta":7896,"Ġcrisco":7897,"ope":7898,"vest":7899,"egian":7900,"omest":7901,"ffic":7902,"Ġcling":7903,"ĠLift":7904,"ĠLarge":7905,"ĠLassi":7906,"Ġasian":7907,"Ġkick":7908,"antastic":7909,"Ġhotdog":7910,"achael":7911,"Ġplump":7912,"Ġpoured":7913,"Ġtossed":7914,"ĠGrits":7915,"spray":7916,"Ġfaj":7917,"Cooked":7918,"Ġregularly":7919,"metal":7920,"ĠPlum":7921,"Ġsterile":7922,"ĠBrandy":7923,"ĠCubes":7924,"falle":7925,"Ġnormally":7926,"Ġgloves":7927,"Ġeighths":7928,"Lentil":7929,"Polish":7930,"Se":7931,"beans":7932,"eer":7933,"peas":7934,"tes":7935,"wegian":7936,"inness":7937,"Ġaromatic":7938,"Ġoval":7939,"Ġpile":7940,"Ġmalibu":7941,"Ġfashion":7942,"ented":7943,"ĠSometimes":7944,"urri":7945,"elle":7946,"Ġhurricane":7947,"ĠPass":7948,"ĠPrawns":7949,"ĠPizzas":7950,"Ġunused":7951,"otto":7952,"olf":7953,"ĠMarmalade":7954,"oila":7955,"amc":7956,"ĠChard":7957,"Ġbaggie":7958,"Ġkrispies":7959,"Ġkaiser":7960,"eezed":7961,"Ġmark":7962,"Ġchild":7963,"rawfish":7964,"ĠShoot":7965,"ĠJapanese":7966,"ubbing":7967,"ĠSauteed":7968,"Ġtacos":7969,"ĠFreezes":7970,"Ġdrinks":7971,"Ġcasings":7972,"Ġretain":7973,"Ġbrisk":7974,"Ġworry":7975,"Ġvert":7976,"Ġstronger":7977,"Ġsoftens":7978,"oung":7979,"Ġincluded":7980,"inguine":7981,"Eggplant":7982,"Ġshortbread":7983,"without":7984,"Ġvariation":7985,"Ġpurch":7986,"Ġrocket":7987,"Ġbeetroot":7988,"Tequila":7989,"Ġspots":7990,"combined":7991,"ĠPREHEAT":7992,"Ġrows":7993,"Ġdisolved":7994,"politan":7995,"110":7996,"Celery":7997,"High":7998,"Little":7999}