{"":0,"<pad>":1,"<s>":2,"</s>":3,"<unk>":4,"<mask>":5,"!":6,"\"":7,"#":8,"$":9,"%":10,"&":11,"'":12,"(":13,")":14,"*":15,"+":16,",":17,"-":18,".":19,"/":20,"0":21,"1":22,"2":23,"3":24,"4":25,"5":26,"6":27,"7":28,"8":29,"9":30,":":31,";":32,"<":33,"=":34,">":35,"?":36,"@":37,"A":38,"B":39,"C":40,"D":41,"E":42,"F":43,"G":44,"H":45,"I":46,"J":47,"K":48,"L":49,"M":50,"N":51,"O":52,"P":53,"Q":54,"R":55,"S":56,"T":57,"U":58,"V":59,"W":60,"X":61,"Y":62,"Z":63,"[":64,"\\":65,"]":66,"^":67,"_":68,"`":69,"a":70,"b":71,"c":72,"d":73,"e":74,"f":75,"g":76,"h":77,"i":78,"j":79,"k":80,"l":81,"m":82,"n":83,"o":84,"p":85,"q":86,"r":87,"s":88,"t":89,"u":90,"v":91,"w":92,"x":93,"y":94,"z":95,"{":96,"|":97,"}":98,"~":99,"¡":100,"¢":101,"£":102,"¤":103,"¥":104,"¦":105,"§":106,"¨":107,"©":108,"ª":109,"«":110,"¬":111,"®":112,"¯":113,"°":114,"±":115,"²":116,"³":117,"´":118,"µ":119,"¶":120,"·":121,"¸":122,"¹":123,"º":124,"»":125,"¼":126,"½":127,"¾":128,"¿":129,"À":130,"Á":131,"Â":132,"Ã":133,"Ä":134,"Å":135,"Æ":136,"Ç":137,"È":138,"É":139,"Ê":140,"Ë":141,"Ì":142,"Í":143,"Î":144,"Ï":145,"Ð":146,"Ñ":147,"Ò":148,"Ó":149,"Ô":150,"Õ":151,"Ö":152,"×":153,"Ø":154,"Ù":155,"Ú":156,"Û":157,"Ü":158,"Ý":159,"Þ":160,"ß":161,"à":162,"á":163,"â":164,"ã":165,"ä":166,"å":167,"æ":168,"ç":169,"è":170,"é":171,"ê":172,"ë":173,"ì":174,"í":175,"î":176,"ï":177,"ð":178,"ñ":179,"ò":180,"ó":181,"ô":182,"õ":183,"ö":184,"÷":185,"ø":186,"ù":187,"ú":188,"û":189,"ü":190,"ý":191,"þ":192,"ÿ":193,"Ā":194,"ā":195,"Ă":196,"ă":197,"Ą":198,"ą":199,"Ć":200,"ć":201,"Ĉ":202,"ĉ":203,"Ċ":204,"ċ":205,"Č":206,"č":207,"Ď":208,"ď":209,"Đ":210,"đ":211,"Ē":212,"ē":213,"Ĕ":214,"ĕ":215,"Ė":216,"ė":217,"Ę":218,"ę":219,"Ě":220,"ě":221,"Ĝ":222,"ĝ":223,"Ğ":224,"ğ":225,"Ġ":226,"ġ":227,"Ģ":228,"ģ":229,"Ĥ":230,"ĥ":231,"Ħ":232,"ħ":233,"Ĩ":234,"ĩ":235,"Ī":236,"ī":237,"Ĭ":238,"ĭ":239,"Į":240,"į":241,"İ":242,"ı":243,"Ĳ":244,"ĳ":245,"Ĵ":246,"ĵ":247,"Ķ":248,"ķ":249,"ĸ":250,"Ĺ":251,"ĺ":252,"Ļ":253,"ļ":254,"Ľ":255,"ľ":256,"Ŀ":257,"ŀ":258,"Ł":259,"ł":260,"Ń":261,"in":262,"Ġc":263,"Ġt":264,"Ġa":265,"Ġs":266,"er":267,"on":268,"es":269,"ed":270,"Ġ1":271,"ea":272,"Ġb":273,"nd":274,"Ġo":275,"Ġp":276,"Ġm":277,"il":278,"ar":279,"he":280,"Ġand":281,"ut":282,"Ġf":283,"ic":284,"Ġw":285,"up":286,"Ġin":287,"po":288,"Ġto":289,"re":290,"Ġthe":291,"en":292,"poon":293,"Ġcup":294,"at":295,"ing":296,"al":297,"ro":298,"an":299,"Ġl":300,"un":301,"it":302,"eas":303,"Ġd":304,"Ġg":305,"or":306,"pp":307,"Ġ2":308,"Ġch":309,"ou":310,"le":311,"ce":312,"Ġh":313,"Ġco":314,"el":315,"ĠS":316,"ab":317,"easpoon":318,"Ġteaspoon":319,"les":320,"ĠC":321,"Ġ(":322,"as":323,"is":324,"Ġon":325,"eat":326,"ge":327,"ow":328,"Ġun":329,"ith":330,"Ġmin":331,"ak":332,"Ġ3":333,"til":334,"ve":335,"our":336,"ables":337,"Ġwith":338,"ot":339,"ablespoon":340,"ĠP":341,"Ġtablespoon":342,"Ġuntil":343,"ter":344,"la":345,"ra":346,"ix":347,"ver":348,"eg":349,"Ġpe":350,"Ġor":351,"ch":352,"to":353,"dd":354,"Ġsal":355,"Ġminut":356,"ion":357,"rea":358,"ok":359,"lic":360,"ir":361,"us":362,"Ġminutes":363,"Ġfor":364,"ĠB":365,"ug":366,"Ġsalt":367,"ly":368,"pper":369,"ĠA":370,"et":371,"ick":372,"um":373,"Ġof":374,"ri":375,"Ġpepper":376,"Ġmix":377,"Ġcho":378,"ol":379,"Ġst":380,"edi":381,"Ġbut":382,"ugar":383,"ck":384,"Ġsugar":385,"Ġsa":386,"uce":387,"Ġtablespoons":388,"Ġinto":389,"ese":390,"Ġcups":391,"pped":392,"Ġr":393,"Ġbutter":394,"Ġoun":395,"heese":396,"ice":397,"gh":398,"ĠCo":399,"Ġcook":400,"ast":401,"ine":402,"ake":403,"Ġonion":404,"Ġoil":405,"Ġcheese":406,"Ġth":407,"Ġfl":408,"ato":409,"Ġchopped":410,"Ġ4":411,"ĠAdd":412,"em":413,"Ġj":414,"Ġover":415,"ure":416,"Ġbro":417,"res":418,"ts":419,"ĠM":420,"Ġso":421,"icken":422,"ĠI":423,"ream":424,"ur":425,"Ġheat":426,"Ġsauce":427,"id":428,"egg":429,"ll":430,"Ġegg":431,"Ġgar":432,"ces":433,"th":434,"ĠT":435,"Ġwh":436,"igh":437,"Ġn":438,"ĠR":439,"ven":440,"am":441,"ater":442,"Ġbow":443,"Ġbowl":444,"im":445,"Ġlar":446,"ill":447,"Ġcream":448,"Ġslic":449,"Ġwater":450,"Ġre":451,"Ġlarge":452,"Ġgarlic":453,"ry":454,"Ġv":455,"all":456,"Ġounce":457,"wn":458,"Ġflour":459,"Ġsp":460,"ture":461,"aking":462,"ate":463,"Ġmixture":464,"und":465,"ell":466,"Ġchicken":467,"read":468,"edium":469,"Ġbaking":470,"Ġmedium":471,"atoes":472,"Ġsh":473,"ĠF":474,"Ġcan":475,"Ġ12":476,"Ġpan":477,"ilk":478,"mb":479,"Ġstir":480,"Ġe":481,"Ġy":482,"Ġbrown":483,"resh":484,"Ġcr":485,"Ġbe":486,"Ġsm":487,"ĠD":488,"der":489,"Ġoven":490,"round":491,"ish":492,"ay":493,"out":494,"Ġju":495,"Ġfresh":496,"lace":497,"qu":498,"ean":499,"Ġgr":500,"Ġadd":501,"ĠIn":502,"ie":503,"ight":504,"owder":505,"li":506,"gr":507,"ĠW":508,"ĠSt":509,"Ġpowder":510,"Ġmilk":511,"Ġpa":512,"Ġpot":513,"mbine":514,"Ġjuice":515,"ves":516,"oil":517,"st":518,"Ġab":519,"Ġall":520,"Ġis":521,"Ġfro":522,"ad":523,"erve":524,"ust":525,"ring":526,"ents":527,"Ġground":528,"Ġteaspoons":529,"rain":530,"ely":531,"gredi":532,"ther":533,"Ġingredi":534,"Ġingredients":535,"Ġabout":536,"Ġtom":537,"om":538,"ove":539,"Ġat":540,"ĠBake":541,"ush":542,"Ġoli":543,"Ġwell":544,"ĠSp":545,"Ġdeg":546,"ip":547,"Ġsk":548,"Ġ5":549,"Ġdegre":550,"emon":551,"heat":552,"ted":553,"ĠStir":554,"Ġeggs":555,"Ġro":556,"op":557,"Ġcl":558,"aste":559,"Ġdegrees":560,"Ġrem":561,"ink":562,"ef":563,"ĠPlace":564,"Ġred":565,"ated":566,"col":567,"age":568,"ain":569,"nder":570,"let":571,"Ġlemon":572,"ite":573,"gether":574,"reheat":575,"Ġtogether":576,"ore":577,"if":578,"ide":579,"reen":580,"ars":581,"Ġolive":582,"Ġse":583,"oth":584,"bs":585,"con":586,"50":587,"Ġas":588,"ĠG":589,"Ġboil":590,"ber":591,"ĠCh":592,"ĠMix":593,"Ġounces":594,"Ġsmall":595,"illa":596,"ct":597,"Ġsliced":598,"anilla":599,"edd":600,"Ġgreen":601,"ĠL":602,"orn":603,"ĠH":604,"Ġvanilla":605,"ger":606,"Ġhour":607,"rink":608,"ff":609,"co":610,"ub":611,"each":612,"Ġfrom":613,"Ġ10":614,"arm":615,"Ġtop":616,"ĠCook":617,"Ġcut":618,"Ġ8":619,"Ġ6":620,"eason":621,"Ġcon":622,"ced":623,"ional":624,"Ġan":625,"Ġba":626,"imm":627,"ard":628,"Ġpie":629,"od":630,"lack":631,"Ġpack":632,"ightly":633,"Ġtaste":634,"Ġbread":635,"ĠPour":636,"rinkle":637,"ey":638,"Ġit":639,").":640,"Ġ350":641,"Ġmel":642,"colate":643,"Ġk":644,"Ġblack":645,"illet":646,"Ġpotatoes":647,"ĠPreheat":648,"Ġex":649,"ten":650,"ash":651,"Ġus":652,"Ġhal":653,"ant":654,"Ġ-":655,"ĠCombine":656,"old":657,"Ġwhite":658,"Ġtomatoes":659,"ent":660,"par":661,"Ġonions":662,"inn":663,"Ġeach":664,"Ġskillet":665,"Ġble":666,"Ġhot":667,"ĠServe":668,"Ġve":669,"Ġcorn":670,"ran":671,"ole":672,"se":673,"Ġthen":674,"ried":675,"Ġshe":676,"Ġminced":677,"get":678,"Ġvin":679,"we":680,"Ġdrain":681,"ood":682,"iced":683,"Ġdish":684,"Ġremain":685,"erv":686,"Ġ14":687,"Ġmar":688,"egar":689,"Ġare":690,"Ġslices":691,"ass":692,"Ġvinegar":693,"uts":694,"00":695,"Ġremaining":696,"immer":697,"urn":698,"ress":699,"amon":700,"ĠRem":701,"Ġinch":702,"innamon":703,"ee":704,"ĠRemove":705,"inch":706,"Ġte":707,"Ġal":708,"Ġapp":709,"Ġveget":710,"Ġcover":711,"Ġchocolate":712,"Ġcooked":713,"ies":714,"ap":715,"Ġlb":716,"Ġstirring":717,"Ġcar":718,"uff":719,"tra":720,"ul":721,"weet":722,"Ġdiced":723,"Ġcinnamon":724,"ime":725,"eans":726,"Ġcombine":727,"Ġdry":728,"and":729,"Ġlow":730,"Ġtender":731,"ley":732,"Ġseason":733,"ugh":734,"Ġcool":735,"ough":736,"Ġsof":737,"Ġrice":738,"me":739,"Ġmelted":740,"Ġli":741,"ise":742,"Ġbeef":743,"ss":744,"Ġextra":745,"Ġclo":746,"Ġfin":747,"room":748,"Ġra":749,"ire":750,"ĠO":751,"erving":752,"ushroom":753,"ĠCover":754,"ins":755,"ries":756,"Ġyou":757,"Ġbeat":758,"Ġif":759,"riger":760,"Ġsheet":761,"ute":762,"pan":763,"redd":764,"ers":765,"Ġpars":766,"redded":767,"est":768,"ĠHeat":769,"Ġhours":770,"reas":771,"per":772,"Ġcloves":773,"Ġpl":774,"Ġbeans":775,"mon":776,"Ġ30":777,"Ġ15":778,"rough":779,"Ġparsley":780,"able":781,"Ġgrated":782,"Ġsimmer":783,"Ġdried":784,"Ġlea":785,"Ġshredded":786,"Ġhalf":787,"Ġpre":788,"ooth":789,"ustard":790,"Ġchil":791,"Ġpeel":792,"quar":793,"Ġsaucepan":794,"Ġseed":795,"iz":796,"Ġserving":797,"low":798,"Ġpackage":799,"ork":800,"Ġserve":801,"Ġfinely":802,"uc":803,"mp":804,"ray":805,"Ġsoup":806,"ĠSprinkle":807,"Ġmushroom":808,"Ġmay":809,"Ġsod":810,"eal":811,"Ġpieces":812,"Ġcrum":813,"Ġsmooth":814,"Ġsour":815,"Ġblend":816,"tional":817,"Ġpast":818,"ld":819,"ks":820,"Ġ20":821,"ips":822,"ue":823,"ĠSal":824,"Ġbroth":825,"Ġbacon":826,"hen":827,"Ġcooking":828,"Ġset":829,"Ġ&":830,"Ġmustard":831,"Ġsoda":832,"cess":833,"Ġtomato":834,"Ġbef":835,"Ġbefore":836,"Ġlightly":837,"Ġmore":838,"ess":839,"Ġref":840,"isk":841,"ps":842,"akes":843,"Ġmeat":844,"Ġgold":845,"Ġoran":846,"optional":847,"na":848,"Ġout":849,"Ġplace":850,"ree":851,"ery":852,"Ġdrained":853,"armes":854,"armesan":855,"Ġgolden":856,"Ġuse":857,"Ġup":858,"ag":859,"inger":860,"Ġlet":861,"Ġcarro":862,"cc":863,"75":864,"ave":865,"Ġchips":866,"Ġthin":867,"ressing":868,"ĠE":869,"oney":870,"Ġyour":871,"Ġbas":872,"elery":873,"Ġrefriger":874,"Ġpeeled":875,"atter":876,"Ġvegetable":877,"berries":878,"Ġz":879,"Ġ9":880,"Ġcelery":881,"zen":882,"ĠSa":883,"Ġside":884,"ian":885,"gar":886,"pping":887,"Ġgreas":888,"Ġhea":889,"Ġorange":890,"ĠTo":891,"Ġseasoning":892,"ach":893,"eddar":894,"Ġcub":895,"Ġwine":896,"ini":897,"Ġcrush":898,"Ġdes":899,"fer":900,"Ġbake":901,"Ġpasta":902,"Ġpro":903,"tened":904,"Ġnot":905,"Ġdough":906,"ired":907,"sh":908,"Ġfrozen":909,"Ġne":910,"10":911,"Ġcrushed":912,"Ġthrough":913,"Ġjust":914,"ĠCut":915,"onna":916,"onnaise":917,"Ġextract":918,"Ġwarm":919,"pple":920,"Ġdesired":921,"Ġaside":922,"Ġginger":923,"garine":924,"ds":925,"Ġhoney":926,"Ġone":927,"zz":928,"Ġspray":929,"Ġmargarine":930,"Ġthick":931,"ĠAnd":932,"Ġroll":933,"Ġbasil":934,"ade":935,"Ġbreas":936,"Ġfir":937,"Ġmayonnaise":938,"Ġbot":939,"Ġsoy":940,"pe":941,"Ġpin":942,"one":943,"uit":944,"ĠSpread":945,"Ġlbs":946,"ĠWith":947,"Ġcont":948,"ĠWh":949,"Ġlo":950,"ately":951,"Ġpour":952,"vor":953,"Ġsto":954,"Ġmushrooms":955,"Ġwhole":956,"asted":957,"can":958,"Ġsweet":959,"ĠDrain":960,"Ġcoat":961,"ions":962,"Ġeven":963,"Ġmo":964,"ound":965,"'s":966,"anan":967,"ew":968,"yr":969,"ĠBring":970,"yrup":971,"Ġsprinkle":972,"Ġprepar":973,"Ġliqu":974,"pose":975,"iv":976,"ĠN":977,"berry":978,"nish":979,"urpose":980,"ano":981,"Ġchili":982,"Ġpork":983,"Ġsoftened":984,"Ġdressing":985,"ile":986,"ka":987,"Ġlime":988,"ently":989,"Ġsl":990,"vy":991,"purpose":992,"Ġen":993,"Ġhigh":994,"ges":995,"umin":996,"Ġtor":997,"enn":998,"Ġsyrup":999,"Ġturn":1000,"asser":1001,"Ġbrowned":1002,"very":1003,"Ġleaves":1004,"asserole":1005,"Ġthem":1006,"tle":1007,"east":1008,"ĠSalad":1009,"Ġminute":1010,"Ġpean":1011,"Ġtoss":1012,"conut":1013,"Ġice":1014,"rans":1015,"ĠChicken":1016,"Ġbag":1017,"Ġ13":1018,"Ġbatter":1019,"og":1020,"Ġonto":1021,"ĠBeat":1022,"Ġcheddar":1023,"Ġgreased":1024,"rimp":1025,"Ġcarrots":1026,"ally":1027,"Ġbell":1028,"Ġprepared":1029,"tom":1030,"Ġevenly":1031,"Ġcake":1032,"Ġlight":1033,"Ġpeppers":1034,"Ġcookie":1035,"af":1036,"Ġprocess":1037,"ved":1038,"Ġchill":1039,"Ġpaper":1040,"Ġgrill":1041,"ĠPut":1042,"Ġpound":1043,"ayer":1044,"Ġby":1045,"reg":1046,"Ġquar":1047,"15":1048,"led":1049,"Ġfry":1050,"eapple":1051,"Ġbottom":1052,"eep":1053,"Ġalmon":1054,"iss":1055,"ined":1056,"ear":1057,"Ġseeds":1058,"Ġri":1059,"Ġsalad":1060,"Ġnon":1061,"ĠTop":1062,"Ġcrumb":1063,"Ġgl":1064,"Ġparmesan":1065,"ĠLet":1066,"Ġunco":1067,"25":1068,"Ġwill":1069,"row":1070,"ĠCool":1071,"Ġsaute":1072,"ĠSeason":1073,"Ġlon":1074,"Ġbring":1075,"Ġapples":1076,"Ġgra":1077,"stant":1078,"Ġnuts":1079,"ich":1080,"isp":1081,"rack":1082,"Ġcoconut":1083,"antro":1084,"Ġslice":1085,"ilantro":1086,"regano":1087,"arch":1088,"Ġblender":1089,"Ġpreheat":1090,"Ġtortil":1091,"Ġoregano":1092,"inach":1093,"usage":1094,"Ġmarin":1095,"Ġpap":1096,"Ġtime":1097,"Ġbeaten":1098,"aked":1099,"Ġwhisk":1100,"Ġliquid":1101,"ĠU":1102,"Ġbanan":1103,"art":1104,"Ġskin":1105,"Ġfla":1106,"alian":1107,"rika":1108,"Ġremove":1109,"Ġboiling":1110,"Ġocc":1111,"ke":1112,"ides":1113,"Ġoat":1114,"Ġstea":1115,"nuts":1116,"ature":1117,"Ġapple":1118,"ionally":1119,"Ġcumin":1120,"enne":1121,"Ġsc":1122,"Ġcilantro":1123,"Ġpecan":1124,"ump":1125,"Ġnut":1126,"Ġoccas":1127,"Ġslightly":1128,"Ġflakes":1129,"Ġwhi":1130,"Ch":1131,"urt":1132,"ĠPot":1133,"edges":1134,"Ġpaprika":1135,"Ġoccasionally":1136,"Ġthinly":1137,"Ġfoil":1138,"Ġ375":1139,"Ġglass":1140,"icrow":1141,"Ġrack":1142,"Ġsoft":1143,"Ġfood":1144,"Ġcold":1145,"ĠBro":1146,"Ġcrack":1147,"Ġpineapple":1148,"Ġcans":1149,"ransfer":1150,"oodles":1151,"oy":1152,"Ġtem":1153,"Ġham":1154,"Ġsides":1155,"alls":1156,"Ġpeanut":1157,"Ġbon":1158,"enter":1159,"Ġclove":1160,"ĠRed":1161,"Ġmixing":1162,"range":1163,"Ġspoon":1164,"Ġthis":1165,"isc":1166,"allow":1167,"tt":1168,"ary":1169,"ccol":1170,"raw":1171,"Ġfat":1172,"ous":1173,"Ġcenter":1174,"Ġcrumbs":1175,"Ġheavy":1176,"ĠIt":1177,"Ġvegetables":1178,"ccoli":1179,"ruit":1180,"Ġmake":1181,"ame":1182,"ze":1183,"ac":1184,"yme":1185,"ĠV":1186,"os":1187,"Ġpreheated":1188,"high":1189,"ogurt":1190,"Ġwal":1191,"lend":1192,"icrowave":1193,"oked":1194,"Ġcrust":1195,"ĠK":1196,"Ġshrimp":1197,"meg":1198,"ĠCream":1199,"Ġfill":1200,"erry":1201,"elt":1202,"ucch":1203,"els":1204,"Ġthyme":1205,"Ġnutmeg":1206,"Ġdone":1207,"Ġstock":1208,"ucchini":1209,"ec":1210,"Ġpecans":1211,"ĠSh":1212,"Ġcomp":1213,"Ġnoodles":1214,"stick":1215,"Ġ400":1216,"Ġusing":1217,"Ġoff":1218,"utter":1219,"Ġblended":1220,"Ġleast":1221,"less":1222,"Ġtemper":1223,"Ġ7":1224,"eless":1225,"lue":1226,"Ġlike":1227,"other":1228,"Ġsausage":1229,"Ġtemperature":1230,"Ġcomplet":1231,"Ġpinch":1232,"Ġlayer":1233,"Ġcontain":1234,"Ġmuff":1235,"Ġboneless":1236,"Ġres":1237,"shire":1238,"ĠSpoon":1239,"Ġuns":1240,"vered":1241,"ĠMelt":1242,"ayenne":1243,"Ġyogurt":1244,"Ġlit":1245,"tershire":1246,"Ġrais":1247,"Ġtw":1248,"rap":1249,"Ġrefrigerate":1250,"oll":1251,"Ġcrisp":1252,"orces":1253,"rum":1254,"ĠSauce":1255,"Ġother":1256,"ĠSo":1257,"orcestershire":1258,"Ġgarnish":1259,"Ġcompletely":1260,"Ġcubes":1261,"Ġcasserole":1262,"umber":1263,"Ġpotato":1264,"Ġthicken":1265,"Ġcayenne":1266,"14":1267,"Ġtur":1268,"oc":1269,"ediately":1270,"Ġbreasts":1271,"ella":1272,"own":1273,"Ġ25":1274,"Ġspinach":1275,"16":1276,"ĠCheese":1277,"joy":1278,"ashed":1279,"sa":1280,"ucumber":1281,"Ġ34":1282,"Ġwalnuts":1283,"Ġanother":1284,"Ġstraw":1285,"ĠTh":1286,"ig":1287,"esame":1288,"ble":1289,"kin":1290,"ĠY":1291,"Ġsiz":1292,"Ġvery":1293,"ened":1294,"Ġcoars":1295,"about":1296,"Ġspread":1297,"ia":1298,"abb":1299,"aw":1300,"ĠWhen":1301,"fat":1302,"12":1303,"key":1304,"Ġ45":1305,"ĠWorcestershire":1306,"ices":1307,"ĠReduce":1308,"Ġfirm":1309,"ĠJ":1310,"ĠPe":1311,"Ġprocessor":1312,"Ġflavor":1313,"ĠGar":1314,"ĠOn":1315,"Ġfreshly":1316,"Ġfish":1317,"Ġdown":1318,"Ġcontainer":1319,"rizz":1320,"Ġneed":1321,"ffee":1322,"Ġroom":1323,"ser":1324,"ĠFor":1325,"abbage":1326,"starch":1327,"coa":1328,"ivid":1329,"rush":1330,"Ġcovered":1331,"Ġstand":1332,"Ġimm":1333,"Ġfree":1334,"Ġlittle":1335,"Ġstick":1336,"lo":1337,"Ġcornstarch":1338,"Ġpacked":1339,"Ġclean":1340,"ould":1341,"sp":1342,"milk":1343,"Ġbroccoli":1344,"Ġimmediately":1345,"Ġfork":1346,"Ġpaste":1347,"ĠItalian":1348,"umpkin":1349,"Ġzest":1350,"uch":1351,"ually":1352,"Ġraisins":1353,"Ġqu":1354,"Ġoats":1355,"Ġsesame":1356,"Ġchun":1357,"Ġroast":1358,"ocolate":1359,"ĠGr":1360,"rizzle":1361,"Ġtoasted":1362,"ang":1363,"Ġzucchini":1364,"Ġdire":1365,"rease":1366,"meal":1367,"Ġcocoa":1368,"ellow":1369,"ĠIf":1370,"Ġthat":1371,"Ġany":1372,"gg":1373,"ĠButter":1374,"rrange":1375,"oni":1376,"als":1377,"ĠTransfer":1378,"Ġgently":1379,"Ġcomb":1380,"Ġstri":1381,"ctions":1382,"roughly":1383,"Ġalmonds":1384,"arb":1385,"Ġsquar":1386,"Ġreduce":1387,"pt":1388,"ding":1389,"Ġshor":1390,"Ġloaf":1391,"arella":1392,"Ġjar":1393,"Ġtopping":1394,"ator":1395,"ĠEn":1396,"Ġlonger":1397,"Ġfirst":1398,"ĠRoll":1399,"Ġtho":1400,"Ġslow":1401,"unch":1402,"Ġcran":1403,"ubb":1404,"Ġsqu":1405,"Ġcro":1406,"ric":1407,"zzarella":1408,"Ġmuffin":1409,"ĠWhisk":1410,"Ġcucumber":1411,"rop":1412,"Ġlen":1413,"Ġplate":1414,"ren":1415,"Ġchops":1416,"Ġmarinade":1417,"Ġwhipped":1418,"eed":1419,"por":1420,"Ġput":1421,"Ġpeas":1422,"Ġdo":1423,"ipe":1424,"Ġsecon":1425,"Ġtwo":1426,"ĠBlend":1427,"Ġ18":1428,"apen":1429,"Ġmicrowave":1430,"Ġtill":1431,"Ġform":1432,"Ġyellow":1433,"mo":1434,"inue":1435,"Ġthoroughly":1436,"Ġfruit":1437,"ĠSoup":1438,"Ġde":1439,"Ġbreast":1440,"Ġskinless":1441,"Ġolives":1442,"ings":1443,"Ġcur":1444,"ĠDip":1445,"Ġwhen":1446,"Ġuncovered":1447,"Ġhave":1448,"Ġdash":1449,"Ġthey":1450,"ĠSet":1451,"Ġshell":1452,"alapen":1453,"ĠToss":1454,"Ġblue":1455,"ĠParmesan":1456,"Ġcabbage":1457,"Ġenough":1458,"Ġpowdered":1459,"Ġrefrigerator":1460,"gin":1461,"Ġhand":1462,"Ġaddit":1463,"Ġmozzarella":1464,"Ġsepar":1465,"Ġcom":1466,"ĠBrown":1467,"Ġstrips":1468,"Ġmelt":1469,"ites":1470,"ens":1471,"stantly":1472,"ĠSaute":1473,"Ġgran":1474,"Ġdill":1475,"Ġcor":1476,"Ġconstantly":1477,"ark":1478,"Ġhas":1479,"ĠRef":1480,"Ġund":1481,"Ġacc":1482,"voc":1483,"Ġcrumbled":1484,"wh":1485,"ind":1486,"Ġcubed":1487,"'t":1488,"Ġfilling":1489,"issol":1490,"vocad":1491,"Ġmixed":1492,"eta":1493,"Ġboth":1494,"Ġcombined":1495,"Ġpat":1496,"ack":1497,"wich":1498,"Ġsalsa":1499,"tening":1500,"Ġturkey":1501,"Ġpit":1502,"night":1503,"Ġchi":1504,"lower":1505,"Ġsome":1506,"Ġpo":1507,"ĠTurn":1508,"emary":1509,"crum":1510,"ĠRefriger":1511,"fter":1512,"Ġpure":1513,"ting":1514,"Ġshortening":1515,"astic":1516,"fe":1517,"Ġcomes":1518,"Ġround":1519,"flower":1520,"ording":1521,"Ġkn":1522,"irgin":1523,"Ġbubb":1524,"Ġsalmon":1525,"ĠRefrigerate":1526,"Ġjalapen":1527,"udd":1528,"ta":1529,"Ġket":1530,"Ġbit":1531,"urger":1532,"Ġwheat":1533,"Ġcann":1534,"Ġcarrot":1535,"ivided":1536,"Ġaccording":1537,"Ġyol":1538,"Ġno":1539,"ĠDi":1540,"Ġovernight":1541,"Ġ16":1542,"Ġturning":1543,"Ġbreadcrum":1544,"Ġper":1545,"Ġbuttermilk":1546,"Ġx":1547,"izz":1548,"Ġballs":1549,"Ġhalves":1550,"ĠGrease":1551,"Ġwire":1552,"13":1553,"las":1554,"Ġfew":1555,"cept":1556,"tuce":1557,"ĠFold":1558,"Ġheated":1559,"rox":1560,"ĠChill":1561,"red":1562,"Ġread":1563,"Ġfil":1564,"Ġcoffee":1565,"Ġplastic":1566,"Ġ40":1567,"Ġwhites":1568,"dens":1569,"ive":1570,"densed":1571,"jon":1572,"mer":1573,"chup":1574,"yle":1575,"Ġpla":1576,"ex":1577,"lets":1578,"Ġdivided":1579,"Ġtortillas":1580,"udding":1581,"erries":1582,"Ġlettuce":1583,"fa":1584,"erved":1585,"Ġbroil":1586,"Ġmixer":1587,"ĠArrange":1588,"Ġsize":1589,"amic":1590,"ĠThe":1591,"va":1592,"Ġstrawberries":1593,"Ġchunks":1594,"Ġleaf":1595,"ull":1596,"ĠCookies":1597,"Ġsheets":1598,"wise":1599,"Ġbananas":1600,"175":1601,"Ġketchup":1602,"Ġfrying":1603,"Ġpumpkin":1604,"Ġbo":1605,"ĠSimmer":1606,"Ġros":1607,"Ġcondensed":1608,"Ġtow":1609,"Ġquart":1610,"arin":1611,"Ġinches":1612,"Ġrest":1613,"Ġtortilla":1614,"Ġdissol":1615,"Ġrosemary":1616,"Ġbreadcrumbs":1617,"asy":1618,"ction":1619,"Ġmint":1620,"ĠBread":1621,"dually":1622,"acar":1623,"ider":1624,"izza":1625,"ist":1626,"alsamic":1627,"Ġwa":1628,"Ġseconds":1629,"ful":1630,"porated":1631,"Ġscall":1632,"Ġseeded":1633,"Ġneeded":1634,"ift":1635,"Ġavocad":1636,"Ġkeep":1637,"med":1638,"ape":1639,"Ġbanana":1640,"Ġshallow":1641,"Ġthaw":1642,"osh":1643,"Ġca":1644,"Ġdirections":1645,"Ġrec":1646,"Ġtri":1647,"reak":1648,"Ġpress":1649,"rench":1650,"Ġwedges":1651,"una":1652,"Ġallow":1653,"Ġonce":1654,"insed":1655,"ĠRice":1656,"Ġexcept":1657,"Ġbay":1658,"ĠDijon":1659,"ĠSlic":1660,"20":1661,"Ġadditional":1662,"ĠGarnish":1663,"alted":1664,"Ġremo":1665,"osher":1666,"acaroni":1667,"ĠCake":1668,"Ġinser":1669,"Ġedges":1670,"ĠEnjoy":1671,"ead":1672,"Ġchilled":1673,"ĠGrill":1674,"Ġcoarsely":1675,"Ġcoated":1676,"unt":1677,"ort":1678,"ots":1679,"Ġshould":1680,"Ġrinsed":1681,"ĠGra":1682,"Ġsub":1683,"Ġnonstick":1684,"Ġmashed":1685,"Ġseparate":1686,"stit":1687,"Ġcrackers":1688,"ving":1689,"Ġwhile":1690,"Ġquarter":1691,"Ġcookies":1692,"ola":1693,"Ġtooth":1694,"Ġcider":1695,"Ġfine":1696,"so":1697,"Ġcol":1698,"Ġjalapeno":1699,"Ġready":1700,"aple":1701,"Ġpink":1702,"ĠFill":1703,"gth":1704,"Ġdark":1705,"asp":1706,"Ġthickened":1707,"Ġdi":1708,"ĠDrop":1709,"pick":1710,"iscard":1711,"Ġcanned":1712,"Ġfillets":1713,"Ġcranberries":1714,"ates":1715,"Ġhalved":1716,"Ġta":1717,"Ġcurry":1718,"ĠRo":1719,"while":1720,"iscuit":1721,"ĠYou":1722,"Ġchives":1723,"dge":1724,"Ġapprox":1725,"Ġinserted":1726,"Ġsea":1727,"uli":1728,"Ġtoothpick":1729,"Ġthawed":1730,"Ġunsalted":1731,"Ġplain":1732,"ep":1733,"Ġlength":1734,"ivide":1735,"eanwhile":1736,"Ġpick":1737,"Ġbet":1738,"ĠSlice":1739,"ages":1740,"ĠChocolate":1741,"ully":1742,"te":1743,"Ġgranul":1744,"eased":1745,"Ġinstant":1746,"Ġevery":1747,"ĠMeanwhile":1748,"Ġgrease":1749,"Ġpeach":1750,"arsh":1751,"ĠCasserole":1752,"),":1753,"Ġag":1754,"atch":1755,"Ġaround":1756,"arshm":1757,"Ġbalsamic":1758,"Ġeva":1759,"Ġwrap":1760,"uliflower":1761,"Ġback":1762,"Ġshall":1763,"Ġdon":1764,"Ġalmond":1765,"Ġuncooked":1766,"greased":1767,"Ġtoo":1768,"arshmallow":1769,".)":1770,"Ġ325":1771,"uced":1772,"Ġflat":1773,"Ġ35":1774,"Ġfa":1775,"Ġsem":1776,"Ġend":1777,"ĠPre":1778,"Ġspeed":1779,"Ġcreamy":1780,"ĠPie":1781,"Ġprefer":1782,"ets":1783,"Ġsubstit":1784,"Ġcontinue":1785,"fection":1786,"Ġafter":1787,"ĠSpray":1788,"isten":1789,"ddle":1790,"Ġbeg":1791,"lect":1792,"Ġvirgin":1793,"ont":1794,"Ġcooker":1795,"Ġpans":1796,"Ġsalted":1797,"ĠPotatoes":1798,"Ġused":1799,"ĠDrizzle":1800,"Ġconfection":1801,"ĠAll":1802,"Ġlong":1803,"Ġcrock":1804,"Ġfluff":1805,"Ġreduced":1806,"ops":1807,"Ġlid":1808,"inse":1809,"Ġyolks":1810,"Ġcons":1811,"Ġkosher":1812,"Ġpounds":1813,"ican":1814,"Ġpuree":1815,"ĠCr":1816,"Ġsquash":1817,"Ġripe":1818,"Ġpastry":1819,"arp":1820,"Ġher":1821,"ĠTom":1822,"Ġmarshmallow":1823,"Ġgranulated":1824,"Ġcherry":1825,"Ġungreased":1826,"cy":1827,"ife":1828,"Ġfeta":1829,"Qu":1830,"ĠSto":1831,"ĠBe":1832,"Ġmacaroni":1833,"Ġsand":1834,"ĠCar":1835,"ĠSalt":1836,"Ġrolls":1837,"Ġchilies":1838,"ong":1839,"imately":1840,"hett":1841,"weetened":1842,"aby":1843,"Ġknife":1844,"ĠBoil":1845,"Ġevaporated":1846,"Ġquick":1847,"Ġreserved":1848,"Ġsquares":1849,"Ġsteak":1850,"Ġcer":1851,"Ġblueberries":1852,"amb":1853,"ĠRet":1854,"Ġpudding":1855,"Ġchop":1856,"Ġfold":1857,"Ġspices":1858,"Ġjuices":1859,"ĠReturn":1860,"Ġday":1861,"Ġsandwich":1862,"Ġar":1863,"ling":1864,"cent":1865,"Ġfre":1866,"Ġpatt":1867,"amel":1868,"Ġmaple":1869,"Ġpiece":1870,"icy":1871,"rand":1872,"Ġconfectioners":1873,"Ġop":1874,"Ġtsp":1875,"Ġrecipe":1876,"Ġbou":1877,"Ġbox":1878,"Ġsur":1879,"ĠFrench":1880,"quently":1881,"Ġbite":1882,"Ġdeep":1883,"ĠLightly":1884,"iander":1885,"Ġfrequently":1886,"Ġstem":1887,"Sp":1888,"ier":1889,"Ġagain":1890,"Ġlengthwise":1891,"Easy":1892,"Ġinc":1893,"imes":1894,"Ġavocado":1895,"Ġcolor":1896,"int":1897,"Ġsure":1898,"Ġbubbly":1899,"ĠCheddar":1900,"Ġrea":1901,"Ġrasp":1902,"bsp":1903,"Ġrun":1904,"ĠBrush":1905,"nut":1906,"ĠDivide":1907,"tern":1908,"Ġamo":1909,"Ġhard":1910,"Ġfluffy":1911,"Ġunsweetened":1912,"uss":1913,"Ġsurfa":1914,"sing":1915,"ĠPotato":1916,"ĠPeel":1917,"ome":1918,"lectric":1919,"ĠAllow":1920,"Ġsubstitute":1921,"ĠMake":1922,"Ġcoriander":1923,"free":1924,"parag":1925,"illon":1926,"ium":1927,"Ġtuna":1928,"paragus":1929,"Ġyeast":1930,"ĠPress":1931,"Ġelectric":1932,"way":1933,"Ġcereal":1934,"Ġbiscuit":1935,"ern":1936,"ango":1937,"aghett":1938,"Ġcracker":1939,"Ġwork":1940,"ĠThis":1941,"Ġrind":1942,"Ġpackages":1943,"ĠUse":1944,"Ġconsisten":1945,"Ġsurface":1946,"Ġcanola":1947,"Ġbouillon":1948,"Ġeas":1949,"ĠStore":1950,"Ġcap":1951,"ĠDressing":1952,"Chicken":1953,"part":1954,"Ġapproximately":1955,"Ġadding":1956,"Ġ50":1957,"Ġ24":1958,"corn":1959,"oke":1960,"Ġalso":1961,"Ġcauliflower":1962,"aghetti":1963,"ula":1964,"Ġfloured":1965,"ino":1966,"Ġconsistency":1967,"vorite":1968,"ment":1969,"pl":1970,"Ġpizza":1971,"rained":1972,"Ġcand":1973,"erm":1974,"Ġseal":1975,"Ġgood":1976,"ĠSift":1977,"ĠUsing":1978,"cho":1979,"siz":1980,"Ġbroiler":1981,"till":1982,"Ġair":1983,"Ġdou":1984,"Ġstuff":1985,"Ġrum":1986,"Ġwhipping":1987,"ma":1988,"Ġcooled":1989,"Ġsit":1990,"ĠRep":1991,"Ġenjoy":1992,"cake":1993,"Ġ425":1994,"Ġmash":1995,"rig":1996,"arbec":1997,"mmed":1998,"Ġapart":1999,"Ġstal":2000,"Ġhead":2001,"Ġseasoned":2002,"OT":2003,"for":2004,"ĠFry":2005,"ĠThen":2006,"Ġsquare":2007,"ham":2008,"pend":2009,"ĠLine":2010,"sor":2011,"Ġsweetened":2012,"Ġdiscard":2013,"Ġstill":2014,"Ġroasted":2015,"anch":2016,"ney":2017,"coop":2018,"Ġwant":2019,"ĠEgg":2020,"Ġbunch":2021,"Ġpatties":2022,"side":2023,"Ġml":2024,"ĠSc":2025,"Ġsw":2026,"Ġmon":2027,"atin":2028,"Ġdrizzle":2029,"Ġmini":2030,"ĠCorn":2031,"ĠMarin":2032,"cakes":2033,"cle":2034,"Ġsprig":2035,"zer":2036,"ation":2037,"Ġsharp":2038,"ĠRepeat":2039,"ĠGradually":2040,"ple":2041,"Ġcornmeal":2042,"Ġwax":2043,"efully":2044,"Ġribs":2045,"asses":2046,"ote":2047,"30":2048,"hees":2049,"ild":2050,"Ġgo":2051,"Ġseasonings":2052,"olasses":2053,"Ġlean":2054,"balls":2055,"ĠSm":2056,"Ġret":2057,"auce":2058,"Ġspice":2059,"Ġbun":2060,"Ġscallions":2061,"veral":2062,"ĠAl":2063,"--":2064,"Ġbaby":2065,"Ġbrush":2066,"Ġunder":2067,"ĠPepper":2068,"zo":2069,"ĠPrepar":2070,"Ġcas":2071,"Ġplatter":2072,"Ġpart":2073,"anana":2074,"Ġsteaks":2075,"Ġdissolved":2076,"iff":2077,"Ġseveral":2078,"Ġtaco":2079,"ĠFl":2080,"Ġpeaches":2081,"ween":2082,"Ġcoarse":2083,"Ġsun":2084,"Ġtin":2085,"xt":2086,"Ġfull":2087,"burger":2088,"Ġexcess":2089,"Ġshake":2090,"Ġball":2091,"just":2092,"ness":2093,"pric":2094,"uck":2095,"ĠPork":2096,"ĠMuff":2097,"Ġremoved":2098,"Ġget":2099,"arbecue":2100,"Ġtowels":2101,"Ġamount":2102,"bed":2103,"Ġbetween":2104,"Ġdegree":2105,"asta":2106,"fuls":2107,"ĠPrepare":2108,"Ġslowly":2109,"of":2110,"terey":2111,"Ġpeanuts":2112,"eanut":2113,"Ġfavorite":2114,"Ġgraham":2115,"rit":2116,"ters":2117,"Ġdip":2118,"Ġreturn":2119,"Ġnext":2120,"ĠWhile":2121,"Ġad":2122,"spice":2123,"elly":2124,"Ġmarshmallows":2125,"Ġvegg":2126,"eur":2127,"Ġ450":2128,"lish":2129,"Ġpul":2130,"Ġmolasses":2131,"Ġspaghetti":2132,"Ġpitted":2133,"thing":2134,"Ġtransfer":2135,"ĠLayer":2136,"Ġgreens":2137,"ridge":2138,"ĠMuffins":2139,"18":2140,"laze":2141,"Ġoften":2142,"ily":2143,"Ġlay":2144,"Ġasparagus":2145,"Ġlef":2146,"Ġchoice":2147,"gon":2148,"Ġfreeze":2149,"zed":2150,"ĠGarlic":2151,"sting":2152,"Chocolate":2153,"Ġonly":2154,"ingle":2155,"most":2156,"Ġquartered":2157,"Ġchile":2158,"Ġtoast":2159,"Ġabsor":2160,"Ġgel":2161,"exican":2162,"Ġhamburger":2163,"Ġhor":2164,"ere":2165,"tail":2166,"ah":2167,"routs":2168,"tich":2169,"ĠBeans":2170,"Ġfreezer":2171,"uring":2172,"loin":2173,"uffed":2174,"Ġshallots":2175,"arts":2176,"Ġsquee":2177,"Ġliqueur":2178,"Ġcherries":2179,"ĠCoat":2180,"cessary":2181,"Ġplus":2182,"Ġtrimmed":2183,"Ġtops":2184,"Ġberries":2185,"ular":2186,"lit":2187,"Ġoz":2188,"Cream":2189,"utch":2190,"Ġcrab":2191,"ĠRoast":2192,"vel":2193,"Ġdri":2194,"Ġnecessary":2195,"St":2196,"Ġjack":2197,"Ġsingle":2198,"tight":2199,"cktail":2200,"esto":2201,"ĠDo":2202,"edge":2203,"adish":2204,"Ġsherry":2205,"illed":2206,"Ġskew":2207,"Ġtimes":2208,"Ġmango":2209,"Ġpint":2210,"Ġclear":2211,"Ġtrans":2212,"Ġbreak":2213,"pending":2214,"uid":2215,"Ġapplesauce":2216,"Ġalmost":2217,"Ġdouble":2218,"Ġwood":2219,"Ġfridge":2220,"uminum":2221,"ĠCont":2222,"bl":2223,"Ġstrawberry":2224,"Ġfluid":2225,"Ġlast":2226,"Ġ23":2227,"eget":2228,"ĠNote":2229,"ĠShape":2230,"Ġallspice":2231,"achine":2232,"archment":2233,"pot":2234,"Ġsage":2235,"amp":2236,"oun":2237,"Ġstore":2238,"Ġtightly":2239,"Ġbrand":2240,"ener":2241,"Ġgelatin":2242,"Co":2243,"Ġbowls":2244,"ĠTomato":2245,"such":2246,"bread":2247,"cook":2248,"hew":2249,"Ġsmoked":2250,"ĠBean":2251,"Ġ\\":2252,"Ġparchment":2253,"Ġbuttered":2254,"Ġwet":2255,"ĠUn":2256,"Ġbean":2257,"quart":2258,"ĠNOT":2259,"odka":2260,"Ġrefrigerated":2261,"Ġmarinate":2262,"Ġkern":2263,"Ġbest":2264,"Ġshells":2265,"seradish":2266,"Ġflavors":2267,"rock":2268,"ifted":2269,"Ġmois":2270,"Ġind":2271,"ĠBeef":2272,"Ġcucumbers":2273,"Ġjelly":2274,"Ġaluminum":2275,"plant":2276,"ĠContinue":2277,"Ġport":2278,"ĠPan":2279,"Ġtart":2280,"Ġmed":2281,"rett":2282,"Ġstiff":2283,"Ġcored":2284,"Ġbaked":2285,"Ġairtight":2286,"ears":2287,"Ġveggies":2288,"Ġgrain":2289,"Ġburn":2290,"Ġless":2291,"Ġstart":2292,"Ġtea":2293,"aker":2294,"Ġeverything":2295,"Ġcaramel":2296,"Ġstems":2297,"ĠPasta":2298,"Ġtbsp":2299,"Ġcranberry":2300,"ons":2301,"ĠLemon":2302,"ĠPro":2303,"rette":2304,"meric":2305,"Ġsemi":2306,"Ġgrap":2307,"style":2308,"andwich":2309,"ĠGently":2310,"Ġrolled":2311,"ĠStea":2312,"Ġapric":2313,"aig":2314,"ĠQu":2315,"sc":2316,"erves":2317,"Ġfour":2318,"ounce":2319,"use":2320,"Ġstew":2321,"ĠWhip":2322,"Ġraw":2323,"Ġwooden":2324,"ĠMicrowave":2325,"acon":2326,"Ġfirmly":2327,"aigrette":2328,"ĠMushroom":2329,"Ġflore":2330,"ai":2331,"ickp":2332,"icot":2333,"ĠChop":2334,"de":2335,"Ġherbs":2336,"Ġinst":2337,"asco":2338,"Ġ*":2339,"lenda":2340,"Ġglasses":2341,"ĠGreen":2342,"ĠSandwich":2343,"Ġvodka":2344,"sweet":2345,"Ġoranges":2346,"Ġmuch":2347,"Ġbuns":2348,"19":2349,"tils":2350,"ĠFree":2351,"Ġsticks":2352,"ussels":2353,"Ġjam":2354,"Ġbar":2355,"ĠWrap":2356,"ppings":2357,"ale":2358,"Ġshape":2359,"Ġbottle":2360,"Ġmelts":2361,"Ġpea":2362,"Ġbeating":2363,"Ġhands":2364,"lu":2365,"Ġcott":2366,"law":2367,"lavor":2368,"Ġbec":2369,"abasco":2370,"Ġsprouts":2371,"Ġman":2372,"Ġpres":2373,"ĠSlow":2374,"ĠLow":2375,"Ġkid":2376,"Ġtil":2377,"Ġsn":2378,"elb":2379,"ĠOr":2380,"ĠFro":2381,"Ġcandy":2382,"Ġ--":2383,"ragon":2384,"icing":2385,"ett":2386,"Ġabsorbed":2387,"Ġbarbecue":2388,"Ġroasting":2389,"kra":2390,"Ġreg":2391,"ili":2392,"ĠApple":2393,"Ġsame":2394,"Ġsized":2395,"ĠMeat":2396,"Ġcottage":2397,"ppy":2398,"Ġ300":2399,"Ġleave":2400,"Ġcre":2401,"Ġhorseradish":2402,"Baked":2403,"Ġsifted":2404,"Ġbits":2405,"do":2406,"ĠWash":2407,"ĠOnce":2408,"Ġmi":2409,"arragon":2410,"icotta":2411,"Ġbars":2412,"Ġtray":2413,"Ġicing":2414,"Ġlined":2415,"ollow":2416,"Ġdrippings":2417,"Gr":2418,"Ġtowel":2419,"Ġcutting":2420,"Ġgradually":2421,"eeks":2422,"Ġundrained":2423,"Ġmeatballs":2424,"Ġho":2425,"Ġflaked":2426,"Ġstuffing":2427,"ious":2428,"ĠShake":2429,"Ġcreamed":2430,"Ġstalks":2431,"thy":2432,"Ġbatch":2433,"ĠCan":2434,"ĠZ":2435,"cous":2436,"Ġrinse":2437,"Ġskim":2438,"Ġturmeric":2439,"Ġbiscuits":2440,"Ġscoop":2441,"Ġalong":2442,"ĠRec":2443,"Ro":2444,"ĠBreak":2445,"ouscous":2446,"Ġlentils":2447,"Ġoatmeal":2448,"Ġmachine":2449,"ny":2450,"ĠBr":2451,"Ġ60":2452,"Ġsprigs":2453,"ĠSweet":2454,"Ġflorets":2455,"chopped":2456,"Ġmaking":2457,"ari":2458,"Ġleaving":2459,"Ġartich":2460,"fry":2461,"Ġgravy":2462,"Ġbr":2463,"Ġequ":2464,"ĠBroil":2465,"rate":2466,"Ġinside":2467,"Ġwings":2468,"ĠSqu":2469,"Ġlayers":2470,"Ġeasily":2471,"ĠRinse":2472,"Ġthickness":2473,"Ġroma":2474,"Ġkidney":2475,"Ġmonterey":2476,"Ġreach":2477,"reek":2478,"Ġway":2479,"ĠTabasco":2480,"Ġbeer":2481,"Ġgri":2482,"Ġrub":2483,"Ġsli":2484,"ĠRecipe":2485,"eri":2486,"Ġcrispy":2487,"ys":2488,"ght":2489,"Ġspring":2490,"ĠSugar":2491,"Ġbeen":2492,"Ġremoving":2493,"ĠBaked":2494,"Ġha":2495,"Ġdepending":2496,"Ġmiddle":2497,"Ġplates":2498,"Ġthickens":2499,"Ġmeas":2500,"ĠVeget":2501,"Ġtransl":2502,"Ġchunk":2503,"Ġtake":2504,"Ġsprink":2505,"Ġpine":2506,"ĠAs":2507,"ĠRub":2508,"Sweet":2509,"elic":2510,"ucent":2511,"Ġjars":2512,"Ġeggplant":2513,"Ġtranslucent":2514,"Ġcocktail":2515,"ĠSplenda":2516,"uted":2517,"Ġtarragon":2518,"Ġraspberries":2519,"Ġthree":2520,"ĠToast":2521,"meat":2522,"tover":2523,"ranberry":2524,"Ġthigh":2525,"ĠOnion":2526,"Ġlamb":2527,"ĠCa":2528,"hub":2529,"Ġmade":2530,"imple":2531,"Ġrough":2532,"IN":2533,"pro":2534,"ĠSlowly":2535,"Ġgriddle":2536,"hubarb":2537,"ual":2538,"Ġfra":2539,"isin":2540,"Ġhear":2541,"Ġconcent":2542,"Ġmins":2543,"size":2544,"ĠMakes":2545,"ento":2546,"ĠOat":2547,"Grilled":2548,"Ġaltern":2549,"ĠShrimp":2550,"otch":2551,"ible":2552,"Ġpop":2553,"isweet":2554,"Ġstrain":2555,"ilad":2556,"Ġskewers":2557,"Ġbegins":2558,"peel":2559,"ĠSw":2560,"ĠMash":2561,"Ġsemisweet":2562,"Ġcapers":2563,"Ġspat":2564,"28":2565,"Ġglaze":2566,"ĠBars":2567,"mel":2568,"ru":2569,"ton":2570,"Ġthan":2571,"ized":2572,"Ġricotta":2573,"inoa":2574,"Ġsteam":2575,"Ġrings":2576,"Ġdays":2577,"Ġracks":2578,"ĠForm":2579,"Ġspatula":2580,"flavor":2581,"bon":2582,"Ġmoistened":2583,"Ġlemons":2584,"Ġitalian":2585,"elf":2586,"Ġyolk":2587,"Ġswiss":2588,"amom":2589,"ickpeas":2590,"Ġpreserves":2591,"Ġraspberry":2592,"Ġ200":2593,"Ġcarefully":2594,"Ġwok":2595,"Ġnonfat":2596,"urgers":2597,"Ġconcentrate":2598,"ĠTake":2599,"Ġmayo":2600,"Lemon":2601,"Ġorder":2602,"Ġsugars":2603,"udge":2604,"peeled":2605,"not":2606,"iron":2607,"urkey":2608,"Ġmuffins":2609,"outh":2610,"ĠStrain":2611,"its":2612,"Ġstove":2613,"ĠAfter":2614,"enerous":2615,"rescent":2616,"Ġdates":2617,"Ġ11":2618,"ennel":2619,"Ġincor":2620,"Ġarrange":2621,"ĠChip":2622,"Ġpesto":2623,"Ġfrosting":2624,"ĠDutch":2625,"Ġshallot":2626,"omme":2627,"Ġmy":2628,"ied":2629,"ms":2630,"ata":2631,"ardamom":2632,"Ġtherm":2633,"ente":2634,"!)":2635,"Ġsplit":2636,"ellini":2637,"Ġpacket":2638,"ĠSpinach":2639,"ometer":2640,"ne":2641,"Ġchiles":2642,"Ġeat":2643,"Creamy":2644,"Ġrise":2645,"Ġregular":2646,"Ġbatches":2647,"fast":2648,"que":2649,"virgin":2650,"Ġsoften":2651,"Ġthermometer":2652,"erb":2653,"Ġdro":2654,"asting":2655,"inner":2656,"40":2657,"Ġwithout":2658,"Ġsodium":2659,"Ġpim":2660,"Ġlook":2661,"Ġrounds":2662,"ĠChops":2663,"Ġgreat":2664,"potle":2665,"umm":2666,"Sa":2667,"ĠMo":2668,"Ġindivid":2669,"alf":2670,"ĠSalmon":2671,"Ġmeal":2672,"ĠPudding":2673,"fl":2674,"ably":2675,"Ġpickle":2676,"Ġends":2677,"Ġdente":2678,"ĠProcess":2679,"risp":2680,"Ġbri":2681,"Ġfive":2682,"ĠPeanut":2683,"jun":2684,"ĠBanana":2685,"omem":2686,"omemade":2687,"Ġreal":2688,"flavored":2689,"oiled":2690,"Ġcrumbly":2691,"190":2692,"Ġthighs":2693,"Ġposs":2694,"elicious":2695,"Ġflavored":2696,"ĠChili":2697,"Ġchees":2698,"ity":2699,"Ġquarts":2700,"Ġreserving":2701,"Ġsecond":2702,"chilad":2703,"Ġsetting":2704,"oul":2705,"Apple":2706,"velop":2707,"Ġpita":2708,"Ġcube":2709,"odium":2710,"Ġdoes":2711,"Ġwashed":2712,"Spicy":2713,"Ġdrop":2714,"Ġ250":2715,"Ġcouscous":2716,"ert":2717,"zel":2718,"Ġcardamom":2719,"Ġchickpeas":2720,"dried":2721,"ĠMexican":2722,"proof":2723,"ineapple":2724,"ĠEasy":2725,"cut":2726,"Ġdeve":2727,"ty":2728,"Ġ.":2729,"Ġcashew":2730,"Ġpeaks":2731,"Ġbetter":2732,"Ġbegin":2733,"av":2734,"Ġbul":2735,"ecor":2736,"Ġleftover":2737,"ĠCrum":2738,"Ġhow":2739,"bo":2740,"Ġroughly":2741,"ĠPat":2742,"ib":2743,"Ġapricot":2744,"scotch":2745,"elve":2746,"cooked":2747,"Ġdice":2748,"sized":2749,"uple":2750,"cover":2751,"vent":2752,"Th":2753,"Ġslivered":2754,"Ġiron":2755,"Roasted":2756,"Ġaway":2757,"Ġcrescent":2758,"aki":2759,"Ġcoating":2760,"eness":2761,"ĠSe":2762,"Ġcir":2763,"Ġcouple":2764,".).":2765,"glish":2766,"ĠPure":2767,"ĠTomatoes":2768,"Ġsprayed":2769,"Ġgrapes":2770,"Bro":2771,"heck":2772,"ingers":2773,"Ġavocados":2774,"Ġtins":2775,"Ġcheeses":2776,"essert":2777,"Ġwaxed":2778,"Ġadjust":2779,"ĠApp":2780,"Ġfennel":2781,"Ġsandwiches":2782,"Ġbrandy":2783,"Ġmost":2784,"ER":2785,"loaf":2786,"ĠFruit":2787,"ĠKeep":2788,"ĠPizza":2789,"ĠBacon":2790,"45":2791,"Ġplum":2792,"Ġbeets":2793,"Ġcrabmeat":2794,"The":2795,"Car":2796,"ken":2797,"ĠEggs":2798,"11":2799,"Ġtorn":2800,"afe":2801,"ĠHot":2802,"ĠLo":2803,"Ġquickly":2804,"ĠCarro":2805,"Ġdrops":2806,"Ġreserve":2807,"Ġ100":2808,"Ġamon":2809,"ĠSk":2810,"Ġzip":2811,"Ġopen":2812,"Ġranch":2813,"Â°":2814,"rape":2815,"Ġwra":2816,"Ġwarmed":2817,"Ġamong":2818,"Ġtouch":2819,"Sh":2820,"Ġserved":2821,"Ġbasting":2822,"Crock":2823,"boiled":2824,"Ġsec":2825,"agon":2826,"Ġki":2827,"Ġdoneness":2828,"ĠVin":2829,"ipped":2830,"Ġbone":2831,"ĠSalsa":2832,"Ġdeveined":2833,"ye":2834,"Ġcola":2835,"you":2836,"Ġweed":2837,"ating":2838,"ĠSmooth":2839,"Ġusually":2840,"Ġdirec":2841,"Ġwould":2842,"Ġline":2843,"ĠPuree":2844,"head":2845,"Ġmas":2846,"olid":2847,"Wh":2848,"ĠJust":2849,"Ġindividual":2850,"Ġhe":2851,"Ġsunflower":2852,"Ġhearts":2853,"ingu":2854,"Ġrolling":2855,"Ġmild":2856,"ĠSausage":2857,"ath":2858,"Ġself":2859,"Ġgenerous":2860,"ĠBas":2861,"Ġpear":2862,"the":2863,"ommend":2864,"Ġcross":2865,"Quick":2866,"Ġedge":2867,"Ġwil":2868,"ala":2869,"half":2870,"eek":2871,"heesy":2872,"sodium":2873,"quick":2874,"eful":2875,"Ġduring":2876,"Ġloos":2877,"fu":2878,"ĠLay":2879,"mm":2880,"Ġpepperoni":2881,"ither":2882,"Ġquinoa":2883,"ĠOrange":2884,"Ġfinish":2885,"Ġmet":2886,"etc":2887,"It":2888,"yaki":2889,"Ġnice":2890,"lined":2891,"Ġpulse":2892,"ial":2893,"ructions":2894,"Ġfit":2895,"Ġprevent":2896,"Ġgrape":2897,"Ġfragr":2898,"Ġartichoke":2899,"top":2900,"Ġes":2901,"Ġfollow":2902,"ĠMarinate":2903,"ĠTaste":2904,"Ġfully":2905,"rew":2906,"ĠFresh":2907,"iche":2908,"ence":2909,"root":2910,"uer":2911,"ĠDe":2912,"Ġtenderloin":2913,"Ġenvelop":2914,"eriyaki":2915,"Ġabove":2916,"Ġquarters":2917,"ĠNut":2918,"Ġfried":2919,"Ġrhubarb":2920,"Ġtes":2921,"Ġaddition":2922,"cooking":2923,"ĠOatmeal":2924,"Ġac":2925,"Ġbl":2926,"app":2927,"Ġequal":2928,"adle":2929,"ĠCarefully":2930,"lazed":2931,"Ġdiagon":2932,"ucc":2933,"Banana":2934,"Ġcracked":2935,"oz":2936,"ealthy":2937,"Ġgoat":2938,"ĠPancakes":2939,"ĠTablespoon":2940,"irl":2941,"ĠHoney":2942,"lueberry":2943,"Ġadded":2944,"Ġmug":2945,"ĠTri":2946,"ĠMarinade":2947,"ban":2948,"Ġetc":2949,"ffle":2950,"Ġtheir":2951,"Ġwhip":2952,"Ġhold":2953,"ctive":2954,"Ġbig":2955,"Ġminiature":2956,"Ġdirected":2957,"Ġrep":2958,"Ġdust":2959,"Ġinstructions":2960,"Be":2961,"ctang":2962,"ĠDiscard":2963,"ising":2964,"Ġmoder":2965,"isquick":2966,"Ġrectang":2967,"Ġfragrant":2968,"Ġsqueeze":2969,"Ġhash":2970,"ats":2971,"ĠStyle":2972,"Ġwhisking":2973,"Ġdipping":2974,"Ġvinaigrette":2975,"Ġrelish":2976,"Ġgrate":2977,"Ġ180":2978,"ufa":2979,"kraut":2980,"Gar":2981,"Ġcreme":2982,"))":2983,"Ġstarts":2984,"RE":2985,"ĠTbsp":2986,"are":2987,"Ġwide":2988,"Ġherb":2989,"Ġboiled":2990,"Ġcareful":2991,"tender":2992,"elveeta":2993,"Ġpancake":2994,"ower":2995,"ufact":2996,"Ġcashews":2997,"ĠPo":2998,"ira":2999,"ara":3000,"Ġmanufact":3001,"leslaw":3002,"melon":3003,"Ġpossible":3004,"alo":3005,"Ġservings":3006,"Ġbubbles":3007,"ĠUncover":3008,"uerkraut":3009,"Ġbroken":3010,"Ġ'":3011,"Ġpeppercorn":3012,"unchy":3013,"fresh":3014,"vour":3015,"ĠWhite":3016,"Ġbags":3017,"Ġprepare":3018,"Ġboard":3019,"Ġincorporated":3020,"ĠTopping":3021,"Ġright":3022,"Ġromaine":3023,"Ġfillet":3024,"ĠStew":3025,"baked":3026,"ĠEnglish":3027,"Garlic":3028,"Ġfo":3029,"ĠIi":3030,"Ġrot":3031,"Ġtartar":3032,"Ġpulp":3033,"cher":3034,"Ġkernels":3035,"ĠBrussels":3036,"Ġoptional":3037,"Ġsimmering":3038,"Ġsuch":3039,"ĠSour":3040,"Ġmanufactur":3041,"Ġahead":3042,"ĠFin":3043,"ashion":3044,"Ġforms":3045,"Ġver":3046,"ĠBroccoli":3047,"Ġoys":3048,"ramb":3049,"ĠCrumble":3050,"ĠBlack":3051,"Ġsqueezed":3052,"Ġits":3053,"Ġcrumble":3054,"andarin":3055,"Ġrounded":3056,"Ġtub":3057,"ĠIce":3058,"Ġchunky":3059,"Ġlower":3060,"ĠRoasted":3061,"ĠVegetable":3062,"ette":3063,"liced":3064,"Ġleft":3065,"safe":3066,"ita":3067,"ĠMay":3068,"min":3069,"ugula":3070,"Ġworks":3071,"umps":3072,"ĠMilk":3073,"ĠRes":3074,"Ġstyle":3075,"Ġkernel":3076,"Ġbutterscotch":3077,"Ġsoak":3078,"Ġjuiced":3079,"Ġcaps":3080,"Ġchipotle":3081,"Ġdissolve":3082,"Ġflatten":3083,"Ġjalapenos":3084,"Ġskins":3085,"ĠMushrooms":3086,"Ġcla":3087,"ĠBest":3088,"ĠSmoothie":3089,"Peanut":3090,"60":3091,"Ġgranu":3092,"ĠFreeze":3093,"ĠPumpkin":3094,"Stra":3095,"Ġtofu":3096,"Ġthese":3097,"Ġbase":3098,"otted":3099,"Ġbarley":3100,"ĠFried":3101,"Ġchest":3102,"Ġcoloring":3103,"uper":3104,"Ġcreat":3105,"Ġenvelope":3106,"oli":3107,"roll":3108,"uten":3109,"Ġpopcorn":3110,"ĠTurkey":3111,"Ġmoist":3112,"Pot":3113,"ĠSteak":3114,"Hot":3115,"Ġcrockpot":3116,"ning":3117,"Ġseparated":3118,"ĠNOTE":3119,"ieve":3120,"urry":3121,"Ġnear":3122,"Straw":3123,"ĠMin":3124,"Ġpoint":3125,"Ġwedge":3126,"mix":3127,"aco":3128,"mond":3129,"ĠPecan":3130,"ĠCrust":3131,"ĠAn":3132,"Butter":3133,"Ġseedless":3134,"Ġbott":3135,"ĠScoop":3136,"ĠOli":3137,"redge":3138,"Orange":3139,"add":3140,"Ġwas":3141,"Ġdecor":3142,"Ġflax":3143,"ING":3144,"Honey":3145,"jor":3146,"inese":3147,"Ġold":3148,"Ġleeks":3149,"rib":3150,"ĠHam":3151,"gel":3152,"ĠMar":3153,"Ġmanufacturer":3154,"ĠStuff":3155,"Ġparts":3156,"ron":3157,"alt":3158,"35":3159,"Ġstewed":3160,"Ġscallion":3161,"Ġspicy":3162,"Ġslotted":3163,"Ġshaker":3164,"Ġjuli":3165,"Ġboiler":3166,"Ġkale":3167,"Ġcrosswise":3168,"Low":3169,"..":3170,"Ġtast":3171,"ially":3172,"ĠFat":3173,"Ġtossing":3174,"Ġmakes":3175,"armal":3176,"oo":3177,"ĠGrilled":3178,"Ġdis":3179,"ĠCl":3180,"try":3181,"Ġspoonfuls":3182,"Ġgu":3183,"oodle":3184,"asa":3185,"ĠVelveeta":3186,"gan":3187,"Ġdissolves":3188,"Ġinclu":3189,"Ġpitcher":3190,"fish":3191,"Italian":3192,"armalade":3193,"utney":3194,"Ġdrink":3195,"ello":3196,"ĠZucchini":3197,"ila":3198,"Ġshap":3199,"ĠBisquick":3200,"Ġcooling":3201,"ĠSwiss":3202,"200":3203,"merican":3204,"iel":3205,"ĠStuffed":3206,"Ġnect":3207,"vocado":3208,"eli":3209,"ths":3210,"banzo":3211,"Ġlik":3212,"Ġstalk":3213,"ross":3214,"Ġorzo":3215,"Ġthir":3216,"ĠAd":3217,"Ġcutter":3218,"Ġpoppy":3219,"press":3220,"da":3221,"inguine":3222,"Ġfoam":3223,"Ġknead":3224,"joram":3225,"Ġflip":3226,"Ġeither":3227,"qt":3228,"elbow":3229,"Ġpeppercorns":3230,"Ġdishes":3231,"Ġgranules":3232,"heit":3233,"ĠGreek":3234,"Ġancho":3235,"Ġouts":3236,"Ġrad":3237,"Ġloin":3238,"ĠReserve":3239,"Green":3240,"Ġunpeeled":3241,"eeze":3242,"ĠSoak":3243,"ĠCup":3244,"Ġgingerroot":3245,"io":3246,"undt":3247,"Ġwalnut":3248,"Strawberry":3249,"ĠGinger":3250,"uk":3251,"Ġalternately":3252,"Ġelbow":3253,"ĠOil":3254,"ĠKn":3255,"elbasa":3256,"oro":3257,"Ġmarjoram":3258,"Ġlim":3259,"Ġwe":3260,"Ġrese":3261,"Ġtight":3262,"Ġgall":3263,"Ġscrap":3264,"Ġchuck":3265,"Ġmetal":3266,"ashioned":3267,"Ġthere":3268,"ace":3269,"ĠLea":3270,"istrib":3271,"Ġresemb":3272,"by":3273,"ĠRa":3274,"Ġtriang":3275,"Ġcy":3276,"Ġsmoke":3277,"cing":3278,"erran":3279,"Ġreaches":3280,"Ġcolander":3281,"ommended":3282,"atur":3283,"chilada":3284,"ĠCoffee":3285,"Ġshort":3286,"ors":3287,"agne":3288,"ummer":3289,"Pe":3290,"Ġlin":3291,"ĠJack":3292,"fro":3293,"ĠMustard":3294,"Ġprov":3295,"ĠTrim":3296,"orm":3297,"ettucc":3298,"ina":3299,"ft":3300,"food":3301,"ĠVinaigrette":3302,"Ġkind":3303,"Ġhalfway":3304,"Ġbran":3305,"IG":3306,"ping":3307,"ĠStraw":3308,"BQ":3309,"ĠSeal":3310,":.":3311,"Tom":3312,"Ġoiled":3313,"Ġslicing":3314,"iracle":3315,"Ġrunning":3316,"ĠSqueeze":3317,"Ġsauerkraut":3318,"ĠCho":3319,"Cr":3320,"ĠSeasoning":3321,"away":3322,"ank":3323,"ĠOnions":3324,"Ġchestnuts":3325,"bled":3326,"Cranberry":3327,"Ġcustard":3328,"Ġpenne":3329,"Ġstor":3330,"Ġbagu":3331,"Ġreally":3332,"Ġsolid":3333,"ĠSandwiches":3334,"ĠCabbage":3335,"quila":3336,"Ġtex":3337,"Ġoutside":3338,"Ġpuff":3339,"Ġmandarin":3340,"Ġbubbling":3341,"Ġpressed":3342,"Ġwhich":3343,"atever":3344,"Ġpancakes":3345,"oca":3346,"issolve":3347,"ourbon":3348,"usts":3349,"Ġmarmalade":3350,"Ġcome":3351,"ĠDissolve":3352,"arian":3353,"ĠWal":3354,"ĠAdjust":3355,"Ġlumps":3356,"rawn":3357,"Ġcleaned":3358,"ĠFilling":3359,"Ġarugula":3360,"ampagne":3361,"bq":3362,"Ġim":3363,"ĠMiracle":3364,"Ġunbaked":3365,"Pumpkin":3366,"Ġ,":3367,"ĠLadle":3368,"ĠFrosting":3369,"ĠCooker":3370,"Mexican":3371,"utons":3372,"Ġportions":3373,"alam":3374,"ĠBrownies":3375,"aspberry":3376,"Ġhel":3377,"grain":3378,"ĠBiscuit":3379,"Ġmeasuring":3380,"lesh":3381,"Ġrib":3382,"sticks":3383,"ance":3384,"ĠAmerican":3385,"ĠHigh":3386,"Ġent":3387,"approx":3388,"Ġtopped":3389,"asch":3390,"Ġtwice":3391,"Al":3392,"ĠTuna":3393,"redo":3394,"ult":3395,"Ġmoderate":3396,"Ġdoll":3397,"usages":3398,"renheit":3399,"Ġshred":3400,"Ġcrusts":3401,"aschino":3402,"ĠCrock":3403,"Ġcornfl":3404,"Cheese":3405,"fredo":3406,"Ġgarbanzo":3407,"ĠFudge":3408,"bro":3409,"70":3410,"ease":3411,"amole":3412,"iluted":3413,"Ġtot":3414,"Ġwilted":3415,"Ġsafe":3416,"Ġrefried":3417,"Ġflesh":3418,"Ġwatermelon":3419,"Ġtube":3420,"Ġpickles":3421,"lip":3422,"cup":3423,"oultry":3424,"acamole":3425,"Ġfilled":3426,"Ġtexture":3427,"ball":3428,"ĠCinnamon":3429,"Ġscallops":3430,"Cheesy":3431,"Ġgive":3432,"IGH":3433,"ĠCoconut":3434,"ko":3435,"Ġfingers":3436,"Corn":3437,"ĠDO":3438,"Ġdessert":3439,"ama":3440,"Ġwaffle":3441,"cha":3442,"ealable":3443,"AT":3444,"aves":3445,"agna":3446,"Ġmaraschino":3447,"Ġcaraway":3448,"ĠSquash":3449,"Ġpimento":3450,"South":3451,"with":3452,"ĠCre":3453,"Sal":3454,"Ġmold":3455,"uice":3456,"ĠNow":3457,"Ġentire":3458,"Ġtap":3459,"ĠBBQ":3460,"rie":3461,"Ġdivide":3462,"melet":3463,"Ġlemonade":3464,"pre":3465,"ĠPam":3466,"ĠBreakfast":3467,"cm":3468,"met":3469,"sliced":3470,"anish":3471,"ĠOver":3472,"'re":3473,"Ġgenerously":3474,"ose":3475,"uy":3476,"aster":3477,"Ġpier":3478,"ĠFah":3479,"istach":3480,"Ġcycle":3481,"Ġsteamed":3482,"Black":3483,"more":3484,"ants":3485,"Ġresealable":3486,"lea":3487,"ĠCranberry":3488,"ioli":3489,"Ġpoultry":3490,"Ġdeli":3491,"ĠWatch":3492,"okes":3493,"hy":3494,"mint":3495,"Ġteaspoonfuls":3496,"asagna":3497,"Ġtemp":3498,"Ġinstead":3499,"ĠFahrenheit":3500,"**":3501,"Ġty":3502,"Ġsmaller":3503,"Tomato":3504,"chen":3505,"Ġgallon":3506,"Ġgrilled":3507,"ĠLower":3508,"Ġpressing":3509,"apia":3510,"Ġmeasure":3511,"Simple":3512,"ĠBurgers":3513,"Ġweeks":3514,"Ġbrowns":3515,"ummy":3516,"Ġdiagonally":3517,"Ġlinguine":3518,"land":3519,"Ġscraping":3520,"ettuccine":3521,"Ġsift":3522,"Ġheaping":3523,"ĠX":3524,"Ġown":3525,"inning":3526,"Ġbaguette":3527,"ubbed":3528,"Ġnectar":3529,"no":3530,"Ġme":3531,"any":3532,"ĠFa":3533,"Ġcrusty":3534,"presso":3535,"ĠVanilla":3536,"eel":3537,"Ġpears":3538,"ĠCucumber":3539,"ĠSpice":3540,"untry":3541,"ĠFlat":3542,"ĠBasil":3543,"Ġresembles":3544,"Ġliking":3545,"Ġcould":3546,"Ġsix":3547,"omeg":3548,"ĠLime":3549,"Ġdinner":3550,"oriz":3551,"ĠAr":3552,"Ġhazel":3553,"Ġradish":3554,"Ġpureed":3555,"itchen":3556,"ĠKosher":3557,"Egg":3558,"irloin":3559,"Ġsausages":3560,"ĠCrisp":3561,"Sm":3562,"ĠCooking":3563,"ĠOf":3564,"ulled":3565,"Ġteriyaki":3566,"rong":3567,"Ġespresso":3568,"don":3569,"sugar":3570,"ĠTea":3571,"Ġcrunchy":3572,"Ġtoppings":3573,"Ġwash":3574,"iano":3575,"Fried":3576,"No":3577,"Ġ150":3578,"rs":3579,"vil":3580,"ĠApples":3581,"Ġhoisin":3582,"rish":3583,"Ġcroutons":3584,"ĠBiscuits":3585,"drained":3586,"Ġwhatever":3587,"Ġroot":3588,"ĠOp":3589,"omegran":3590,"dough":3591,"OW":3592,"like":3593,"Ġpinto":3594,"ĠFlour":3595,"ĠOlive":3596,"Ġbeing":3597,"Pork":3598,"rout":3599,"ĠFlip":3600,"Mom":3601,"Ġloosely":3602,"Ġacross":3603,"Ġdistrib":3604,"ĠWarm":3605,"Ġhandle":3606,"Ġcircle":3607,"Ġactive":3608,"Ġweek":3609,"ffles":3610,"ĠPineapple":3611,"vers":3612,"Ġtequila":3613,"ĠMon":3614,"orizo":3615,"iento":3616,"Ġwild":3617,"Ġtah":3618,"Beef":3619,"isco":3620,"ĠHIGH":3621,"ĠLeave":3622,"ĠImm":3623,"alamata":3624,"man":3625,"ĠFeta":3626,"ways":3627,"Ġwish":3628,"Ġnic":3629,"ĠPl":3630,"efore":3631,"Ġstarting":3632,"rawns":3633,"Ġ).":3634,"egan":3635,"Slow":3636,"olone":3637,"Ġlarger":3638,"omegranate":3639,"Ġleg":3640,"ĠTe":3641,"Ġsticky":3642,"Ġtahini":3643,"ĠTablespoons":3644,"Ca":3645,"mar":3646,"Ġtall":3647,"Ġwon":3648,"itz":3649,"acad":3650,"Ġwrapper":3651,"ĠInc":3652,"Ġ160":3653,"Ġbrew":3654,"Ġstrong":3655,"Ġcontin":3656,"enned":3657,"ĠCarrots":3658,"rus":3659,"ĠKnead":3660,"Ġflavoring":3661,"Fresh":3662,"Ġapricots":3663,"ĠImmediately":3664,"Ġ55":3665,"Ġstrainer":3666,"ield":3667,"lock":3668,"ĠFish":3669,"ĠGran":3670,"ĠSepar":3671,"Potato":3672,"Ġmaker":3673,"Ġcore":3674,"Spinach":3675,"Ġangel":3676,"Ġcombin":3677,"Ġsieve":3678,"ĠMy":3679,"Ġpartially":3680,"hot":3681,"ĠMacaroni":3682,"ĠWheat":3683,"Ġundiluted":3684,"Ġsnipped":3685,"atural":3686,"Ġem":3687,"Ġdog":3688,"inned":3689,"rispies":3690,"rec":3691,"Ġraisin":3692,"Zucchini":3693,"Ġale":3694,"ĠTaco":3695,"isket":3696,"Ġdoesn":3697,"ĠChopped":3698,"As":3699,"Ġcent":3700,"Ġbrowning":3701,"Ġkielbasa":3702,"ĠCurry":3703,"mat":3704,"Ġstar":3705,"ĠSteam":3706,"Ġpic":3707,"Bacon":3708,"Ġsnow":3709,"Ġsirloin":3710,"Ġdutch":3711,"Ġenchilada":3712,"ĠMeatloaf":3713,"ality":3714,"Ġovenproof":3715,"Ġburgers":3716,"ĠDon":3717,"ĠMeatballs":3718,"ause":3719,"Ġdollop":3720,"ĠFlatten":3721,"Ġchar":3722,"ĠCrack":3723,"ĠBreas":3724,"IL":3725,"Shrimp":3726,"Ġliners":3727,"unts":3728,"Ġbecome":3729,"Ġlump":3730,"thick":3731,"ctly":3732,"Ġjulienned":3733,"White":3734,"ioca":3735,"omes":3736,"Ġ0":3737,"ĠBalls":3738,"Ġcornbread":3739,"ahlu":3740,"Ġpimiento":3741,"Ġportion":3742,"ĠQuick":3743,"ahlua":3744,"If":3745,"ĠRe":3746,"Ġreheat":3747,"cl":3748,"Ġcast":3749,"ĠMashed":3750,"Ġbones":3751,"Ġdashes":3752,"Ġoyster":3753,"Ġcoals":3754,"Ġloaves":3755,"Ġsoymilk":3756,"Ġlater":3757,"ĠSpicy":3758,"*.":3759,"Ġskewer":3760,"Ġnicely":3761,"aque":3762,"Ġpar":3763,"arge":3764,"ĠSyrup":3765,"Ġcontainers":3766,"165":3767,"ĠFrit":3768,"ĠRolls":3769,"Ġrepeat":3770,"iry":3771,"ĠOven":3772,"Ġflavour":3773,"kins":3774,"Ġbeginning":3775,"Broccoli":3776,"ĠBl":3777,"Ġsoaked":3778,"osemary":3779,"Red":3780,"ĠStrawberry":3781,"ĠPunch":3782,"Ġheads":3783,"Ġlog":3784,"ĠPeppers":3785,"atsup":3786,"ĠJo":3787,"Ġclams":3788,"Ġtable":3789,"Ġblanch":3790,"mit":3791,"Ġchutney":3792,"seed":3793,"ĠCreamy":3794,"ext":3795,"Ġfrench":3796,"anola":3797,"ĠCon":3798,"Ġpret":3799,"Ġle":3800,"Ġsee":3801,"Cinnamon":3802,"ĠSeed":3803,"Ġ125":3804,"Ġtort":3805,"Ġopaque":3806,"Ġprovolone":3807,"Ġcakes":3808,"efruit":3809,"Ġtotal":3810,"zing":3811,"ĠDelicious":3812,"Ġfrothy":3813,"Ġtam":3814,"ryst":3815,"Ġcheck":3816,"Ġvig":3817,"ealth":3818,"Ġnew":3819,"ĠSeparate":3820,"ON":3821,"men":3822,"Blueberry":3823,"Ginger":3824,"Ġcatsup":3825,"Ġrye":3826,"orous":3827,"alor":3828,"urrit":3829,"ipes":3830,"Ġmelon":3831,"ĠJuice":3832,"ĠTw":3833,"Ġmasher":3834,"cream":3835,"nack":3836,"ameter":3837,"Ġtoothpicks":3838,"Ġbecause":3839,"Ġbecomes":3840,"Ġgerm":3841,"Ġtortellini":3842,"Ġokra":3843,"usset":3844,"Ġeasy":3845,"Homemade":3846,"Ġpull":3847,"Ġsaff":3848,"Ġbottled":3849,"ĠDump":3850,"Ġscrape":3851,"Ġel":3852,"Ġpackets":3853,"Ġtype":3854,"ĠOne":3855,"Ġtriangles":3856,"orously":3857,"ĠSquar":3858,"Ġclose":3859,"Stuffed":3860,"ĠStart":3861,"Ġamounts":3862,"form":3863,"ĠIncrease":3864,"Pineapple":3865,"ob":3866,"rising":3867,"rost":3868,"ĠBaby":3869,"Ġvari":3870,"efly":3871,"ines":3872,"Ġtry":3873,"ante":3874,"Ġrectangle":3875,"Ġcreate":3876,"ĠPeach":3877,"lings":3878,"Ġpistach":3879,"ĠWa":3880,"ĠNext":3881,"Ġgrilling":3882,"Ġpreferred":3883,"HE":3884,"sion":3885,"oat":3886,"itrus":3887,"ĠEx":3888,"ĠCheesecake":3889,"Ġdoubled":3890,"Style":3891,"vory":3892,"Ġsecure":3893,"Ġcentre":3894,"Ġvigorously":3895,"Ġfudge":3896,"ams":3897,"Greek":3898,"Ġpower":3899,"Ġturns":3900,"Ġcirc":3901,"Ġcaster":3902,"ao":3903,"Ġtr":3904,"raft":3905,"Ġrel":3906,"ĠCrush":3907,"Ġpr":3908,"ĠNoodles":3909,"Ġdiameter":3910,"ĠTO":3911,"Ġflame":3912,"Bas":3913,"salt":3914,"may":3915,"Ġrusset":3916,"Ġkg":3917,"Ġfur":3918,"ĠKrispies":3919,"Ġtapioca":3920,"Ġkalamata":3921,"acadam":3922,"Ġhelp":3923,"ĠSquares":3924,"ĠDredge":3925,"arbe":3926,"Grand":3927,"ĠPound":3928,"Coconut":3929,"Ġpreferably":3930,"Ġtail":3931,"vert":3932,"Ġstrip":3933,"Ġbriefly":3934,"Ġshapes":3935,"ĠAlmond":3936,"bout":3937,"ĠDust":3938,"iffer":3939,"Ġsticking":3940,"Ġpuffed":3941,"ĠCherry":3942,"Ġfind":3943,"Best":3944,"ond":3945,"Ġbath":3946,"ĠTender":3947,"Ġfurther":3948,"esad":3949,"Ġseper":3950,"Ġblackberries":3951,"ĠOld":3952,"ize":3953,"lose":3954,"ĠTr":3955,"Ġartichokes":3956,"In":3957,"ud":3958,"Sc":3959,"To":3960,"ĠHerb":3961,"Ġcoleslaw":3962,"etiz":3963,"ĠRitz":3964,"ĠGrand":3965,"ST":3966,"Ġears":3967,"ĠCarrot":3968,"be":3969,"Ġstarch":3970,"Ġnight":3971,"Ġbulk":3972,"ph":3973,"Ġtip":3974,"Ġshelled":3975,"aved":3976,"ubble":3977,"lash":3978,"Ġwhiskey":3979,"acadamia":3980,"ouse":3981,"tein":3982,"Ġstuffed":3983,"Ġprawns":3984,"ĠPesto":3985,"Ġscr":3986,"Ġswirl":3987,"ments":3988,"easure":3989,"Ġrom":3990,"Ġpk":3991,"imp":3992,"Ġbrewed":3993,"alia":3994,"Ġpanko":3995,"ĠYogurt":3996,"Ġmicrow":3997,"ott":3998,"ĠCheck":3999,"ĠPeas":4000,"Ġnow":4001,"Ġpers":4002,"Ġseam":4003,"ĠCauliflower":4004,"ogh":4005,"hee":4006,"Ġchampagne":4007,"Ġnatural":4008,"ĠRot":4009,"ĠGlaze":4010,"Ġspreading":4011,"Ġcontinu":4012,"Ġ)":4013,"ĠNoodle":4014,"igin":4015,"Ġmonths":4016,"Mo":4017,"diced":4018,"bler":4019,"ky":4020,"wi":4021,"ĠRom":4022,"ĠDough":4023,"Ġsprinkled":4024,"rais":4025,"Ġshaking":4026,"Ġsmith":4027,"Ġsteamer":4028,"erman":4029,"Ġess":4030,"Ġpeppermint":4031,"ail":4032,"ĠDice":4033,"coops":4034,"porate":4035,"My":4036,"Ġfinger":4037,"arbeque":4038,"ED":4039,"You":4040,"Ġpunch":4041,"Ġpod":4042,"Ġgi":4043,"ĠPul":4044,"Ġrim":4045,"ĠCajun":4046,"Ġfettuccine":4047,"Ġdrum":4048,"oghurt":4049,"Ġrame":4050,"Ġgranny":4051,"except":4052,"ints":4053,"ems":4054,"ĠCaramel":4055,"Ġeasier":4056,"ĠSn":4057,"Ġones":4058,"bster":4059,"hef":4060,"Ġsprinkling":4061,"Ġromano":4062,"Ġcryst":4063,"ĠPick":4064,"Ġmasala":4065,"ĠFinely":4066,"Ġlevel":4067,"utes":4068,"rot":4069,"Ġseafood":4070,"ĠAvocado":4071,"Ġgrapefruit":4072,"Ġ28":4073,"Ġbrownie":4074,"ĠNo":4075,"!).":4076,"ĠRanch":4077,"ami":4078,"Ġsug":4079,"rambled":4080,"brown":4081,"ations":4082,"ux":4083,"Ġ32":4084,"ĠIrish":4085,"Ġsprinkles":4086,"iny":4087,"ĠPack":4088,"this":4089,"ummus":4090,"CE":4091,"ĠAt":4092,"eached":4093,"zola":4094,"fect":4095,"Ġbitters":4096,"leaf":4097,"OY":4098,"sk":4099,"Ġav":4100,"Ġbaste":4101,"Ġomit":4102,"Ġdump":4103,"carp":4104,"ĠDot":4105,"Ġgranola":4106,"Ġclub":4107,"berg":4108,"ĠChinese":4109,"Ġmoisture":4110,"ĠPulse":4111,"carpone":4112,"Ġmine":4113,"Ġsmok":4114,"ĠWine":4115,"Ġblending":4116,"Ġmarinara":4117,"ĠKahlua":4118,"ĠScrape":4119,"Ġunbl":4120,"ĠBar":4121,"ĠCob":4122,"bell":4123,"Ġpomegranate":4124,"abi":4125,"bur":4126,"Ġchip":4127,"Ġchorizo":4128,"ĠGood":4129,"ios":4130,"ĠRaisin":4131,"pack":4132,"Ġ#":4133,"ortil":4134,"afers":4135,"Ġbottoms":4136,"ĠThai":4137,"ĠCornbread":4138,"errano":4139,"iginal":4140,"Veget":4141,"Ġbutton":4142,"Ġbrisket":4143,"prefer":4144,"21":4145,"Ġmors":4146,"ĠFluff":4147,"ĠBefore":4148,"adine":4149,"Ġoutdo":4150,"Ġcolored":4151,"ĠBaking":4152,"Ġfrost":4153,"An":4154,"hey":4155,"llo":4156,"aya":4157,"Ġcajun":4158,"ĠSkillet":4159,"ĠMeasure":4160,"Ġcandies":4161,"Ġpkg":4162,"parent":4163,"Ġquality":4164,"ĠGravy":4165,"Caramel":4166,"Ġincrease":4167,"beat":4168,"uffalo":4169,"ĠBlue":4170,"Ġbutternut":4171,"idalia":4172,"Ġremainder":4173,"renadine":4174,"Ġdozen":4175,"minced":4176,"your":4177,"Ġbundt":4178,"uty":4179,"stir":4180,"wes":4181,"Ġboils":4182,"obo":4183,"Ġbubble":4184,"Ġproof":4185,"ealthier":4186,"Ġscoops":4187,"isted":4188,"ĠWater":4189,"Ġtransparent":4190,"NJ":4191,"luten":4192,"Ġwont":4193,"Ġtablespoonfuls":4194,"ĠCrab":4195,"Ġsections":4196,"ĠThey":4197,"ĠCrisco":4198,"32":4199,"Oat":4200,"tini":4201,"ĠCakes":4202,"ĠCocktail":4203,"avender":4204,"Ġpreference":4205,"ganic":4206,"imply":4207,"Ġunbleached":4208,"Ġoutdoor":4209,"Oven":4210,"ket":4211,"ĠBlueberry":4212,"olent":4213,"NJOY":4214,"butter":4215,"Ġrimmed":4216,"AR":4217,"Ġster":4218,"Ġanise":4219,"ĠMonterey":4220,"Ġsaffron":4221,");":4222,"ĠChips":4223,"see":4224,"Ġgluten":4225,"Ġgarnished":4226,"Ġfruits":4227,"----":4228,"Can":4229,"Or":4230,"Ġberry":4231,"ĠChowder":4232,"chiladas":4233,"Ġthird":4234,"Ġblanched":4235,"Ġstep":4236,"ĠAltern":4237,"Ġ\"":4238,"ĠAbout":4239,"ĠENJOY":4240,"Ġbrushing":4241,"ĠPowder":4242,"Ġflake":4243,"Ġsimple":4244,"orgon":4245,"Ġovercook":4246,"ushy":4247,"ign":4248,"Ġdiffer":4249,"Ġpicante":4250,"ternal":4251,"Ġgrenadine":4252,"olenta":4253,"orgonzola":4254,"Free":4255,"Ġwithin":4256,"ĠFood":4257,"Ġgrind":4258,"cones":4259,"pepper":4260,"ik":4261,"upe":4262,"Ġchoy":4263,"ĠSpanish":4264,"Ġfinished":4265,"Ġmussels":4266,"Ġwhat":4267,"Ġleftovers":4268,"ĠCO":4269,"venly":4270,"Ġsection":4271,"Ġmartini":4272,"ĠThese":4273,"alapeno":4274,"Ġcannellini":4275,"ĠClean":4276,"Ġradishes":4277,"Ġtbs":4278,"urried":4279,"ĠLi":4280,"oid":4281,"Ġbok":4282,"Ġpur":4283,"zels":4284,"Ġhealthy":4285,"24":4286,"ĠBay":4287,"ĠSplit":4288,"rants":4289,"ĠOR":4290,"Ġfig":4291,"ĠSl":4292,"Ġchilli":4293,"Ġtilapia":4294,"ĠBarbecue":4295,"ĠWe":4296,"Ġskinned":4297,"ĠGlazed":4298,"ĠPinch":4299,"Peach":4300,"bet":4301,"sm":4302,"Ġqt":4303,"Ġcall":4304,"Ġserrano":4305,"Ġcurd":4306,"Ġpatty":4307,"Ġgets":4308,"Ġparsn":4309,"ĠGrate":4310,"Ġ:":4311,"ĠWork":4312,"ecial":4313,"ĠAsparagus":4314,"Ġpints":4315,"ĠThread":4316,"\\.":4317,"ĠLOW":4318,"Ġgaram":4319,"Ġtriple":4320,"Ġhair":4321,"Ġincluding":4322,"Ham":4323,"ĠPart":4324,"ĠJell":4325,"Ġpickled":4326,"pricot":4327,"mati":4328,"fin":4329,"ĠAlfredo":4330,"Ġadobo":4331,"ampbell":4332,"ĠShe":4333,"amels":4334,"Ġyoghurt":4335,"ĠDel":4336,"ified":4337,"Ġhazelnuts":4338,"ĠDessert":4339,"Ġtasty":4340,"Ġfoamy":4341,"ange":4342,"Ġsweetener":4343,"Ġliter":4344,"from":4345,"Ġmicrowav":4346,"tichoke":4347,"Ġbarely":4348,"ĠFrost":4349,",.":4350,"French":4351,"Marin":4352,"Ġcour":4353,"ison":4354,"Ġramen":4355,"Ġmeatloaf":4356,"Ġmarinated":4357,"Ġbunches":4358,"medium":4359,"Ġseg":4360,"Ġdelicious":4361,"Ġkitchen":4362,"aloupe":4363,"Ġtoffee":4364,"Ġmorsels":4365,"assic":4366,"alm":4367,"Ġsalami":4368,"Ġcooks":4369,"Ġdepend":4370,"Ġlegs":4371,"Ġwafers":4372,"Ġmince":4373,"Ġcav":4374,"Turkey":4375,"Ġlisted":4376,"Ġcaramelized":4377,"EL":4378,"utee":4379,"Ġstring":4380,"Ġresul":4381,"Ġsmashed":4382,"Ġgrits":4383,"ĠVegg":4384,"Ġscrubbed":4385,"ought":4386,"ĠEver":4387,"Cherry":4388,"ĠĠ":4389,"ĠColeslaw":4390,"Ġna":4391,"ĠFran":4392,"ĠWings":4393,"Ġsourdough":4394,"Ġcontents":4395,"Ġcurrants":4396,"Ġfollowing":4397,"umbo":4398,"Ġbreadcrumb":4399,"nier":4400,"Ġbarbeque":4401,"orning":4402,"inly":4403,"Ġrotini":4404,"AK":4405,"ls":4406,"nog":4407,"Ġstream":4408,"ĠGround":4409,"Ġstemmed":4410,"Ġ19":4411,"Ġinternal":4412,"garlic":4413,"Ġthicker":4414,"Ġtested":4415,"Ġpistachios":4416,"Ġten":4417,"Ġtie":4418,"Ġtastes":4419,"rist":4420,"Ġfries":4421,"ĠOri":4422,"ickpea":4423,"OR":4424,"Ġcm":4425,"Ġlink":4426,"estle":4427,"Ġquite":4428,"Ġpock":4429,"sorted":4430,"Ġi":4431,"Ġpressure":4432,"Ġshaved":4433,"Ġassorted":4434,"Cook":4435,"Ġkiwi":4436,"Fruit":4437,"Pasta":4438,"ouble":4439,"Spiced":4440,"Ġessence":4441,"AL":4442,"Brown":4443,"Tuna":4444,"esar":4445,"Ġfire":4446,"rapped":4447,"Ġoriginal":4448,"Ġending":4449,"Ġcandied":4450,"ĠScall":4451,"Ġbreaking":4452,"Carrot":4453,"ĠLoaf":4454,"ĠBreasts":4455,"Ġgrin":4456,"Pepper":4457,"Vegan":4458,"ering":4459,"Ġyams":4460,"Ġholes":4461,"EN":4462,"Ġsomet":4463,"Ġalways":4464,"port":4465,"Ġreached":4466,"ramble":4467,"Ġguacamole":4468,"Ġperson":4469,"Ġdef":4470,"abella":4471,"Ġloosen":4472,"ĠWalnut":4473,"Ar":4474,"Ġlimes":4475,"Ġ**":4476,"Super":4477,"Ġ36":4478,"ĠGu":4479,"lime":4480,"ago":4481,"tta":4482,"Ġtiny":4483,"ettes":4484,"Ġmascarpone":4485,"Ġseperate":4486,"mas":4487,"antain":4488,"ĠMarnier":4489,"bury":4490,"elli":4491,"Ġbrownies":4492,"andy":4493,"erbed":4494,"Ġworcestershire":4495,"Ġsplash":4496,"ĠDill":4497,"Ġcaramels":4498,"ftened":4499,"eseed":4500,"preferably":4501,"ical":4502,"Ġtough":4503,"anese":4504,"Ġdot":4505,"ĠCarb":4506,"Ġoverla":4507,"ĠMint":4508,"Ġpods":4509,"Maple":4510,"Ġcant":4511,"Ġatt":4512,"recommended":4513,"ortilla":4514,"'ll":4515,"Ġmound":4516,"Ġthink":4517,"ĠLen":4518,"Sour":4519,"Ġhomemade":4520,"Ġcircles":4521,"Ġavoid":4522,"Ġsor":4523,"ord":4524,"Ġflank":4525,"imate":4526,"Ġdirectly":4527,"Sausage":4528,"ĠBaste":4529,"Ġrecommended":4530,"ĠVegetables":4531,"Grandma":4532,"Ġtest":4533,"Ġlasagna":4534,"erbet":4535,"finely":4536,"cr":4537,"Ġsauteed":4538,"Mushroom":4539,"Ġtips":4540,"pos":4541,"Ġcovering":4542,"Ġmight":4543,"white":4544,"ibs":4545,"Ġinter":4546,"ills":4547,"Ġlooks":4548,"ĠBalsamic":4549,"Ġrequ":4550,"Ġcolour":4551,"amburger":4552,"Ġlumpy":4553,"icum":4554,"ĠSlaw":4555,"Sw":4556,"ĠShred":4557,"Ġanchovy":4558,"Ġhulled":4559,"verage":4560,"Ġstockpot":4561,"arkling":4562,"depending":4563,"Ġ500":4564,"ĠYield":4565,"Ġramekins":4566,"Ġcod":4567,"ively":4568,"Ġagave":4569,"Ġmangoes":4570,"uces":4571,"olden":4572,"uyere":4573,"Asian":4574,"ned":4575,"Ġomelet":4576,"Ġhus":4577,"Ġsoups":4578,"Ġprocessed":4579,"Ġplacing":4580,"Ġdrizz":4581,"ĠBbq":4582,"ĠSprouts":4583,"Ġcarton":4584,"ĠAsian":4585,"ather":4586,"cloth":4587,"Ġmacadamia":4588,"Ġmoisten":4589,"Ġpretzels":4590,"Ġveal":4591,"Ġclos":4592,"Ġresults":4593,"Bread":4594,"Ġspoonful":4595,"ginal":4596,"Â°.":4597,"lade":4598,"Ġpierced":4599,"ero":4600,"ĠLa":4601,"ĠCookie":4602,"Ġrelease":4603,"ĠTenderloin":4604,"Oatmeal":4605,"Raspberry":4606,"Ġfall":4607,"eath":4608,"chi":4609,"ĠHash":4610,"loins":4611,"hewy":4612,"Ġrubber":4613,"ĠFavorite":4614,"Ġvariet":4615,"Ġhole":4616,"ĠMango":4617,"ĠVari":4618,"ĠRotel":4619,"NOT":4620,"Ġbeet":4621,"Ġmany":4622,"Ġ/":4623,"apanese":4624,"Salmon":4625,"loc":4626,"Ġbel":4627,"ĠCheesy":4628,"tilled":4629,"rid":4630,"Ġoysters":4631,"Ġdistribute":4632,"Healthy":4633,"dit":4634,"Ġass":4635,"ĠLamb":4636,"ershey":4637,"Ġwafer":4638,"Ġabsorb":4639,"Ġtbl":4640,"Ġflours":4641,"vail":4642,"mine":4643,"entation":4644,"Ġdistilled":4645,"ipotle":4646,"ored":4647,"eyed":4648,"ĠThaw":4649,"Ġnearly":4650,"Ġcombination":4651,"eringue":4652,"Parmesan":4653,"Ġwatch":4654,"Ġdredge":4655,"Ġbasket":4656,"Ġburning":4657,"bake":4658,"cetta":4659,"ĠPr":4660,"Ġnote":4661,"tty":4662,"ĠMachine":4663,"Ġvary":4664,"Ġdiagonal":4665,"AN":4666,"Ġsparkling":4667,"Ġeight":4668,"armig":4669,"Ġrecipes":4670,"vailable":4671,"ĠSpaghetti":4672,"Ġmatch":4673,"ĠClose":4674,"ĠLight":4675,"Ġdifferent":4676,"ristmas":4677,"Ġchard":4678,"ĠPea":4679,"Ġcheesecloth":4680,"Ġthread":4681,"Ġzes":4682,"Ġ90":4683,"ukon":4684,"Ġdrumsticks":4685,"Ġsteril":4686,"Avocado":4687,"Ġmat":4688,"icama":4689,"ĠCap":4690,"ĠPop":4691,"ĠMed":4692,"Ġhandful":4693,"Ġbittersweet":4694,"Ġwonton":4695,"ached":4696,"Ġthroughout":4697,"Ġpopped":4698,"Ġcantaloupe":4699,"Ġcorned":4700,"ĠSelect":4701,"Ġtakes":4702,"orch":4703,"ĠBundt":4704,"ĠHal":4705,"ĠWhole":4706,"Ġbourbon":4707,"Ġpale":4708,"Ġstage":4709,"Ġeye":4710,"ĠMozzarella":4711,"Marinated":4712,"Ġfashioned":4713,"ana":4714,"orther":4715,"Ġsteep":4716,"ĠStick":4717,"Ġdiscarding":4718,"ĠScatter":4719,"fried":4720,"tain":4721,"emble":4722,"Ġstop":4723,"orthern":4724,"ĠRosemary":4725,"Ġbrie":4726,"Ġparsnips":4727,"Fat":4728,"On":4729,"unter":4730,"ously":4731,"Ġalternating":4732,"Thai":4733,"Rice":4734,"Ġcob":4735,"abo":4736,"ĠBatter":4737,"coh":4738,"Ġappear":4739,"Ġhoriz":4740,"skim":4741,"Ġcalled":4742,"'ve":4743,"atfish":4744,"Ġheating":4745,"grated":4746,"Ġtong":4747,"Ġcutlets":4748,"Ġrav":4749,"Ġglo":4750,"Ġgranular":4751,"itas":4752,"illas":4753,"Ġsizz":4754,"Ġdijon":4755,"plants":4756,"Ġpearl":4757,"Ġdusting":4758,"TI":4759,"Ġring":4760,"ĠFrom":4761,"Ġhorizont":4762,"iago":4763,"amily":4764,"Ġok":4765,"reo":4766,"ĠSun":4767,"ĠDry":4768,"Chili":4769,"Ġsealed":4770,"ĠUnroll":4771,"etizer":4772,"time":4773,"ilaf":4774,"Ġsave":4775,"Ġkettle":4776,"Ġcapsicum":4777,"ĠExtra":4778,"Cucumber":4779,"Ġcupcake":4780,"ĠMaple":4781,"Ġcreamer":4782,"berally":4783,"covered":4784,"eeps":4785,"ĠStuffing":4786,"ĠWaffles":4787,"cini":4788,"Ġfar":4789,"ĠRibs":4790,"ental":4791,"ĠQuiche":4792,"ĠCobbler":4793,"Ġorganic":4794,"ewarm":4795,"exas":4796,"Ġtrim":4797,"Ġsnap":4798,"Ġven":4799,"Ġpass":4800,"Ġfast":4801,"Ġhollow":4802,"ird":4803,"ĠEat":4804,"Ġlobster":4805,"Ġtrays":4806,"Ġthirds":4807,"bran":4808,"Ġpretty":4809,"awai":4810,"Ġbasmati":4811,"Ġfair":4812,"400":4813,"Po":4814,"ĠShort":4815,"Ġmugs":4816,"amboo":4817,"viled":4818,"Ġwrappers":4819,"Ġstone":4820,"Ġlowfat":4821,"napp":4822,"acho":4823,"shredded":4824,"Ġverm":4825,"Almond":4826,"220":4827,"Ġcornflour":4828,"Curried":4829,"wheat":4830,"Ġeggplants":4831,"Ġveggie":4832,"ĠOpen":4833,"AKE":4834,"ura":4835,"Ġburger":4836,"ĠSimple":4837,"Ġspears":4838,"enty":4839,"ondue":4840,"eb":4841,"ipping":4842,"pes":4843,"Ġimmer":4844,"easoned":4845,"Ġfryer":4846,"Ġincorporate":4847,"hyllo":4848,"packed":4849,"ancy":4850,"Ġravioli":4851,"Crisp":4852,"Pan":4853,"Ġ17":4854,"ember":4855,"ĠIcing":4856,"ĠRaspberry":4857,"ĠGreat":4858,"Ġblueberry":4859,"Ġfraiche":4860,"ĠFreshly":4861,"Ġstored":4862,"used":4863,"Ġpush":4864,"rog":4865,"chnapp":4866,"Ġsho":4867,"oda":4868,"Ġtamari":4869,"Ġslaw":4870,"ndian":4871,"Ġpri":4872,"Ġlavender":4873,"ĠNew":4874,"ousse":4875,"ĠShredded":4876,"180":4877,"chnapps":4878,"Ww":4879,"gest":4880,"Ġbed":4881,"Ġbamboo":4882,"iso":4883,"cks":4884,"ĠRel":4885,"Ġvegan":4886,"Ġtenderloins":4887,"Ġplantain":4888,"Ġfilets":4889,"Ġsaltine":4890,"ĠFries":4891,"arsley":4892,"ĠEvenly":4893,"Ġbottles":4894,"Ġwasabi":4895,"Ġsegments":4896,"Ġfairly":4897,"isters":4898,"Ġens":4899,"Ġcrumbles":4900,"Ġbreakfast":4901,"LY":4902,"ically":4903,"Ġdamp":4904,"imum":4905,"Ġingredient":4906,"oped":4907,"ĠNuts":4908,"Ġvariety":4909,"ded":4910,"ĠBrie":4911,"flour":4912,"ĠOriginal":4913,"ued":4914,"Ġcounter":4915,"ĠCrunch":4916,"Ġtester":4917,"ever":4918,"ĠTbs":4919,"Ġprotein":4920,"Ġ165":4921,"awaiian":4922,"fal":4923,"water":4924,"Ġdid":4925,"Ġspringform":4926,"350":4927,"over":4928,"Ġburrit":4929,"Ġpolenta":4930,"Ġspir":4931,"arsala":4932,"ĠSup":4933,"ĠTB":4934,"Ġlard":4935,"Ġouter":4936,"ĠAlso":4937,"abobs":4938,"pid":4939,"Ġlot":4940,"Ġgro":4941,"ĠSouth":4942,"ĠBites":4943,"Ġworking":4944,"frozen":4945,"esadillas":4946,"Glazed":4947,"Ġsoon":4948,"ĠDash":4949,"Ġtails":4950,"ĠCreme":4951,"armigiano":4952,"rated":4953,"raps":4954,"rira":4955,"ĠCoars":4956,"Ġcloth":4957,"hyd":4958,"Dried":4959,"vals":4960,"Ġjello":4961,"adian":4962,"iest":4963,"Ġallowing":4964,"ĠMinute":4965,"Ġsherbet":4966,"melted":4967,"ĠMayonnaise":4968,"illsbury":4969,"Ġhorizontally":4970,"ĠSec":4971,"aban":4972,"Ġlima":4973,"Ġfigs":4974,"17":4975,"ect":4976,"itation":4977,"Ġovermix":4978,"ided":4979,"ĠTortilla":4980,"Ġslits":4981,"Ġbright":4982,"iti":4983,"ori":4984,"ĠBourbon":4985,"ĠTip":4986,"ady":4987,"ĠChile":4988,"iterran":4989,"riracha":4990,"Â®":4991,"Ġmushy":4992,"reme":4993,"uns":4994,"ĠServes":4995,"ĠDinner":4996,"Ġtenders":4997,"softened":4998,"Ġtests":4999,"iterranean":5000,"Meat":5001,"Ġblade":5002,"Ġopt":5003,"Ġpor":5004,"Ġpalm":5005,"ĠBran":5006,"arbecued":5007,"Pecan":5008,"Old":5009,"Ġ75":5010,"Ġmort":5011,"Ġluk":5012,"ĠSesame":5013,"Ġyet":5014,"loppy":5015,"erfect":5016,"ition":5017,"Ġbelow":5018,"Ġlukewarm":5019,"LE":5020,"radit":5021,"Ġthickly":5022,"Ġtongs":5023,"Blue":5024,"itake":5025,"Smoked":5026,"ĠOptional":5027,"!!":5028,"ans":5029,"owl":5030,"ĠNot":5031,"ĠButtermilk":5032,"Ġsterilized":5033,"AM":5034,"For":5035,"Ġtater":5036,"ret":5037,"Ġgone":5038,"ĠSnack":5039,"ards":5040,"OU":5041,"Ġtots":5042,"ĠSub":5043,"Ġpancetta":5044,"ĠOmelet":5045,"Ġfrypan":5046,"ĠDipping":5047,"oliday":5048,"Ġwor":5049,"Ġ22":5050,"ĠDish":5051,"Ġcarbon":5052,"angy":5053,"Ġrunny":5054,"alorie":5055,"gur":5056,"Ġsuit":5057,"ĠSpiced":5058,"acao":5059,"Whole":5060,"Ġbeverage":5061,"beaten":5062,"Mango":5063,"ĠSea":5064,"Ġliberally":5065,"Ġdecorate":5066,"Ġzested":5067,"Gluten":5068,"Sugar":5069,"hod":5070,"usc":5071,"Ġflower":5072,"ĠTHE":5073,"Ġreads":5074,"ridger":5075,"dy":5076,"Ġcornflakes":5077,"Ġflow":5078,"Ġvis":5079,"Ġvegetarian":5080,"ritional":5081,"ĠCups":5082,"Saute":5083,"Ġclam":5084,"Ġimitation":5085,"ailey":5086,"Ġcarbonated":5087,"Herb":5088,"Ġphyllo":5089,"Ġgas":5090,"ĠPuff":5091,"ĠRum":5092,"derful":5093,"Ġregisters":5094,"Cl":5095,"ĠMel":5096,"ready":5097,"ĠJam":5098,"Ġcolby":5099,"Ġwrapped":5100,"ĠPecans":5101,"Ġlinks":5102,"bean":5103,"iut":5104,"Ġsuper":5105,"ropical":5106,"ius":5107,"pr":5108,"ĠBell":5109,"Ġforming":5110,"Ġwait":5111,"Ġdipped":5112,"Cajun":5113,"iutto":5114,"AD":5115,"gy":5116,"Ġinvert":5117,"green":5118,"Ġlots":5119,"Ġladle":5120,"until":5121,"ĠChe":5122,"ĠBo":5123,"Ġthickest":5124,"ĠScr":5125,"Ġdefrost":5126,"eak":5127,"Ġ48":5128,"Ġchickens":5129,"Chinese":5130,"Ġtwist":5131,"Ġfitted":5132,"airy":5133,"ĠCub":5134,"ĠBerry":5135,"ĠCocoa":5136,"Ġrapid":5137,"reakfast":5138,"hetta":5139,"sciutto":5140,"Ġbrine":5141,"This":5142,"ative":5143,"Ġhom":5144,"Ġcountry":5145,"ĠPilaf":5146,"asty":5147,"ĠIngredi":5148,"Ġuncover":5149,"Ġmonth":5150,"150":5151,"Nut":5152,"ein":5153,"ĠGratin":5154,"Ġcontinuously":5155,"Fl":5156,"large":5157,"ures":5158,"Ġchow":5159,"ĠScones":5160,"Ġrich":5161,"ibly":5162,"Ġwing":5163,"ottom":5164,"ĠSpecial":5165,"osition":5166,"Ġburner":5167,"Ġgiven":5168,"PP":5169,"ouda":5170,"ĠCouscous":5171,"Ġsteel":5172,"Ġnoodle":5173,"Ġprod":5174,"ĠSmith":5175,"Add":5176,"ev":5177,"Ġhen":5178,"Ġsilk":5179,"Ġsummer":5180,"attern":5181,"ĠVinegar":5182,"Ġintervals":5183,"Pl":5184,"az":5185,"aro":5186,"reactive":5187,"anoff":5188,"ĠYour":5189,"che":5190,"vies":5191,"Ġlove":5192,"ĠFlavor":5193,"Sesame":5194,"Ġmill":5195,"Ġmorning":5196,"ĠBrand":5197,"reserve":5198,"deg":5199,"Ġavailable":5200,"Ġfollowed":5201,"Ġcharred":5202,"iitake":5203,"Ġpattern":5204,"Ġris":5205,"Ġrare":5206,"stitute":5207,"approximately":5208,"Breakfast":5209,"Ġschnapps":5210,"ĠStirring":5211,"Ġcourse":5212,"car":5213,"hn":5214,"Ġach":5215,"ĠServing":5216,"Ġseems":5217,"ĠSmoked":5218,"Ġportabella":5219,"Ġdogs":5220,".,":5221,"crisp":5222,"ties":5223,"anks":5224,"Ġjumbo":5225,"ĠThinly":5226,"Sauteed":5227,"Ġsim":5228,"Ġghee":5229,"ĠSoy":5230,"ĠSoda":5231,"Ġspace":5232,"Ġsource":5233,"gested":5234,"Ġoverlapping":5235,"Ġrequired":5236,"Ġsu":5237,"atively":5238,"ĠCilantro":5239,"ĠArtichoke":5240,"Ġimmersion":5241,"Ġ@":5242,"Ġear":5243,"rem":5244,"Ġglazed":5245,"ory":5246,"irin":5247,"heated":5248,"esty":5249,"ĠSkew":5250,"roasted":5251,"ific":5252,"Ġformed":5253,"Ġsubstituted":5254,"Ġemul":5255,"ĠDrink":5256,"Ġcreole":5257,"Ġprun":5258,"Ġsmoking":5259,"Yummy":5260,"onion":5261,"Ġfound":5262,"abel":5263,"ĠGrind":5264,"Ġlengths":5265,"oulder":5266,"Ġmein":5267,"raditional":5268,"my":5269,"tata":5270,"ilar":5271,"ĠMixture":5272,"ccan":5273,"Ġdesire":5274,"ĠMarinated":5275,"Crab":5276,"esh":5277,"asmine":5278,"ĠLarge":5279,"Ġscal":5280,"Ġadv":5281,"Ġprior":5282,"Delicious":5283,"ĠChutney":5284,"seeded":5285,"Ġdepends":5286,"Ġmortar":5287,"iber":5288,"ince":5289,"irt":5290,"Ġ70":5291,"ĠJello":5292,"Ġharden":5293,"blano":5294,"Ġjulienne":5295,"Southern":5296,"ĠShell":5297,"Ġcavity":5298,"ĠHalve":5299,"VE":5300,"Ġforks":5301,"Ġseparately":5302,"Ġmoderately":5303,"ĠVeggie":5304,"ĠRelish":5305,"Fro":5306,"Ġatop":5307,"ĠTear":5308,"Crispy":5309,"Ġins":5310,"ĠTart":5311,"Ġloose":5312,"ĠEnchiladas":5313,"ormick":5314,"Fry":5315,"Ġvidalia":5316,"Ġrose":5317,"Ġboxes":5318,"Ġinclude":5319,"Ġdumplings":5320,"abanero":5321,"Balsamic":5322,"UT":5323,"cts":5324,"ti":5325,"Ġlift":5326,"Ġjicama":5327,"Ġalfredo":5328,"raisins":5329,"ĠLentil":5330,"Taco":5331,"fine":5332,"Ġ170":5333,"Ġscatter":5334,"Savory":5335,"dairy":5336,"Ġpimentos":5337,"crust":5338,"wrap":5339,"yc":5340,"Ġsil":5341,"Ġmeringue":5342,"Ġthinner":5343,"ĠFir":5344,"Ġcenters":5345,"Ġwaffles":5346,"Ġgrinder":5347,"Ġsometimes":5348,"Light":5349,"Lime":5350,"etto":5351,"urst":5352,"Ġcools":5353,"Ġpapaya":5354,"loss":5355,"avings":5356,"riend":5357,"Ġtrout":5358,"Ġgent":5359,"Ġcoll":5360,"umb":5361,"Sk":5362,"Summer":5363,"ock":5364,"raz":5365,"Ġshavings":5366,"ipton":5367,"monds":5368,"Ġanchovies":5369,"Di":5370,"cheese":5371,"zes":5372,"Ġ80":5373,"ĠCreole":5374,"maretto":5375,"55":5376,"Ġsear":5377,"ĠPap":5378,"ĠBall":5379,"ĠHa":5380,"inches":5381,"eribs":5382,"ĠReheat":5383,"Basic":5384,"Vegetable":5385,"roganoff":5386,"Ġhrs":5387,"Ġlids":5388,"Ġfitting":5389,"Ġcreating":5390,"...":5391,"alories":5392,"Ġensure":5393,"ĠMI":5394,"ellman":5395,"ctin":5396,"Ġlooking":5397,"Ġshaped":5398,"SS":5399,"Ġevapor":5400,"ĠGreens":5401,"Ġpurple":5402,"Ġsimilar":5403,"26":5404,"go":5405,"rees":5406,"Ġsautee":5407,"Ġshot":5408,"ĠLemonade":5409,"ĠRomano":5410,"small":5411,"Ġmatzo":5412,"29":5413,"Apricot":5414,"blend":5415,"ĠLasagna":5416,"Ġveg":5417,"Ġscorch":5418,"Ġconfectioner":5419,"Ġhere":5420,"Ġbulb":5421,"ĠCupcakes":5422,"ĠDelight":5423,"Pizza":5424,"atoni":5425,"Ġminimum":5426,"garita":5427,"fryer":5428,"Ġspiral":5429,"Ġadvance":5430,"Warm":5431,"lt":5432,"ico":5433,"Ġtoaster":5434,"reus":5435,"ĠPull":5436,"ĠIs":5437,"arden":5438,"Cheddar":5439,"Ġequally":5440,"ĠJoes":5441,"Ġgentle":5442,"750":5443,"Herbed":5444,"VER":5445,"ground":5446,"ured":5447,"ĠWill":5448,"Ġkiss":5449,"Ġliquids":5450,"Ġpickling":5451,"Ġpossibly":5452,"Ġbulgur":5453,"ĠFinally":5454,"'m":5455,"We":5456,"cal":5457,"duty":5458,"Ġfran":5459,"pec":5460,"bits":5461,"Ġmust":5462,"areribs":5463,"ĠCandy":5464,"Ġke":5465,"Ġpocket":5466,"Note":5467,"ca":5468,"Ġmirin":5469,"napper":5470,"Ġsoya":5471,"ĠJalapeno":5472,"ĠTwo":5473,"Onion":5474,"lossom":5475,"Ġchef":5476,"Ġfeel":5477,"unk":5478,"ouffle":5479,"Ġshoulder":5480,"Ġfavour":5481,"portant":5482,"'d":5483,"Vanilla":5484,"Ġpectin":5485,"ĠMac":5486,"Ġalready":5487,"ussian":5488,"ives":5489,"eable":5490,"Ġ275":5491,"eats":5492,"ĠDecor":5493,"ĠWraps":5494,"ĠHomemade":5495,"Ġslit":5496,"Ġziplock":5497,"Ġevaporates":5498,"reusel":5499,"Do":5500,"ashew":5501,"Ġnorthern":5502,"ĠGerman":5503,"Ġpreparing":5504,"tact":5505,"ften":5506,"idbits":5507,"ĠHummus":5508,"Ġthose":5509,"Ġinsert":5510,"Ġmicrowavable":5511,"icelli":5512,"Ġintact":5513,"Ġunflavored":5514,"olish":5515,"ĠGoat":5516,"ĠUS":5517,"Ġraising":5518,"eade":5519,"Ġfavourite":5520,")),":5521,"Ġmal":5522,"unky":5523,"Ġjig":5524,"ĠOreo":5525,"Ġrig":5526,"rushed":5527,"Ġrectangles":5528,"ĠIii":5529,"ĠWorking":5530,"Mini":5531,"raight":5532,"Ġthough":5533,"iving":5534,"Ġcroiss":5535,"ung":5536,"ria":5537,"ananas":5538,"ĠQuickly":5539,"Ġmain":5540,"anger":5541,"orseradish":5542,"ĠSummer":5543,"Ġliver":5544,"sert":5545,"ES":5546,"but":5547,"Ġgin":5548,"ĠGenerous":5549,"Ġbagel":5550,"Ġscrambled":5551,"Ġrecommend":5552,"Ġvenison":5553,"Mar":5554,"bably":5555,"Ġspo":5556,"eso":5557,"Ġ225":5558,"ĠCal":5559,"thaw":5560,"ĠTry":5561,"Ġelse":5562,"Microwave":5563,"cress":5564,"mi":5565,"ĠCla":5566,"ĠMart":5567,"ĠFil":5568,"ĠInsert":5569,"Ġstovetop":5570,"Ġeating":5571,"ĠGranola":5572,"ĠTBS":5573,"oroughly":5574,"ĠRun":5575,"ĠScrub":5576,"Ġkept":5577,"Ġtidbits":5578,"Ġsult":5579,"Ġsnack":5580,"ĠCampbell":5581,"ĠPar":5582,"ĠBailey":5583,"ĠMc":5584,"Ġsplenda":5585,"uffles":5586,"ĠPatties":5587,"De":5588,"German":5589,"Ġcatfish":5590,"ĠCom":5591,"ĠDog":5592,"ĠAlmonds":5593,"Ġmolds":5594,"UM":5595,"Ġdec":5596,"ĠDiced":5597,"garian":5598,"ILL":5599,"Ġsuggested":5600,"230":5601,"uf":5602,"Ġmean":5603,"abs":5604,"ased":5605,"ĠThoroughly":5606,"Ġgoing":5607,"Ġziploc":5608,"ĠCoarsely":5609,"Ġemuls":5610,"Ġstraight":5611,"Ġeggnog":5612,"Ġnorm":5613,"ston":5614,"ada":5615,"Ġroux":5616,"Ġmeld":5617,"Ġextracts":5618,"Ġreplace":5619,"ĠGranny":5620,"ĠPopcorn":5621,"Ġfrit":5622,"Ġrising":5623,"ĠIN":5624,"Ġmeats":5625,"ĠGuacamole":5626,"Med":5627,"Mix":5628,"yes":5629,"Ġmem":5630,"Ġcupcakes":5631,"Ġgruyere":5632,"Ġprosciutto":5633,"Ġpinches":5634,"ĠSoften":5635,"ĠDumplings":5636,"Basil":5637,"Ġchoose":5638,"Ġcutters":5639,"ĠWhipped":5640,"ĠKraft":5641,"Ġsomewh":5642,"ĠEggplant":5643,"Ġsake":5644,"Ġoverbake":5645,"Ġshiitake":5646,"iffy":5647,"western":5648,"New":5649,"Rosemary":5650,"Ġpestle":5651,"Ġleek":5652,"ĠStroganoff":5653,"Ġseven":5654,"ĠGorgonzola":5655,"ĠHershey":5656,"Ġpouring":5657,"Ġturned":5658,"ĠBeer":5659,"ĠSteaks":5660,"aise":5661,"nick":5662,"Ġlg":5663,"Ġlady":5664,"otto":5665,"ĠPort":5666,"illi":5667,"ĠHealthy":5668,"ĠVegan":5669,"Ġkeeping":5670,"ĠGenerously":5671,"ged":5672,"rex":5673,"Ġgum":5674,"ĠMousse":5675,"Ġknow":5676,"Ġmethod":5677,"ĠMince":5678,"Ġempt":5679,"wesome":5680,"ĠDecorate":5681,"thawed":5682,"Ġbought":5683,"ĠCro":5684,"ĠCustard":5685,"ĠAu":5686,"ĠMan":5687,"ĠTeriyaki":5688,"Ġbasic":5689,"Ġsprings":5690,"Buttermilk":5691,"Br":5692,"Ġid":5693,"ilapia":5694,"ungarian":5695,"Ġsprout":5696,"Ġ145":5697,"Ġsorbet":5698,"HI":5699,"Sun":5700,"arter":5701,"pound":5702,"ppers":5703,"ĠDeep":5704,"ĠGo":5705,"coal":5706,"Ġchillies":5707,"Ġpicked":5708,"Mediterranean":5709,"bottom":5710,"yrex":5711,"edish":5712,"Ġmiso":5713,"reau":5714,"ĠInvert":5715,"ahi":5716,"Ġmostly":5717,"Ġtriangle":5718,"Ġstorage":5719,"ĠPrick":5720,"En":5721,"Ġmace":5722,"Ġstack":5723,"Ġlowest":5724,"Ġthroughly":5725,"Ġdistributed":5726,"Un":5727,"gle":5728,"itos":5729,"Ġdate":5730,"Ġhad":5731,"elle":5732,"isps":5733,"iment":5734,"Ġrow":5735,"Ġcorner":5736,"Ġplenty":5737,"Ġspreadable":5738,"Ġconsomme":5739,"Stir":5740,"Crust":5741,"crushed":5742,"inter":5743,"Ġduck":5744,"ĠCelery":5745,"Ġflipping":5746,"ĠMedium":5747,"Ġfinal":5748,"Ġsyrupy":5749,"Ġhazelnut":5750,"Ġcrystals":5751,"Ġplantains":5752,"Ġmembran":5753,"Rhubarb":5754,"ĠCider":5755,"ĠPh":5756,"grass":5757,"fait":5758,"raised":5759,"val":5760,"Ġed":5761,"Ġsup":5762,"iforn":5763,"ĠEX":5764,"ĠSeasoned":5765,"intreau":5766,"ĠOlives":5767,"Ġcrystall":5768,"ware":5769,"ĠPier":5770,"Ġcare":5771,"aged":5772,"acing":5773,"Ġdrip":5774,"ĠCanadian":5775,"PT":5776,"cor":5777,"ĠBurrit":5778,"Ġrectangular":5779,"Ġtbls":5780,"set":5781,"ĠHellman":5782,"elsius":5783,"Ġsteaming":5784,"ĠSkim":5785,"Ġimportant":5786,"ĠTacos":5787,"Classic":5788,"Ġempty":5789,"Rec":5790,"Ġam":5791,"erk":5792,"Ġthrow":5793,"Ġjo":5794,"Ġpeeler":5795,"iana":5796,"canned":5797,"ĠKitchen":5798,"Ġcomplete":5799,"Ġcasings":5800,"Ġpimientos":5801,"ifornia":5802,"Hear":5803,"Ġpet":5804,"ĠFOR":5805,"ĠWipe":5806,"Ġanything":5807,"Ġpoblano":5808,"ĠQuinoa":5809,"Ġsolids":5810,"ĠMartini":5811,"erie":5812,"Ġbor":5813,"Ġmot":5814,"acaro":5815,"ĠSliced":5816,"divided":5817,"jo":5818,"čĊ":5819,"erd":5820,"Ġbuy":5821,"ĠMrs":5822,"ado":5823,"ĠChipotle":5824,"Ġprobably":5825,"Ġholds":5826,"Cauliflower":5827,"Ġgloss":5828,"All":5829,"Bake":5830,"dry":5831,"her":5832,"omet":5833,"Ġrock":5834,"Ġ:).":5835,"Ġhominy":5836,"DD":5837,"RA":5838,"bone":5839,"west":5840,"pples":5841,"ople":5842,"ĠPoints":5843,"Ġsuggest":5844,"Ġsomewhat":5845,"IT":5846,"Mustard":5847,"Span":5848,"ielbasa":5849,"rey":5850,"ouch":5851,"Ġhabanero":5852,"amous":5853,"eftover":5854,"iesta":5855,"Ġbeater":5856,"ĠSwirl":5857,"Ġweight":5858,"ĠApplesauce":5859,"Ġcharcoal":5860,"Ġvermicelli":5861,"%)":5862,"ax":5863,"ĠDay":5864,"CEPT":5865,"Ġhusks":5866,"ĠLift":5867,"Ġcombining":5868,"Double":5869,"filled":5870,"Ġcount":5871,"illo":5872,"ĠDeg":5873,"Ġbreads":5874,"Ġendive":5875,"Ġslivers":5876,"Crunchy":5877,".\"":5878,"And":5879,"Cal":5880,"ito":5881,"irds":5882,"Ġoils":5883,"Ġcheesecake":5884,"Ġheatproof":5885,"ĠCooked":5886,"Ġcuts":5887,"ĠBrowns":5888,"Ġtouched":5889,"aur":5890,"mini":5891,"iness":5892,"Ġpith":5893,"Ġinf":5894,"amame":5895,"regular":5896,"ĠBroth":5897,"Ġplaced":5898,"Ġlimp":5899,"ĠWalnuts":5900,"bow":5901,"Ġ~":5902,"icc":5903,"ane":5904,"Ġwatercress":5905,"ĠDried":5906,"Ġfloret":5907,"Ġheart":5908,"ĠFrank":5909,"Ġattach":5910,"Ġtear":5911,"ĠCol":5912,"Ġjasmine":5913,"Ġwhere":5914,"isserie":5915,"Ġdrizzling":5916,"uschetta":5917,"ĠIngredients":5918,"kes":5919,"ĠSimply":5920,"ĠCore":5921,"Ġnever":5922,"ĠVery":5923,"ĠBarley":5924,"stirring":5925,"Ġburrito":5926,"work":5927,"Ġaro":5928,"Ġpurpose":5929,"Ġlabel":5930,"shake":5931,"Vegetarian":5932,"ĠShortbread":5933,"Ġprunes":5934,"inc":5935,"Ġfamily":5936,"Ġwere":5937,"Ġlite":5938,"whole":5939,"esadilla":5940,"ĠSubstitute":5941,"Ġsuperfine":5942,"Perfect":5943,"abet":5944,"added":5945,"PPING":5946,"ues":5947,"Ġole":5948,"att":5949,"Ġhar":5950,"ĠWild":5951,"ĠLipton":5952,"ĠKaro":5953,"ĠCaesar":5954,"Ġwilt":5955,"Ġmallet":5956,"Spanish":5957,"fit":5958,"Ġmult":5959,"ister":5960,"ĠBowl":5961,"ĠMini":5962,"ĠTort":5963,"Ġrefridger":5964,"agie":5965,"ĠGrated":5966,"ĠLoos":5967,"ĠDeviled":5968,"ĠVariation":5969,"Ġflowers":5970,"Ġcrystallized":5971,"ones":5972,"Ġbark":5973,"Ġunif":5974,"ĠPin":5975,"ĠBy":5976,"Ġpounded":5977,"ĠQuesadillas":5978,"Ġassemble":5979,"Aunt":5980,"DA":5981,"gets":5982,"Ġziti":5983,"Ġhens":5984,"Moro":5985,"rite":5986,"Ġsink":5987,"Ġpops":5988,"Ġposition":5989,"alent":5990,"ĠPear":5991,"raising":5992,"ompan":5993,"Ġcanning":5994,"Ġfollows":5995,"falle":5996,"250":5997,"Ġhealthier":5998,"Ġpeople":5999,"ĠBel":6000,"uggets":6001,"ĠRhubarb":6002,"Ġhalve":6003,"zelnut":6004,"Ġuniform":6005,"Ġstay":6006,"ĠTot":6007,"ĠChampagne":6008,"ĠHave":6009,"Ġscramble":6010,"Ġnutritional":6011,"Ġart":6012,"Ġlimeade":6013,"Ġnavy":6014,"AS":6015,"dew":6016,"rant":6017,"ĠSloppy":6018,"ĠPast":6019,"Ġlock":6020,"Ġsteady":6021,"awry":6022,"Country":6023,"Ġ***":6024,"etti":6025,"ĠBreast":6026,"Ġclosed":6027,"Tw":6028,"fashioned":6029,"Ġcitrus":6030,"icle":6031,"alance":6032,"ĠCor":6033,"Ġlemongrass":6034,"ĠHer":6035,"ĠEmp":6036,"ĠOrzo":6037,"Ġplums":6038,"ottage":6039,"ĠMIX":6040,"Moroccan":6041,"Ġspiced":6042,"Ġblackberry":6043,"aps":6044,"Ġhelps":6045,"Bbq":6046,"Ori":6047,"ha":6048,"rare":6049,"ĠSear":6050,"olut":6051,"Ġbagels":6052,"Ġgrams":6053,"Ġgoes":6054,"ĠFinish":6055,"Ġversion":6056,"Ġcontinuing":6057,"100":6058,"Japanese":6059,"Tropical":6060,"cub":6061,"ille":6062,"Ġdeseed":6063,"ised":6064,"ĠADD":6065,"ĠFarm":6066,"Ġlayering":6067,"arines":6068,"ĠMocha":6069,"Ġpretzel":6070,"Mashed":6071,"Zesty":6072,"Ġparmigiano":6073,"ĠPush":6074,"ĠCointreau":6075,"ĠMas":6076,"Ġasiago":6077,"ĠHamburger":6078,"Ġmark":6079,"uffle":6080,"Ġmelting":6081,"Ġflavours":6082,"ĠTOPPING":6083,"bergine":6084,"ĠEXCEPT":6085,"Ġoleo":6086,"then":6087,"apa":6088,"nac":6089,"Ġneeds":6090,"Ġpatted":6091,"ĠScramble":6092,"Ġstarter":6093,"Ġlogs":6094,"ĠRoma":6095,"Wal":6096,"fingers":6097,"made":6098,"Ġtaking":6099,"Ġwhe":6100,"ĠParsley":6101,"Ġdevelop":6102,"Ġfilet":6103,"mazing":6104,"ometimes":6105,"Indian":6106,"OO":6107,"ĠPer":6108,"Ġkraft":6109,"Ġremains":6110,"Ġ750":6111,"Ġputting":6112,"Ġoptions":6113,"Ġ475":6114,"ĠFashioned":6115,"Ġyukon":6116,"Ġ190":6117,"cohol":6118,"ND":6119,"Ġpipe":6120,"ouis":6121,"ourmet":6122,"ĠPhot":6123,"olina":6124,"ĠRicotta":6125,"Ġcorners":6126,"aped":6127,"ĠAppetizer":6128,"Ġwonderful":6129,"ltimate":6130,"gnac":6131,"ĠBurger":6132,"Ġmixt":6133,"ĠGold":6134,"Ġupside":6135,"angria":6136,"Ġprovided":6137,"Scall":6138,"ĠLiqu":6139,"46":6140,"whe":6141,"Ġacorn":6142,"oncini":6143,"orean":6144,"ĠBle":6145,"ĠHouse":6146,"ograp":6147,"ĠFritters":6148,"phia":6149,"Ġdefrosted":6150,"ĠPierce":6151,"Ġblossom":6152,"Ġour":6153,"Ġfondue":6154,"Ġcane":6155,"ĠChristmas":6156,"Ġgetting":6157,"ĠWatchers":6158,"Ġprick":6159,"Ġrigatoni":6160,"ĠPhotograp":6161,"Hamburger":6162,"act":6163,"eno":6164,"cell":6165,"Ġcond":6166,"Ġchilis":6167,"ĠToasted":6168,"ĠBasic":6169,"formation":6170,"ĠEmpty":6171,"Cormick":6172,"One":6173,"ubergine":6174,"Ġblock":6175,"elphia":6176,"ĠAss":6177,"Ġstain":6178,"ĠOats":6179,"ĠPuffs":6180,"ĠFirst":6181,"Berry":6182,"Hawaiian":6183,"Ra":6184,"illy":6185,"Ġfun":6186,"Ġchick":6187,"ĠCitrus":6188,"Ġjug":6189,"ĠDream":6190,"andied":6191,"rowd":6192,"ĠJiffy":6193,"Ġhoagie":6194,"Ġglossy":6195,"ĠPhotograph":6196,"74":6197,"Water":6198,"gie":6199,"wrapped":6200,"arind":6201,"Ġhome":6202,"ĠSor":6203,"ĠBananas":6204,"Ġsalty":6205,"Ġagainst":6206,"ĠStrawberries":6207,"Ġchefs":6208,"Ġrows":6209,"Ġ175":6210,"Ġgorgonzola":6211,"ĠBag":6212,"right":6213,"Ġsauces":6214,"ĠMove":6215,"Ġspareribs":6216,"Ġgrater":6217,"ĠThyme":6218,"Coffee":6219,"iladelphia":6220,"Ġindividually":6221,"Ġdecoration":6222,"Ġmicrowaveable":6223,"Frozen":6224,"ais":6225,"ittle":6226,"ĠPillsbury":6227,"Ġuntill":6228,"tob":6229,"Ġspear":6230,"sharp":6231,"ĠUp":6232,"Ġceramic":6233,"Ġgrains":6234,"aurant":6235,"IP":6236,"light":6237,"ml":6238,"ĠSur":6239,"ĠPass":6240,"ripe":6241,"ĠCrackers":6242,"ĠSupreme":6243,"ĠSkewers":6244,"22":6245,"ji":6246,"Ġbbq":6247,"ĠCountry":6248,"ĠMarsala":6249,"ĠYummy":6250,"Ġcannot":6251,"Ġtouching":6252,"Ġesc":6253,"Asparagus":6254,"Ġdep":6255,"uckwheat":6256,"Ġcollard":6257,"chat":6258,"ulated":6259,"ĠKabobs":6260,"Ġdiet":6261,"ĠFrittata":6262,"ĠCondensed":6263,"ET":6264,"Golden":6265,"ner":6266,"Ġtro":6267,"ounder":6268,"Ġsoaking":6269,"Ġcrunch":6270,"Ġtransferring":6271,"ĠTreats":6272,"ĠCOO":6273,"Swiss":6274,"tobello":6275,"Gu":6276,"Ġduty":6277,"Ġhummus":6278,"ĠApricot":6279,"Ġfloat":6280,"allions":6281,"ĠFollow":6282,"Ġbitter":6283,"RESS":6284,"Ġpersonal":6285,"bottomed":6286,"chatel":6287,"Ġmove":6288,"Ġmand":6289,"ĠMex":6290,"shaped":6291,"ĠVegetarian":6292,"Ġnectarines":6293,"ycat":6294,"ufchatel":6295,"Jalapeno":6296,"Lo":6297,"een":6298,"Ġstrained":6299,"ĠTilapia":6300,"ĠVer":6301,"Ġhowever":6302,"ields":6303,"Ġdepth":6304,"Macaroni":6305,"Texas":6306,"\\)":6307,"baking":6308,"Ġinformation":6309,"ĠBon":6310,"ĠInto":6311,"ĠHealthier":6312,"ĠEas":6313,"Ġliquor":6314,"regg":6315,"Ġquiche":6316,"ĠGrape":6317,"ĠPancake":6318,"Oli":6319,"Pesto":6320,"idd":6321,"Ġcal":6322,"enough":6323,"ĠCacao":6324,"ĠAmeric":6325,"ume":6326,"olog":6327,"Ġsavory":6328,"thin":6329,"ĠGolden":6330,"agic":6331,"Ġliters":6332,"Ġfreezing":6333,"Ġparty":6334,"acaroons":6335,"Cabbage":6336,"Gran":6337,"RO":6338,"Ġmalt":6339,"lemon":6340,"Ġ(,":6341,"ĠBut":6342,"ĠBAKE":6343,"Ġ120":6344,"ĠChickpea":6345,"Ġkeeps":6346,"ĠBeaters":6347,"Ġanyone":6348,"Ġgrainy":6349,"Ġaccess":6350,"Ġjigger":6351,"Gra":6352,"ava":6353,"drain":6354,"ests":6355,"Ġfan":6356,"ĠLat":6357,"monterey":6358,"Ġhoneydew":6359,"ĠFrozen":6360,"ĠZip":6361,"ignon":6362,"Ġinsides":6363,"reggiano":6364,"So":6365,"ani":6366,"umper":6367,"ighter":6368,"Ġisn":6369,"coated":6370,"ĠYellow":6371,"iblets":6372,"ĠBlanch":6373,"Ġmounds":6374,"ordfish":6375,"ĠBaileys":6376,"Ġdeseeded":6377,"Pick":6378,"make":6379,"Ġchange":6380,"isotto":6381,"etter":6382,"Ġalcohol":6383,"Ġenchiladas":6384,"Ġhighball":6385,"ĠReplace":6386,"Ġgrapeseed":6387,"Ġokay":6388,"lin":6389,"uct":6390,"onge":6391,"Ġbic":6392,"iled":6393,"ros":6394,"Ġchia":6395,"Ġteaspoonful":6396,"Ġeff":6397,"ĠHea":6398,"Ġfilter":6399,"etizers":6400,"ĠAmerica":6401,"Mon":6402,"hi":6403,"lightly":6404,"uds":6405,"Ġir":6406,"ĠSTI":6407,"Ġbuttery":6408,"ĠTest":6409,"ĠDouble":6410,"ieved":6411,"Ġslide":6412,"ĠScore":6413,"Ġvert":6414,"ĠSnow":6415,"ebabs":6416,"fitting":6417,"Min":6418,"Tangy":6419,"cao":6420,"Ġchewy":6421,"Ġamaretto":6422,"Ġment":6423,"unge":6424,"orr":6425,"lain":6426,"toasted":6427,"Ġscrew":6428,"ĠThrow":6429,"ĠJelly":6430,"ĠScrambled":6431,"Ġequiv":6432,"ĠSouthern":6433,"prise":6434,"ĠIsland":6435,"Hearty":6436,"Port":6437,"Up":6438,"ike":6439,"Ġcraisins":6440,"ickory":6441,"ĠTexas":6442,"ĠFamous":6443,"ify":6444,"eltzer":6445,"Ġperfect":6446,"Ġjellyroll":6447,"Three":6448,"ingersn":6449,"Ġladyfingers":6450,"RESSING":6451,"Teriyaki":6452,"hip":6453,"ias":6454,"yed":6455,"anth":6456,"ĠPita":6457,"ĠAcc":6458,"ĠRough":6459,"ĠDRESSING":6460,"wee":6461,"Ġtenderness":6462,"Ġbased":6463,"Ġiceberg":6464,"Christmas":6465,"Ġrotisserie":6466,"uracao":6467,"ificial":6468,"Citrus":6469,"olic":6470,"ĠBE":6471,"Ġpepperoncini":6472,"ĠThigh":6473,"unda":6474,"ĠGarden":6475,"ĠON":6476,"Ġperfor":6477,"ĠJohn":6478,"ĠHerbs":6479,"Pa":6480,"bons":6481,"Ġlunch":6482,"ĠCelsius":6483,"ours":6484,"ĠSprite":6485,"Ġkey":6486,"Ġmarks":6487,"ontina":6488,"inguini":6489,"otti":6490,"ĠSecure":6491,"evia":6492,"blended":6493,"Ġedamame":6494,"Ġborder":6495,"umpernick":6496,"UST":6497,"Ġpouch":6498,"orld":6499,"ucy":6500,"Ġsalads":6501,"ĠKale":6502,"Ġfolding":6503,"Ġcaramelize":6504,"Ġhocks":6505,"ĠBruschetta":6506,"Salsa":6507,"Eggplant":6508,"Ġvisit":6509,"Ġproduct":6510,"ĠUSDA":6511,"cellent":6512,"Make":6513,"ners":6514,"Ġcalories":6515,"Ġseltzer":6516,"ereal":6517,"Ġ220":6518,"aky":6519,"real":6520,"ĠAND":6521,"Ġbutt":6522,"Ġjell":6523,"urk":6524,"Ġpanini":6525,"ĠSautee":6526,"izzas":6527,"luding":6528,"Ġwraps":6529,"ĠCrusted":6530,"Ġgroc":6531,"ĠMcCormick":6532,"cross":6533,"uri":6534,"usilli":6535,"ĠBra":6536,"through":6537,"Ġbeaters":6538,"Ġletting":6539,"achos":6540,"Ġcoarsley":6541,"Ġeaten":6542,"Ġattachment":6543,"Ġbicarb":6544,"Ġact":6545,"alley":6546,"chio":6547,"Ġthing":6548,"urg":6549,"Ġcriss":6550,"Ġcoats":6551,"Ġbroiling":6552,"Southwestern":6553,"ĠMyPl":6554,"ĠMyRec":6555,"ĠPartners":6556,"coholic":6557,"Skillet":6558,"abetic":6559,"Ġtrove":6560,"ĠMyPlate":6561,"ĠMyRecipes":6562,"ĠPartnership":6563,"Buffalo":6564,"Irish":6565,"ging":6566,"nam":6567,"Ġ=":6568,"ouille":6569,"ĠPops":6570,"iments":6571,"ĠDate":6572,"ĠHalf":6573,"ĠGraham":6574,"ĠProtein":6575,"Ġdecorative":6576,"istribute":6577,"einz":6578,"Ġfrank":6579,".(":6580,"Mex":6581,"calorie":6582,"Ġsnapper":6583,"Ġbuffalo":6584,"ĠSP":6585,"Ġrather":6586,"ĠCola":6587,"ĠStri":6588,"Ġtomat":6589,"Ġclumps":6590,"ĠLawry":6591,"ĠHo":6592,"ĠHorseradish":6593,"ĠHungarian":6594,"Roast":6595,"Ġpockets":6596,"Ġrapidly":6597,"Ġstainless":6598,"Olive":6599,"ĠSTIR":6600,"ION":6601,"Wild":6602,"hing":6603,"ony":6604,"Ġmexican":6605,"atal":6606,"itch":6607,"ĠTie":6608,"Ġshiny":6609,"irect":6610,"ĠToffee":6611,"ĠThat":6612,"ĠThere":6613,"Ġpierce":6614,"ĠCracker":6615,"Ġartificial":6616,"rx":6617,"ses":6618,"lee":6619,"ĠCashew":6620,"chicken":6621,"ĠFla":6622,"Ġtend":6623,"Ġsweetness":6624,"Ġmarinating":6625,"ĠNutella":6626,"Ġdrizzled":6627,"Ġclosely":6628,"Ġsubs":6629,"Ġmeantime":6630,"Ġmixtures":6631,"Ġpip":6632,"icchio":6633,"ene":6634,"ids":6635,"ĠChil":6636,"garnish":6637,"Ġmashing":6638,"ĠUnwrap":6639,"TION":6640,"umpernickel":6641,"Holiday":6642,"close":6643,"ĠCran":6644,"Ġflute":6645,"ĠMa":6646,"Ġsmell":6647,"Ġjarred":6648,"ĠEnchilada":6649,"plus":6650,"Ġdiscarded":6651,"aho":6652,"Ġspots":6653,"idden":6654,"Cilantro":6655,"Len":6656,"noc":6657,"Ġsince":6658,"anas":6659,"Ġgouda":6660,"Ġcognac":6661,"ĠPenne":6662,"ĠJar":6663,"Ġcurls":6664,"oulash":6665,"ĠVariations":6666,"ĠFillets":6667,"Ġemulsified":6668,"cubed":6669,"ĠSorbet":6670,"ĠThighs":6671,"Mint":6672,"bor":6673,"Ġswee":6674,"icer":6675,"ĠTime":6676,"ĠRE":6677,"ounds":6678,"ĠPoppy":6679,"Ġtamarind":6680,"ilian":6681,"Ġ(.":6682,"ĠPRE":6683,"Ġsamb":6684,"Ġthru":6685,"Ġspa":6686,"Ġjuicy":6687,"Ġdevil":6688,"etty":6689,"ĠParty":6690,"300":6691,"Op":6692,"Use":6693,"ba":6694,"bought":6695,"ĠStand":6696,"Ġitems":6697,"rawfish":6698,"ĠVER":6699,"ĠButternut":6700,"Ġkids":6701,"Ġfingert":6702,"375":6703,"Bean":6704,"Not":6705,"fle":6706,"house":6707,"jita":6708,"Ġtanger":6709,"ĠMarshmallow":6710,"Ġvol":6711,"ĠDor":6712,"ĠWw":6713,"ĠHear":6714,"uxe":6715,"Weight":6716,"Ġescape":6717,"Bar":6718,"Yogurt":6719,"fric":6720,"full":6721,"hal":6722,"Ġsriracha":6723,"ĠPile":6724,"ĠDark":6725,"Chipotle":6726,"Ġboned":6727,"iscotti":6728,"ĠYum":6729,"ĠYukon":6730,"they":6731,"ĠScalloped":6732,"Artichoke":6733,"Swedish":6734,"anson":6735,"ĠCube":6736,"ĠPastry":6737,"nocchi":6738,"inds":6739,"atw":6740,"orange":6741,"ĠPine":6742,"Ġpecor":6743,"Ġwho":6744,"Ġcling":6745,"ĠSauerkraut":6746,"Ġslight":6747,"ĠKeeps":6748,"Ġlentil":6749,"Ġpoints":6750,"Beer":6751,"ĠTwist":6752,"Ġpassion":6753,"Ġequivalent":6754,"Ġsweeter":6755,"Ġpecorino":6756,"110":6757,"Barbecue":6758,"hea":6759,"mold":6760,"oey":6761,"Ġbund":6762,"ĠSER":6763,"oky":6764,"uscan":6765,"Ġspecial":6766,"comb":6767,"Ġchilling":6768,"ĠSlices":6769,"Ġalternate":6770,"ĠAlternately":6771,"NOTE":6772,"Fa":6773,"Ġci":6774,"uth":6775,"Ġ26":6776,"abag":6777,"ĠBuffalo":6778,"Ġrubbed":6779,"Ġsaucepot":6780,"Ġever":6781,"Ġeyes":6782,"Ġlivers":6783,"Cho":6784,"ĠVidalia":6785,"ĠBurritos":6786,"Awesome":6787,"mins":6788,"Ġmesh":6789,"ĠPoke":6790,"Ġyummy":6791,"ĠWedges":6792,"oman":6793,"Ġsealable":6794,"Ġgives":6795,"Ġscones":6796,"onate":6797,"Ġfe":6798,"uncooked":6799,"ĠGluten":6800,"resso":6801,"ogies":6802,"Ġopening":6803,"Ġwilts":6804,"ĠVeggies":6805,"Ġnavel":6806,"Ġdidn":6807,"ĠPaprika":6808,"Watermelon":6809,"Aubergine":6810,"Tasty":6811,"aff":6812,"bles":6813,"Ġdress":6814,"ĠTbl":6815,"amen":6816,"undy":6817,"ĠWay":6818,"Ġblackened":6819,"Ġsets":6820,"issa":6821,"ĠUps":6822,"apenade":6823,"rittle":6824,"ĠMoisten":6825,"ĠSeeds":6826,"borio":6827,"ĠVERY":6828,"Ġoval":6829,"ital":6830,"Ġther":6831,"Ġthumb":6832,"Ġstirred":6833,"ĠOther":6834,"ĠBrownie":6835,"Ġundern":6836,"ibut":6837,"ĠAngel":6838,"matic":6839,"Ġsizzle":6840,"ouisiana":6841,"Ġgrocery":6842,"Apples":6843,"eps":6844,"gra":6845,"well":6846,"ĠLast":6847,"oft":6848,"Creamed":6849,"Ġhock":6850,"Broiled":6851,"ĠAlternate":6852,"ĠĠĠ":6853,"Ġworry":6854,"Ġkisses":6855,"pecially":6856,"iccated":6857,"Oriental":6858,"Ġunderneath":6859,"iar":6860,"non":6861,"Ġmixes":6862,"ĠMom":6863,"Ġrender":6864,"ĠStack":6865,"ĠHerbed":6866,"ĠCrisps":6867,"Ġoppos":6868,"Ġchecking":6869,"Ġomitting":6870,"Ġmandol":6871,"Ġperforations":6872,"Ġbicarbonate":6873,"Braised":6874,"Layer":6875,"Ġsimply":6876,"Ġbird":6877,"Ġunwrapped":6878,"ĠPor":6879,"resc":6880,"ĠRussian":6881,"ĠRisotto":6882,"ĠChard":6883,"ĠHOT":6884,"ĠOVER":6885,"Ġpeels":6886,"Ġupon":6887,"Ġyours":6888,"Ġstandard":6889,"Ġpitas":6890,"Ġflattened":6891,"plum":6892,"Ġcrepe":6893,"Ġsoftens":6894,"Ġradicchio":6895,"Ġpuffy":6896,"ĠSnap":6897,"Caramelized":6898,"Ġsilken":6899,"Ġachieved":6900,"Raisin":6901,"ja":6902,"rinsed":6903,"Ġser":6904,"Ġpoke":6905,"ities":6906,"Ġhr":6907,"ĠRib":6908,"Ġappetizer":6909,"Ġsmoothie":6910,"Ġdesiccated":6911,"Ġface":6912,"Ġretain":6913,"Butterscotch":6914,"Ġrisen":6915,"Ġcroissants":6916,"Pickled":6917,"urgundy":6918,"cinnamon":6919,"dish":6920,"day":6921,"seasoned":6922,"Ġtabasco":6923,"Ġfeed":6924,"Ġdel":6925,"ĠBarbecued":6926,"ida":6927,"thirds":6928,"Ġsmash":6929,"pared":6930,"ĠEither":6931,"Ġzesty":6932,"Ġunders":6933,"Ġstewing":6934,"ĠMayo":6935,"Ġchestnut":6936,"Ġparfait":6937,"ĠStarting":6938,"63":6939,"iddle":6940,"inf":6941,"ĠCold":6942,"ĠBob":6943,"ĠAny":6944,"ĠIndian":6945,"ĠWrapped":6946,"Ġstopping":6947,"Ġaccompan":6948,"Ġperi":6949,"Ġindirect":6950,"minutes":6951,"ĠLoosen":6952,"Ġeffect":6953,"gian":6954,"ugu":6955,"olf":6956,"ĠMade":6957,"Ġeigh":6958,"cond":6959,"ĠHeinz":6960,"ĠStove":6961,"ĠZest":6962,"ĠFritos":6963,"ĠPickles":6964,"ĠExtract":6965,"riendly":6966,"Walnut":6967,"ĠCOOK":6968,"Ġpiping":6969,"rescents":6970,"Raw":6971,"Sea":6972,"Ġbea":6973,"Ġph":6974,"ĠSouffle":6975,"ĠFondue":6976,"Ġkabobs":6977,"ĠTofu":6978,"Spaghetti":6979,"ĠMinced":6980,"ĠTruffles":6981,"ĠClam":6982,"Ġvolume":6983,"Col":6984,"OL":6985,"Ref":6986,"Ranch":6987,"Vegg":6988,"Ġla":6989,"cel":6990,"ugel":6991,"Ġstevia":6992,"ĠRay":6993,"ĠLettuce":6994,"Ġspoons":6995,"Ġdoor":6996,"ĠBeets":6997,"Ġbrussels":6998,"Ġfarfalle":6999,"ĠAssemble":7000,"atalina":7001,"ĠCranberries":7002,"34":7003,"FT":7004,"ool":7005,"Ġob":7006,"ilt":7007,"arified":7008,"hell":7009,"rel":7010,"ceed":7011,"armel":7012,"Ġpackaged":7013,"Ġcase":7014,"Ġmatchsticks":7015,"ĠMelted":7016,",&":7017,"GE":7018,"Ups":7019,"eor":7020,"fir":7021,"gelic":7022,"iet":7023,"iger":7024,"pow":7025,"abe":7026,"ĠCrescent":7027,"ĠPolish":7028,"Ġquant":7029,"Ġsubstitutes":7030,"mixture":7031,"Ġreheated":7032,"Ġpistachio":7033,"ĠHellmann":7034,"including":7035,"Good":7036,"TM":7037,"den":7038,"ele":7039,"jack":7040,"ped":7041,"once":7042,"Ġmarsala":7043,"Ġfusilli":7044,"Ġwipe":7045,"ĠCereal":7046,"ĠPri":7047,"ĠDuring":7048,"quef":7049,"Ġ65":7050,"ĠUN":7051,"120":7052,"ĠJapanese":7053,"Ġcurrant":7054,"Ġevaporate":7055,"iffon":7056,"Ġelastic":7057,"--------":7058,"Ġsultanas":7059,"Cari":7060,"OIL":7061,"skin":7062,"Ġ;":7063,"olland":7064,"amc":7065,"qual":7066,"Ġ140":7067,"estive":7068,"Ġplump":7069,"Ġplease":7070,"oya":7071,"160":7072,"Ġdirect":7073,"Ġconsist":7074,"Ġindentation":7075,"remove":7076,"uguese":7077,"Cre":7078,"Very":7079,"boil":7080,"muff":7081,"pie":7082,"sto":7083,"icated":7084,"Ġdairy":7085,"Ġhickory":7086,"ĠSave":7087,"thinly":7088,"Ġcarving":7089,"Ġrims":7090,"ĠKielbasa":7091,"Ġqueso":7092,"Ġchunked":7093,"Ġbulbs":7094,"ĠDeen":7095,"uccino":7096,"ĠClassic":7097,"ĠPeaches":7098,"Ġscorching":7099,"quefort":7100,"Carib":7101,"Feta":7102,"Soft":7103,"fur":7104,"fruit":7105,"vely":7106,"Ġpile":7107,"Ġfacing":7108,"Ġdisc":7109,"veget":7110,"Ġnacho":7111,"ope":7112,"Ġenclose":7113,"ĠGruyere":7114,"Ġknives":7115,"Ġsealing":7116,"ritz":7117,"blong":7118,"process":7119,"Ġresemble":7120,"Ġirish":7121,"des":7122,"Ġfr":7123,"isins":7124,"aken":7125,"ĠReal":7126,"undrained":7127,"stuffed":7128,"color":7129,"colored":7130,"Ġraise":7131,"ache":7132,"ĠKiss":7133,"Ġotherwise":7134,"Stea":7135,"Ġnormal":7136,"wheels":7137,"frican":7138,"Caribbean":7139,"90":7140,"cer":7141,"fess":7142,"oot":7143,"uv":7144,"Ã©":7145,"era":7146,"Ġmaybe":7147,"Ġquesadilla":7148,"ption":7149,"Ġxanth":7150,"ĠAsiago":7151,"Ġtotally":7152,"ĠPickled":7153,"Ġsomething":7154,"ĠSurprise":7155,"ologna":7156,"Ġsambal":7157,"Bl":7158,"Barbecued":7159,"CK":7160,"uens":7161,"Ġtim":7162,"Ġoblong":7163,"pote":7164,"atta":7165,"rops":7166,"ores":7167,"Ġ21":7168,"Ġshow":7169,"adjust":7170,"Ġingrediants":7171,"ifting":7172,"Ġfinally":7173,"Ġproced":7174,"Ġproper":7175,"Ġmoving":7176,"untain":7177,"Ġopposite":7178,"Ġperiod":7179,"Veggie":7180,"uenster":7181,"bin":7182,"ĠSriracha":7183,"ĠTIP":7184,"ĠOz":7185,"Ġupright":7186,"ĠNet":7187,"Ġsciss":7188,"zech":7189,"Ġseams":7190,"ucked":7191,"ĠQuarter":7192,"oose":7193,"ĠRaisins":7194,"Ġshortbread":7195,"ocacc":7196,"Ġtruffle":7197,"Ġfalling":7198,"ĠChex":7199,"ĠPhiladelphia":7200,"ĠAccent":7201,"Aut":7202,"Rich":7203,"juice":7204,"mium":7205,"Ġbuckwheat":7206,"icles":7207,"Ġwid":7208,"ups":7209,"ushi":7210,"ĠOys":7211,"ĠVodka":7212,"ĠButterscotch":7213,"ĠSauteed":7214,"ĠCrispy":7215,"iki":7216,"Ġsizzling":7217,"ĠSeafood":7218,"Ġmenthe":7219,"Ġfingertips":7220,"Bo":7221,"Don":7222,"Ground":7223,"acc":7224,"cored":7225,"fort":7226,"wood":7227,"Ġcacao":7228,"Ġcupfuls":7229,"ĠCumin":7230,"ĠMark":7231,"Ġcanchopped":7232,"quet":7233,"Ġroaster":7234,"ĠGrain":7235,"ĠLim":7236,"Ġangle":7237,"Ġspooning":7238,"loom":7239,"tend":7240,"Ġaged":7241,"Steak":7242,"Ġhadd":7243,"ĠSwanson":7244,"Ġpared":7245,"ĠShells":7246,"80":7247,"Curry":7248,"Real":7249,"lf":7250,"tic":7251,"eading":7252,"Ġfancy":7253,"Ġfiber":7254,"upp":7255,"ĠSAL":7256,"ĠSangria":7257,"Ġbutterf":7258,"ĠMore":7259,"illos":7260,"ody":7261,"uddle":7262,"Ġcaesar":7263,"ĠPret":7264,"mixed":7265,"ĠRaise":7266,"Ġshreds":7267,"ĠSlide":7268,"ĠSticks":7269,"fessional":7270,"Ġxanthan":7271,"Ġprocedure":7272,"ocaccia":7273,"Ġhaddock":7274,"'.":7275,"ael":7276,"ler":7277,"mish":7278,"Ġau":7279,"Ġmess":7280,"Ġmahi":7281,"utabag":7282,"Ġhouse":7283,"abul":7284,"Ġvine":7285,"ĠHold":7286,"Ġdrying":7287,"Ġdehyd":7288,"ambal":7289,"Ġswir":7290,"ĠFlank":7291,"Ġfourths":7292,"Ġribbons":7293,"Ġtreat":7294,"Ġvisible":7295,"Scalloped":7296,"Ġvertically":7297,"ĠDoritos":7298,"gelico":7299,"Eas":7300,"ipper":7301,"mg":7302,"ras":7303,"Ġing":7304,"ĠPipe":7305,"usters":7306,"Ġadds":7307,"ĠStreusel":7308,"Ġ600":7309,"Ġusual":7310,"ĠThin":7311,"Ġpits":7312,"205":7313,"INE":7314,"Ġenvelopes":7315,"ĠAlternatively":7316,"degrees":7317,"Ġwheel":7318,"ient":7319,"uke":7320,"Ġ+":7321,"Ġpumpernickel":7322,"icro":7323,"itten":7324,"Ġchan":7325,"lement":7326,"ĠParmigiano":7327,"ĠMolasses":7328,"Ġsogg":7329,"Ġable":7330,"ĠGoulash":7331,"agu":7332,"Ġprofessional":7333,"Quinoa":7334,"Ġsqueezing":7335,"avioli":7336,"ĠBase":7337,"Southwest":7338,"Mocha":7339,"Angel":7340,"Ġachieve":7341,"Pink":7342,"sal":7343,"save":7344,"Ġcalls":7345,"though":7346,"ĠRead":7347,"quality":7348,"prepared":7349,"ĠJoe":7350,"ĠLike":7351,"Ġvermouth":7352,"Ġmotor":7353,"ĠBleu":7354,"Ġconsistancy":7355,"Ġscissors":7356,"bm":7357,"based":7358,"turn":7359,"âĢ":7360,"Ġcrimp":7361,"ĠFlo":7362,"Ġbleu":7363,"Chunky":7364,"spray":7365,"Ġcremini":7366,"Ġacid":7367,"Toasted":7368,"Ġaromatic":7369,"Applesauce":7370,"oncello":7371,"EAT":7372,"Ġmom":7373,"upper":7374,"rots":7375,"Ġchinese":7376,"Ġchickpea":7377,"ĠBou":7378,"Ġjerk":7379,"Ġyield":7380,"Ġpaddle":7381,"ĠGouda":7382,"Ġprecooked":7383,"ĠKet":7384,"ĠMilkshake":7385,"ĠScallops":7386,"Ġattached":7387,"ĠNetwork":7388,"Ha":7389,"Nor":7390,"Te":7391,"Ġ!":7392,"ĠBOIL":7393,"ĠAL":7394,"Ġsays":7395,"ĠTarragon":7396,"ĠFiber":7397,"Ġ98":7398,"Ġrip":7399,"ĠValley":7400,"ĠShall":7401,"ĠYork":7402,"Ġkneading":7403,"Ġstale":7404,"Ġgooey":7405,"Ġblood":7406,"ĠWait":7407,"ĠLentils":7408,"ĠMedley":7409,"Paula":7410,"ittencal":7411,"Ġsoggy":7412,"Amazing":7413,"Baby":7414,"Chewy":7415,"Dill":7416,"Tri":7417,"ien":7418,"Ġsuc":7419,"aline":7420,"ĠSodium":7421,"ĠChef":7422,"Ġflaky":7423,"ĠMary":7424,"Ġnapa":7425,"ĠDistribute":7426,"Ġupper":7427,"ĠNe":7428,"ĠGrits":7429,"ĠStock":7430,"ĠBeet":7431,"Potatoes":7432,"Ġdisapp":7433,"Ġhusk":7434,"OUR":7435,"ĠTortellini":7436,"Ġcondiments":7437,"ĠStrips":7438,"LA":7439,"giving":7440,"Ġmalted":7441,"lester":7442,"ase":7443,"ĠBeg":7444,"Ġflo":7445,"ĠIced":7446,"ĠTarts":7447,"Ġwhirl":7448,"Ġreduces":7449,"Ġseem":7450,"Ġapprx":7451,"Ġslushy":7452,"Ġnutella":7453,"Ġchive":7454,"Great":7455,"Ġalongside":7456,"ĠCrumb":7457,"Ġespecially":7458,"Ġflaxseed":7459,"falfa":7460,"ĠLatte":7461,"Ġtherefore":7462,"lesterol":7463,"Jo":7464,"Soy":7465,"Tex":7466,"bac":7467,"washed":7468,"ils":7469,"arrow":7470,"Ġcobs":7471,"abatta":7472,"ĠCatalina":7473,"edible":7474,"Ġnuggets":7475,"ĠDI":7476,"Ġgratin":7477,"ĠWon":7478,"ĠHawaiian":7479,"Ġbottomed":7480,"saute":7481,"Ġbrisk":7482,"Ġguess":7483,"Ġfrosted":7484,"Ġsectioned":7485,"Ġgloves":7486,"Ġflowerets":7487,"Ġunderside":7488,"muffin":7489,"inegar":7490,"Ġcuracao":7491,"oumi":7492,"ĠCole":7493,"ĠTasty":7494,"Ġskip":7495,"Ġalum":7496,"Ġneck":7497,"Ġenglish":7498,"Ġprocessing":7499,"ĠBrisket":7500,"Ġbratw":7501,"ibu":7502,"leave":7503,"margarine":7504,"Ġramekin":7505,"ĠCaramelized":7506,"Ġsilic":7507,"ĠColby":7508,"ĠRoughly":7509,"abulous":7510,"Big":7511,"Fish":7512,"IAT":7513,"Ma":7514,"Penne":7515,"batter":7516,"peas":7517,"Ġarea":7518,"Ġbias":7519,"Ġmac":7520,"Ġfashion":7521,"Ġingr":7522,"ĠSometimes":7523,"emi":7524,"ĠTater":7525,"ĠFennel":7526,"agle":7527,"othered":7528,"Ġadditions":7529,"Ġplaces":7530,"Ġpresentation":7531,"Ġdropped":7532,"Blackberry":7533,"Ġburritos":7534,"retch":7535,"Lentil":7536,"Sn":7537,"warm":7538,"Ġpyrex":7539,"Ġmass":7540,"ref":7541,"llion":7542,"ĠRest":7543,"Ġsponge":7544,"ĠHar":7545,"Ġalfalfa":7546,"Ġbaggie":7547,"Ġscore":7548,"ĠVers":7549,"ĠPrep":7550,"Ġswordfish":7551,"ĠProven":7552,"Ġrotating":7553,"ettuccini":7554,"Ġportobello":7555,"razy":7556,"bacore":7557,"Cold":7558,"Rum":7559,"Ultimate":7560,"beans":7561,"di":7562,"Ġtuck":7563,"Ġbass":7564,"Ġfarm":7565,"rect":7566,"Ġgher":7567,"ĠSage":7568,"ĠPic":7569,"Ġstro":7570,"eggiano":7571,"aded":7572,"ĠChive":7573,"ĠThree":7574,"ibb":7575,"Ġrepres":7576,"undae":7577,"Pear":7578,"dor":7579,"mild":7580,"Ġpam":7581,"ĠST":7582,"ĠSome":7583,"ĠBR":7584,"ĠMal":7585,"Ġdeglaze":7586,"ĠLeftover":7587,"hentic":7588,"Ġscant":7589,"Ġunsifted":7590,"Ġsubstitut":7591,"ĠKnorr":7592,"ĠCucumbers":7593,"Ġomelette":7594,"Ġactually":7595,"ollandaise":7596,"CH":7597,"MB":7598,"mly":7599,"Ġea":7600,"Ġint":7601,"verted":7602,"Ġchoc":7603,"Ġnarrow":7604,"Ġmeatball":7605,"ĠEl":7606,"ĠDiet":7607,"ucky":7608,"recipe":7609,"Ġscalded":7610,"Brussels":7611,"Ġmembrane":7612,"net":7613,"ude":7614,"Ġcrawfish":7615,"Ġpies":7616,"Ġlinguini":7617,"ĠCur":7618,"ists":7619,"imich":7620,"arsn":7621,"ĠGrap":7622,"Ġdraining":7623,"Ġcarob":7624,"Chickpea":7625,"Ġarborio":7626,"Ġhardboiled":7627,"ĠCornish":7628,"ampi":7629,"Ġstoring":7630,"istachio":7631,"HEAT":7632,"Ġpurch":7633,"Dijon":7634,"ĠHair":7635,"ĠDeglaze":7636,"Ġpopsicle":7637,"aiser":7638,"Ġserrated":7639,"upperware":7640,".\\":7641,"Lamb":7642,"four":7643,"keep":7644,"Ġfaster":7645,"Ġchopping":7646,"Ġhalibut":7647,"ĠSoft":7648,"Ġfreezes":7649,"Ġquesadillas":7650,"Ġdont":7651,"Cool":7652,"ĠPanini":7653,"Ġsecurely":7654,"Ġwatching":7655,"ietnam":7656,"Simply":7657,"into":7658,"Ġcampbell":7659,"Ġton":7660,"Ġtried":7661,"enison":7662,"Ġgolf":7663,"ĠBurgundy":7664,"ĠFettuccine":7665,"ĠGet":7666,"Ġappears":7667,"ĠOregano":7668,"should":7669,"Ġdusted":7670,"Ġmembranes":7671,"Layered":7672,"Ġeighths":7673,"elek":7674,"nic":7675,"Ġsum":7676,"ĠSkin":7677,"ĠBuns":7678,"Ġchocol":7679,"Ġthings":7680,"Ġclarified":7681,"Ġshelf":7682,"sauce":7683,"Ġsemolina":7684,"icotti":7685,"Ġregularly":7686,"ĠAppetizers":7687,"ĠArugula":7688,"Ġvariation":7689,"Ġoverlap":7690,"ietnamese":7691,"65":7692,"Dad":7693,"Ex":7694,"Har":7695,"Sloppy":7696,"boy":7697,"gu":7698,"ica":7699,"Ġwisk":7700,"atz":7701,"ĠCurried":7702,"ĠBul":7703,"Ġfluted":7704,"ĠGive":7705,"ĠHass":7706,"immy":7707,"Ġext":7708,"tent":7709,"Ġboullion":7710,"Ġdevein":7711,"ĠLoin":7712,"freshly":7713,"ĠFoods":7714,"Ġmincemeat":7715,"ĠFrangelico":7716,"oursin":7717,"ĠFloat":7718,"170":7719,"23":7720,"Ind":7721,"Jack":7722,"UCE":7723,"fetti":7724,"nel":7725,"pace":7726,"inis":7727,"Ġmillet":7728,"utif":7729,"ict":7730,"easant":7731,"leg":7732,"ĠPa":7733,"iri":7734,"idge":7735,"oren":7736,"immon":7737,"Ġalone":7738,"Ġpapers":7739,"ĠYUM":7740,"ĠYields":7741,"Ġtoward":7742,"arina":7743,"ĠRoquefort":7744,"Ġsweat":7745,"Ġcasing":7746,"Ġdecorating":7747,"Ġscraped":7748,"ĠPlate":7749,"pherd":7750,"ENT":7751,"posed":7752,"hydrate":7753,"degree":7754,"Mixed":7755,"Ġfrankfur":7756,"Ġtomatillos":7757,"DO":7758,"Pro":7759,"uan":7760,"vanilla":7761,"onn":7762,"Ġbra":7763,"ĠPyrex":7764,"rip":7765,"Ġstreusel":7766,"Ġspic":7767,"vest":7768,"Ġkum":7769,"Ġsoupy":7770,"Ġtossed":7771,"Ġindicated":7772,"ĠLobster":7773,"Ġheadspace":7774,"ĠSupper":7775,"ĠOmelette":7776,"Nutty":7777,"anksgiving":7778,"ĠColada":7779,"vegetable":7780,"Steamed":7781,"Ġstrokes":7782,"Cub":7783,"Chef":7784,"jitas":7785,"Ġiced":7786,"Ġcarmel":7787,"Ġbologna":7788,"Ġmush":7789,"Ġgiblets":7790,"Ġgnocchi":7791,"Ġ29":7792,"ĠPerfect":7793,"ĠMacaroons":7794,"ĠFoil":7795,"iew":7796,"ĠChoy":7797,"Ġcovers":7798,"aper":7799,"andel":7800,"ĠCreamed":7801,"amaican":7802,"Ġsmoker":7803,"Ġmaintain":7804,"Crusted":7805,"combined":7806,"Ġyourself":7807,"Creole":7808,"ĠReady":7809,"dorf":7810,"com":7811,"pacho":7812,"rese":7813,"squ":7814,"tit":7815,"Ġtent":7816,"tilton":7817,"Ġflounder":7818,"Ġasian":7819,"ĠGl":7820,"Ġkick":7821,"ential":7822,"Ġapply":7823,"Ġmeaty":7824,"Ġzipper":7825,"Ġproport":7826,"ividing":7827,"Ġstanding":7828,"ĠMuffin":7829,"Ġcrepes":7830,"erios":7831,"ĠSlightly":7832,"ĠVersion":7833,"Ġrepresentation":7834,"Korean":7835,"cri":7836,"Ġsuff":7837,"anted":7838,"Ġlifting":7839,"ĠSU":7840,"asabi":7841,"ĠPaste":7842,"lay":7843,"using":7844,"Ġsay":7845,"Ġsauc":7846,"Ġjal":7847,"ĠFILL":7848,"ĠGall":7849,"Ġmargarita":7850,"uffy":7851,"Ġgreasing":7852,"rowroot":7853,"pends":7854,"ĠScotch":7855,"ĠSmok":7856,"ĠSmall":7857,"banese":7858,"ĠClub":7859,"Ġstores":7860,"ĠCrushed":7861,"Mock":7862,"Ġmatchstick":7863,"Poppy":7864,"Meatloaf":7865,"azpacho":7866,"urkish":7867,"ĠPREHEAT":7868,"Easiest":7869,"Kittencal":7870,"Non":7871,"With":7872,"ward":7873,"Ġtraditional":7874,"Ġparm":7875,"heim":7876,"ald":7877,"irloom":7878,"ĠBis":7879,"ĠBalance":7880,"Ġsteps":7881,"ĠCop":7882,"ĠTem":7883,"ĠTap":7884,"Ġgrass":7885,"ipment":7886,"Ġbreaded":7887,"ĠEagle":7888,"Ġheav":7889,"ĠNachos":7890,"Chile":7891,"ĠButtercream":7892,"Ġapproximate":7893,"Ġcolors":7894,"ussel":7895,"ĠMarinara":7896,"ettuc":7897,"ĠMargarita":7898,"Ġguests":7899,"Ġcornflake":7900,"Ġshoots":7901,"Ġcroissant":7902,"Ġsultana":7903,"ĠTotal":7904,"Granny":7905,"Ġtangerine":7906,"Ġwidth":7907,"Ġsilicone":7908,"Date":7909,"Deep":7910,"here":7911,"Ġsouffle":7912,"Ġmex":7913,"ilit":7914,"atay":7915,"owboy":7916,"ĠMandarin":7917,"ĠId":7918,"amember":7919,"Ġshucked":7920,"ĠDrum":7921,"ĠChorizo":7922,"Ġsweeten":7923,"ĠVAR":7924,"Ġlengthways":7925,"Ġarrowroot":7926,"Ġopened":7927,"Ġballer":7928,"ĠDepending":7929,"Ġnormally":7930,"Ġfritters":7931,"Ġciabatta":7932,"IATION":7933,"amembert":7934,"AY":7935,"Candied":7936,"Ho":7937,"May":7938,"Sto":7939,"fire":7940,"Ġpli":7941,"uncan":7942,"Ġvar":7943,"combine":7944,"ardi":7945,"Ġplunge":7946,"Ġpeeling":7947,"izer":7948,"Ġunseasoned":7949,"fectly":7950,"Spice":7951,"ĠEggnog":7952,"ĠGingerbread":7953,"Ġpuffs":7954,"Ġhollowed":7955,"ĠFlavored":7956,"ĠTBSP":7957,"Eyed":7958,"Mama":7959,"ni":7960,"Ġcel":7961,"Ġtum":7962,"Ġoelek":7963,"ĠPink":7964,"Ġsaving":7965,"third":7966,"ĠRamen":7967,"Ġremember":7968,"ĠGrey":7969,"ĠLeg":7970,"anta":7971,"Ġalbacore":7972,"Ġpoured":7973,"inda":7974,"soft":7975,"Ġbrick":7976,"Ġsafflower":7977,"California":7978,"Leftover":7979,"Mrs":7980,"Re":7981,"She":7982,"ior":7983,"serve":7984,"zle":7985,"Ġpal":7986,"held":7987,"itam":7988,"ĠPrawns":7989,"ĠPolenta":7990,"olo":7991,"Ġrutabag":7992,"ĠMorning":7993,"ĠHome":7994,"Ġnonreactive":7995,"Ġpopping":7996,"Ġtacos":7997,"tichokes":7998,"Ġverde":7999,"Diabetic":8000,"Ġpetite":8001,"ĠBelgian":8002,"ĠVerde":8003,"ĠZiploc":8004,"ĠVARIATION":8005,"Cottage":8006,"Yellow":8007,"bas":8008,"Ġfres":8009,"ĠSA":8010,"Ġ38":8011,"ĠTra":8012,"500":8013,"Ġuses":8014,"ĠOkra":8015,"Ġpremium":8016,"whatever":8017,"Ġtowards":8018,"Ġhardened":8019,"cooker":8020,"ĠMoist":8021,"Ġdrinking":8022,"udgy":8023,"Ġeyeball":8024,"ambalaya":8025,"Ġbriskly":8026,";.":8027,"Ġest":8028,"Ġburst":8029,"Ġmouth":8030,"Ġandouille":8031,"racle":8032,"ĠMound":8033,"Ġsouth":8034,"eanuts":8035,"efrost":8036,"ĠChar":8037,"reeze":8038,"eared":8039,"Ġcases":8040,"Ġtines":8041,"Ġmiracle":8042,"ĠNutritional":8043,"Ġparing":8044,"Gingerbread":8045,"ĠWatermelon":8046,"ĠNotes":8047,"iffonade":8048,"Dutch":8049,"cco":8050,"tes":8051,"vious":8052,"Ġcatch":8053,"itted":8054,"ĠColl":8055,"lice":8056,"usually":8057,"ĠIv":8058,"Ġnumber":8059,"ĠFriendly":8060,"lied":8061,"ĠHoliday":8062,"Ġbreadsticks":8063,"eye":8064,"inness":8065,"Ġprep":8066,"Ġchild":8067,"ĠNorthern":8068,"ĠKugel":8069,"Ġdiamon":8070,"ĠScampi":8071,"ĠFlake":8072,"aturated":8073,"Ġdollops":8074,"ĠSlush":8075,"Deviled":8076,"Ġmulti":8077,"ĠLiqueur":8078,"ĠKetchup":8079,"Ġsuffic":8080,"Fast":8081,"Fiesta":8082,"Russian":8083,"Reggiano":8084,"TER":8085,"sour":8086,"tip":8087,"Ġma":8088,"Ġdred":8089,"Ġforget":8090,"Ġnine":8091,"Ġspec":8092,"ĠChunk":8093,"Ġmayon":8094,"Ġsmoother":8095,"ĠCutlets":8096,"Cornbread":8097,"without":8098,"ĠSkewer":8099,"halved":8100,"Seafood":8101,"Bourbon":8102,"Cop":8103,"good":8104,"Ġcrowd":8105,"enug":8106,"ĠSug":8107,"ĠBeach":8108,"etzle":8109,"ĠFig":8110,"ĠDoll":8111,"ĠDown":8112,"ĠHEAT":8113,"Ġmarble":8114,"achael":8115,"Ġdescri":8116,"ĠThan":8117,"ĠFreezes":8118,"ĠBlackberry":8119,"Butternut":8120,"Ġincluded":8121,"Ġbaguettes":8122,"Smoky":8123,"ELL":8124,"chego":8125,"enugreek":8126,"ID":8127,"Ice":8128,"ho":8129,"nold":8130,"will":8131,"icorn":8132,"povers":8133,"ĠSL":8134,"ĠSide":8135,"ĠFres":8136,"ĠFingers":8137,"second":8138,"ĠOP":8139,"quarter":8140,"Ġrid":8141,"Ġgarnishing":8142,"Ġdoing":8143,"Ġpoached":8144,"Ġmedallions":8145,"boned":8146,"ĠMinutes":8147,"Ġpierogies":8148,"Ġcontinually":8149,"Ġpulls":8150,"ĠCOMB":8151,"ĠCapers":8152,"ridgerate":8153,"Ġinfuse":8154,"Chopped":8155,"ĠFILLING":8156,"Ġpliable":8157,"Better":8158,"HIL":8159,"MM":8160,"Over":8161,"either":8162,"lb":8163,"lot":8164,"ris":8165,"rice":8166,"tri":8167,"uji":8168,"Ġdividing":8169,"Ġgift":8170,"Ġgingersn":8171,"ĠCalories":8172,"umn":8173,"ĠFar":8174,"mber":8175,"ĠWet":8176,"Ġband":8177,"Ġkaiser":8178,"weed":8179,"apes":8180,"ĠCooler":8181,"arti":8182,"Ġsubmer":8183,"ĠSmash":8184,"---":8185,"ĠPickle":8186,"Ġrocket":8187,"binado":8188,"Ġswirling":8189,"Out":8190,"wide":8191,"Ġvent":8192,"Ġslee":8193,"Ġfenugreek":8194,"poss":8195,"ena":8196,"alys":8197,"ĠSuper":8198,"ĠCafe":8199,"gem":8200,"ĠBrew":8201,"ĠBUT":8202,"ĠCod":8203,"ĠMold":8204,"Ġshimmer":8205,"ĠFra":8206,"ĠFire":8207,"ĠFiesta":8208,"ĠMixed":8209,"ĠLittle":8210,"eyer":8211,"Ġvineg":8212,"irections":8213,"ĠEvery":8214,"ĠKebabs":8215,"Ġcrisply":8216,"Ġcurds":8217,"Ġcanner":8218,"Ġtoasts":8219,"Ġcurdle":8220,"Ġsilver":8221,"uesli":8222,"Ġrefridgerator":8223,"ĠBegin":8224,"Ġsumac":8225,"ĠCOMBINE":8226,"alysis":8227,"Tuscan":8228,"bag":8229,"koman":8230,"mustard":8231,"Ġtasting":8232,"Ġbu":8233,"Ġmould":8234,"Ġtablespoonful":8235,"Ġstuck":8236,"Ġsoap":8237,"Ġwatery":8238,"quettes":8239,"adas":8240,"ĠGel":8241,"ĠChow":8242,"ĠChickpeas":8243,"ĠLeek":8244,"Ġanalysis":8245,"ĠRemember":8246,"ĠEqual":8247,"Ġcrout":8248,"Ġadhere":8249,"Ġherbes":8250,"eather":8251,"Ġthreads":8252,"ĠPinwheels":8253,"ĠRomaine":8254,"Ġbeautif":8255,"Ġobtain":8256,"Is":8257,"pat":8258,"son":8259,"salted":8260,"Ġbalance":8261,"Ġoc":8262,"ĠmL":8263,"Ġfettuc":8264,"ĠPres":8265,"raut":8266,"icky":8267,"Ġrabe":8268,"ĠMe":8269,"ĠRavioli":8270,"Ġshanks":8271,"ĠInst":8272,"estr":8273,"Ġplan":8274,"ĠSavory":8275,"arty":8276,"eche":8277,"Ġcause":8278,"Ġfolded":8279,"oung":8280,"Ġitself":8281,"Eggs":8282,"razilian":8283,"Ġchocolates":8284,"Copycat":8285,"CO":8286,"Hea":8287,"Healthier":8288,"IS":8289,"Mel":8290,"foil":8291,"finger":8292,"iato":8293,"plain":8294,"Ġlighter":8295,"Ġori":8296,"ĠMacadamia":8297,"ĠTips":8298,"alloumi":8299,"tomato":8300,"Ġwhisked":8301,"ĠKing":8302,"ĠShould":8303,"Ġflavorings":8304,"rength":8305,"ĠRefridgerate":8306,"Ġaccum":8307,"Ġpoach":8308,"ooey":8309,"marula":8310,"rostini":8311,"English":8312,"Portuguese":8313,"gemite":8314,"Ph":8315,"Ġche":8316,"eap":8317,"Ġpulled":8318,"ĠCatfish":8319,"undried":8320,"ĠFRO":8321,"Ġcrisco":8322,"Ġroots":8323,"Ġsofter":8324,"ĠOK":8325,"ĠNon":8326,"Ġrestaurant":8327,"amburgers":8328,"Ġruns":8329,"metal":8330,"ĠArtichokes":8331,"ĠSnick":8332,"buttered":8333,"Ġstrings":8334,"Ġoption":8335,"ITH":8336,"ĠEastern":8337,"powder":8338,"Triple":8339,"Ġheavily":8340,"Ġcrouton":8341,"48":8342,"bly":8343,"back":8344,"eer":8345,"iwi":8346,"mes":8347,"vinegar":8348,"Ġwanted":8349,"atine":8350,"ĠCottage":8351,"Ġrump":8352,"ĠDean":8353,"start":8354,"ĠLinguine":8355,"ĠHard":8356,"ranges":8357,"Ġstops":8358,"abbit":8359,"ĠJUST":8360,"crumbled":8361,"depends":8362,"Ġbru":8363,"Ġessential":8364,"ĠCheerios":8365,"Fluffy":8366,"pecial":8367,"ĠDogs":8368,"Ġjellied":8369,"ĠUpside":8370,"estrone":8371,"Ġoriental":8372,"Party":8373,"down":8374,"Ġbull":8375,"ented":8376,"ĠCanola":8377,"ĠPosition":8378,"chocolate":8379,"ĠTraditional":8380,"ĠDec":8381,"Ġfroth":8382,"ĠHidden":8383,"Ġbreading":8384,"oody":8385,"Ġaren":8386,"achere":8387,"Ġneufchatel":8388,"ĠSherry":8389,"Ġcombo":8390,"Ġhandfuls":8391,"Ġpats":8392,"extra":8393,"ĠCrunchy":8394,"ĠSmart":8395,"Rock":8396,"Saucy":8397,"Ġrepla":8398,"Beet":8399,"Ġgranule":8400,"Ġtruffles":8401,"ĠCompote":8402,"Ġpurchased":8403,"GRE":8404,"VOO":8405,"actly":8406,"black":8407,"crack":8408,"discard":8409,"end":8410,"even":8411,"lon":8412,"mesh":8413,"Ġbites":8414,"Ġfle":8415,"Ġgot":8416,"antastic":8417,"Ġhotter":8418,"ĠEach":8419,"ousand":8420,"which":8421,"dobo":8422,"ĠPartially":8423,"ĠCroutons":8424,"RAFT":8425,"Ġharissa":8426,"):":8427,"Polish":8428,"UP":8429,"iant":8430,"long":8431,"Ġbaker":8432,"Ġmus":8433,"Ġmousse":8434,"Ġtook":8435,"enheit":8436,"reaks":8437,"Ġsaltines":8438,"ĠTony":8439,"iller":8440,"Ġspelt":8441,"ĠWorld":8442,"ĠChai":8443,"ando":8444,"Ġlose":8445,"Ġsauteing":8446,"Ġcurl":8447,"Ġcorrect":8448,"ĠRose":8449,"Ġfajita":8450,"Ġfinishing":8451,"ĠPlease":8452,"Ġcircular":8453,"Ġsterile":8454,"azy":8455,"Ġblossoms":8456,"Monterey":8457,"ĠBragg":8458,"nolds":8459,"iatore":8460,"425":8461,"Fran":8462,"High":8463,"RY":8464,"run":8465,"ĠQ":8466,"ondon":8467,"aran":8468,"Ġwhey":8469,"ales":8470,"ppuccino":8471,"ĠSweetened":8472,"Ġ(*":8473,"Ġunused":8474,"ĠPeanuts":8475,"irty":8476,"ĠBetty":8477,"Ġgarden":8478,"ĠTrout":8479,"ĠFontina":8480,"Ġyam":8481,"ĠDirections":8482,"Ġextend":8483,"Ġplank":8484,"ĠToppings":8485,"ĠNestle":8486,"Ġturbinado":8487,"ĠCheeseburger":8488,"ĠThicken":8489,"igrain":8490,"ĠWhiskey":8491,"istur":8492,"Ġsurround":8493,"ĠZiti":8494,"Ġbigger":8495,"Garlicky":8496,"Ġparsnip":8497,"Pepperoni":8498,"ĠShallots":8499,"Snow":8500,"atziki":8501,"Cuban":8502,"Ġproportions":8503,"Ġjalep":8504,"ĠSAUCE":8505,"Ġdredging":8506,"Cake":8507,"Couscous":8508,"Im":8509,"Kahlua":8510,"Pat":8511,"ippy":8512,"ki":8513,"watch":8514,"eros":8515,"Ġmer":8516,"Ġmuenster":8517,"Ġfocaccia":8518,"Ġwise":8519,"Ġdai":8520,"Ġchiffonade":8521,"Ġhershey":8522,"ĠCH":8523,"ĠParsn":8524,"ĠMarmalade":8525,"ĠTangy":8526,"cold":8527,"ervil":8528,"Ġmozz":8529,"Ġbringing":8530,"ĠSoftened":8531,"Ġdirection":8532,"whipped":8533,"Ġsits":8534,"Ġgelatine":8535,"ahini":8536,"Cooked":8537,"ibbean":8538,"Ġmasa":8539,"Ġescar":8540,"Ġhashbrown":8541,"Ġtypes":8542,"ĠFajitas":8543,"Ġdecrease":8544,"Ġfrittata":8545,"Ġquantity":8546,"Amish":8547,"Down":8548,"Oamc":8549,"nation":8550,"slightly":8551,"tow":8552,"zatziki":8553,"Ġsort":8554,"Ġtost":8555,"itan":8556,"ĠBark":8557,"ĠMeal":8558,"ĠIm":8559,"urri":8560,"ĠRings":8561,"ĠDairy":8562,"ĠWell":8563,"bsolut":8564,"ucing":8565,"iva":8566,"ogs":8567,"ĠKRAFT":8568,"Ġlayered":8569,"alapenos":8570,"merc":8571,"Ġscallop":8572,"ontreal":8573,"ampfire":8574,"ĠSteamed":8575,"ĠCav":8576,"elvet":8577,"ĠApply":8578,"Ġrotel":8579,"ĠCrocker":8580,"ĠCrepes":8581,"Ġseperated":8582,"Ġcourget":8583,"Ġproduce":8584,"Ġmandoline":8585,"Del":8586,"Le":8587,"Tort":8588,"fold":8589,"tie":8590,"Ġcard":8591,"Ġcrescents":8592,"Ġpizzas":8593,"enos":8594,"ĠPate":8595,"chilled":8596,"Ġstrand":8597,"Ġvelveeta":8598,"Ġyear":8599,"Ġcone":8600,"ĠTopped":8601,"Ġlovely":8602,"Ġhigher":8603,"Ġgram":8604,"ubbing":8605,"Ġhandling":8606,"Ġpercent":8607,"ĠMeatball":8608,"Ġslip":8609,"Ġhearty":8610,"ĠMountain":8611,"Ġkiw":8612,"Ġdirects":8613,"ĠTriple":8614,"Ġribbon":8615,"broil":8616,"Salad":8617,"browned":8618,"Ġavacad":8619,"lsberg":8620,"ĠIngredient":8621,"Ġingred":8622,"Ġfrankfurters":8623,"Cashew":8624,"El":8625,"Hash":8626,"Mandarin":8627,"Pap":8628,"Traditional":8629,"apple":8630,"han":8631,"Ġdisk":8632,"ĠAtt":8633,"Ġrinds":8634,"ĠMid":8635,"ĠII":8636,"Ġcreamier":8637,"ĠFast":8638,"ffin":8639,"Ġexactly":8640,"ĠOranges":8641,"Ġ155":8642,"Ġpreparation":8643,"Ġsizes":8644,"ortillas":8645,"Ġpushing":8646,"Ġpetals":8647,"Minute":8648,"Ġperiodically":8649,"ĠSALAD":8650,"Ġbratwurst":8651,"andoori":8652,"Abm":8653,"Con":8654,"Just":8655,"Linda":8656,"Milk":8657,"homemade":8658,"kon":8659,"oise":8660,"place":8661,"pitted":8662,"Ġts":8663,"iles":8664,"anc":8665,"Ġhang":8666,"ĠPies":8667,"olly":8668,"ĠFeel":8669,"ĠInstant":8670,"pect":8671,"Chilled":8672,"ĠYeast":8673,"Ġcurly":8674,"Ġpost":8675,"ĠChilli":8676,"Ġways":8677,"ĠPowdered":8678,"Fruity":8679,"Ġtimer":8680,"orent":8681,"ĠCopycat":8682,"AST":8683,"Fudge":8684,"rata":8685,"soy":8686,"Ġ110":8687,"Ġfalls":8688,"Ġfron":8689,"itional":8690,"ĠStilton":8691,"ĠCenter":8692,"ĠPomegranate":8693,"ĠBow":8694,"ĠAfrican":8695,"olive":8696,"ights":8697,"ogi":8698,"Ġtwenty":8699,"ĠJu":8700,"spresso":8701,"Ġperfectly":8702,"ĠStop":8703,"ermark":8704,"ĠQueso":8705,"Ġmason":8706,"Ġheld":8707,"Ġdisol":8708,"Ġtrying":8709,"Ġtbsps":8710,"ĠParfait":8711,"Ġrefridgerate":8712,"ĠCordon":8713,"zechuan":8714,"ĠBisque":8715,"BBQ":8716,"Garden":8717,"UL":8718,"VING":8719,"cilantro":8720,"jito":8721,"Ġsounds":8722,"edar":8723,"Ġpillsbury":8724,"Ġmg":8725,"Ġchervil":8726,"ĠChewy":8727,"Ġspl":8728,"Ġspacing":8729,"Ġcrisps":8730,"ĠDefrost":8731,"ĠHamburgers":8732,"ffron":8733,"Ġcones":8734,"ccormick":8735,"ĠKey":8736,"Ġothers":8737,"frying":8738,"Ġequipment":8739,"flake":8740,"voury":8741,"Ġincludes":8742,"heez":8743,"Orzo":8744,"Cookies":8745,"floured":8746,"ĠCoarse":8747,"Ġscaled":8748,"ĠDegrees":8749,"Guacamole":8750,"Ġchanges":8751,"Ġdescription":8752,"Ġescarole":8753,"Ad":8754,"Fashioned":8755,"Melt":8756,"yellow":8757,"Ġcit":8758,"Ġbak":8759,"Ġdelic":8760,"ĠSize":8761,"Ġunbeaten":8762,"Ġunwrap":8763,"Ġunmold":8764,"ĠPears":8765,"ĠMeringue":8766,"amo":8767,"ĠFamily":8768,"Ġsettle":8769,"Ġloses":8770,"ĠNuggets":8771,"Ġscotch":8772,"Ġcansliced":8773,"Ġresult":8774,"ronger":8775,"Scrambled":8776,"ikkoman":8777,"Ġcoloured":8778,"Ġbeetroot":8779,"Ġabsorbent":8780,"Ġporridge":8781,"AMC":8782,"Ġsupermark":8783,"ĠSERVE":8784,"Ġbullion":8785,"Cut":8786,"Cap":8787,"Iced":8788,"Kielbasa":8789,"Linguine":8790,"MP":8791,"Molasses":8792,"Pers":8793,"Seasoned":8794,"Special":8795,"off":8796,"sch":8797,"zon":8798,"ergy":8799,"Ġmil":8800,"Ġmatter":8801,"ilute":8802,"ution":8803,"icots":8804,"Ġwinter":8805,"atar":8806,"Ġdig":8807,"Ġgener":8808,"Ġgreek":8809,"Ġgiving":8810,"ĠSnapper":8811,"Ġchopper":8812,"Ġstretch":8813,"Ġstronger":8814,"astes":8815,"ĠMein":8816,"ĠRey":8817,"Ġspanish":8818,"ĠInf":8819,"ĠWITH":8820,"ustic":8821,"ĠHand":8822,"ardines":8823,"ĠCovered":8824,"Ġrefresh":8825,"inium":8826,"Ġdesign":8827,"Ġstout":8828,"ĠUs":8829,"occon":8830,"arboil":8831,"ĠFilled":8832,"Cocoa":8833,"ĠUncle":8834,"aleo":8835,"Lemony":8836,"Strawberries":8837,"ĠBrandy":8838,"Ġbundles":8839,"itamin":8840,"Tortellini":8841,"Horseradish":8842,"IC":8843,"Mary":8844,"Pass":8845,"cs":8846,"hand":8847,"Ġtra":8848,"Ġap":8849,"Ġ360":8850,"raeli":8851,"dded":8852,"ĠAcorn":8853,"tha":8854,"ĠRagu":8855,"ĠDrops":8856,"Ġrocks":8857,"Ġclump":8858,"ĠCherries":8859,"Ġexcellent":8860,"ĠEVOO":8861,"ĠWhirl":8862,"ĠKick":8863,"reduced":8864,"ĠPepperoni":8865,"ĠNutmeg":8866,"ĠPlum":8867,"Ġpico":8868,"Ġtblsp":8869,"ĠSticky":8870,"Uncle":8871,"attice":8872,"eorge":8873,"ĠMalibu":8874,"ĠDrumsticks":8875,"ARE":8876,"Candy":8877,"ORE":8878,"Tel":8879,"Wheat":8880,"Winter":8881,"jar":8882,"season":8883,"sweetened":8884,"Ġmicro":8885,"Ġdab":8886,"Ġdem":8887,"ĠCandied":8888,"Ġunless":8889,"egian":8890,"chn":8891,"ĠBen":8892,"ĠMagic":8893,"quot":8894,"ĠLe":8895,"Ġ85":8896,"oster":8897,"Ġcontaining":8898,"Ġpotatoe":8899,"Buttery":8900,"beef":8901,"Moist":8902,"Ġgrinds":8903,"Optional":8904,"infused":8905,"Ġproperly":8906,"Heavenly":8907,"orentine":8908,"occoncini":8909,"Bisquick":8910,"Squ":8911,"oles":8912,"sub":8913,"tons":8914,"za":8915,"Ġtag":8916,"eral":8917,"reos":8918,"ĠSu":8919,"ĠCrostini":8920,"aka":8921,"egular":8922,"ĠBraised":8923,"ĠBetter":8924,"ĠBiscotti":8925,"ĠAmarula":8926,"ĠRell":8927,"Ġyoung":8928,"ĠSteep":8929,"steak":8930,"ĠHow":8931,"Ġ800":8932,"perature":8933,"ĠEd":8934,"Ġproceed":8935,"ĠWithout":8936,"Ġwhisky":8937,"acity":8938,"also":8939,"epeg":8940,"Ġfava":8941,"Ġindent":8942,"ĠOrganic":8943,"ĠZesty":8944,"ĠMoro":8945,"Ġrotate":8946,"Ġguava":8947,"Ġgallo":8948,"Ġentirely":8949,"Eggnog":8950,"Ġwontons":8951,"ELP":8952,"Ġmillilit":8953,"Ġmotion":8954,"ĠFlax":8955,"imichurri":8956,"onnay":8957,"mercial":8958,"ĠReynolds":8959,"Crack":8960,"Four":8961,"Por":8962,"Turkish":8963,"World":8964,"dr":8965,"Ġsundried":8966,"Ġpara":8967,"Ġmes":8968,"Ġinner":8969,"popped":8970,"ense":8971,"ĠPAM":8972,"ĠMer":8973,"ĠRich":8974,"ĠSpring":8975,"Ġskirt":8976,"ĠGather":8977,"ĠHom":8978,"cool":8979,"Ġslurry":8980,"ĠSeasonings":8981,"ĠUltimate":8982,"ccolini":8983,"ĠVi":8984,"Ġ700":8985,"ĠYams":8986,"ĠJalapenos":8987,"ĠSmear":8988,"Ġstiffly":8989,"Ġpeak":8990,"Ġtilt":8991,"ĠTrifle":8992,"****":8993,"Toffee":8994,"Ġassem":8995,"ĠMediterranean":8996,"ĠGoes":8997,"affir":8998,"ĠBoboli":8999,"store":9000,"âĢĻ":9001,"Ġfresco":9002,"85":9003,"La":9004,"Pam":9005,"Pomegranate":9006,"UR":9007,"oe":9008,"sifted":9009,"wegian":9010,"Ġais":9011,"Ġsna":9012,"Ġben":9013,"Ġbrittle":9014,"Ġinten":9015,"Ġcole":9016,"ĠPulled":9017,"ĠPizzas":9018,"ĠPHIL":9019,"ĠBok":9020,"Ġrubbing":9021,"ĠMIN":9022,"urs":9023,"ĠRight":9024,"ĠFe":9025,"ĠFit":9026,"ados":9027,"ĠLeeks":9028,"assionally":9029,"Ġaltit":9030,"ĠOAMC":9031,"Ġsimmers":9032,"garbanzo":9033,"Ġbonnet":9034,"ĠJambalaya":9035,"ĠButtered":9036,"Ġsquish":9037,"Ġboston":9038,"Ġincre":9039,"ĠQuaker":9040,"iram":9041,"ĠPlus":9042,"ĠWeight":9043,"Ġsizzles":9044,"ADELP":9045,"Ġfranks":9046,"HIA":9047,"ĠTorte":9048,"Favorite":9049,"processed":9050,"ĠNeufchatel":9051,"Ġspicier":9052,"Ġmayonaise":9053,"Overnight":9054,"ĠCaviar":9055,"Ġparaffin":9056,"ĠPHILADELP":9057,"ĠPHILADELPHIA":9058,"325":9059,"available":9060,"chetta":9061,"line":9062,"parsley":9063,"ww":9064,"Ġu":9065,"Ġamar":9066,"Ġ115":9067,"Ġmax":9068,"ĠAg":9069,"ĠAdobo":9070,"ĠComb":9071,"ĠInd":9072,"ĠStep":9073,"Ġconverted":9074,"Ġkrispies":9075,"ĠEnd":9076,"Ġcrost":9077,"Ġaccordingly":9078,"Ġfilm":9079,"Ġdripping":9080,"ĠCanned":9081,"ĠCrumbs":9082,"Ġheirloom":9083,"Ġblot":9084,"Ġcylin":9085,"ĠGuinness":9086,"ĠBelieve":9087,"Two":9088,"Ġrendered":9089,"refriger":9090,"Ġmexicorn":9091,"basil":9092,"Ġvinegars":9093,"Ġhashbrowns":9094,"Ġfronds":9095,"Brazilian":9096,"Cla":9097,"DI":9098,"Key":9099,"Rem":9100,"Salt":9101,"Tater":9102,"cius":9103,"ox":9104,"Ġtapenade":9105,"Ġbisquick":9106,"Ġpw":9107,"utÃ©":9108,"Ġfriend":9109,"Ġlouisiana":9110,"oule":9111,"ĠTex":9112,"Ġcanes":9113,"edding":9114,"coars":9115,"Ġcontent":9116,"odiva":9117,"Ġkebabs":9118,"ĠOF":9119,"peed":9120,"ĠKalamata":9121,"meril":9122,"Ġsurfaces":9123,"Ġcapacity":9124,"ĠLayered":9125,"ĠPanko":9126,"Ġlimoncello":9127,"ĠWaldorf":9128,"Alcoholic":9129,"Caesar":9130,"smoked":9131,"ĠShepherd":9132,"Ġrises":9133,"remely":9134,"ĠBurrito":9135,"Ġaroma":9136,"Barley":9137,"ĠSmokies":9138,"Ġaccumulated":9139,"ĠAttach":9140,"Ġcylinder":9141,"At":9142,"Cowboy":9143,"Jamaican":9144,"Seared":9145,"Wrapped":9146,"check":9147,"done":9148,"some":9149,"ui":9150,"vre":9151,"Ġrain":9152,"Ġedible":9153,"Ġpcs":9154,"original":9155,"ĠBu":9156,"ĠBack":9157,"ĠBrittle":9158,"Ġstrength":9159,"ĠMad":9160,"ĠMahi":9161,"ĠTortillas":9162,"ĠSpritz":9163,"entucky":9164,"ĠKikkoman":9165,"whisk":9166,"Ġallows":9167,"Ġavocadoes":9168,"ĠMost":9169,"Ġreleased":9170,"posable":9171,"Ġidea":9172,"hazelnut":9173,"legant":9174,"Ġdiamond":9175,"ĠBraggs":9176,"Ġaisle":9177,"Rom":9178,"Tortilla":9179,"Vietnamese":9180,"gland":9181,"erky":9182,"Ġfrig":9183,"Ġfontina":9184,"Ġ27":9185,"ouroughly":9186,"ĠCR":9187,"aso":9188,"ires":9189,"ĠBarbeque":9190,"Ġsaid":9191,"ĠComp":9192,"idney":9193,"ĠTam":9194,"ĠRye":9195,"unday":9196,"ĠDress":9197,"Ġjuicer":9198,"Ġkaffir":9199,"Ġtomatoe":9200,"cciatore":9201,"ĠNa":9202,"Ġ130":9203,"Ġspooned":9204,"ptian":9205,"Ġdarken":9206,"Ġmanicotti":9207,"ĠBrunch":9208,"ĠBroiled":9209,"Ġshaping":9210,"alamari":9211,"Ġfingerling":9212,"ĠOriental":9213,"Ġshoepeg":9214,"Twice":9215,"ĠMasala":9216,"Ġaluminium":9217,"ĠGallo":9218,"Stove":9219,"ĠOPTION":9220,"towel":9221,"Ġstrands":9222,"App":9223,"Brand":9224,"Danish":9225,"Fennel":9226,"Goat":9227,"US":9228,"honey":9229,"wal":9230,"inted":9231,"Ġmeanwhile":9232,"anache":9233,"Ġlat":9234,"Ġgourmet":9235,"ppi":9236,"ĠAle":9237,"Ġricer":9238,"Ġrev":9239,"Ġshots":9240,"ĠDiv":9241,"ĠSpareribs":9242,"Ġskimm":9243,"Ġrope":9244,"Ġreducing":9245,"ainbow":9246,"lett":9247,"ĠChives":9248,"ĠChunky":9249,"ĠHines":9250,"Ġexper":9251,"Ġexposed":9252,"ulce":9253,"armesean":9254,"Ġturnips":9255,"Ġfoods":9256,"Ġtwelve":9257,"ollo":9258,"ĠThick":9259,"Ġbroiled":9260,"ifteen":9261,"Ġtapped":9262,"Ġgoose":9263,"Ġburnt":9264,"Ġadjusting":9265,"Ġholding":9266,"ĠPoppers":9267,"ĠClusters":9268,"Ġliner":9269,"Ġlines":9270,"Poached":9271,"Ġworth":9272,"ĠMelon":9273,"ĠLiquid":9274,"Ġ;).":9275,"Autumn":9276,"ĠALL":9277,"ĠProvence":9278,"Ġpalms":9279,"Ġestim":9280,"ĠMidori":9281,"Ġmilliliter":9282,"Ġcrostini":9283,"Ble":9284,"Fettuccine":9285,"Kale":9286,"Pr":9287,"Rachael":9288,"TLY":9289,"best":9290,"mashed":9291,"yl":9292,"Ġcork":9293,"Ġbody":9294,"Ġmingle":9295,"Ġglace":9296,"ĠCayenne":9297,"ĠCalorie":9298,"Ġsauted":9299,"Ġthai":9300,"ĠRadish":9301,"ĠChachere":9302,"antaloupe":9303,"secco":9304,"Ġprevious":9305,"ĠSeasons":9306,"alloween":9307,"ĠJoy":9308,"Ġdeb":9309,"Ġherbed":9310,"ĠBoiled":9311,"uckle":9312,"scar":9313,"Ġdisposable":9314,"ĠCholesterol":9315,"Ġflavoured":9316,"ondies":9317,"ottish":9318,"gyptian":9319,"Ġprune":9320,"ĠFirmly":9321,"ĠSERVING":9322,"ĠBouquet":9323,"possible":9324,"Lazy":9325,"Place":9326,"Tr":9327,"zarella":9328,"Ġspot":9329,"Ġpen":9330,"uture":9331,"icular":9332,"uncovered":9333,"Ġchowder":9334,"isu":9335,"ĠPim":9336,"ĠPers":9337,"rik":9338,"ĠMED":9339,"imin":9340,"ĠSplash":9341,"Ġkir":9342,"Ġtenderizer":9343,"agg":9344,"Ġrefrigeration":9345,"ĠKids":9346,"ĠSherbet":9347,"Ġcrisped":9348,"ĠJimmy":9349,"sprinkle":9350,"Ġcoming":9351,"Ġdarker":9352,"Ġdippers":9353,"Ġ240":9354,"minos":9355,"ĠCrockpot":9356,"ruschetta":9357,"Instant":9358,"ĠMelts":9359,"piece":9360,"ĠIdaho":9361,"Ġsleeve":9362,"27":9363,"About":9364,"Dairy":9365,"Ricotta":9366,"cayenne":9367,"fly":9368,"Ġsardines":9369,"Ġbiscotti":9370,"Ġmccormick":9371,"icor":9372,"lax":9373,"ega":9374,"etit":9375,"ghum":9376,"that":9377,"illion":9378,"Ġpair":9379,"Ġattra":9380,"Ġclassic":9381,"ĠChoose":9382,"ffe":9383,"rance":9384,"shine":9385,"Ġslash":9386,"Ġpotatos":9387,"oche":9388,"loves":9389,"ĠEngland":9390,"Ġseparating":9391,"Ġswitch":9392,"ĠQuesadilla":9393,"screw":9394,"Ġimpro":9395,"Almost":9396,"ATE":9397,"Ġstarted":9398,"Ġnaan":9399,"Peppermint":9400,"Ġ365":9401,"Breaded":9402,"AND":9403,"ĠBox":9404,"ĠBoston":9405,"ĠComfort":9406,"ĠPortabella":9407,"RAIN":9408,"olution":9409,"fulls":9410,"Ġbundle":9411,"ĠGrapes":9412,"ĠDollop":9413,"Ġbeautiful":9414,"Any":9415,"Carb":9416,"Fire":9417,"Five":9418,"mushroom":9419,"maker":9420,"uge":9421,"when":9422,"Ġcass":9423,"Ġseas":9424,"ered":9425,"onions":9426,"earance":9427,"ati":9428,"Ġchai":9429,"ĠChew":9430,"lap":9431,"edients":9432,"reserving":9433,"ĠTH":9434,"Ġneat":9435,"Ġnap":9436,"ĠFour":9437,"Ġexp":9438,"inny":9439,"ĠOwn":9440,"Ġsett":9441,"ĠNatural":9442,"aca":9443,"Ġcrispness":9444,"roximately":9445,"ĠRock":9446,"ĠCornmeal":9447,"Ġtinfoil":9448,"Ġtoasting":9449,"ĠSwedish":9450,"Carrots":9451,"ĠBasmati":9452,"ichever":9453,"Arugula":9454,"ĠCalifornia":9455,"Ġidaho":9456,"Ġinfused":9457,"Ġfeels":9458,"ĠLastly":9459,"ĠKisses":9460,"Ġdehydrated":9461,"Ġpwdr":9462,"ouleh":9463,"American":9464,"Bruschetta":9465,"Nana":9466,"\\).":9467,"pled":9468,"sen":9469,"Ġtupperware":9470,"Ġaioli":9471,"only":9472,"eapples":9473,"Ġmid":9474,"Ġfuture":9475,"pover":9476,"Ġlattice":9477,"Ġgal":9478,"Ġthouroughly":9479,"ĠMuddle":9480,"Ġsoba":9481,"ĠTastes":9482,"ĠFinger":9483,"ĠStar":9484,"ustr":9485,"ĠLE":9486,"ĠOff":9487,"Ġslo":9488,"Ġturnip":9489,"Ġglut":9490,"oyu":9491,"ĠOnly":9492,"Ġhandled":9493,"Ġtrimm":9494,"Spring":9495,"Ġincreas":9496,"Cocktail":9497,"ĠUnmold":9498,"ĠCacciatore":9499,"Ġalternative":9500,"ĠSourdough":9501,"Ġmanufacturers":9502,"Ġnectarine":9503,"seeds":9504,"Sourdough":9505,"Ġfarro":9506,"ĠTartar":9507,"ĠPretzel":9508,"ripened":9509,"ĠSUG":9510,"Ġfettucine":9511,"amount":9512,"ĠMoroccan":9513,"Ġincrements":9514,"125":9515,"Bob":9516,"Frost":9517,"Hummus":9518,"IUM":9519,"Man":9520,"Nif":9521,"cured":9522,"mother":9523,"sometimes":9524,"Ġsushi":9525,"Ġfettuccini":9526,"atio":9527,"rous":9528,"Ġdraw":9529,"Ġcoins":9530,"ĠSemi":9531,"ĠAioli":9532,"Ġnestle":9533,"ĠDates":9534,"ĠDanish":9535,"omit":9536,"bsters":9537,"ĠGame":9538,"ĠGala":9539,"uben":9540,"eezed":9541,"Ġalthough":9542,"Ġappearance":9543,"ĠSausages":9544,"Ġtwists":9545,"ividual":9546,"Ġdepress":9547,"Ġcommercial":9548,"Ġhamburgers":9549,"Ġlikes":9550,"Ġmeasurements":9551,"ĠExcellent":9552,"Ġdifference":9553,"ĠLiver":9554,"ĠCarbon":9555,"aniels":9556,"Ġfeet":9557,"ĠOyster":9558,"accioli":9559,"iramisu":9560,"Fabulous":9561,"Gourmet":9562,"Hungarian":9563,"Marshmallow":9564,"Rot":9565,"Tarragon":9566,"band":9567,"hang":9568,"rise":9569,"sesame":9570,"zos":9571,"Ġcalorie":9572,"Ġtarts":9573,"erri":9574,"Ġbind":9575,"Ġfix":9576,"leted":9577,"vera":9578,"eggs":9579,"ĠRaw":9580,"oila":9581,"Ġatl":9582,"othing":9583,"Ġpackag":9584,"separ":9585,"igatoni":9586,"ropri":9587,"Ġpicks":9588,"Ġhardens":9589,"ĠFlorentine":9590,"rito":9591,"Ġhaven":9592,"Ġroughy":9593,"Short":9594,"ingues":9595,"Ġblister":9596,"ĠPoach":9597,"mented":9598,"Ġpersimmon":9599,"Canadian":9600,"Cookie":9601,"Brownie":9602,"Ġgrinding":9603,"Meatballs":9604,"From":9605,"ĠHazelnut":9606,"ĠMascarpone":9607,"heaping":9608,"italini":9609,"gram":9610,"Ġaccompaniment":9611,"Ġpheasant":9612,"Hazelnut":9613,"Ġextremely":9614,"Ġsloppy":9615,"Gas":9616,"MO":9617,"Middle":9618,"bling":9619,"nellini":9620,"pitas":9621,"uction":9622,"Ġamber":9623,"erel":9624,"Ġbuds":9625,"arine":9626,"ĠCardamom":9627,"vection":9628,"lah":9629,"ĠBerries":9630,"ĠBlossom":9631,"rien":9632,"oph":9633,"oreman":9634,"cons":9635,"Ġlidded":9636,"perate":9637,"ĠEye":9638,"Ġspraying":9639,"Ġoccassionally":9640,"Ġfirmer":9641,"Ġfavor":9642,"mavera":9643,"potles":9644,"Ġburned":9645,"Ġteapot":9646,"ĠCrispix":9647,"ville":9648,"ĠTequila":9649,"ĠBlueberries":9650,"ĠDeluxe":9651,"orches":9652,"Ġgumd":9653,"Ġmultigrain":9654,"ĠBlender":9655,"Ġfunnel":9656,"Ġcrisscross":9657,"ĠOysters":9658,"ĠGelatin":9659,"Ġmilder":9660,"Ġrainbow":9661,"ĠComplet":9662,"450":9663,"Batter":9664,"Festive":9665,"Snick":9666,"Tof":9667,"Won":9668,"iqu":9669,"tw":9670,"uz":9671,"van":9672,"voy":9673,"Ġtaken":9674,"Ġaminos":9675,"Ġsign":9676,"Ġunpopped":9677,"veined":9678,"ĠPit":9679,"Ġpepperjack":9680,"Ġrabbit":9681,"Ġheats":9682,"ĠGas":9683,"Ġprebaked":9684,"artlett":9685,"Ġunsliced":9686,"ĠForest":9687,"Ġdeboned":9688,"faits":9689,"Ġsitting":9690,"Ġpulses":9691,"Ġmanual":9692,"ecorino":9693,"ĠPock":9694,"Beefy":9695,"ĠSnip":9696,"Ġdumpling":9697,"unsweetened":9698,"!!!":9699,"print":9700,"Loaded":9701,"ĠEasiest":9702,"Open":9703,"firm":9704,"Tequila":9705,"Ġcarmelized":9706,"ĠSuggest":9707,"95":9708,"Lavender":9709,"Paleo":9710,"ject":9711,"kn":9712,"makes":9713,"note":9714,"put":9715,"volone":9716,"ination":9717,"Ġfifteen":9718,"icilian":9719,"oud":9720,"Ġharina":9721,"ĠSit":9722,"isbury":9723,"rami":9724,"ĠBor":9725,"Ġsugared":9726,"ĠTuck":9727,"ĠRound":9728,"Ġshakes":9729,"ĠFive":9730,"ayote":9731,"ĠSpices":9732,"ĠGazpacho":9733,"ĠHens":9734,"Ġappropri":9735,"Ġbeefsteak":9736,"estyle":9737,"Ġtomatos":9738,"Ġsoybeans":9739,"Ġlobsters":9740,"Ġslab":9741,"ĠVenison":9742,"osc":9743,"Ġlenght":9744,"Ġcores":9745,"Ġtrifle":9746,"ĠCorned":9747,"ĠPeppermint":9748,"Sticky":9749,"Cheeseburger":9750,"ĠPlunge":9751,"Peachy":9752,"Crustless":9753,"ĠLoosely":9754,"onesian":9755,"ĠMexico":9756,"ĠHeavy":9757,"ĠChiles":9758,"ĠRestaurant":9759,"ĠFROST":9760,"Ġdaikon":9761,"Ġavacado":9762,"Ġdisolved":9763,"ursts":9764,"Bran":9765,"Celery":9766,"ICE":9767,"VEN":9768,"dark":9769,"ek":9770,"erara":9771,"uting":9772,"rol":9773,"unks":9774,"Ġdess":9775,"Ġhi":9776,"Ġ(\\":9777,"asto":9778,"ĠPE":9779,"ĠAhead":9780,"ĠAmaretto":9781,"Ġstur":9782,"Ġvital":9783,"allon":9784,"Ġshrink":9785,"ĠWing":9786,"ĠLondon":9787,"ĠHel":9788,"ĠOut":9789,"Ġpasty":9790,"ĠEar":9791,"Ġlocal":9792,"ogg":9793,"Ġshrimps":9794,"Ġgarnishes":9795,"ĠJuli":9796,"Ġimmedi":9797,"fully":9798,"Ġeveryone":9799,"Ġscooped":9800,"Ġhapp":9801,"type":9802,"ĠPoached":9803,"....":9804,"ĠLeaves":9805,"Cheesecake":9806,"Corned":9807,"**.":9808,"ĠPlantain":9809,"ĠGranulated":9810,"skinned":9811,"ungry":9812,"ĠKitchens":9813,"ĠChardonnay":9814,"Ġbutterflied":9815,"ĠPretzels":9816,"sprayed":9817,"Ġgingersnap":9818,"ĠParsnips":9819,"ĠMEDIUM":9820,"ĠFROSTING":9821,"Em":9822,"Jan":9823,"Jam":9824,"Little":9825,"Oreo":9826,"Tam":9827,"Top":9828,"Wil":9829,"gallon":9830,"len":9831,"oor":9832,"ua":9833,"alcoholic":9834,"Ġlist":9835,"Ġlyc":9836,"irard":9837,"Ġoverbeat":9838,"Ġoverhang":9839,"ĠMet":9840,"ĠTur":9841,"ĠTapenade":9842,"ĠDaniels":9843,"ĠWont":9844,"ĠWinter":9845,"uca":9846,"Ġpineapples":9847,"Char":9848,"Ġthickening":9849,"soup":9850,"Ġcertain":9851,"ĠFlakes":9852,"ĠBrine":9853,"boneless":9854,"Thanksgiving":9855,"Ġdisks":9856,"Ġscrub":9857,"Mozzarella":9858,"Ġtesting":9859,"ĠCaper":9860,"ĠINGRE":9861,"ĠCoriander":9862,"ĠBagel":9863,"uvignon":9864,"Ġkumqu":9865,"Ġsufficient":9866,"ĠFresca":9867,"trimmed":9868,"ĠBUTTER":9869,"DIENT":9870,"ĠCarbonara":9871,"Ġatleast":9872,"ĠINGREDIENT":9873,"Barb":9874,"Bailey":9875,"Campbell":9876,"Flavor":9877,"Home":9878,"Miss":9879,"Pop":9880,"Pistachio":9881,"Santa":9882,"TO":9883,"fill":9884,"gano":9885,"rg":9886,"squar":9887,"tly":9888,"via":9889,"Ġbis":9890,"Ġparmesean":9891,"ingly":9892,"Ġdiluted":9893,"Ġhull":9894,"Ġhealth":9895,"Ġunroll":9896,"ĠPla":9897,"ĠBreeze":9898,"Ġras":9899,"ĠMontreal":9900,"ĠTahini":9901,"mbros":9902,"ĠDuncan":9903,"Ġpowders":9904,"adent":9905,"Ġdoughnuts":9906,"Ġgingerbread":9907,"ĠBeaten":9908,"ĠVelvet":9909,"abbouleh":9910,"Ġflavorful":9911,"Ġfruity":9912,"Ġchipped":9913,"Ġallowed":9914,"Ġparticular":9915,"Ġhaving":9916,"Ġgallons":9917,"ĠTreat":9918,"ĠPacked":9919,"Ġsorghum":9920,"Ġsuitable":9921,"Ġwaiting":9922,"eviche":9923,"ĠUSE":9924,"Ġjoint":9925,"Ġsuggestion":9926,"ĠHearts":9927,"ĠTbls":9928,"Ġmandolin":9929,"Color":9930,"John":9931,"Ġgherkins":9932,"Squash":9933,"ĠMINUT":9934,"Ġsturdy":9935,"Go":9936,"Lim":9937,"Pic":9938,"Pina":9939,"cass":9940,"found":9941,"hard":9942,"ju":9943,"oven":9944,"shell":9945,"Ġclement":9946,"Ġsolution":9947,"ona":9948,"Ġbocconcini":9949,"Ġmacaroons":9950,"arah":9951,"roz":9952,"Ġditalini":9953,"ĠSundae":9954,"aba":9955,"ĠChees":9956,"ĠCheez":9957,"Ġmints":9958,"usion":9959,"ĠBottom":9960,"ugly":9961,"lyn":9962,"Ġpaint":9963,"ĠHint":9964,"ĠHollandaise":9965,"Ġcutlet":9966,"Ġkraut":9967,"Ġpackagefrozen":9968,"Ġheaped":9969,"Ġmozarella":9970,"Ġenamel":9971,"igra":9972,"spread":9973,"Ġ185":9974,"ĠRoot":9975,"iscuits":9976,"ĠCaribbean":9977,"Ġcereals":9978,"ĠFreezer":9979,"Shredded":9980,"Crockpot":9981,"ĠSmoothies":9982,"Whipped":9983,"ifferent":9984,"ĠCaprese":9985,"Ġvents":9986,"Ġsnacks":9987,"Ġblocks":9988,"urized":9989,"Ġspaced":9990,"celery":9991,"uppies":9992,"Ġdisappear":9993,"tipasto":9994,"mbrosia":9995,"Boiled":9996,"Cola":9997,"Crazy":9998,"Leek":9999,"Magic":10000,"See":10001,"URE":10002,"carb":10003,"peanut":10004,"rd":10005,"Ġign":10006,"eric":10007,"ington":10008,"Ġgrey":10009,"ĠSH":10010,"ĠSatay":10011,"ĠParm":10012,"raisin":10013,"ddess":10014,"ĠMaster":10015,"ĠTots":10016,"imi":10017,"Ġslicer":10018,"Ġcanister":10019,"ĠInn":10020,"straw":10021,"Ġsmoothly":10022,"Ġslush":10023,"Ġcrown":10024,"where":10025,"ĠCreat":10026,"Ġeasiest":10027,"ĠSmoke":10028,"ĠPreparation":10029,"eriac":10030,"box":10031,"Ġoutsides":10032,"Smothered":10033,"ĠTenders":10034,"Cooker":10035,"uscious":10036,"cheon":10037,"iccata":10038,"Ġspaetzle":10039,"ĠPrimavera":10040,"Authentic":10041,"Really":10042,"turning":10043,"ĠWonderful":10044,"ĠHarvest":10045,"Ġrutabagas":10046,"ĠDecrease":10047,"icorice":10048,"Ġlenghtwise":10049,"irardelli":10050,"Aid":10051,"Betty":10052,"Dark":10053,"Kraft":10054,"Mores":10055,"Pea":10056,"Tart":10057,"ZE":10058,"aj":10059,"bowl":10060,"gies":10061,"sw":10062,"wards":10063,"ining":10064,"Ġbear":10065,"uthentic":10066,"anny":10067,"Ġdiff":10068,"chamel":10069,"ĠBund":10070,"olled":10071,"Ġnori":10072,"Ġniblets":10073,"ĠForeman":10074,"liqu":10075,"ĠWisk":10076,"Ġana":10077,"Ġcarb":10078,"again":10079,"ĠEspresso":10080,"Ġlitre":10081,"ackerel":10082,"fectioners":10083,"Ġworked":10084,"Ġparticles":10085,"ĠPancetta":10086,"Ġadjusted":10087,"Ġsecuring":10088,"ĠAnother":10089,"Cooking":10090,"ĠSnacks":10091,"Ġearly":10092,"erdoodles":10093,"Ġsuggestions":10094,"ĠHoisin":10095,"ĠCashews":10096,"ĠPorridge":10097,"Ġdiscs":10098,"Norwegian":10099,"Ġhusked":10100,"Ġtucking":10101,"Ġsaucer":10102,"Hoisin":10103,"ĠLegs":10104,"quartered":10105,"Ġreview":10106,"Tofu":10107,"AB":10108,"Cafe":10109,"Grape":10110,"Kick":10111,"LEN":10112,"gresso":10113,"hirardelli":10114,"mettes":10115,"oon":10116,"overs":10117,"instant":10118,"Ġcell":10119,"Ġbakes":10120,"Ġdirt":10121,"oulade":10122,"Ġhalloumi":10123,"ĠCow":10124,"otta":10125,"ĠPet":10126,"ĠPLA":10127,"ĠBass":10128,"ĠAwesome":10129,"ĠAmazing":10130,"ĠCoco":10131,"Ġovern":10132,"ĠFuji":10133,"quiri":10134,"ĠWafers":10135,"ĠHAL":10136,"Ġko":10137,"ĠEt":10138,"ĠToo":10139,"ĠNO":10140,"Ġresist":10141,"Ġsquid":10142,"Ġchipotles":10143,"Ġflatbread":10144,"Ġbegun":10145,"Ġtoasty":10146,"Ġpreserved":10147,"Ġbrussel":10148,"Sauerkraut":10149,"Ġfragrance":10150,"Ġfoot":10151,"ĠNOTES":10152,"ĠBloody":10153,"Ġcavities":10154,"Mushrooms":10155,"Ġrequire":10156,"ANT":10157,"overnight":10158,"Nutella":10159,"ĠONE":10160,"Ġgherkin":10161,"ĠLeftovers":10162,"Ġsouthern":10163,"ĠSLOW":10164,"Ġbruised":10165,"isturbed":10166,"Lebanese":10167,"ĠINGREDIENTS":10168,"Serve":10169,"ager":10170,"gent":10171,"tel":10172,"zy":10173,"Ġut":10174,"Ġserves":10175,"ilst":10176,"iley":10177,"pour":10178,"itely":10179,"ĠServed":10180,"ĠCraisins":10181,"ĠCrowd":10182,"otes":10183,"ĠParboil":10184,"ĠPecorino":10185,"ĠPiccata":10186,"Ġforth":10187,"ĠMass":10188,"ĠTightly":10189,"ĠRing":10190,"imal":10191,"Ġgrnd":10192,"ĠWELL":10193,"Ġselect":10194,"ĠLady":10195,"ĠHollow":10196,"Ġ64":10197,"assi":10198,"Ġappetizers":10199,"Ġcontrol":10200,"Ġicecream":10201,"Ġscraps":10202,"ĠKorean":10203,"ĠJerk":10204,"Ġpatting":10205,"Ġpopover":10206,"vaporated":10207,"aspberries":10208,"Ġarran":10209,"aghettini":10210,"ucket":10211,"Ġcrabs":10212,"yster":10213,"avarian":10214,"Ġimag":10215,"Ġtamales":10216,"Ġvariations":10217,"ĠRotini":10218,"Ġgrapefruits":10219,"ARGE":10220,"Ġsegmented":10221,"Ġcapsicums":10222,"Ġharicots":10223,"ĠHeart":10224,"ĠPicante":10225,"fourth":10226,"Extra":10227,"Ġchildren":10228,"Ġsubmerged":10229,"ĠPreserves":10230,"chnit":10231,"URN":10232,"Ġmaximum":10233,"aggi":10234,"orchestershire":10235,"Ġanaheim":10236,"ĠPLACE":10237,"ĠHALF":10238,"AVE":10239,"Lighter":10240,"nie":10241,"rates":10242,"test":10243,"wine":10244,"Ġcelsius":10245,"Ġcedar":10246,"Ġmuddle":10247,"uncheon":10248,"itter":10249,"Ġgala":10250,"Ġmineral":10251,"ottle":10252,"toss":10253,"ĠBun":10254,"ĠBoursin":10255,"ĠAla":10256,"ĠMussels":10257,"ĠFN":10258,"ĠWAT":10259,"oregano":10260,"ĠGoya":10261,"ĠLove":10262,"park":10263,"ĠOreos":10264,"ĠOVEN":10265,"mont":10266,"ĠWhiz":10267,"Ġsweetcorn":10268,"ewed":10269,"ĠNice":10270,"ĠNight":10271,"oyal":10272,"spired":10273,"angos":10274,"Ġdeter":10275,"Ġboat":10276,"chool":10277,"ĠScald":10278,"pricots":10279,"ucks":10280,"ĠCappuccino":10281,"ĠSkins":10282,"Ġcircul":10283,"Ġtrick":10284,"Ġdrummettes":10285,"ĠFluffy":10286,"smooth":10287,"Ġcaviar":10288,"Ġensuring":10289,"Ġrisotto":10290,"Ġjoe":10291,"ĠPinto":10292,"ĠCurd":10293,"Bow":10294,"Dry":10295,"Ed":10296,"FF":10297,"Tilapia":10298,"cted":10299,"iver":10300,"sely":10301,"slice":10302,"uj":10303,"Ġsaran":10304,"around":10305,"Ġlrg":10306,"Ġdue":10307,"lef":10308,"Ġhurry":10309,"ĠCryst":10310,"ĠCAKE":10311,"ĠCrescents":10312,"isting":10313,"ĠBig":10314,"older":10315,"Ġstones":10316,"Ġsaut":10317,"Ġreason":10318,"Ġbroad":10319,"ĠTropical":10320,"Ġwhit":10321,"undiluted":10322,"ĠFun":10323,"Ġcrud":10324,"ayas":10325,"quite":10326,"ĠWasabi":10327,"ĠWedding":10328,"Ġseitan":10329,"ĠGourmet":10330,"ĠGeorge":10331,"ĠLabel":10332,"ĠLARGE":10333,"quarters":10334,"pecan":10335,"Ġliquef":10336,"Ġpreheating":10337,"acardi":10338,"eltic":10339,"Ġcompleted":10340,"Ġsquirt":10341,"Ġundisturbed":10342,"uddings":10343,"ucker":10344,"Ġabsorbs":10345,"Ġwoody":10346,"Ġhav":10347,"ĠToasts":10348,"Buttered":10349,"ĠMargarine":10350,"Ġfoaming":10351,"ĠRequ":10352,"burg":10353,"Ġcobbler":10354,"Flour":10355,"Granola":10356,"Ġtends":10357,"ĠChilies":10358,"ĠOtherwise":10359,"ieners":10360,"Ġmassage":10361,"Ġsubstitutions":10362,"ĠInstead":10363,"runken":10364,"ĠPockets":10365,"Bul":10366,"Brie":10367,"Blt":10368,"Bananas":10369,"Fil":10370,"Parsley":10371,"SE":10372,"gly":10373,"kan":10374,"uda":10375,"initely":10376,"Ġcrow":10377,"Ġsundae":10378,"Ġmod":10379,"upon":10380,"atis":10381,"Ġdal":10382,"ormel":10383,"ppe":10384,"ĠSilk":10385,"ĠSieve":10386,"lest":10387,"Ġunprepared":10388,"akers":10389,"ugs":10390,"Ġratio":10391,"Ġsole":10392,"Ġrecon":10393,"ĠFoster":10394,"ĠDa":10395,"ĠLite":10396,"Ġconven":10397,"Ġbailey":10398,"Ġbreadstick":10399,"Ġblacken":10400,"Ġcooler":10401,"Ġsmoothing":10402,"garitas":10403,"ĠNor":10404,"tomatoes":10405,"Ġnutty":10406,"Ġfillings":10407,"Ġcrispier":10408,"ĠItaliano":10409,"Ġdashi":10410,"ĠRefried":10411,"ĠRoad":10412,"Ġflattening":10413,"ambord":10414,"Split":10415,"Ġfourth":10416,"ĠSweeten":10417,"Ġruby":10418,"rud":10419,"ĠLoaves":10420,"ĠMaria":10421,"Ġweigh":10422,"ĠRaita":10423,"ĠFrito":10424,"Ġelimin":10425,"ĠDoughnuts":10426,"Peaches":10427,"Ġporcini":10428,"ĠParfaits":10429,"Ġemulsify":10430,"enoa":10431,"Ġsubsides":10432,"infandel":10433,"North":10434,"Ġtsps":10435,"Ġposted":10436,"Ġestimated":10437,"Ġcorkscrew":10438,"chnitzel":10439,"leftover":10440,"GG":10441,"Jicama":10442,"More":10443,"Your":10444,"aving":10445,"cles":10446,"gl":10447,"rator":10448,"seal":10449,"Ġcri":10450,"Ġsided":10451,"Ġbibb":10452,"rown":10453,"Ġlol":10454,"Ġholiday":10455,"chwe":10456,"chili":10457,"together":10458,"Ġforced":10459,"olks":10460,"ĠMine":10461,"ellogg":10462,"Ġshut":10463,"ĠDew":10464,"ĠDRAIN":10465,"Ġabs":10466,"cone":10467,"ĠGR":10468,"Ġconvection":10469,"Ġexact":10470,"innish":10471,"Ġmarry":10472,"Ġtext":10473,"Ġcarbs":10474,"Ġcartons":10475,"Ġlett":10476,"ĠEaster":10477,"Ġwholemeal":10478,"Ġsyrups":10479,"Champagne":10480,"ĠVirgin":10481,"osa":10482,"osing":10483,"acks":10484,"crumbs":10485,"Ġease":10486,"Ġbrushed":10487,"ĠUntil":10488,"Ġsnip":10489,"Ġspringy":10490,"Ġliked":10491,"ĠDON":10492,"Ġwashing":10493,"clean":10494,"ĠTruffle":10495,"Ġcrystal":10496,"Ġomitted":10497,"ĠScallop":10498,"ĠShortcake":10499,"ĠCubes":10500,"razil":10501,"Ġcondiment":10502,"Portabella":10503,"Ġdressed":10504,"Ġmoment":10505,"Ġtumeric":10506,"Ġkiwis":10507,"ophane":10508,"Ġappropriate":10509,"Ba":10510,"Com":10511,"ME":10512,"Speed":10513,"bacon":10514,"egemite":10515,"rich":10516,"sided":10517,"Ġtell":10518,"Ġtied":10519,"erate":10520,"Ġox":10521,"Ġmung":10522,"Ġinver":10523,"pop":10524,"ational":10525,"ingon":10526,"une":10527,"ĠSort":10528,"ĠCloves":10529,"Ġmind":10530,"Ġpeices":10531,"ĠBath":10532,"Ġjus":10533,"ĠMeyer":10534,"Ġspar":10535,"Ġshaken":10536,"Ġclusters":10537,"ĠChest":10538,"rinkles":10539,"pered":10540,"Ġhighest":10541,"umpt":10542,"Chorizo":10543,"Ġpinching":10544,"ĠJasmine":10545,"Ġshorter":10546,"135":10547,"Ġmintues":10548,"ĠCarnation":10549,"Ġcandiced":10550,"Ġtoweling":10551,"Ġgrid":10552,"ĠMojito":10553,"ĠPopovers":10554,"addy":10555,"adding":10556,"Ġdecorator":10557,"broth":10558,"ĠBlondies":10559,"ĠGrandma":10560,"ĠPackets":10561,"ĠCarbo":10562,"Ġmounding":10563,"ĠSecret":10564,"ĠBoats":10565,"Ġseared":10566,"HIS":10567,"Ġjoints":10568,"Ġtomatillo":10569,"Ġvarious":10570,"ĠCHO":10571,"Ġcourgettes":10572,"Ġsplatter":10573,"Passover":10574,"Ġdemerara":10575,"Wonderful":10576,"Ġinverting":10577,"African":10578,"Bea":10579,"Dilled":10580,"Family":10581,"FUL":10582,"Let":10583,"Like":10584,"Muff":10585,"lene":10586,"pa":10587,"vis":10588,"wa":10589,"wash":10590,"Ġtinned":10591,"Ġpilaf":10592,"Ġmangos":10593,"polit":10594,"Ġtog":10595,"Ġlicorice":10596,"Ġluncheon":10597,"Ġdilute":10598,"Ġdense":10599,"Ġ230":10600,"ĠSee":10601,"tilage":10602,"ĠPistachio":10603,"cheddar":10604,"Ġsalts":10605,"ĠApricots":10606,"rian":10607,"Ġflan":10608,"Ġ42":10609,"ĠMouth":10610,"ĠMignon":10611,"ĠIC":10612,"ighly":10613,"ĠRO":10614,"Ġgrit":10615,"stem":10616,"efish":10617,"ĠLI":10618,"ĠLunch":10619,"Ġcartilage":10620,"Ġpref":10621,"izes":10622,"Ġwarming":10623,"Ġmoons":10624,"Ġpapayas":10625,"ĠRedHot":10626,"ĠButtery":10627,"Ġpartly":10628,"Lemonade":10629,"book":10630,"board":10631,"ĠPoint":10632,"Ġtubes":10633,"Ġcreative":10634,"Ġthirty":10635,"Ġreleas":10636,"Scottish":10637,"Ġsmoky":10638,"Ġshoot":10639,"Ġgrouper":10640,"ĠSouthwestern":10641,"carrots":10642,"Ġvegies":10643,"Ġstays":10644,"wheel":10645,"Ġcalifornia":10646,"Graham":10647,"Ġfiltered":10648,"ĠONLY":10649,"TIONS":10650,"Refriger":10651,"Ġquantities":10652,"Ġskimming":10653,"Bel":10654,"Cumin":10655,"IX":10656,"Kiwi":10657,"LD":10658,"Lower":10659,"Vidalia":10660,"Venison":10661,"When":10662,"king":10663,"paper":10664,"rin":10665,"Ġcalamari":10666,"Ġmellow":10667,"atas":10668,"alines":10669,"unpeeled":10670,"ĠSE":10671,"abl":10672,"abern":10673,"ĠPare":10674,"ĠPace":10675,"irg":10676,"ĠBAK":10677,"ĠAka":10678,"ĠAbsolut":10679,"Ġsaved":10680,"ĠTuscan":10681,"Ġnest":10682,"Ġspin":10683,"Ġshredd":10684,"Ġshoyu":10685,"reshing":10686,"Ġgrates":10687,"Ġgrounds":10688,"Ġwells":10689,"opa":10690,"bert":10691,"ĠHour":10692,"ĠHill":10693,"Ġza":10694,"ĠVeg":10695,"Ġleafy":10696,"ĠCarne":10697,"ĠPepperidge":10698,"Ġbrioche":10699,"Ġcheesy":10700,"Whisk":10701,"aturally":10702,"broken":10703,"Cornmeal":10704,"Smok":10705,"ĠMonte":10706,"Ġpulling":10707,"ĠGrands":10708,"Ġhomog":10709,"Original":10710,"undaes":10711,"ĠMarshmallows":10712,"squeezed":10713,"Ġextending":10714,"utÃ©ed":10715,"ĠOPTIONAL":10716,"square":10717,"ĠSLOWLY":10718,"Ġhavarti":10719,"abernet":10720,"Bon":10721,"Egyptian":10722,"Hershey":10723,"Ne":10724,"Press":10725,"Seven":10726,"Wa":10727,"Wasabi":10728,"\\-":10729,"bol":10730,"cur":10731,"ginger":10732,"hredded":10733,"hrenheit":10734,"ience":10735,"lean":10736,"leans":10737,"vados":10738,"Ġcous":10739,"Ġserv":10740,"erts":10741,"rets":10742,"aler":10743,"Ġgray":10744,"Ġgame":10745,"Ġgoya":10746,"ortening":10747,"Ġhollandaise":10748,"ĠPOUR":10749,"eth":10750,"etida":10751,"Ġstreaks":10752,"Ġbutcher":10753,"Ġsazon":10754,"Ġflutes":10755,"ĠMama":10756,"ĠTon":10757,"ĠTilt":10758,"ĠFRE":10759,"ĠDai":10760,"ĠWILL":10761,"ĠStrata":10762,"aining":10763,"ĠLavender":10764,"Ġ1000":10765,"Ġpiecrust":10766,"assy":10767,"Ġpastrami":10768,"ĠNect":10769,"Chai":10770,"Ġrespect":10771,"loaves":10772,"Ġquail":10773,"ĠRefrigerator":10774,"Ġtripled":10775,"Ġhormel":10776,"Ġliqueurs":10777,"Coleslaw":10778,"ĠProceed":10779,"ĠProvolone":10780,"Ġpreserve":10781,"Ġalternatively":10782,"Ġsecret":10783,"ĠDevil":10784,"REAM":10785,"ĠAncho":10786,"ĠOvernight":10787,"OWN":10788,"Gingered":10789,"creamy":10790,"Ġtreats":10791,"Ġmorsel":10792,"Ġhusband":10793,"riander":10794,"Recipe":10795,"ompany":10796,"Lobster":10797,"Ġtangerines":10798,"heavy":10799,"ĠBROWN":10800,"Ġvaries":10801,"ĠCollard":10802,"metallic":10803,"Rocky":10804,"Ġjalepeno":10805,"Impossible":10806,"Ġaltitude":10807,"Ġdepression":10808,"ĠBundles":10809,"ĠMassage":10810,"Ġlettuces":10811,"36":10812,"Alo":10813,"Amy":10814,"Grain":10815,"Kar":10816,"Mussels":10817,"Macadamia":10818,"TEL":10819,"Zippy":10820,"bel":10821,"gas":10822,"raspberry":10823,"tega":10824,"Ġcasser":10825,"Ġcamembert":10826,"Ġtangy":10827,"Ġtropical":10828,"earing":10829,"Ġpate":10830,"arfalle":10831,"atly":10832,"ĠSchnapps":10833,"Ġ(~":10834,"ĠPurpose":10835,"chickpeas":10836,"ĠBea":10837,"Ġrustic":10838,"ĠIT":10839,"ĠTor":10840,"ĠRounds":10841,"Ġyields":10842,"Ġovens":10843,"ĠStarter":10844,"stura":10845,"Ġkinds":10846,"pare":10847,"pari":10848,"apted":10849,"Ġcarcass":10850,"pany":10851,"ĠEvaporated":10852,"Ġcontact":10853,"afing":10854,"ĠKim":10855,"ĠThanksgiving":10856,"ĠEnergy":10857,"Ġhandy":10858,"Ġcorriander":10859,"ĠDiabetic":10860,"stituted":10861,"Ġfahrenheit":10862,"ĠSmothered":10863,"Ġpulsing":10864,"onster":10865,"ĠOrleans":10866,"Ġ--.":10867,"Thyme":10868,"ERS":10869,"Ġcolada":10870,"appuccino":10871,"ĠMinestrone":10872,"broccoli":10873,"mann":10874,"Another":10875,"Ġpersonally":10876,"Poor":10877,"Ġspirals":10878,"Margarita":10879,"ĠCroquettes":10880,"ĠGoddess":10881,"Boston":10882,"Ġmessy":10883,"Ġsuccess":10884,"Ġfloating":10885,"Indonesian":10886,"Ġcelcius":10887,"Deluxe":10888,"ĠICING":10889,"Ġrespectively":10890,".'":10891,"Cappuccino":10892,"Dec":10893,"Fantastic":10894,"Ritz":10895,"Wine":10896,"fil":10897,"inary":10898,"erella":10899,"Ġpoked":10900,"atelli":10901,"anco":10902,"Ġda":10903,"Ġgather":10904,"Ġcheap":10905,"Ġchafing":10906,"ela":10907,"isto":10908,"Ġ33":10909,"ĠPER":10910,"razz":10911,"oks":10912,"ĠMiddle":10913,"urple":10914,"ample":10915,"Ġpots":10916,"ĠGRE":10917,"ĠGooey":10918,"ctus":10919,"ĠLess":10920,"eyes":10921,"Ġveins":10922,"andies":10923,"Ġparsely":10924,"Ġdoughnut":10925,"Ġpina":10926,"ĠNacho":10927,"Ġglue":10928,"Ġcracks":10929,"Ġresid":10930,"ĠButterfly":10931,"Ġknown":10932,"ĠBreaded":10933,"Ġquicker":10934,"ĠAluminum":10935,"Ġteabag":10936,"Ġtilting":10937,"avian":10938,"ĠSeperate":10939,"Ġwrapping":10940,"Ġdrinks":10941,"Ġlining":10942,"Eggless":10943,"ĠMonkey":10944,"Ġcoursely":10945,"ĠFranks":10946,"Ġvarieties":10947,"ĠClams":10948,"Ġjiggers":10949,"ĠGrahams":10950,"eorg":10951,"Ġripened":10952,"ĠGlass":10953,"Island":10954,"ĠSnickers":10955,"Ġtostada":10956,"broiler":10957,"Ġgenerally":10958,"Remove":10959,"Ġexperiment":10960,"ĠCompletely":10961,"ĠPlantains":10962,"ĠMethod":10963,"Ġdiffic":10964,"!!)":10965,"98":10966,"?)":10967,"Cor":10968,"Every":10969,"Put":10970,"Peas":10971,"Tur":10972,"banana":10973,"equ":10974,"field":10975,"pet":10976,"serving":10977,"Ġcame":10978,"Ġceltic":10979,"Ġamerican":10980,"ealand":10981,"heys":10982,"allah":10983,"Ġleche":10984,"Ġdulce":10985,"Ġchance":10986,"ĠSil":10987,"ĠSirloin":10988,"ĠCHE":10989,"ĠCuracao":10990,"Ġ((":10991,"ĠPower":10992,"ĠAdditional":10993,"ĠMug":10994,"ĠMAKE":10995,"ĠIron":10996,"Ġnachos":10997,"ayst":10998,"strap":10999,"there":11000,"ĠSpam":11001,"aint":11002,"ĠGumbo":11003,"ĠLong":11004,"ionaly":11005,"Ġmelba":11006,"ĠOamc":11007,"ersheys":11008,"Ġcrumbling":11009,"ĠYam":11010,"Ġseparates":11011,"Ġdillweed":11012,"soaked":11013,"Ġcrocker":11014,"Ġbouquet":11015,"Ġdoubles":11016,"lude":11017,"Ġcardamoms":11018,"Ġmostaccioli":11019,"uccot":11020,"ĠPoblano":11021,"ĠPoupon":11022,"addock":11023,"Ġdiscolor":11024,"ĠGranita":11025,"iked":11026,"Ġ:-":11027,"Plum":11028,"gostura":11029,"ĠFilet":11030,"Ġideal":11031,"jool":11032,"urkee":11033,"Ġbutterfly":11034,"ĠHolding":11035,"intosh":11036,"Ġtonic":11037,"Ġspecified":11038,"Ġshimmering":11039,"Melon":11040,"Confetti":11041,"Ġsnapped":11042,"Ġattractive":11043,"225":11044,"Farm":11045,"Mas":11046,"Per":11047,"Pre":11048,"Ver":11049,"bena":11050,"pure":11051,"sicle":11052,"uzo":11053,"vos":11054,"Ġsaturated":11055,"esan":11056,"aron":11057,"Ġdisp":11058,"Ġgla":11059,"Ġgummy":11060,"ppin":11061,"ĠCamembert":11062,"isa":11063,"iscons":11064,"oking":11065,"usk":11066,"ĠBacardi":11067,"Ġstreak":11068,"Ġthinned":11069,"ĠMild":11070,"urch":11071,"ĠTet":11072,"ĠTupperware":11073,"ĠRED":11074,"Ġspritz":11075,"Ġshri":11076,"Ġstiring":11077,"ĠDan":11078,"grill":11079,"opened":11080,"eddy":11081,"gerine":11082,"Ġpacking":11083,"Ġmarket":11084,"Ġcrushing":11085,"ĠDrained":11086,"ĠVoila":11087,"Ġdev":11088,"ĠPeeled":11089,"Ġcaper":11090,"ĠUnfold":11091,"Ġburns":11092,"Ġmanchego":11093,"elba":11094,"Ġbrats":11095,"Ġbruschetta":11096,"ĠCrumbled":11097,"Ġverbena":11098,"IGHTLY":11099,"Blackened":11100,"Incr":11101,"ĠPraline":11102,"ĠMedallions":11103,"Pancakes":11104,"HICK":11105,"ĠLatkes":11106,"ĠTblsp":11107,"Ġfront":11108,"Ġdehydrator":11109,"Individual":11110,"ĠTrader":11111,"powdered":11112,"Ġintens":11113,"Praline":11114,"separated":11115,"Ġkumquats":11116,"Ġcellophane":11117,"Speedy":11118,"politan":11119,"Ġdifficult":11120,"uccotash":11121,"isconsin":11122,"Creme":11123,"CTIONS":11124,"Company":11125,"Fudgy":11126,"FORE":11127,"Nacho":11128,"Pour":11129,"Ros":11130,"Veal":11131,"both":11132,"basco":11133,"ih":11134,"must":11135,"ruc":11136,"Ġcampfire":11137,"estern":11138,"rod":11139,"anat":11140,"Ġchayote":11141,"ĠSlit":11142,"ĠCons":11143,"ĠCREAM":11144,"isture":11145,"Ġunopened":11146,"ĠPom":11147,"ĠMist":11148,"ĠMelba":11149,"urric":11150,"ĠRim":11151,"Ġelement":11152,"Ġsmear":11153,"ĠDr":11154,"stea":11155,"ĠSponge":11156,"ĠChambord":11157,"ĠLassi":11158,"Ġconc":11159,"Ġmarbled":11160,"ught":11161,"uchen":11162,"naheim":11163,"ĠEA":11164,"ĠEast":11165,"Ġrefrigerating":11166,"ĠSaffron":11167,"inia":11168,"Ġnotes":11169,"Ġdoughy":11170,"Ġprocesser":11171,"Ġgrade":11172,"Ġflames":11173,"blets":11174,"ĠGarbanzo":11175,"Ġjarlsberg":11176,"Ġdebone":11177,"Ġhandles":11178,"Ġpointed":11179,"stitos":11180,"Ġpulver":11181,"Ġmanner":11182,"Ġmeasured":11183,"Ġconcentrated":11184,"ĠAppetit":11185,"Sherry":11186,"athy":11187,"ĠPoor":11188,"ĠStewed":11189,"ukes":11190,"Smashed":11191,"Into":11192,"ottled":11193,"browning":11194,"Ġresulting":11195,"Ġsorted":11196,"ĠCaps":11197,"ĠSouthwest":11198,"Meatball":11199,"Ġricher":11200,"acaroon":11201,"ĠSeared":11202,"Minted":11203,"Ġlager":11204,"Ġdisappears":11205,"ĠFarenheit":11206,"Ġbuild":11207,"Ġchevre":11208,"Ġsupermarkets":11209,"Ġudon":11210,"ĠBuild":11211,"Bleu":11212,"Ġkirsch":11213,"parkling":11214,"umptious":11215,"irginia":11216,"urricane":11217,"==":11218,"Crum":11219,"Cider":11220,"Emeril":11221,"Kid":11222,"Kim":11223,"Our":11224,"Okra":11225,"Sarah":11226,"Tra":11227,"flow":11228,"ients":11229,"kake":11230,"pineapple":11231,"urop":11232,"Ġsound":11233,"Ġmeans":11234,"ency":11235,"organ":11236,"ĠCUP":11237,"oto":11238,"Ġpepitas":11239,"ĠBone":11240,"Ġcholesterol":11241,"Ġrash":11242,"tsp":11243,"ĠTar":11244,"Ġwhy":11245,"Ġnothing":11246,"Ġview":11247,"ĠFool":11248,"ĠHav":11249,"insing":11250,"uevos":11251,"Ġzucch":11252,"ĠNE":11253,"Ġscra":11254,"iscus":11255,"Ġwalla":11256,"ĠKrisp":11257,"Ġtwine":11258,"igella":11259,"ĠYoghurt":11260,"ĠJerky":11261,"ensive":11262,"Ġshouldn":11263,"Ġcolla":11264,"ĠAlla":11265,"litz":11266,"Stewed":11267,"ĠBru":11268,"ibiscus":11269,"Ġhemp":11270,"mmm":11271,"Ġverts":11272,"Tomatoes":11273,"ĠChoice":11274,"ĠTOP":11275,"Ġdrumettes":11276,"ĠCOVER":11277,"ORT":11278,"Peppered":11279,"ĠCuban":11280,"ĠCroiss":11281,"Ġwhether":11282,"Ġours":11283,"Gramm":11284,"Soup":11285,"ĠGrapefruit":11286,"AYER":11287,"Ġrutabaga":11288,"Ġbands":11289,"Persian":11290,"ĠRellenos":11291,"ĠMadras":11292,"Ġdesserts":11293,"Ġtextured":11294,"razzini":11295,"eorgia":11296,"-.":11297,"Cro":11298,"Deb":11299,"IES":11300,"Ms":11301,"Mal":11302,"Oh":11303,"Preheat":11304,"Ramen":11305,"Sage":11306,"Velveeta":11307,"could":11308,"Ġq":11309,"Ġtarter":11310,"Ġage":11311,"ences":11312,"aluminum":11313,"Ġchurn":11314,"ouette":11315,"Ġhuge":11316,"ĠSides":11317,"lycer":11318,"Ġsavoy":11319,"Ġoverripe":11320,"ĠMaker":11321,"ĠMiso":11322,"Ġwhichever":11323,"Ġwhilst":11324,"Ġvitamin":11325,"ĠFizz":11326,"grilled":11327,"omm":11328,"ĠSpir":11329,"inkle":11330,"eff":11331,"ĠGirl":11332,"ĠGiant":11333,"Ġmargerine":11334,"agn":11335,"ĠTost":11336,"Ġloc":11337,"tlets":11338,"Ġpoundcake":11339,"earded":11340,"ĠKool":11341,"ĠCheesecakes":11342,"Ġcord":11343,"acky":11344,"ĠRefrigerated":11345,"ĠDipped":11346,"reduce":11347,"Ġplay":11348,"ĠGarnishes":11349,"Splenda":11350,"neck":11351,"Ġdropping":11352,"ibby":11353,"ĠApproximately":11354,"ĠFruity":11355,"banzos":11356,"READ":11357,"ĠReserving":11358,"Ġdecoratively":11359,"Alfredo":11360,"cups":11361,"ĠReese":11362,"Ġpurpos":11363,"Ġsegment":11364,"ĠScallions":11365,"Ġsorrel":11366,"Ġmilligra":11367,"Ġcollards":11368,"Ġdecide":11369,"Enchilada":11370,"ASE":11371,"ĠPassover":11372,"ĠBEFORE":11373,"stock":11374,"Tender":11375,"Ġsubstituting":11376,"cracker":11377,"longer":11378,"Ġmerlot":11379,"Ġcitron":11380,"refrigerated":11381,"Ġfriends":11382,"ĠPimento":11383,"Ġfavorites":11384,"two":11385,"ĠEarth":11386,"Ġignite":11387,"liquid":11388,"Ġeliminate":11389,"ĠTetrazzini":11390,"Intosh":11391,"uropean":11392,"Ġpurposes":11393,"AC":11394,"Cran":11395,"Cardamom":11396,"Fig":11397,"Lite":11398,"Lasagna":11399,"Pico":11400,"Regular":11401,"SG":11402,"Sicilian":11403,"ci":11404,"cap":11405,"herb":11406,"hrs":11407,"iently":11408,"iner":11409,"Ġcres":11410,"Ġawhile":11411,"Ġboy":11412,"Ġbalm":11413,"Ġmys":11414,"Ġmignon":11415,"Ġwip":11416,"Ġdunk":11417,"Ġgumbo":11418,"Ġchang":11419,"elves":11420,"ĠSI":11421,"ĠCARE":11422,"ota":11423,"ram":11424,"ĠBush":11425,"ĠBottle":11426,"ĠAv":11427,"Ġstated":11428,"ghorn":11429,"Ġ46":11430,"ĠMiss":11431,"ĠMAR":11432,"ĠMicro":11433,"ĠMuesli":11434,"ĠTia":11435,"Ġnuke":11436,"Ġshade":11437,"ĠDeli":11438,"quik":11439,"Ġisland":11440,"adillo":11441,"ifies":11442,"Ġasaf":11443,"ĠGingersn":11444,"ĠHormel":11445,"Ġking":11446,"Ġblends":11447,"Ġpastries":11448,"Ġproble":11449,"Ġlighten":11450,"Ġlondon":11451,"ĠVeal":11452,"blender":11453,"Ġcolle":11454,"ussie":11455,"Ġpackageshredded":11456,"ĠSmashed":11457,"ritzer":11458,"Ġjama":11459,"ĠZealand":11460,"Savoury":11461,"ĠFruitcake":11462,"Ġhell":11463,"Ġrotelle":11464,"ĠMargaritas":11465,"ĠWalla":11466,"Altern":11467,"Ġflameproof":11468,"Scr":11469,"ĠRotate":11470,"packaged":11471,"ĠScallion":11472,"Devil":11473,"ĠManchego":11474,"Ġdelay":11475,"firmly":11476,"ĠTapioca":11477,"substitute":11478,"coarsely":11479,"ustralian":11480,"Wilted":11481,"Ġlychee":11482,"ĠMINUTES":11483,"ĠCarbohydrate":11484,"Ġviewer":11485,"Aka":11486,"Dump":11487,"Finnish":11488,"Heat":11489,"Kentucky":11490,"Luscious":11491,"Noodle":11492,"Sunday":11493,"got":11494,"simmer":11495,"yn":11496,"Ġtree":11497,"esian":11498,"Ġbucket":11499,"Ġoreo":11500,"Ġmist":11501,"Ġmackerel":11502,"Ġlingon":11503,"Ġ210":11504,"ouli":11505,"elsh":11506,"ĠSundaes":11507,"asionally":11508,"chop":11509,"ĠBasting":11510,"ĠAm":11511,"Ġston":11512,"Ġstars":11513,"Ġsack":11514,"Ġrinsing":11515,"ĠAdding":11516,"Ġbroccolini":11517,"Ġwhiz":11518,"ĠRolled":11519,"amate":11520,"Ġshave":11521,"Ġshears":11522,"ĠFine":11523,"ĠFillet":11524,"ĠString":11525,"Ġmilkshake":11526,"iper":11527,"Ġskil":11528,"ĠGLA":11529,"ĠGodiva":11530,"ĠLiving":11531,"ode":11532,"Ġvegemite":11533,"Ġaltogether":11534,"Ġsimmered":11535,"essa":11536,"enny":11537,"Ġanywhere":11538,"Ġhandheld":11539,"ĠBreadsticks":11540,"ĠRoom":11541,"--.":11542,"ĠPeppercorn":11543,"Ġ234":11544,"Ġindoor":11545,"Ġmadeira":11546,"INT":11547,"ĠSwordfish":11548,"amomile":11549,"ĠAngostura":11550,"Ġmeet":11551,"Ġpowered":11552,"Topped":11553,"ĠLiberally":11554,"chiette":11555,"Ġbelieve":11556,"Ġimmerse":11557,"Ġprime":11558,"unschwe":11559,"ĠPortion":11560,"Sunny":11561,"OOK":11562,"ĠBEAT":11563,"ĠPopsicles":11564,"Refried":11565,"Refreshing":11566,"ĠLima":11567,"uppy":11568,"Ġceleriac":11569,"ĠVARIATIONS":11570,"Ġmozzerella":11571,"ĠUsually":11572,"ĠWontons":11573,"ĠRequest":11574,"Flourless":11575,"Decadent":11576,"Ġmilligrams":11577,"ĠCAREFUL":11578,"unschweiger":11579,"After":11580,"Ahead":11581,"Beat":11582,"Beans":11583,"Che":11584,"Cantaloupe":11585,"Dough":11586,"Fun":11587,"Filled":11588,"Grap":11589,"Hom":11590,"Hellman":11591,"King":11592,"Na":11593,"Sparkling":11594,"hl":11595,"pap":11596,"spoon":11597,"sides":11598,"tr":11599,"zu":11600,"inavian":11601,"Ġbarbecued":11602,"Ġboursin":11603,"Ġpun":11604,"Ġparb":11605,"atat":11606,"roots":11607,"Ġhint":11608,"Ġcoffe":11609,"abic":11610,"ĠCel":11611,"isian":11612,"Ġ310":11613,"ĠPAN":11614,"ĠParmig":11615,"Ġpeek":11616,"ĠBri":11617,"ĠAT":11618,"ĠAbm":11619,"ĠAnaheim":11620,"Ġru":11621,"these":11622,"Ġspaghettini":11623,"Ġstirr":11624,"ĠDuck":11625,"Ġgrating":11626,"Ġpowdery":11627,"lette":11628,"ifruit":11629,"bergin":11630,"ulf":11631,"andinavian":11632,"Ġseasons":11633,"Ġrand":11634,"ĠOpt":11635,"ĠWhat":11636,"Ġmoon":11637,"Ġencl":11638,"Ġscored":11639,"ĠSharp":11640,"Ġstraws":11641,"ĠJicama":11642,"Ġstands":11643,"indow":11644,"ĠPieces":11645,"Ġherring":11646,"plate":11647,"ahead":11648,"Ġbrands":11649,"SautÃ©ed":11650,"flat":11651,"ĠLovers":11652,"ĠFail":11653,"Grandmother":11654,"Scotch":11655,"ĠSheet":11656,"Ġsterilised":11657,"ĠServings":11658,"Gram":11659,"opez":11660,"Harvest":11661,"andelion":11662,"ĠFigs":11663,"Ġreplacer":11664,"ĠInfused":11665,"Ġmesquite":11666,"ĠEndive":11667,"walnuts":11668,"ĠDivan":11669,"ĠBorder":11670,"Ġcrudites":11671,"Ġsparingly":11672,"ĠHavarti":11673,"Ġmyself":11674,"bergines":11675,"',":11676,".),":11677,"//":11678,"Dream":11679,"Dip":11680,"Gooey":11681,"Lea":11682,"Louisiana":11683,"Mem":11684,"Miso":11685,"OON":11686,"Rainbow":11687,"Tabasco":11688,"azz":11689,"bbles":11690,"haps":11691,"hours":11692,"iery":11693,"luck":11694,"smo":11695,"Ġtables":11696,"Ġaff":11697,"Ġaubergine":11698,"onal":11699,"Ġbelly":11700,"alaf":11701,"roof":11702,"Ġglycer":11703,"ĠSlip":11704,"Ġminus":11705,"ĠPuppies":11706,"ddles":11707,"ĠBur":11708,"ĠBear":11709,"Ġthousand":11710,"ĠMill":11711,"ĠMud":11712,"ĠMuenster":11713,"ĠTb":11714,"ampari":11715,"Ġrecover":11716,"Ġcris":11717,"ĠDie":11718,"ĠDone":11719,"stems":11720,"agett":11721,"ĠChoc":11722,"ĠLee":11723,"Ġhotd":11724,"Ġlive":11725,"Ġclover":11726,"Ġfiner":11727,"ĠOption":11728,"Ġpremade":11729,"ĠEven":11730,"ĠEGG":11731,"iane":11732,"ĠNeed":11733,"Ġontop":11734,"after":11735,"Ġspoonfulls":11736,"ĠVegemite":11737,"osodium":11738,"ĠThins":11739,"ĠThumb":11740,"Ġpasteurized":11741,"Ġcured":11742,"Ġremoval":11743,"unty":11744,"Spread":11745,"Ġcolorful":11746,"choose":11747,"Ġmonosodium":11748,"ĠCoating":11749,"Combine":11750,"ĠProsciutto":11751,"Ġmeasures":11752,"Ġherbal":11753,"Ġlikely":11754,"ĠBlot":11755,"ĠTwink":11756,"Ġstripes":11757,"Ġ:)":11758,"Marinade":11759,"Ġbeetroots":11760,"Ġfarenheit":11761,"ĠCubed":11762,"chet":11763,"careful":11764,"ĠPapaya":11765,"ESE":11766,"ĠRibbon":11767,"Ġshowing":11768,"Ġfloats":11769,"ĠBulgar":11770,"ĠTemperature":11771,"Ġmoulds":11772,"Ġdelicate":11773,"Caprese":11774,"Roma":11775,"Whiskey":11776,"aystacks":11777,"Ġshrivel":11778,".\\.":11779,"AW":11780,"EP":11781,"Mc":11782,"Pita":11783,"Roni":11784,"Sam":11785,"aat":11786,"aid":11787,"cil":11788,"hance":11789,"pint":11790,"ral":11791,"roni":11792,"rably":11793,"xible":11794,"Ġber":11795,"Ġbirds":11796,"Ġbreaks":11797,"Ġpump":11798,"Ġpuddings":11799,"Ġmagic":11800,"Ġfield":11801,"anes":11802,"Ġdra":11803,"Ġdream":11804,"Ġdam":11805,"Ġhit":11806,"Ġhaban":11807,"elles":11808,"ĠCeviche":11809,"otic":11810,"chunky":11811,"tose":11812,"Ġstab":11813,"Ġsaucy":11814,"Ġrange":11815,"Ġjapanese":11816,"Ġgarni":11817,"Ġnaturally":11818,"ĠRican":11819,"ĠSprout":11820,"Ġredistribute":11821,"ifts":11822,"Ġsele":11823,"Ġask":11824,"ĠChimichurri":11825,"ĠLeche":11826,"ĠHunt":11827,"Ġalot":11828,"Ġcarbo":11829,"ughing":11830,"ĠOmit":11831,"Ġsoured":11832,"Ġmustards":11833,"Ġliquer":11834,"Ġgrand":11835,"Ġoccasion":11836,"Ġsoftly":11837,"ĠShoot":11838,"Ġcleanup":11839,"Ġdeviled":11840,"Ġcomfort":11841,"Ġdonuts":11842,"Ġdeeply":11843,"ĠAlways":11844,"ĠFlan":11845,"Ġcotton":11846,"ĠCane":11847,"ĠSweat":11848,"topus":11849,"leaving":11850,"ĠFajita":11851,"Ġpicnic":11852,"Ġmicrowaving":11853,"blerone":11854,"ĠSlather":11855,"Arroz":11856,"ĠBomb":11857,"Ġemulsion":11858,"Martha":11859,"ĠPearl":11860,"ĠCOOL":11861,"Ġmention":11862,"dients":11863,"Ġkumara":11864,"ĠAgain":11865,"Clam":11866,"Ġdebearded":11867,"ĠChews":11868,"Ġglutamate":11869,"ĠWATER":11870,"Ġreconstituted":11871,"Ġabsolut":11872,"Ġrandom":11873,"!,":11874,"Dr":11875,"Dilly":11876,"Past":11877,"Sur":11878,"Ste":11879,"Yum":11880,"aetzle":11881,"equal":11882,"fel":11883,"fra":11884,"hr":11885,"ng":11886,"selves":11887,"uie":11888,"valt":11889,"Ġicy":11890,"onde":11891,"Ġprawn":11892,"Ġmuesli":11893,"arg":11894,"Ġwieners":11895,"Ġlipton":11896,"oug":11897,"ĠSan":11898,"ĠSam":11899,"ĠScoops":11900,"ĠSushi":11901,"Ġunto":11902,"ĠPalm":11903,"ĠPitas":11904,"irth":11905,"ĠBits":11906,"ĠBibb":11907,"riddle":11908,"ĠCost":11909,"Ġjun":11910,"Ġovercooked":11911,"ĠIF":11912,"ĠIts":11913,"ĠTa":11914,"Ġnone":11915,"ĠRea":11916,"vents":11917,"Ġcreaming":11918,"Ġspill":11919,"ĠChi":11920,"ĠChick":11921,"ĠChuck":11922,"ĠLO":11923,"ĠLopez":11924,"ĠHere":11925,"odate":11926,"Ġpacks":11927,"estring":11928,"achaca":11929,"Ġprogram":11930,"Ġenhance":11931,"Ġthemselves":11932,"rego":11933,"ecause":11934,"ĠYear":11935,"enedict":11936,"Ġcompote":11937,"Ġknob":11938,"Ġbetty":11939,"Ġconsider":11940,"cornstarch":11941,"Ġwaxy":11942,"ĠSmoky":11943,"Ġlaying":11944,"Ġlasts":11945,"ĠProgresso":11946,"Ġinstruc":11947,"Thick":11948,"They":11949,"uerto":11950,"rambuie":11951,"Ġclay":11952,"mixing":11953,"ĠSeparately":11954,"ĠWaffle":11955,"maybe":11956,"ALL":11957,"ADE":11958,"Ġmatzoh":11959,"ĠFarms":11960,"Ġspearmint":11961,"ĠHeaven":11962,"ĠSnowballs":11963,"Ġdeluxe":11964,"OLD":11965,"ĠReally":11966,"according":11967,"Ġsucanat":11968,"warmed":11969,"ĠTrail":11970,"Philly":11971,"Ġmuslin":11972,"Frank":11973,"ĠMeringues":11974,"ĠHominy":11975,"Colorful":11976,"lynesian":11977,"glass":11978,"ablis":11979,"Ġservice":11980,"ĠBrulee":11981,"ĠParmigiana":11982,"valtine":11983,"64":11984,"CR":11985,"Dee":11986,"IE":11987,"Mouth":11988,"Noodles":11989,"West":11990,"__":11991,"aar":11992,"cean":11993,"kfish":11994,"lor":11995,"pically":11996,"rins":11997,"wet":11998,"yd":11999,"Ġauthentic":12000,"Ġsy":12001,"Ġscone":12002,"Ġmic":12003,"Ġfestive":12004,"Ġworchestershire":12005,"atzo":12006,"Ġchic":12007,"Ġchap":12008,"elp":12009,"ĠCy":12010,"ask":12011,"Ġunbuttered":12012,"ĠPal":12013,"tered":12014,"terelle":12015,"ches":12016,"uski":12017,"ĠBaker":12018,"empt":12019,"iders":12020,"ĠTiramisu":12021,"ĠWest":12022,"Ġropes":12023,"efoot":12024,"ĠGhirardelli":12025,"uby":12026,"Ġbreadmaker":12027,"asha":12028,"ashi":12029,"Ġmarg":12030,"ĠEm":12031,"Ġprosecco":12032,"ship":12033,"peh":12034,"Ġbagged":12035,"Ġnondairy":12036,"Ġfatty":12037,"acu":12038,"ĠKiwi":12039,"ĠKidney":12040,"Ġtwisting":12041,"ĠRollups":12042,"Ġgranita":12043,"Ġarbol":12044,"ĠContessa":12045,"Ġportab":12046,"Ġhook":12047,"Rose":12048,"Ġsliver":12049,"apples":12050,"pressed":12051,"ĠLeaf":12052,"orsels":12053,"istachios":12054,"ĠIncor":12055,"ĠTenderloins":12056,"ĠDelights":12057,"Ġcolouring":12058,"ĠSunrise":12059,"ĠRelease":12060,"Ġsilks":12061,"Mixture":12062,"coriander":12063,"Ġuniformly":12064,"Monkey":12065,"ĠIslands":12066,"ĠPREP":12067,"ĠClassico":12068,"ĠBouillon":12069,"fourths":12070,"ĠPaula":12071,"squeeze":12072,"ĠInstructions":12073,"Ġjalepenos":12074,"Ġcitric":12075,"MPORT":12076,"Brandy":12077,"Ġshredding":12078,"Ġzucchinis":12079,"Ġcordial":12080,"Ġjamaican":12081,"Ġparboiled":12082,"irthday":12083,"MPORTANT":12084,"!),":12085,"115":12086,"Absolut":12087,"COOK":12088,"Fix":12089,"LT":12090,"Mid":12091,"Never":12092,"Pim":12093,"Purpose":12094,"Radish":12095,"Rubbed":12096,"SH":12097,"Szechuan":12098,"Tzatziki":12099,"UN":12100,"ander":12101,"fic":12102,"fla":12103,"gn":12104,"hind":12105,"nese":12106,"oetida":12107,"rick":12108,"sea":12109,"still":12110,"torn":12111,"wax":12112,"zip":12113,"Ġcin":12114,"Ġareas":12115,"Ġsold":12116,"Ġsangria":12117,"esa":12118,"Ġ116":12119,"Ġmedi":12120,"Ġwatt":12121,"Ġinverted":12122,"Ġhis":12123,"Ġhines":12124,"ĠSir":12125,"ĠSanta":12126,"ĠCity":12127,"ĠCrinkles":12128,"asagne":12129,"Ġpeper":12130,"ddy":12131,"Ġoverwork":12132,"ĠMil":12133,"ĠRipe":12134,"ĠRaspberries":12135,"ĠDis":12136,"ĠStretch":12137,"oming":12138,"Ġreduction":12139,"ĠMixing":12140,"ĠLog":12141,"immons":12142,"ĠOh":12143,"ealed":12144,"Ġmeatless":12145,"ĠEss":12146,"Ġpourable":12147,"Ġenhan":12148,"issi":12149,"Chip":12150,"ĠShot":12151,"Ġraised":12152,"ported":12153,"Ġmelty":12154,"Ġpopovers":12155,"Ġnose":12156,"Ġpreferences":12157,"rition":12158,"Ġlastly":12159,"potato":12160,"ĠMock":12161,"These":12162,"Shir":12163,"Ġdecorated":12164,"recchiette":12165,"ĠBarilla":12166,"Antipasto":12167,"ĠCrabmeat":12168,"ĠCOLD":12169,"ĠWorks":12170,"ĠSecrets":12171,"OUT":12172,"Ġcollins":12173,"ĠPortuguese":12174,"Ġsupreme":12175,"ASED":12176,"Ġmarkets":12177,"ĠBagu":12178,"ĠPassion":12179,"olognese":12180,"ĠHearty":12181,"ĠPortobello":12182,"ĠLimeade":12183,"Ġripen":12184,"Ġinteg":12185,"imichang":12186,"layer":12187,"Shepherd":12188,"Ġsufficiently":12189,"Israeli":12190,"ĠSnickerdoodles":12191,"Ġsupermarket":12192,"Ġaprox":12193,"Ġamaretti":12194,"Ġseashell":12195,"Ġexpand":12196,"Ġtrimming":12197,"Flavored":12198,"strawberries":12199,"Ġimagination":12200,"Ġcirculation":12201,"ĠCrystal":12202,"Ġhabaneros":12203,",\\":12204,"33":12205,"Crescent":12206,"COL":12207,"Famous":12208,"Garb":12209,"Gorgonzola":12210,"Kelly":12211,"Mad":12212,"Pollo":12213,"Sin":12214,"baby":12215,"gus":12216,"slic":12217,"sandwich":12218,"tor":12219,"turkey":12220,"uim":12221,"vable":12222,"wurst":12223,"zest":12224,"inos":12225,"Ġsip":12226,"Ġbla":12227,"Ġouzo":12228,"Ġpi":12229,"Ġpt":12230,"Ġmit":12231,"Ġmudd":12232,"poo":12233,"ann":12234,"Ġlav":12235,"orida":12236,"Ġcoco":12237,"ĠSO":12238,"ĠSaturated":12239,"abob":12240,"ĠCrimp":12241,"ĠCosmo":12242,"Ġoverc":12243,"Ġoverly":12244,"ĠMother":12245,"ĠTies":12246,"Ġsml":12247,"ĠDRY":12248,"ayan":12249,"lies":12250,"colli":12251,"ĠGanache":12252,"ĠLaw":12253,"ĠHaddock":12254,"cca":12255,"achines":12256,"Ġprote":12257,"shrimp":12258,"ewish":12259,"Ġhighly":12260,"acy":12261,"ĠYumm":12262,"ĠJamaican":12263,"ĠGrab":12264,"Ġcroquettes":12265,"ĠTossed":12266,"ĠGrilling":12267,"Ġseaweed":12268,"partment":12269,"anched":12270,"Ġgob":12271,"Ġcaramelizes":12272,"scallions":12273,"Ġbare":12274,"atappi":12275,"Saffron":12276,"ĠSecond":12277,"ĠSkor":12278,"Ġguar":12279,"ĠLeaving":12280,"approximate":12281,"Salisbury":12282,"Ġdistributing":12283,"clun":12284,"ĠBliss":12285,"ĠBlanc":12286,"ĠConfectioners":12287,"ĠTwice":12288,"Ġpersimmons":12289,"ĠPackage":12290,"Ġpkgs":12291,"Ġrequires":12292,"chiote":12293,"ĠSunflower":12294,"Ġstoneware":12295,"ĠMcIntosh":12296,"Ġharder":12297,"ETH":12298,"Ġaccompanied":12299,"ĠMarket":12300,"Ġbratwursts":12301,"ĠPicnic":12302,"Ġeagle":12303,"Ġextras":12304,"Ġflexible":12305,"Ġcardamon":12306,"ĠHowever":12307,"ĠSUGAR":12308,"Ġovernite":12309,"cleaned":12310,"ĠChestnuts":12311,"ĠCHEESE":12312,"HICKEN":12313,"atatouille":12314,"Amaretto":12315,"Bay":12316,"Brien":12317,"Bavarian":12318,"Cam":12319,"Dan":12320,"Drain":12321,"Halloween":12322,"Keep":12323,"Mam":12324,"Made":12325,"Mac":12326,"Pie":12327,"Pier":12328,"Que":12329,"Sue":12330,"Sauce":12331,"Tea":12332,"bu":12333,"bit":12334,"bring":12335,"cast":12336,"ique":12337,"jou":12338,"measure":12339,"edged":12340,"Ġpiles":12341,"Ġmarshm":12342,"ilize":12343,"Ġfore":12344,"almond":12345,"Ġlie":12346,"cels":12347,"Ġhidden":12348,"ĠSer":12349,"ĠSch":12350,"ĠSerrano":12351,"ĠPina":12352,"ĠPaso":12353,"ĠBa":12354,"ĠCoca":12355,"resist":12356,"ĠMean":12357,"ĠIS":12358,"ĠFav":12359,"ĠWHI":12360,"beral":12361,"ĠChan":12362,"ĠChess":12363,"ĠHersheys":12364,"cov":12365,"Ġseasonal":12366,"Ġsofrito":12367,"Ġextravirgin":12368,"ĠEqu":12369,"Ġbaggies":12370,"Ġcrumbed":12371,"ĠReduced":12372,"ĠShots":12373,"angles":12374,"Ġstripped":12375,"arbucks":12376,"issolved":12377,"vocados":12378,"Ġbook":12379,"Ġinserting":12380,"orton":12381,"eproof":12382,"Ġworkable":12383,"Ġgoblets":12384,"Ġreturns":12385,"185":12386,"tails":12387,"Step":12388,"cookie":12389,"ĠUnsweetened":12390,"ĠRecipes":12391,"Ġincorpor":12392,"...)":12393,"recommend":12394,"ĠReuben":12395,"Ġreheating":12396,"udy":12397,"Ġgiant":12398,"ELVE":12399,"ALLY":12400,"Ġinterior":12401,"Ġtongue":12402,"Polynesian":12403,"Ġcountertop":12404,"ĠCheers":12405,"Diet":12406,"Ġsmells":12407,"Ġclinging":12408,"ĠMadeira":12409,"Ġingedients":12410,"ĠDIRE":12411,"Ġgingersnaps":12412,"Paprika":12413,"Ġlatkes":12414,"Ġpenet":12415,"Ġblistered":12416,"Ġgumdrops":12417,"Ġarranging":12418,"ĠHillshire":12419,"ĠTartlets":12420,"ĠMARIN":12421,"ĠIncorporate":12422,"issippi":12423,"38":12424,"420":12425,"Au":12426,"Ben":12427,"Bill":12428,"Elegant":12429,"GH":12430,"Hal":12431,"How":12432,"Morning":12433,"Oyster":12434,"QU":12435,"TE":12436,"TURE":12437,"jap":12438,"lly":12439,"lie":12440,"melt":12441,"oze":12442,"she":12443,"tem":12444,"Ġeg":12445,"Ġcraft":12446,"Ġaverage":12447,"Ġbal":12448,"Ġbur":12449,"Ġbad":12450,"Ġlad":12451,"Ġgizz":12452,"Ġchallah":12453,"oush":12454,"ĠSou":12455,"ĠSince":12456,"ĠSchnitzel":12457,"ĠCour":12458,"iser":12459,"Ġunheated":12460,"Ġunti":12461,"Ġuntoasted":12462,"ĠPrego":12463,"ĠPistachios":12464,"tops":12465,"ĠBill":12466,"ĠBubble":12467,"ĠBird":12468,"ĠBRO":12469,"ĠBURN":12470,"ols":12471,"ĠCognac":12472,"Ġoverflow":12473,"ĠMaking":12474,"ĠTHIS":12475,"ĠRigatoni":12476,"vence":12477,"Ġlargest":12478,"Ġvan":12479,"Ġspare":12480,"ĠFL":12481,"Ġev":12482,"Ġele":12483,"Ġbechamel":12484,"Ġsmart":12485,"ĠDig":12486,"ĠDifferent":12487,"ifter":12488,"ĠLAYER":12489,"coat":12490,"Ġexample":12491,"eebler":12492,"uffing":12493,"ulie":12494,"anda":12495,"perial":12496,"Ġleak":12497,"naise":12498,"Ġloves":12499,"ennes":12500,"Ġoccasionaly":12501,"Chive":12502,"Chilli":12503,"acific":12504,"Ġ340":12505,"ĠYOU":12506,"Ġresting":12507,"Ġscalloped":12508,"ĠCarolina":12509,"ĠUnsalted":12510,"ĠMoon":12511,"eeknight":12512,"Ġvers":12513,"Ġsoaks":12514,"Ġelbows":12515,"Ġcycles":12516,"cupine":12517,"Smooth":12518,"OWAVE":12519,"phis":12520,"Ġmicrowaved":12521,"ĠRancheros":12522,"Skinny":12523,"ĠMICR":12524,"Crusty":12525,"ĠColor":12526,"ĠMIXTURE":12527,"Ġspecialty":12528,"Choco":12529,"GEST":12530,"Ġshows":12531,"Ġaubergines":12532,"ĠShallot":12533,"Ġguessing":12534,"refined":12535,"Ġpoaching":12536,"Ġcourgette":12537,"ĠSuey":12538,"Cracker":12539,"ĠCRUST":12540,"Ġslashes":12541,"Ġnapkins":12542,"Ġgalang":12543,"ĠCreate":12544,"Refrigerator":12545,"Smokey":12546,"Ġcasseroles":12547,"Ġ:-).":12548,"Ġstreaky":12549,"Ġrashers":12550,"Ġstoned":12551,"Grapefruit":12552,"ĠMICROWAVE":12553,")!":12554,"BAKE":12555,"Campfire":12556,"Dog":12557,"Drunken":12558,"Easter":12559,"He":12560,"Jerk":12561,"Mimi":12562,"Nuts":12563,"Pillsbury":12564,"Pinto":12565,"Rest":12566,"Ravioli":12567,"Sup":12568,"Sand":12569,"Tun":12570,"Tip":12571,"bar":12572,"bie":12573,"fout":12574,"syrup":12575,"taste":12576,"ulet":12577,"ÂĴ":12578,"Ġcukes":12579,"Ġteas":12580,"Ġtad":12581,"Ġahi":12582,"Ġbush":12583,"Ġmm":12584,"Ġwedged":12585,"atile":12586,"ali":12587,"Ġdiss":12588,"Ġganache":12589,"ora":12590,"orage":12591,"ppa":12592,"ĠSlash":12593,"ĠPts":12594,"ĠPlain":12595,"ĠBit":12596,"ĠAmbrosia":12597,"Ġpeppered":12598,"ĠMen":12599,"ĠMorsels":12600,"ĠIMPORTANT":12601,"thi":12602,"thyme":12603,"ĠRegular":12604,"ammon":12605,"Ġrelax":12606,"Ġvalley":12607,"elloni":12608,"ĠFriend":12609,"ĠFocaccia":12610,"Ġstirfry":12611,"Ġcru":12612,"Ġbend":12613,"Ġsmal":12614,"ĠDivided":12615,"lier":12616,"Ġpad":12617,"stand":12618,"ĠSprink":12619,"ĠSpritzer":12620,"opian":12621,"oreen":12622,"ĠLouisiana":12623,"Ġblackstrap":12624,"ressed":12625,"ĠOk":12626,"ĠOle":12627,"ĠEs":12628,"Ġgreaseproof":12629,"Ġevening":12630,"ĠNest":12631,"kah":12632,"Ġslather":12633,"Ġ135":12634,"Ġlonghorn":12635,"Ġbanane":12636,"ttp":12637,"ĠVitamin":12638,"ĠVELVE":12639,"ĠShortening":12640,"ĠYolks":12641,"Ġthats":12642,"Ġanyway":12643,"Ġknorr":12644,"merge":12645,"Ġfact":12646,"Cover":12647,"Ġstraining":12648,"ruction":12649,"ucca":12650,"ĠStewart":12651,"ĠMarie":12652,"Ġtexas":12653,"Ġentree":12654,"koe":12655,"ĠDOLE":12656,"Ġmeasurement":12657,"ĠConfetti":12658,"Ġlebanese":12659,"mayonnaise":12660,"Ann":12661,"Freezer":12662,"ĠCaptain":12663,"ĠTBL":12664,"hydrated":12665,"OUS":12666,"Ġworms":12667,"ĠScratch":12668,"carrot":12669,"Sunshine":12670,"ETA":12671,"ĠBoneless":12672,"rosemary":12673,"ikelets":12674,"boiler":12675,"Ġmoments":12676,"gua":12677,"Ġbrickle":12678,"Ġsubmerge":12679,"ĠEverything":12680,"sonville":12681,"Ġkiwifruit":12682,"ĠRelleno":12683,"ĠCombined":12684,"Ġsettings":12685,"errific":12686,"Ġclementines":12687,"Ġcrimini":12688,"Incredible":12689,"Ġcresent":12690,"Ġwiped":12691,"Ġskillets":12692,"ĠOptions":12693,"ĠCycle":12694,"covado":12695,"&#":12696,"260":12697,"://":12698,"AP":12699,"Burger":12700,"Cheat":12701,"CLE":12702,"Fool":12703,"Julie":12704,"Mother":12705,"Mulled":12706,"RU":12707,"Rigatoni":12708,"Salted":12709,"bi":12710,"blue":12711,"break":12712,"dip":12713,"fc":12714,"marin":12715,"reath":12716,"table":12717,"wan":12718,"zan":12719,"ĠâĢ":12720,"Ġclaw":12721,"Ġtandoori":12722,"Ġachiote":12723,"Ġsq":12724,"esn":12725,"iling":12726,"Ġfri":12727,"Ġfib":12728,"atelle":12729,"Ġduncan":12730,"Ġchute":12731,"Ġhungry":12732,"Ġholder":12733,"ĠCAN":12734,"ĠCHICKEN":12735,"oti":12736,"ioneer":12737,"ĠBoy":12738,"ĠBOT":12739,"ĠAB":12740,"Ġchosen":12741,"Ġthinning":12742,"ido":12743,"thigh":12744,"ĠTag":12745,"ĠRolo":12746,"ĠRainbow":12747,"allot":12748,"ĠFix":12749,"mbe":12750,"Ġyum":12751,"ays":12752,"ĠIna":12753,"liatelle":12754,"ipino":12755,"ĠChunks":12756,"ĠLOT":12757,"ĠLibby":12758,"ĠHope":12759,"ĠHalloween":12760,"ĠCookbook":12761,"Ġkef":12762,"antry":12763,"Ġcornich":12764,"Ġliberal":12765,"Ġprevents":12766,"ĠSalami":12767,"ĠSauvignon":12768,"Ġprovence":12769,"Ġpinwheels":12770,"Ġslabs":12771,"Chuck":12772,"Ġcompletly":12773,"pork":12774,"indy":12775,"Ġperhaps":12776,"ĠChilled":12777,"ĠBeverage":12778,"ĠCareful":12779,"Ġconsistent":12780,"Ġswell":12781,"ĠFlounder":12782,"Ġozs":12783,"Ġcrema":12784,"Ġscooping":12785,"iblet":12786,"elvety":12787,"Ġamongst":12788,"inguica":12789,"ĠSteakhouse":12790,"ĠCrustless":12791,"Ġshortcrust":12792,"leaves":12793,"mans":12794,"Reduced":12795,"Ingredi":12796,"phabet":12797,"ĠPacket":12798,"ELY":12799,"ĠLaughing":12800,"eburn":12801,"Ġgroats":12802,"Ġsuace":12803,"Ġfeeling":12804,"Brunch":12805,"Ġtblsps":12806,"Waldorf":12807,"ĠSurround":12808,"Ġpouches":12809,"Lentils":12810,"ĠJarlsberg":12811,"Ġspaces":12812,"atwurst":12813,"Ġcigar":12814,"Bloody":12815,"ĠWonder":12816,"ENTLY":12817,"ĠSuggested":12818,"Ġshimmers":12819,"ĠFrappe":12820,"Ġmuscovado":12821,"Papaya":12822,"Ġassembled":12823,"Ġpreviously":12824,"mushrooms":12825,"ĠSUGGEST":12826,"pecans":12827,"riched":12828,"Pressure":12829,"Scrumptious":12830,"ĠDIRECTIONS":12831,"thiopian":12832,"ĠVELVEETA":12833,"!\"":12834,"31":12835,"Acorn":12836,"Baking":12837,"Bag":12838,"Cur":12839,"Dessert":12840,"Gingersn":12841,"Nanny":12842,"Pudding":12843,"Plain":12844,"RI":12845,"Roll":12846,"SP":12847,"Sriracha":12848,"Turn":12849,"TIL":12850,"Tandoori":12851,"Using":12852,"UFF":12853,"bite":12854,"breas":12855,"bble":12856,"body":12857,"drop":12858,"gles":12859,"hour":12860,"oC":12861,"tablespoon":12862,"Ġcul":12863,"Ġchew":12864,"Ġtiger":12865,"Ġsatay":12866,"Ġbing":12867,"Ġovals":12868,"Ġmature":12869,"Ġfuji":12870,"unce":12871,"Ġdistur":12872,"Ġchamomile":12873,"oula":12874,"Ġ370":12875,"ourite":12876,"ĠPico":12877,"usal":12878,"uster":12879,"ickle":12880,"umble":12881,"Ġpepperidge":12882,"olk":12883,"Ġsago":12884,"gher":12885,"Ġ420":12886,"ĠMEL":12887,"ĠTang":12888,"ĠRubbed":12889,"Ġval":12890,"ĠFac":12891,"Ġbehind":12892,"ĠStem":12893,"Ġmilks":12894,"sti":12895,"Ġclings":12896,"ĠGi":12897,"Ġbac":12898,"odoro":12899,"Ġpastas":12900,"Ġzing":12901,"iches":12902,"ĠBroccolini":12903,"ĠKum":12904,"Ġcompl":12905,"Ġcontains":12906,"ĠTurning":12907,"ĠBreadcrumbs":12908,"Ġcactus":12909,"ĠCristo":12910,"ĠCarve":12911,"ĠPressure":12912,"Ġcapellini":12913,"ermuda":12914,"scant":12915,"deveined":12916,"Ġbecoming":12917,"Ġsnugly":12918,"ĠCannellini":12919,"INA":12920,"ĠProcessor":12921,"That":12922,"apprx":12923,"Ġrotary":12924,"minute":12925,"ĠAnise":12926,"oooo":12927,"Ġtriangular":12928,"Ġshortcake":12929,"Ġsolidify":12930,"Cornflake":12931,"mayo":12932,"arbequ":12933,"Ġdrumstick":12934,"Ġzests":12935,"Ġhorizontal":12936,"Ġpassing":12937,"rogen":12938,"Ġshoestring":12939,"Ġsuet":12940,"angerine":12941,"Ġborax":12942,"ĠPerrins":12943,"Ġpricked":12944,"Guilt":12945,"ĠRoughy":12946,"ĠREMO":12947,"Ġretaining":12948,"ĠUNTIL":12949,"Ġtumbler":12950,"Reese":12951,"Reuben":12952,"Ġspecific":12953,"Ġoctopus":12954,"zaar":12955,"cooled":12956,"ĠVii":12957,"ylvan":12958,"uckleberries":12959,"Ġimproves":12960,"Ġneatly":12961,"Ġtrimmings":12962,"Ġincreased":12963,"ĠSuggestions":12964,"Popcorn":12965,"Ġparticularly":12966,"Ġcrowding":12967,"Ġreleases":12968,"ĠFREE":12969,"ĠDaiquiri":12970,"Ġteabags":12971,"ĠKrispie":12972,"Ġqts":12973,"Ġcrisper":12974,"ĠTwinkies":12975,"fraid":12976,"Ġjuniper":12977,"Ġinstructed":12978,"acuum":12979,"Restaurant":12980,"Ġdisturb":12981,")-":12982,",,":12983,"Ab":12984,"Australian":12985,"Gazpacho":12986,"Res":12987,"Sandwich":12988,"Sassy":12989,"VID":12990,"Welsh":12991,"bottled":12992,"double":12993,"eck":12994,"gogi":12995,"jonnaise":12996,"lle":12997,"lion":12998,"lbs":12999,"oved":13000,"paste":13001,"rabi":13002,"takes":13003,"yro":13004,"zones":13005,"Ã±":13006,"Ġchee":13007,"Ġtab":13008,"Ġsel":13009,"onc":13010,"Ġbother":13011,"Ġove":13012,"Ġmc":13013,"Ġwar":13014,"enuts":13015,"aly":13016,"although":13017,"anout":13018,"Ġdandelion":13019,"Ġgenoa":13020,"orted":13021,"organic":13022,"Ġhibiscus":13023,"ĠCu":13024,"ĠCON":13025,"ĠCowboy":13026,"Ġunit":13027,"Ġuncle":13028,"Ġunrefined":13029,"Ġ390":13030,"ĠPrawn":13031,"terior":13032,"chill":13033,"ĠBarb":13034,"ĠBartlett":13035,"ĠBenedict":13036,"ĠAvocados":13037,"ete":13038,"Ġchopp":13039,"Ġritz":13040,"Ġovers":13041,"ĠTurkish":13042,"Ġspagett":13043,"ĠFettuccini":13044,"outs":13045,"ĠWish":13046,"oma":13047,"ĠGal":13048,"ĠChild":13049,"ĠLean":13050,"ĠLET":13051,"ĠHabanero":13052,"ĠHINT":13053,"ardini":13054,"Ġtepid":13055,"ĠOJ":13056,"Ġ151":13057,"Ġprechopped":13058,"lowest":13059,"agioli":13060,"ĠEyed":13061,"ĠEmeril":13062,"Ġpinwheel":13063,"ĠNapa":13064,"Ġturner":13065,"Ġapplewood":13066,"ĠShiitake":13067,"Ġcompact":13068,"Ġlitt":13069,"ĠForce":13070,"spinach":13071,"split":13072,"ĠButterfinger":13073,"ĠBrowned":13074,"Ġaccomm":13075,"whip":13076,"izzelle":13077,"faced":13078,"Ġexception":13079,"ĠCaramels":13080,"ermicelli":13081,"Ġdoubling":13082,"Ġdrips":13083,"ĠProsecco":13084,"Ġmanis":13085,"Root":13086,"Ġmadele":13087,"mming":13088,"ulti":13089,"ONE":13090,"Ġelder":13091,"Scandinavian":13092,"ARN":13093,"Canned":13094,"ikka":13095,"chiko":13096,"Ġsnaps":13097,"ĠSubmerge":13098,"Ġflowerettes":13099,"Ġinsure":13100,"Ġstacks":13101,"joles":13102,"Upside":13103,"Ġplumped":13104,"pieces":13105,"Ġspiciness":13106,"Ġwidthwise":13107,"ĠCollins":13108,"ĠQue":13109,"Ġincreasing":13110,"Ġgumdrop":13111,"ĠHelper":13112,"length":13113,"Ġrasins":13114,"Picnic":13115,"Ġutens":13116,"Ġasafoetida":13117,"alafel":13118,"Ġmentioned":13119,"slices":13120,"Ġmarshmellow":13121,"ĠMARINADE":13122,"ennessee":13123,"Ingredient":13124,"ĠMELT":13125,"ĠREMOVE":13126,"Aussie":13127,"Da":13128,"Hard":13129,"Ju":13130,"Jen":13131,"Jim":13132,"Jello":13133,"Kn":13134,"Lady":13135,"MY":13136,"Mi":13137,"Mr":13138,"Nect":13139,"Pb":13140,"Par":13141,"Sopa":13142,"VP":13143,"Watch":13144,"aotes":13145,"brush":13146,"brand":13147,"dill":13148,"how":13149,"microwave":13150,"nitas":13151,"tbsp":13152,"wear":13153,"yan":13154,"zn":13155,"inder":13156,"Ġcu":13157,"Ġafraid":13158,"Ġot":13159,"Ġmol":13160,"Ġmother":13161,"enz":13162,"alat":13163,"Ġgrow":13164,"Ġgills":13165,"Ġhuckleberries":13166,"vegg":13167,"ĠParchment":13168,"ĠPoultry":13169,"ĠPollo":13170,"lam":13171,"topping":13172,"Ġforest":13173,"ĠBatch":13174,"Ġthro":13175,"Ġoverbrowning":13176,"ĠMalted":13177,"ĠMorgan":13178,"ĠTM":13179,"ĠTow":13180,"ĠTAB":13181,"ĠRewarm":13182,"Ġcreaminess":13183,"mboli":13184,"Ġbeep":13185,"Ġbeeps":13186,"sted":13187,"Ġ57":13188,"Ġreman":13189,"ĠGro":13190,"ĠGriddle":13191,"ctory":13192,"ĠHull":13193,"coconut":13194,"Ġpackager":13195,"ults":13196,"leye":13197,"ĠEuropean":13198,"ĠTostitos":13199,"Ġsprays":13200,"ival":13201,"Ġliquidy":13202,"Ġwalk":13203,"ĠKr":13204,"ĠThousand":13205,"igs":13206,"igan":13207,"Ġcoarsly":13208,"ortment":13209,"Ġpreferable":13210,"ĠCaraway":13211,"ritish":13212,"Ġgelato":13213,"amping":13214,"Ġpresliced":13215,"Ġequals":13216,"Ġhappy":13217,"Carne":13218,"mmmm":13219,"ĠIcebox":13220,"Ġguide":13221,"Ġfoams":13222,"uki":13223,"ĠFlatbread":13224,"ĠCracked":13225,"Ġflavouring":13226,"oba":13227,"ĠExpress":13228,"Grandpa":13229,"Ġcurdled":13230,"Marinara":13231,"ĠPralines":13232,"ansas":13233,"ĠCompany":13234,"Ġideas":13235,"ĠPhilly":13236,"Ġsupposed":13237,"OOD":13238,"Scallops":13239,"acting":13240,"Ġpassionfruit":13241,"Ġswirled":13242,"Ġacidity":13243,"Protein":13244,"---.":13245,"ĠFraiche":13246,"Ġtostadas":13247,"seasoning":13248,"Ġintense":13249,"coarse":13250,"Brandied":13251,"Ġnapkin":13252,"Frosty":13253,"Frosted":13254,"ĠBlossoms":13255,"Ġconventional":13256,"ĠGRILL":13257,"leneck":13258,"Ġproblem":13259,"ĠCAREFULLY":13260,"paprika":13261,"argento":13262,"Ġgalangal":13263,"Ġspagetti":13264,"Ġaccommodate":13265,"Ac":13266,"Ber":13267,"Cup":13268,"Ear":13269,"Flax":13270,"Giant":13271,"Mince":13272,"Prawn":13273,"Polenta":13274,"Set":13275,"Sliced":13276,"Too":13277,"cture":13278,"cium":13279,"golden":13280,"hold":13281,"luski":13282,"making":13283,"rind":13284,"sn":13285,"soda":13286,"take":13287,"uzz":13288,"ying":13289,"iners":13290,"Ġajar":13291,"Ġsle":13292,"Ġsatis":13293,"erusal":13294,"ede":13295,"Ġblitz":13296,"Ġfantastic":13297,"ataki":13298,"roast":13299,"anna":13300,"Ġdries":13301,"Ġgifts":13302,"lex":13303,"Ġhope":13304,"ĠSunday":13305,"ĠSuccotash":13306,"ĠCas":13307,"ises":13308,"ixie":13309,"chips":13310,"cherry":13311,"okneck":13312,"usy":13313,"ĠBak":13314,"ĠBolognese":13315,"ugget":13316,"Ġchoosing":13317,"olored":13318,"Ġovertop":13319,"ĠMUST":13320,"thur":13321,"thwise":13322,"ĠTy":13323,"ĠTru":13324,"ĠTeddy":13325,"Ġname":13326,"Ġnibs":13327,"ĠRedd":13328,"ĠRoyal":13329,"ĠRiver":13330,"illow":13331,"ĠFan":13332,"ĠDunk":13333,"Ġjudge":13334,"Ġmilky":13335,"ĠGin":13336,"ĠLouis":13337,"orns":13338,"Ġconst":13339,"Ġexpose":13340,"Ġexterior":13341,"ĠRemoulade":13342,"ulph":13343,"rooms":13344,"ĠOcc":13345,"ĠHeath":13346,"mple":13347,"Ġsourcream":13348,"ĠEdit":13349,"Ġbases":13350,"105":13351,"Ġlox":13352,"Ġdressings":13353,"Ġchills":13354,"Ġpreheats":13355,"Ġscapes":13356,"icrowaved":13357,"Ġtempeh":13358,"ĠVal":13359,"ĠCreamer":13360,"ĠShakes":13361,"ubby":13362,"Ġdeer":13363,"istro":13364,"centrate":13365,"Ġbouillion":13366,"Ġincis":13367,"ernel":13368,"ĠCornstarch":13369,"Ġexcessive":13370,"Stick":13371,"Coco":13372,"oulos":13373,"Carol":13374,"ĠLover":13375,"Ġwouldn":13376,"Ġcrossways":13377,"voured":13378,"mixer":13379,"ĠAnjou":13380,"ĠMarz":13381,"Ġshortning":13382,"Ġimported":13383,"Ġpiercing":13384,"***.":13385,"ĠFactory":13386,"Ġparcel":13387,"ĠBlt":13388,"Ġstriped":13389,"udes":13390,"Ancho":13391,"ketchup":13392,"Ġflakey":13393,"ĠLivers":13394,"Ġstringy":13395,"unsalted":13396,"!!!!":13397,"Flank":13398,"crusted":13399,"Ġsilpat":13400,"Ġsauteeing":13401,"Heart":13402,"Calico":13403,"alentine":13404,"Ġmarked":13405,"aisse":13406,"Ġbuttons":13407,"ĠSPAM":13408,"ĠSPOON":13409,"ĠStrip":13410,"skinless":13411,"ĠRealtor":13412,"zechwan":13413,"salsa":13414,"salata":13415,"ĠYorkshire":13416,"Ġmacerate":13417,"Ġfarmer":13418,"ĠTapas":13419,"Ġmajor":13420,"Ġmesclun":13421,"ĠMerlot":13422,"********":13423,"Ġamaranth":13424,"ĠJulienne":13425,"Ġhappen":13426,"shelled":13427,"ĠCheeses":13428,"Belgian":13429,"Gramma":13430,"ĠEssence":13431,"imichangas":13432,"COLATE":13433,"Ġlavash":13434,"Ġprotect":13435,"Ġgoblet":13436,"Ġincorporating":13437,"fouti":13438,"arbequed":13439,"ardiniera":13440,"erusalem":13441,"!(":13442,"*,":13443,",(":13444,"Bring":13445,"Cod":13446,"Custard":13447,"DER":13448,"Ethiopian":13449,"FIX":13450,"Kidney":13451,"Kathy":13452,"LL":13453,"Mild":13454,"Monster":13455,"Puerto":13456,"Sus":13457,"Season":13458,"Sangria":13459,"br":13460,"brien":13461,"mango":13462,"mouth":13463,"natural":13464,"uoc":13465,"wave":13466,"ya":13467,"zucchini":13468,"inous":13469,"Ġawesome":13470,"Ġsing":13471,"err":13472,"esse":13473,"Ġbison":13474,"Ġpaso":13475,"Ġfarina":13476,"Ġina":13477,"Ġinject":13478,"pol":13479,"posing":13480,"porous":13481,"Ġlip":13482,"ited":13483,"Ġdie":13484,"oulet":13485,"abin":13486,"isan":13487,"geon":13488,"Ġunt":13489,"teria":13490,"rage":13491,"ĠBug":13492,"ĠBuck":13493,"ĠAS":13494,"rijoles":13495,"Ġthins":13496,"Ġthought":13497,"ĠMaggi":13498,"ĠTW":13499,"ĠTabbouleh":13500,"Ġnests":13501,"ĠRare":13502,"ĠRabe":13503,"ĠRachael":13504,"Ġsham":13505,"ĠFagioli":13506,"ĠDurkee":13507,"ĠDoreen":13508,"Ġfreshness":13509,"Ġ550":13510,"Ġroe":13511,"Ġash":13512,"ĠGerm":13513,"ĠChia":13514,"ĠHead":13515,"rinkled":13516,"cocoa":13517,"Ġkahlua":13518,"Ġkelp":13519,"Ġtenderize":13520,"monia":13521,"essel":13522,"agger":13523,"ĠEAT":13524,"Ġbasin":13525,"ĠSaucy":13526,"ĠToddy":13527,"Ġnec":13528,"ĠNes":13529,"Ġtorch":13530,"ĠUP":13531,"ĠThanks":13532,"Ġslows":13533,"Ġknox":13534,"Ġfaced":13535,"Ġarm":13536,"Ġpattie":13537,"Spiked":13538,"ussets":13539,"forced":13540,"blers":13541,"ounces":13542,"Ġburners":13543,"Ġmanag":13544,"ettone":13545,"iously":13546,"ĠCanapes":13547,"ĠSquirt":13548,"Ġbulgar":13549,"ĠNutty":13550,"ĠTriangles":13551,"***":13552,"Small":13553,"Ġpraline":13554,"Ġseperately":13555,"ĠCleaner":13556,"Ġcavatappi":13557,"Peppery":13558,"Ġdefl":13559,"Ġdefinitely":13560,"Ġavoiding":13561,"Ġzester":13562,"Ġshock":13563,"ĠNewman":13564,"hydrates":13565,"raditionally":13566,"ĠSubstit":13567,"Ġsilky":13568,"Crabmeat":13569,"ĠPaper":13570,"ĠPaprik":13571,"Ġdecaf":13572,"ĠManicotti":13573,"Ġammonia":13574,"ĠButt":13575,"ĠZiplock":13576,"ĠSPLEN":13577,"Ġsubsit":13578,"Barefoot":13579,"Faced":13580,"ĠClamato":13581,"ĠSALT":13582,"ĠTaters":13583,"Ġbraunschweiger":13584,"Ġocean":13585,"ISH":13586,"Ġbakers":13587,"Ġdelicately":13588,"Persimmon":13589,"ĠEdamame":13590,"Portobello":13591,"Ġpackaging":13592,"iquant":13593,"Ġsignal":13594,"ĠSuggestion":13595,"Mississippi":13596,"Ġprefers":13597,"Karen":13598,"Ġdaily":13599,"Coriander":13600,"ĠSpirals":13601,"ĠGLAZE":13602,"Ġhotdogs":13603,"Romaine":13604,"Ġrandomly":13605,"Ġovercrowd":13606,"ĠBROIL":13607,"Tunisian":13608,"gherita":13609,"ylvania":13610,"Ġmcintosh":13611,"ĠSPLENDA":13612,"240":13613,"Am":13614,"Ambrosia":13615,"Diced":13616,"Foil":13617,"Fiery":13618,"Kids":13619,"Linguini":13620,"Lisa":13621,"Pri":13622,"Pom":13623,"Rustic":13624,"Royal":13625,"Solo":13626,"Vodka":13627,"Vinegar":13628,"Western":13629,"center":13630,"cabbage":13631,"iq":13632,"kets":13633,"sylvania":13634,"tanes":13635,"ule":13636,"var":13637,"Ġ$":13638,"Ġtons":13639,"Ġbes":13640,"Ġbartlett":13641,"Ġtoge":13642,"atini":13643,"almost":13644,"Ġlinguica":13645,"itian":13646,"italian":13647,"Ġdips":13648,"Ġdots":13649,"Ġdanish":13650,"ĠSter":13651,"ĠSem":13652,"ĠSip":13653,"ĠSand":13654,"ĠStill":13655,"ĠSzechuan":13656,"ĠSchool":13657,"ĠCast":13658,"Ġunwhipped":13659,"ĠPL":13660,"ĠPoulos":13661,"ract":13662,"ĠBet":13663,"ĠBud":13664,"ĠBEN":13665,"ĠBASE":13666,"Ġoffer":13667,"Ġsauvignon":13668,"Ġoverpow":13669,"ĠMush":13670,"Ġgarbanzos":13671,"ĠTsp":13672,"ĠRip":13673,"ĠRag":13674,"Ġrehydrated":13675,"wny":13676,"Ġsputter":13677,"ĠFudgy":13678,"Ġcanwhole":13679,"Ġpantry":13680,"Ġjuic":13681,"stone":13682,"adella":13683,"Ġclou":13684,"Ġseen":13685,"Ġseep":13686,"ĠGENTLY":13687,"ĠChange":13688,"ĠLinguini":13689,"armite":13690,"Ġkaro":13691,"Ġ-----":13692,"iesling":13693,"Ġcaribbean":13694,"mex":13695,"Ġcloser":13696,"Ġraita":13697,"ĠOcean":13698,"Ġups":13699,"shakes":13700,"ivine":13701,"ennsylvania":13702,"Ġrimming":13703,"Ġhammer":13704,"ĠKo":13705,"ĠKir":13706,"ected":13707,"ĠShave":13708,"ĠShuck":13709,"Ġ78":13710,"ĠPebbles":13711,"Ġroasts":13712,"Ġcrookneck":13713,"ĠWhisking":13714,"mount":13715,"Ġcurve":13716,"Ġaccord":13717,"whipping":13718,"crumb":13719,"izzle":13720,"Ġfilo":13721,"Ġcaution":13722,"istency":13723,"Quiche":13724,"Sprinkle":13725,"rigio":13726,"Ġsunny":13727,"Ġindef":13728,"Ġtartness":13729,"Ġpresent":13730,"ĠZinfandel":13731,"There":13732,"Shake":13733,"rewed":13734,"atsu":13735,"additional":13736,"Ġshortly":13737,"orsch":13738,"Crisco":13739,"alami":13740,"ĠWatcher":13741,"ĠArborio":13742,"Momma":13743,"Ġnicoise":13744,"clear":13745,"Ġcastor":13746,"menian":13747,"ĠTwin":13748,"Ġrelatively":13749,"Most":13750,"Fruited":13751,"Brownies":13752,"Ġdefat":13753,"Ġassortment":13754,"ĠSunset":13755,"ĠSunshine":13756,"Ġfasten":13757,"Ġdampened":13758,"Ġearlier":13759,"Ġdecaff":13760,"Sunflower":13761,"Ġ****":13762,"ĠCorrect":13763,"Mexi":13764,"ĠOVERBAKE":13765,"ĠUNCLE":13766,"salad":13767,"ienna":13768,"Ġingrdients":13769,"ictor":13770,"titude":13771,"Ġdiamonds":13772,"ISP":13773,"ĠNonstick":13774,"ĠCheeseburgers":13775,"Ġbakery":13776,"Ġdigestive":13777,"Ġtrail":13778,"Ġindentations":13779,"Ġaltitudes":13780,"Ġpencil":13781,"ĠPimiento":13782,"ĠFingerling":13783,"Shortbread":13784,"Ġhappens":13785,"Johnny":13786,"juices":13787,"Ġclementine":13788,"Filet":13789,"ĠCHOCOLATE":13790,"ĠDaniel":13791,"Ġscraper":13792,"ĠAvoid":13793,"Alternatively":13794,"hlrabi":13795,"Ġglycerin":13796,"ĠPREPARE":13797,"Absolutely":13798,"ĠBaguette":13799,"Garban":13800,"Ġlittleneck":13801,"tanesca":13802,")).":13803,".;":13804,"EX":13805,"Ever":13806,"East":13807,"Hel":13808,"London":13809,"Mag":13810,"Miracle":13811,"MSG":13812,"NO":13813,"Nancy":13814,"Pret":13815,"Parsn":13816,"Purple":13817,"Round":13818,"Some":13819,"Salami":13820,"Try":13821,"Taste":13822,"Tony":13823,"Tahini":13824,"York":13825,"crock":13826,"every":13827,"fied":13828,"hole":13829,"juli":13830,"jelly":13831,"ns":13832,"pasta":13833,"ralo":13834,"yps":13835,"Ġream":13836,"eroll":13837,"Ġbrazil":13838,"Ġol":13839,"Ġmisture":13840,"Ġwear":13841,"Ġweather":13842,"Ġtobasco":13843,"atures":13844,"Ġlac":13845,"Ġdull":13846,"Ġdraft":13847,"Ġgem":13848,"ppine":13849,"Ġ260":13850,"ĠSuc":13851,"ĠCantaloupe":13852,"ĠCandies":13853,"Ġunthawed":13854,"Ġminu":13855,"ĠPhyllo":13856,"Ġpepp":13857,"chan":13858,"chops":13859,"iral":13860,"ĠBer":13861,"ĠBLEN":13862,"ughen":13863,"Ġsaltiness":13864,"ĠAhi":13865,"Ġchoices":13866,"ĠAdded":13867,"Ġbrocolli":13868,"ĠMag":13869,"ident":13870,"thaler":13871,"ĠToll":13872,"eller":13873,"ellas":13874,"ĠFabulous":13875,"mbu":13876,"mbay":13877,"Ġeyed":13878,"ĠDal":13879,"ĠDEL":13880,"ĠDilute":13881,"Ġgrab":13882,"grant":13883,"ĠStream":13884,"star":13885,"Ġgrounded":13886,"Ġdegress":13887,"opt":13888,"inks":13889,"colat":13890,"Ġlemony":13891,"bere":13892,"ĠHe":13893,"ĠHush":13894,"ods":13895,"odge":13896,"Ġkugel":13897,"antly":13898,"Ġveges":13899,"Ġalphabet":13900,"Ġcarve":13901,"panadas":13902,"Ġsmoothness":13903,"ĠSalisbury":13904,"esson":13905,"Ġgoldfish":13906,"Ġnotice":13907,"ĠWhipping":13908,"Ġmocha":13909,"Ġpapery":13910,"Ġmarinates":13911,"osed":13912,"ĠShaved":13913,"Ġcrispiness":13914,"ĠGarten":13915,"Ġcleaning":13916,"spicy":13917,"Ġanymore":13918,"ĠEnough":13919,"Ġwhenever":13920,"ĠRefresh":13921,"whites":13922,"Ġknot":13923,"Ġperch":13924,"130":13925,"Ġdissolving":13926,"Ġdonut":13927,"Ġlongest":13928,"erne":13929,"Ġmonkfish":13930,"Ġadapted":13931,"Ġmeduim":13932,"Ġinstruction":13933,"ĠTabascoTM":13934,"INS":13935,"ĠSwitch":13936,"oulis":13937,"ĠPatty":13938,"Ġblanco":13939,"rolls":13940,"ĠPlatter":13941,"Ġstrongly":13942,"Ġemmen":13943,"ĠDonuts":13944,"Ġskewered":13945,"pha":13946,"ĠAlternative":13947,"better":13948,"Ġcalling":13949,"Browned":13950,"Cucumbers":13951,"Ġgrown":13952,"Ġsuits":13953,"einated":13954,"ĠIsraeli":13955,"Ġjiggle":13956,"Ġrecommends":13957,"erdoodle":13958,"ĠPinot":13959,"ĠOVERCOOK":13960,"first":13961,"ĠPrior":13962,"Ġfrzn":13963,"achel":13964,"uvian":13965,"Happy":13966,"ĠBRAND":13967,"ĠGalliano":13968,"Ġsleeves":13969,"Ġbeautifully":13970,"Ġobtained":13971,"Philadelphia":13972,"Ġfleur":13973,"MPLE":13974,"ĠHandful":13975,"Ġrefreshing":13976,"www":13977,"Blender":13978,"Ġimprove":13979,"ĠChewies":13980,"Ġglutinous":13981,"ĠJulius":13982,"Limoncello":13983,"Tartar":13984,"Ġresistance":13985,"Ġblackening":13986,"ĠNorth":13987,"Muffins":13988,"Ġhomogen":13989,"Ġresidue":13990,"ĠPomodoro":13991,"Crumb":13992,"ĠNEST":13993,"ĠCroissant":13994,"ĠThumbprint":13995,"Ġpumpkins":13996,"Ġabsolutely":13997,"ougat":13998,"Ġcinammon":13999,"Shirley":14000,"ĠFavourite":14001,"Ġgizzards":14002,"Ġcruet":14003,"otija":14004,"thighs":14005,"Ġcornichons":14006,"Reserve":14007,"Ġremaning":14008,"ĠReddi":14009,"Ġmanageable":14010,"ralose":14011,"''":14012,".-":14013,"Bra":14014,"Bell":14015,"Buck":14016,"Crawfish":14017,"DS":14018,"DV":14019,"Dirty":14020,"Daddy":14021,"Espresso":14022,"Fin":14023,"Fall":14024,"Finger":14025,"Friendly":14026,"Hidden":14027,"IOUS":14028,"Killer":14029,"Me":14030,"Mich":14031,"OP":14032,"Pol":14033,"RAN":14034,"SC":14035,"San":14036,"Sub":14037,"Tap":14038,"Yoghurt":14039,"campbell":14040,"cluding":14041,"iro":14042,"je":14043,"lite":14044,"lers":14045,"pets":14046,"rub":14047,"tatas":14048,"wt":14049,"yogurt":14050,"Ġ{":14051,"Ġaid":14052,"erried":14053,"ested":14054,"Ġblo":14055,"Ġpresh":14056,"Ġphot":14057,"Ġmilled":14058,"Ġmeyer":14059,"Ġmachines":14060,"utral":14061,"Ġfile":14062,"Ġfudgy":14063,"Ġwrit":14064,"Ġwindow":14065,"Ġtoughen":14066,"poons":14067,"atian":14068,"alape":14069,"Ġdist":14070,"Ġgill":14071,"orra":14072,"Ġhum":14073,"Ġhurricane":14074,"ĠCUT":14075,"ĠCotija":14076,"isch":14077,"Ġ330":14078,"vein":14079,"ĠPark":14080,"lager":14081,"Ġpepe":14082,"ĠBirds":14083,"ĠBuds":14084,"ĠAut":14085,"ĠAlas":14086,"etta":14087,"rive":14088,"Ġstate":14089,"ĠCoated":14090,"Ġjerky":14091,"Ġbrought":14092,"ĠMain":14093,"ĠMalt":14094,"ĠMorton":14095,"ĠTzatziki":14096,"ĠRES":14097,"Ġspun":14098,"ĠFle":14099,"Ġyokes":14100,"ĠInspired":14101,"great":14102,"ĠWoman":14103,"Ġpotaotes":14104,"storage":14105,"Ġskilled":14106,"ĠLon":14107,"ĠLife":14108,"coffee":14109,"ube":14110,"Ġcong":14111,"Ġans":14112,"Ġexpan":14113,"Ġteh":14114,"Ġfines":14115,"Ġcrumpets":14116,"Ġ&,":14117,"Ġpinenuts":14118,"cannon":14119,"Ġnonalcoholic":14120,"Ġcanschopped":14121,"ĠVietnamese":14122,"osole":14123,"ĠKa":14124,"ĠKellogg":14125,"ĠKuchen":14126,"ĠShallow":14127,"Ġfirmness":14128,"Ġketjap":14129,"face":14130,"Ġboats":14131,"Ġsearing":14132,"Ġ355":14133,"ĠBoiling":14134,"intzes":14135,"Star":14136,"Stuffing":14137,"Ġ235":14138,"Ġmedley":14139,"ĠLemony":14140,"ĠQuart":14141,"notiq":14142,"ĠMojo":14143,"ĠNutrition":14144,"ĠMartha":14145,"uyper":14146,"ĠBlan":14147,"ĠBlast":14148,"Ġtrust":14149,"Anise":14150,"Ġsplashes":14151,"icali":14152,"eathery":14153,"Ġpassed":14154,"Ġdampen":14155,"ĠTbsps":14156,"Ġscald":14157,"Ġrigate":14158,"ĠCalvados":14159,"heres":14160,"cubes":14161,"thenware":14162,"IPE":14163,"Ġcrunchier":14164,"Souper":14165,"ĠJohnny":14166,"Paul":14167,"Ġfingertip":14168,"------------":14169,"Ġsucralose":14170,"ĠProvencal":14171,"Sheila":14172,"Ġestimate":14173,"Ġsouthwest":14174,"ĠOPEN":14175,"Ġmeringues":14176,"ĠParsnip":14177,"ĠUsed":14178,"Passion":14179,"Cracked":14180,"ĠNavy":14181,"Ġgooseberries":14182,"Ġdebris":14183,"Rotel":14184,"Ġliquefied":14185,"Baham":14186,"Aloha":14187,"Ġglazing":14188,"ĠTostadas":14189,"zipan":14190,"Ġintegrated":14191,"Ġblades":14192,"temperature":14193,"uletta":14194,"Ġcloudy":14195,"Garbanzo":14196,"Ġpreshredded":14197,"Ġexpansion":14198,",)":14199,".*.":14200,"245":14201,"?.":14202,"Bok":14203,"Back":14204,"Baba":14205,"Cour":14206,"Check":14207,"Caper":14208,"Drop":14209,"EE":14210,"Food":14211,"Farfalle":14212,"Georgia":14213,"Mark":14214,"Mike":14215,"Se":14216,"Simmer":14217,"Sec":14218,"Tor":14219,"UB":14220,"aing":14221,"dressing":14222,"dente":14223,"fan":14224,"farfalle":14225,"gs":14226,"generous":14227,"hire":14228,"hatt":14229,"iu":14230,"ipp":14231,"iener":14232,"ijo":14233,"kosher":14234,"ming":14235,"pnotiq":14236,"rds":14237,"vl":14238,"wip":14239,"}.":14240,"Ġie":14241,"Ġcat":14242,"Ġcabb":14243,"Ġcachaca":14244,"Ġtru":14245,"onally":14246,"edder":14247,"ealy":14248,"Ġpak":14249,"Ġpolish":14250,"Ġmood":14251,"ility":14252,"icago":14253,"Ġwagon":14254,"reet":14255,"Ġlasagne":14256,"Ġhyd":14257,"Ġhttp":14258,"Ġcow":14259,"ĠSy":14260,"ĠSli":14261,"ĠCert":14262,"ĠCord":14263,"ĠCrazy":14264,"ĠCabernet":14265,"Ġ320":14266,"ĠPB":14267,"ĠPlay":14268,"ĠPaint":14269,"verse":14270,"Ġorigin":14271,"ĠBull":14272,"ĠBlu":14273,"ĠBosc":14274,
[...]
