#version: 0.2
Ġ c
Ġ s
e r
a r
Ġ b
o n
Ġ p
e s
i n
i l
a l
g ar
i c
Ġc h
r e
a n
r o
Ġ o
a t
Ġ m
Ġs al
p p
l e
Ġ g
Ġ f
u t
Ġp e
Ġ w
Ġsal t
e n
a m
Ġs u
pp er
Ġpe pper
Ġsu gar
l a
t er
u r
in g
e g
i on
l o
Ġch e
Ġ v
Ġ on
Ġon ion
ut ter
Ġb utter
u n
l i
Ġ t
Ġo il
es e
Ġp o
Ġche ese
a s
l ic
Ġ gar
Ġgar lic
un d
ic e
eg g
ro und
Ġ egg
Ġg round
u c
Ġc o
e l
in e
e d
at o
Ġw h
Ġs o
o m
Ġc re
d er
Ġb a
Ġcre am
Ġf lo
r es
Ġ le
Ġflo ur
Ġs a
il k
i t
e t
uc e
v e
m on
Ġb ro
ic k
Ġ j
c k
r a
Ġo li
u s
res h
Ġm ilk
Ġf resh
w der
at er
Ġpo wder
Ġw ater
Ġsa uce
k ing
re d
Ġch ick
ato es
Ġj u
Ġju ice
Ġoli ve
Ġ h
Ġchick en
r i
il la
Ġt om
c o
Ġwh it
Ġ red
Ġle mon
Ġba king
Ġegg s
Ġb e
Ġg re
i s
a d
Ġgre en
Ġwhit e
la ck
Ġb lack
an illa
u m
Ġv anilla
c h
Ġm us
Ġp ar
w n
Ġbro wn
r an
Ġb re
g e
as t
a b
m e
o r
Ġ r
ine gar
t ar
Ġtom atoes
Ġv inegar
u p
Ġ n
a y
r n
in n
am on
inn amon
b er
Ġc innamon
Ġ li
a pp
an s
Ġco rn
Ġ d
Ġch o
Ġs e
Ġs h
e y
a p
r y
l at
eg et
eget ab
Ġv egetab
Ġ y
le y
d a
c on
s h
Ġpo t
Ġpar s
Ġch il
Ġpars ley
Ġs t
co lat
colat e
Ġvegetab le
Ġbre ad
Ġonion s
v es
Ġcho colate
e f
d ar
Ġ k
Ġbe ef
Ġ al
tar d
l es
Ġmus tard
Ġso da
lo w
Ġc ar
el l
Ġch i
Ġpot atoes
ut s
Ġchil i
app le
t s
Ġo ran
er y
an o
p s
Ġso ur
Ġ ro
Ġc el
Ġw ine
m es
Ġcel ery
Ġs p
n a
Ġbe ans
mes an
is e
e et
h ro
hro om
t h
Ġmus hroom
w eet
Ġche d
Ġched dar
ri es
na ise
on naise
ay onnaise
Ġm ayonnaise
ing er
Ġoran ge
Ġg inger
Ġm ar
Ġr ice
Ġtom ato
Ġb as
Ġbro th
Ġcar ro
Ġso y
on ey
Ġh oney
Ġbas il
Ġpar mesan
b s
o t
Ġp ast
Ġ S
Ġb ell
an t
ber ries
s e
Ġchi ps
k a
Ġli me
a ge
g h
re g
Ġba con
Ġ C
a v
Ġso up
um in
i r
q u
reg ano
Ġo regano
or t
Ġt h
e x
Ġc umin
Ġbre ast
t ra
il l
c es
Ġ ex
Ġex tra
Ġp ap
r um
n e
Ġ W
Ġse ed
i an
ri ka
Ġpe an
Ġpap rika
Ġy o
Ġs weet
al t
Ġ z
Ġn ut
m eg
Ġpo r
a ch
al ian
rum bs
i re
Ġf ro
Ġm o
sh ire
ter shire
mon d
or ces
orces tershire
ant ro
Ġmushroom s
il antro
ĠW orcestershire
Ġal mond
Ġc ilantro
con ut
Ġnut meg
as on
Ġh e
Ġco conut
Ġp ine
un s
i x
y me
Ġc lo
Ġth yme
z en
n uts
g in
en ne
Ġfro zen
in s
ay enne
Ġc ayenne
o le
Ġle a
Ġ apple
Ġpor k
y r
yr up
Ġse ason
Ġpe c
ir gin
Ġo f
Ġc on
Ġm ix
Ġ I
Ġs yrup
e at
in i
o d
Ġw al
Ġpine apple
Ġg ra
gh t
Ġcarro ts
Ġbreast s
an an
Ġc ra
Ġal l
Ġb anan
a k
Ġpepper s
el low
Ġy ellow
Ġ ra
Ġli ght
Ġpean ut
z z
Ġwh ole
Ġseason ing
Ġmar gar
Ġmargar ine
d en
Ġseed s
Ġ uns
Ġo at
Ġf la
Ġwal nuts
l u
el la
pp ing
Ġ app
ĠI t
ĠIt alian
Ġapp les
Ġpec ans
am e
res s
Ġco o
Ġp i
f f
o sh
osh er
Ġpast a
es ame
Ġs esame
es t
ur t
Ġra is
Ġwh i
Ġ B
zz ar
tar ch
er s
zzar ella
av y
Ġmo zzarella
Ġb o
g urt
Ġyo gurt
Ġbread c
ber ry
i d
s tarch
Ġcorn starch
co a
Ġhe avy
f at
ress ing
Ġt ur
is h
Ġv irgin
Ġst ra
Ġstra w
Ġoat s
Ġh ot
Ġco coa
k in
t t
Ġcarro t
m ilk
Ġcra ck
Ġwh eat
Ġbreadc rumbs
o od
Ġrais ins
Ġd ill
alt ed
s ed
Ġuns alted
Ġc i
k s
Ġci der
Ġk osher
Ġt ort
in t
ur p
Ġpowder ed
den sed
Ġcon densed
Ġh am
Ġsa us
Ġn uts
in ach
o se
er ry
Ġc ran
e e
Ġalmond s
Ġoli ves
Ġtort illa
al s
l y
a c
r us
Ġk et
Ġclo ve
ch up
Ġket chup
urp ose
p urpose
m p
Ġsaus age
ĠC h
uc um
ucum ber
Ġ P
Ġc ucumber
Ġc ur
Ġfla k
uc ch
Ġd ressing
ucch ini
Ġcoo king
c co
Ġbutter milk
am ic
Ġlea f
als amic
lu e
Ġz ucchini
ak e
Ġb alsamic
Ġb lue
Ġbro cco
Ġbrocco li
Ġsp inach
m ar
Ġro se
Ġro l
mar y
Ġsh ort
s a
Ġrose mary
um p
ri mp
Ġsh rimp
o ck
as h
p e
Ġ T
et a
Ġpe as
Ġ l
en ing
Ġz est
o c
l d
k ey
Ġshort ening
Ġn ood
Ġsal ad
Ġsal sa
Ġnood les
Ġst ock
ano la
ump kin
al l
Ġc ab
b age
Ġc anola
Ġpi e
Ġcab bage
as p
s p
Ġpast e
Ġ M
ad o
Ġp umpkin
Ġfresh ly
Ġba y
al lo
ff ee
Ġc ake
Ġcur ry
me al
Ġc rus
on i
Ġbanan as
Ġm int
ra y
m i
Ġsp ray
Ġstraw berries
Ġs c
Ġtur key
Ġle an
Ġbanan a
Ġ low
en t
oc ado
Ġ ice
Ġ av
Ġav ocado
Ġg ran
Ġg o
Ġchi ves
Ġwhi pping
n el
s t
Ġco ffee
Ġtortilla s
b y
d ed
Ġt o
e c
Ġco ld
m al
red ded
ri an
Ġflak es
rian der
Ġp u
Ġco riander
Ġsh redded
ĠS alt
m er
Ġclo ves
low er
Ġlea ves
r at
Ġsh allo
Ġcran berries
Ġli qu
s weet
Ġf eta
Ġn on
Ġchili es
all ion
Ġle tt
Ġlett uce
Ġsc allion
ar b
Ġst e
Ġc rumbs
le d
f lower
a uce
lo in
e ast
ap le
Ġ F
Ġy east
u b
Ġt ar
Ġpot ato
en o
Ġm aple
Ġsal mon
t i
al ap
pp ed
Ġj alap
is s
Ġjalap eno
t a
Ġt a
Ġm an
ic ot
mer ic
Ġro m
u it
Ġr asp
Ġwhit es
Ġs qu
Ġblue berries
Ġba by
Ġse mi
u l
Ġc a
Ġm ac
sp ice
Ġch erry
s s
Ġ D
Ġd ry
Ġr um
a g
Ġbo il
Ġyo l
sh mal
shmal low
Ġmar shmallow
Ġboil ing
w iss
e al
la ss
ĠP ar
Ġ K
ed dar
Ġcho ps
Ġall spice
ĠCh eddar
Ġwhi pped
Ġst al
Ġcrack er
ĠS p
Ġcorn meal
Ġmac ar
Ġcrus t
ĠPar mesan
er nel
a ck
lass es
Ġpe ach
Ġmacar oni
Ġbo u
Ġk ernel
Ġmo lasses
Ġgran u
z o
ar k
ill on
Ġbou illon
Ġstal ks
le n
Ġ V
Ġmix ed
in d
n ey
Ġp ick
Ġrol l
Ġrom a
v o
les s
Ġ G
Ġrol led
er ries
e w
s er
y le
g es
Ġsa ge
h am
Ġsh erry
Ġs m
Ġta co
Ġnon fat
ad e
Ġs wiss
g o
id ney
Ġk idney
Ġgra ham
v irgin
r uit
Ġc an
Ġsh ell
Ġr ind
Ġstraw berry
Ġman go
Ġh or
Ġ O
re e
Ġscallion s
Ġ it
t it
Ġ R
Ġf il
Ġit alian
ut e
Ġtur meric
Ġapples auce
g on
ad ish
ser adish
od ka
Ġc ub
Ġpean uts
bs tit
Ġhor seradish
bstit ute
Ġ A
c ent
Ġv odka
Ġb arb
Ġto pping
Ġm eat
Ġsu bstitute
Ġg rat
on g
b o
Ġd ark
in o
en der
Ġchil e
Ġcrack ers
Ġgrat ed
u li
ill ing
as co
un a
uli flower
Ġb ran
Ġt una
ab asco
u ff
Ġ an
Ġca uliflower
Ġl ong
ĠT abasco
Ġyol ks
Ġf ish
Ġc ap
Ġ qu
Ġgra in
Ġfil le
Ġste ak
Ġh al
er eal
el s
Ġ ap
Ġap r
Ġc ereal
Ġcran berry
Ġroll s
Ġmarshmallow s
r ing
c t
Ġoran ges
Ġp la
u e
d ing
Ġro ast
Ġpla in
Ġgra p
l den
Ġcoo k
Ġd ri
Ġpeach es
e ur
Ġlemon s
Ġliqu eur
d ding
co rn
Ġbarb ec
Ġch erries
Ġshallo ts
Ġ ri
Ġcra b
Ġpu dding
Ġs kin
Ġbarbec ue
n ut
en ed
i es
Ġ ins
o k
Ġhal ves
Ġins t
ra gon
Ġskin less
g er
Ġgo lden
Ġtar ragon
Ġinst ant
Ġcub es
Ġco ar
Ġt ender
Ġshallo t
Ġf ruit
Ġuns weet
Ġunsweet ened
Ġdri ed
Ġpast ry
Ġco tt
Ġb it
Ġrasp berry
Ġcott age
Ġcucumber s
ro ot
Ġcap ers
ter ey
st yle
Ġt e
Ġextra ct
Ġcoar se
Ġapr icot
vo red
d y
Ġliqu id
Ġflo re
Ġsp a
me at
am om
i a
Ġvegetab les
et ti
Ġspa gh
Ġsp ice
o king
l an
d amom
Ġspagh etti
Ġcar damom
Ġw e
Ġpick le
len da
Ġpu ree
on e
Ġginger root
lat ed
Ġgranu lated
Ġsqu ash
ĠSp lenda
uc k
Ġcrab meat
icot ta
Ġbe an
Ġwe ed
a f
t il
Ġd e
Ġr icotta
ent o
Ġpe ar
Ġavocado s
Ġrasp berries
Ġ ar
Ġsu n
Ġgra pe
f la
i e
Ġ E
Ġf illing
at es
v er
pe as
g u
Ġbe er
Ġhe ad
Ġd ates
Ġb uns
on terey
Ġroma ine
Ġs lic
Ġsun flower
Ġ re
Ġp ro
g s
Ġgreen s
Ġg el
res er
Ġle n
Ġoat meal
s co
Ġtender loin
Ġh er
b ur
Ġhe ar
Ġp reser
at in
Ġlen til
Ġf lu
ĠK osher
t ch
Ġgel atin
Ġf en
Ġ ac
Ġflu id
et t
Ġ el
ĠC o
rat e
t ry
Ġchick peas
Ġcon cent
Ġconcent rate
Ġflore ts
zz a
Ġpreser ves
Ġpi zza
Ġ loin
ĠT o
v or
ri sp
Ġp ack
it h
ĠS auce
bo w
ĠC re
i o
bur ger
Ġel bow
et s
Ġgrap es
v y
Ġco lo
Ġham burger
Ġflak ed
ĠD ressing
Ġhear ts
Ġbran dy
Ġcrack ed
Ġc ash
Ġch uck
Ġcash ew
Ġf lat
ti ve
Ġac tive
ĠTo pping
Ġfen nel
u gar
ve eta
el veeta
z ed
Ġ ic
Ġsm ok
Ġic ing
j or
Ġtar tar
ĠV elveeta
Ġlentil s
as ch
asch ino
Ġfille ts
Ġ ran
ic h
am b
Ġegg p
Ġpepper oni
Ġran ch
est o
Ġh o
Ġmar aschino
Ġch un
fla vored
jor am
Ġmar joram
Ġp esto
k ra
Ġk i
Ġpec an
Ġ es
a i
Ġpepper corn
at s
ar ag
Ġm onterey
Ġgo at
arag us
Ġ asp
Ġk al
ell ini
Ġasp aragus
g ra
sco tch
ar d
Ġcar am
t on
s els
a w
Ġpe n
am p
Ġbutter scotch
Ġchi p
re ad
ash ed
ĠS ugar
is qu
gra in
Ġpen ne
Ġri pe
ĠB utter
Ġm as
ick s
isqu ick
Ġc as
h ed
Ġj ack
Ġ la
ĠB isquick
meric an
ĠA merican
al a
ĠR ice
Ġcolo ring
b an
s ter
Ġ un
Ġchun k
j un
ĠCre am
Ġcashew s
Ġp int
Ġpint o
ee zed
Ġcrus hed
Ġfla vor
er m
Ġsmok e
Ġcas ter
Ġpe el
Ġst uff
t ion
Ġm ashed
rum b
it e
Ġh a
Ġg r
pp y
Ġchil es
ĠM ar
Ġde li
Ġgranu les
Ġpor t
Ġste w
Ġgar ban
Ġgarban zo
Ġpo ppy
Ġf ood
Ġd o
Ġo un
Ġth in
Ġb ar
l ant
Ġoun ces
f ec
fec tion
lo ur
el on
Ġsqu eezed
Ġqu ick
Ġyol k
Ġkernel s
fection ers
Ġcre me
c le
Ġb is
Ġ en
Ġfla x
Ġl amb
Ġcar aw
Ġchunk y
Ġcaraw ay
at e
i ra
co oking
Ġch est
Ġl ing
ta il
c uit
n o
Ġs ir
Ġsoy milk
Ġcon fectioners
Ġsir loin
h ub
Ġfille t
Ġle e
ch o
Ġpeppercorn s
hub arb
ĠF resh
n i
is in
Ġbit s
un ch
Ġbis cuit
Ġrais in
Ġcan n
Ġte a
Ġling u
Ġco ck
Ġcock tail
y ster
Ġw ed
ats up
ar m
Ġc atsup
qu il
Ġo yster
I N
Ġshell s
l ing
Ġr hubarb
Ġchest nuts
us co
usco us
in k
ĠE g
Ġan cho
quil a
Ġb ut
Ġco uscous
Ġho isin
ira cle
a h
ĠM iracle
Ġra d
e ese
dar in
Ġte quila
Ġstuff ing
Ġlingu ine
ul try
Ġman darin
Ġpo ultry
Ġpi mi
rus sels
Ġpimi ento
n y
Ġmar mal
Ġmarmal ade
u gu
ĠB russels
len d
z el
Ġsa u
Ġst icks
Ġbar ley
Ġs k
Ġta h
b as
or n
Ġtah ini
li sh
ugu la
u gh
ro ut
c e
Ġ L
Ġlee ks
Ġb ri
Ġar ugula
Ġo r
i gh
Ġgran ny
Ġ H
Ġb lend
Ġca jun
vo l
' s
Ġsm ith
d i
vol one
er kra
it a
Ġth igh
erkra ut
ec tar
Ġpro volone
Ġsau erkraut
Ġn ectar
ĠCo oking
Ġw arm
Ġst yle
Ġeggp lant
Ġslic es
Ġbutter nut
ĠS o
Ġcook ies
ĠCh eese
ino a
Ġro ot
IN G
Ġbit ter
Ġsp ring
ver ed
an d
Ġqu inoa
i y
Ġm uff
Ġj ell
Ġsh o
ak i
Ġw af
iy aki
Ġcaram el
Ġwal nut
Ġbe ets
b on
Ġher bs
ĠW h
ress o
bas a
Ġ ter
el basa
Ġter iyaki
ar p
Ġco l
Ġki elbasa
Ġmar in
Ġs er
ro uts
Ġjalapeno s
Ġ Â
Ġro t
ĠF illing
al o
tt e
Ġrom ano
Ġsp routs
ĠD i
st ing
ri sh
ran o
Ġor zo
il ad
Ġcook ed
g re
in ai
Ġcann ellini
Ġbut ton
Ġrad ish
inai gre
m elon
Ġ lo
inaigre tte
am s
Ġc risp
Ġpi m
Ġsqu ar
ul ar
Ġpim ento
Ġb on
Ġseed less
Ġwater melon
Ġser rano
at ur
ur bon
Ġ round
Ġt ri
Ġha zel
Ġgra vy
st ick
Ġjell y
g na
res cent
Ġg erm
Ġthigh s
Ġseason ed
er n
ĠS al
p resso
ĠB a
Ġes presso
Ġc rescent
oc a
atur al
Ġp an
Ġwh is
ĠÂ ¼
Ġr us
ĠP e
Ġkal e
Ġc l
Ġp ita
Ġj am
Ġal e
y e
s et
Ġn atural
ĠDi j
Ġrus set
Ġr ye
is t
ch ilad
chilad a
Ġt ap
ĠSal ad
es s
as s
Ġen chilada
Ġmas ala
Ġslic e
ett e
Ġsa ff
Ġse m
Ġher b
Ġba gu
ĠM ilk
il d
ĠDij on
it s
Ġlemon ade
id al
idal ia
Ġp re
ir m
no w
m int
Ġcur ran
Ġsquar es
i oca
Ġs now
it ion
risp ies
Ġwhis key
Ġpepper mint
n ad
Ġb erries
Ġf irm
ĠK rispies
nad ine
Ġf i
Ġtap ioca
Ġs li
o th
Ġgre nadine
ĠSp inach
el ess
Ġgo ld
p le
lu a
ah lua
ĠFresh ly
Ġbon eless
lan k
Ġm eal
Ġv inaigrette
Ġh ash
ĠK ahlua
d s
Ġpear l
Ġ i
ach io
ist achio
ition al
Ġpo meg
Ġgar am
Ġpomeg ran
Ġp istachio
en ts
Ġpick les
Ġfla vored
b ell
ar a
ĠV anilla
amp bell
Ġ N
ĠBa king
at i
Ġan ise
Ġf lank
Ġtri ple
Ġsli vered
r on
Ġsk ew
in ese
Ġbitter sweet
Ġpomegran ate
Ġancho vy
Ġsem is
Ġre lish
i b
ĠF lour
Ġsemis weet
er e
Ġbreadc rumb
Ġflavor ing
Ġmango es
b read
m ati
ac a
Ġnon stick
f ish
ic o
at a
Ġblack berries
Ġ J
ey ed
ĠT om
r ink
u y
am ar
Ġport ab
Ġbagu ette
Ġchip ot
Ġrot ini
Ġportab ella
Ġb lan
il ap
Ġv idalia
Ġsp ri
ilap ia
n g
Ġc r
Ġt ilapia
ch ed
Ġbas mati
n ion
lu b
ĠO nion
la w
Ġc lub
Ġal f
Ġb ul
ter s
Ġv ery
Ġchipot le
Ġchicken s
ĠM ix
rout on
ĠS e
Ġw ild
ag es
Ġsteak s
Ġ reg
Ġpan c
t o
aca o
Ġc routon
un try
ĠS wiss
ĠB o
ĠCh o
Ġreg ular
am en
Ġfro sting
Ġcol by
Ġw ra
Ġcook ie
Ġbrown s
ef ruit
di ed
Ġsaff ron
f u
Ġsu m
Ġcan died
Ġwed ges
uy ere
Ġgrap efruit
unch y
ĠEg g
ag ne
amp agne
Ġblan ched
ĠCho colate
am ata
ĠB ro
Ġcr unchy
Ġr amen
ĠI rish
Ġto fu
en ter
Ġmarin ara
t e
Ġkal amata
Ġun flavored
Ġc enter
ĠSe ason
i p
am i
or th
rus t
Ġhazel nuts
Ġco untry
Ġskew ers
Ġch ampagne
at ion
ant e
Ġsc allo
Ġdo ugh
Ġc ant
li me
Ġcho pped
Ġes s
ĠPe pper
orth ern
ad d
alo up
ic ante
Ġmuff ins
Ġcant aloup
c i
Ġ as
Ġp l
Ġcrus ts
R E
ĠP o
all s
Ġf av
ot t
Ġtar t
Ġpo p
Ġb ott
el lo
Ġri bs
ree k
Ġp icante
Ġar t
Ġpop corn
Ġse c
Ġradish es
Ġpistachio s
ĠPo wder
Ġ a
ich ok
Ġart ichok
ĠBo urbon
Ġcantaloup e
Ġpl um
an ish
Ġgre at
re n
en ce
b alls
Ġsal ami
les law
ĠTom atoes
Ġg h
lan ts
g el
k e
Ġc rumb
Ġf o
Ġco leslaw
Ġeggp lants
Ġki w
Ġess ence
Ġs i
ren ch
Ġw ith
Ġgr uyere
Ġcl ams
Ġcre ole
zo la
Ġflore t
Ġp urp
at ed
Ġcon ta
Ġsaus ages
ĠO li
Ġpurp le
Ġconta in
Ġpo ds
b et
f lour
or gon
Ġcorn flour
orgon zola
ran d
Ġbri e
o oth
Ġg u
li d
or ite
red o
egetab le
ĠC rust
ĠSeason ing
sa gna
Ġsm ooth
Ġla sagna
Ġwaf ers
ĠOli ve
ĠB ay
ĠO il
Ġcho y
mp le
red i
ni er
Ġcurran ts
c arp
Ġsp ic
ĠMar nier
redi ents
carp one
Ġo kra
Ġt amar
uc c
Ġcorn bread
Ġtort ellini
ĠG rand
in es
Ġste m
k et
Ġ e
Ġsh i
ĠBro wn
it ake
Ġmeat balls
Ġso lid
ĠCh inese
Ġfav orite
ran ge
Ġd ish
Ġpars ni
Ġcaram els
Ġwed ge
Ġshi itake
Ġpack et
Ġmas carpone
Ġscallo ps
t z
Ġn orthern
Ġf ett
ing s
Ġkiw i
Ġsp rink
o l
pper s
ĠR ed
Ġfett ucc
u da
le af
ark ling
o la
ĠL e
Ġcrouton s
ĠG ar
s ket
ĠC innamon
ĠEg gs
Ġw as
Ġpie ces
ĠA l
Ġpack ets
Ġsprink les
c ini
z e
Ġn ew
Ġbri sket
ci pe
i g
Ġsp arkling
Ġre cipe
Ġsum mer
ĠGar lic
ri zo
Ġcho rizo
ĠC ampbell
ĠF rench
t in
Ġalf redo
Ġm at
Ġto ffee
ĠMar in
ico ts
Ġfettucc ine
w ich
ĠSp anish
le ts
Ġsoy a
Ġan gel
io us
and wich
Ġwaf er
ĠMarin ade
Ġspri gs
Ġwra ppers
ab i
ul der
Ġsho ulder
lic ious
ĠV egetable
ĠLe mon
Ġwas abi
Ġsh arp
Ġpap ay
Ġmac e
Ġg um
ĠB e
Ġf ra
Ġw on
mon terey
Ġs andwich
am a
Ġh om
Ġun b
Ġstem s
Ġcream er
Ġcrisp y
Ġwon ton
wn s
Ġm ir
Ġpe a
Ġha ir
b its
Ġm ach
ber g
qu e
Ġpick ling
Ġsi mple
Ġmir in
o ri
Ġb unch
Ġcan dy
e que
o b
Ġg all
Ġt id
ra wns
Ġla v
Ġbunch es
Ġgall on
Ġtid bits
s ala
Ġgran ola
Ġbarb eque
Ġp rawns
Ġfi ve
d o
er i
am bo
ĠG reek
Ġlav ender
Ġ add
Ġpimento s
Ġspic es
Ġmach ine
m bo
ic ama
Ġj icama
Ġju mbo
in y
Ġg l
Ġbrown ie
Ġapr icots
Ġpear s
Ġco la
ri gin
ich e
Ġa corn
Ġv erm
Ġpimiento s
Ġp ink
Ġv eal
Ġg orgonzola
Ġbiscuit s
Ġfra iche
Ġgl ut
ick en
Ġbe ver
ĠC a
ag o
Ġcrust y
Ġadd itional
Ġmuff in
ex ic
ĠP ot
Ġflak e
ĠG round
Ġri g
rigin al
i m
t an
Ġ '
Ġb ambo
Ġbambo o
Ġbe et
Ġnut r
Ġlo bs
Ġcontain ers
Ġbever age
i ago
ĠCh icken
Ġgr its
tz els
ĠPot atoes
Ġnutr itional
P P
Ġc ro
ĠT O
ĠSo up
m it
Â ®
Ġsu l
Ġsa ke
gh urt
umin um
Ġtender s
Ġas iago
Ġparsni ps
Ġpapay a
n ap
Ġs ilk
ry st
ĠI ng
Ġl ump
ĠWh ip
ar ian
Ġt orn
Ġyo ghurt
Ġcub e
Ġpre tzels
Ġsul tan
m a
Ġc ut
Ġsp ar
ĠWh ite
Ġpanc ake
te in
ĠIng redients
er bet
Ġv er
as m
Ġsh erbet
Ġpro tein
Ġi mit
Ġimit ation
S S
Ġp r
Ġsilk en
asm ine
Ġm in
Ġco d
Ġbas e
Ġl ard
ĠD RE
SS ING
ĠDRE SSING
L A
b e
g i
es ar
Ġf at
ch n
Ġartichok es
PP ING
Ġ arb
Ġs tar
Ġy ams
i ry
Ġw ood
Ġstew ing
ĠTO PPING
l li
Ġm elon
Ġmus sels
da iry
Ġto ast
o s
Ġflo w
Ġj asmine
ri sco
eri bs
Ġspar eribs
Ġc at
Ġs na
Ġv eget
app s
chn apps
Ġc le
ĠS yrup
ĠC risco
ĠW ater
Ġmat zo
u g
gar lic
ese ed
om me
Ġli ters
Ġd es
Ġcon s
ĠM onterey
Ġgo uda
ĠCa jun
Ġso r
Ġli mes
Ġbo urbon
Ġfruit s
Ġpro ces
Ġgh ee
Ġveget arian
Ġo ld
ĠA c
no g
Ġoyster s
Ġfi gs
Ġw a
Ġblack berry
Ġcons omme
at oni
am ole
ac amole
Ġca esar
Ġdo g
f ul
Ġf ul
is o
ash ion
ĠSo da
Ġgu acamole
Ġrig atoni
f ashion
Ġs tarch
Ġs chnapps
al m
Ġegg nog
Ġal uminum
as e
Ġyo ur
Ġcap s
and ful
Ġcat fish
fashion ed
f t
Ġc ryst
Ġs nap
Ġch ard
ice lli
us tard
ĠC orn
Ġverm icelli
Ġpr un
en er
Ġh ock
Ġglut en
Ġpepper on
ĠCh i
ĠF ro
Ġgrap eseed
Ġfo il
Ġhom iny
p ar
Ġc ans
ro ps
Ġm exic
et ta
co r
Ġi rish
Ġpepperon cini
d ew
u d
Ġp h
Ġcut lets
H I
Ġse a
Ġse af
Ġsp read
Ġhoney dew
ĠAc cent
Ġseaf ood
Ġb ic
Ġm iso
Ġice berg
ori o
Ġarb orio
on ate
arb onate
ĠE ng
Ġmarin ade
Ġbic arbonate
ĠEng lish
l s
Ġmar sala
Ġpec tin
ĠG o
Ġbott les
in a
ur g
Ġba g
Ġtamar i
le ach
ater s
Ġcan e
Ġcol l
Ġpanc etta
Ġtoast ed
Ġ ed
Ġg in
Ġt rout
is ins
ch a
Ġn avy
Ġst o
ĠG ra
leach ed
d e
g r
i um
co tch
ct ion
Ġhazel nut
Ġlobs ter
Ġcoll ard
an th
Ġg la
Ġbutter y
Ġwhi p
Ġen di
Ġcurran t
Ġproces sed
ĠFro sting
Ġsh av
ĠH oney
ĠBe aters
Ġunb leached
LA D
er k
ut ney
Ġba ck
Ġlime ade
f to
Ġb lo
Ġch utney
Ġpe e
Ġle fto
Ġd rops
uff alo
Ġsp e
ĠD e
Ġcl am
Ġwood en
gr ass
il le
Ġm alt
Ġlemon grass
ĠC acao
Ġendi ve
w h
Ġpo len
ser t
ĠR om
ĠJ ack
par ed
Ġlefto ver
Ġpolen ta
w ed
Ġp alm
Ġsour do
ĠS h
Ġcoo l
ag ie
ĠE x
Ġdes sert
Ġpee led
Ġsourdo ugh
m ini
Ġbo k
ag ed
Ġm e
Ġth read
Ġho agie
Ġpre pared
ĠEx tra
Ġo le
Ġst one
ĠB lack
Ġre ad
Ġh ar
Ġchil led
Ġpap er
io li
Ġsna pper
Ġs el
Ġso ft
Ġole o
ĠC ar
ĠO ats
gna c
ĠChi ps
Ġread y
E L
f ri
Ġt ast
lant a
Ġc up
Ġb one
ut h
Ġj ig
Ġh andful
Ġst ring
Ġcra isins
Ġcur acao
ĠO range
Ġcolo red
oth p
ĠAl l
Ġcle ar
ĠDe licious
ĠRom ano
Ġtast y
Ġ x
Ġ am
it al
Ġqu ar
Ġbul b
othp icks
Ġp lanta
Ġli ma
pe pper
Ġcan d
ett es
Ġprun es
e le
v ia
Ġv eg
ri ra
Ġgrain y
Ġre fri
Ġspri g
gi ano
cor ino
Ġshav ings
o ts
u en
Ġp in
Ġco gnac
Ġba gs
Ġstew ed
anth an
Ġx anthan
f inger
y l
Ġb uffalo
Ġto othpicks
Ġgranu le
Ġed am
rira cha
uen ster
Ġp ass
Ġch inese
en s
Ġchi a
ĠA s
g round
m ents
Ġc ampbell
ĠCh il
Ġblue berry
Ġl in
Ġto ts
ĠO riginal
Ġport ob
Ġportob ello
v ed
Ġsalt ine
uc ed
Ġcre mini
Ġred uced
Ġse ction
ĠS A
ĠP ie
ĠT h
Ġsmok ed
Ġflow ers
ĠAs ian
al f
Ġf ran
Ġpe corino
it os
Ġd is
Ġstar ter
Ġcand ies
Ġc al
Ġs amb
Ġnut ella
Ġroast ing
Ġartichok e
Ġsultan a
Ġme in
g ur
s ley
Ġ ado
Ġcorn ed
Ġd ice
ĠC ake
Ġbul gur
Ġwa x
alf a
b ran
or y
st on
Ġste via
Ġalf alfa
Ġph yl
Ġpin ts
Ġphyl lo
at ing
Ġh ard
Ġst ri
Ġgran ular
til led
Ġbitter s
Ġdis tilled
r ite
Ġs w
Ġs eg
Ġr ings
ss om
Ġblo ssom
Ġdice d
p h
v ies
Ġf ar
is er
ĠP umpkin
ĠSp rite
Ġtamar ind
a iser
Ġ Y
ro w
ĠS a
ĠA pp
Ġancho vies
wh eat
Ġado bo
e m
i ght
Ġm ed
Ġj ar
Ġbre wed
or d
Ġful ly
Ġseg ments
Ġ -
Ġf ry
lic o
Ġn o
Ġcho p
ĠG re
Ġbit e
a ves
i al
t y
ick ory
ĠF range
Ġpack age
Ġstuff ed
ĠFrange lico
Ġw ing
Ġh add
Ġbread s
ĠS t
Ġstal k
Ġde licious
Ġbag els
Ġspe ar
Ġsamb al
er o
il li
Ġk iss
Ġcro iss
Ġedam ame
Ġlin ks
Ġhadd ock
h o
k es
es o
Ġnectar ines
ar o
al ib
Ġh ickory
Ġst ick
Ġk aiser
Ġsweet ener
Ġqu eso
Ġla dy
Ġmin ce
alib u
b l
Ġs riracha
an ts
Ġj erk
Ġcorn fla
Ġstri ps
Ġ aged
Ġf us
Ġcho ice
Ġan d
ĠN ut
Ġpass ion
Ġfus illi
u red
er ie
Ġb ark
Ġp at
il lo
an ut
an ger
ut ch
Ġr ump
iss erie
Ġfil et
Ġbut t
Ġrot isserie
Ġlo aves
Ġsaff lower
Ġo ele
Ġm uenster
und er
Ġgre ase
Ġd rink
Ġpu l
Ġdri pping
Ġsor bet
Ġcryst als
Ġplanta ins
Ġrefri ger
Ġlady finger
Ġoele k
b in
Ġb uck
en is
Ġv enis
Ġbuck wheat
Ġvenis on
t le
Ġbutter ed
Ġco ating
vor y
ĠCre me
Ġchun ks
Ġbott led
Ġpul p
Ġm ul
ter ed
Ġra v
ub le
Ġhock s
Ġmexic orn
Ġkiss es
Ġcornfla kes
c ing
i f
Ġt anger
ach o
ĠI cing
Ġbo ston
ĠR o
fla vor
Ġfen ug
Ġdo uble
ah i
Ġsho e
ĠPe anut
Ġcup s
Ġfenug reek
c ake
ic ch
Ġm er
Ġflo under
Ġn acho
ĠB ar
Ġrad icch
Ġdripping s
Ġrav ioli
Ġradicch io
m ent
o us
Ġro ck
ĠM ayonnaise
ib b
ĠChil i
Ġb erry
Ġsa vory
ay er
ĠK aro
c ress
on s
Ġwater cress
Ġh ens
co vered
Ġcar ob
Ġbas s
qu al
ĠSp ice
Ġcub ed
Ġcontain er
Ġsw ord
ĠGre en
Ġcroiss ants
Ġsword fish
Ġp ers
Ġt ater
Ġpo bl
it ch
Ġbul bs
Ġfo ur
ĠCorn ish
ĠGo lden
Ġpobl ano
I E
Ġ ing
Ġ ass
Ġm or
Ġm ahi
Ġf ud
us age
Ġver de
Ġsection s
s i
on tin
re am
el le
mi giano
ĠV inaigrette
ĠG r
ĠG orgonzola
Ġjig ger
ĠSa usage
Ġing redients
b a
g gs
u ice
Ġs cotch
Ġv ital
ir t
be an
Ġladyfinger s
Ġfud ge
s ugar
Ġo riginal
lo ins
el li
ĠB ra
ĠP ast
ĠM ustard
ĠD utch
aw ai
ĠJ uice
Ġsum ac
Ġgla ze
Ġrefriger ated
bin ado
Ġass ort
Ġc ustard
Ġpo und
Ġcream y
Ġr ub
Ġn e
Ġsh eet
ĠB read
Ġcur d
Ġtender loins
ĠTopping s
ĠSA LAD
Ġmince meat
tle tt
awai ian
a j
n ation
r uff
Ġc it
an ese
at ter
Ġpar migiano
Ġd uck
Ġtur binado
ĠCo coa
Ġas ian
ontin a
e im
Ġc av
Ġsu p
ap anese
Ġavocado es
ĠCre ole
Ġlo ose
ib lets
Ġquar tered
s el
Ġf ine
Ġlow er
ĠF i
Ġdo gs
Ġsk irt
Ġsultan as
uth ern
Ġveg an
Ġf res
ra ck
Ġgr ill
ĠSo ur
Ġplum s
Ġe v
Ġfran k
Ġmul ti
G RE
I L
L ING
ic ial
ri ed
ch i
or ated
ap orated
ti f
ĠTom ato
ĠPowder ed
Ġev aporated
O N
m el
p eg
t ic
u ille
Ġ amar
Ġm ade
ri s
ĠS cotch
av a
Ġar tif
Ġpack ed
Ġparsni p
Ġcryst al
Ġmexic an
Ġsto ut
Ġsel f
Ġmed ium
ĠBra ggs
Ġassort ed
Ġartif icial
P HI
k o
Ġb r
Ġt ruff
co rat
Ġd i
Ġd ip
Ġk um
Ġfro m
ĠP HI
Ġan do
Ġherb es
Ġwra ps
LAD EL
ille t
PHI A
ĠPHI LADEL
Ġando uille
ĠPHILADEL PHIA
in f
ur s
Ġba k
co lo
od ium
ĠB urg
ĠM alibu
ti es
ĠV inegar
Ġan ah
Ġlee k
Ġbagu ettes
Ġcrumb les
im mon
Ġpers immon
Ġfres co
Ġanah eim
Ġ U
Ġli te
ans on
Ġcel tic
ne ck
Ġbo x
Ġskew er
Ġshoe peg
f ur
m m
v ers
an g
Ġm ild
Ġm illet
Ġg ro
ĠC anola
ak es
ĠF IL
Ġar row
ĠE qual
Ġcann ing
Ġsto re
Ġfrank fur
ĠFIL LING
Ġarrow root
gar ian
Ġm on
Ġw ell
eg o
it as
ch ego
se ason
ĠB as
ĠB ase
ĠV idalia
Ġcoar sley
ĠL ayer
ĠBa con
tz er
Ġmor sel
T E
T el
s odium
v a
w anson
Ġ &
Ġb le
Ġb ibb
al ley
an i
at illo
un garian
Ġtom atillo
ĠC rack
Ġpick led
orn ia
and el
ĠApp le
if ornia
itch en
Ġble u
a ff
p ack
v il
re l
Ġg lass
Ġchi ve
Ġbo lo
ĠP u
Ġhal ved
Ġde corat
ĠL i
Ġful l
ĠTh ai
Ġtruff le
season ed
a ve
g ers
j ack
lo af
Ġon ly
Ġpo ck
ĠS wanson
id e
Ġhor mel
Ġwe ight
ĠH ungarian
ig n
Ġflow er
ĠGra pe
Ġpat ties
Ġ Z
er kin
Ġb rat
un g
und y
Ġj ello
Ġchick pe
or itos
Ġsp anish
od i
ĠD oritos
ĠButter milk
ĠMar sala
ĠH e
Ġsquar e
ĠN orthern
Ġscallo p
Ġgh erkin
Ġgu ava
Ġspic y
Ġsel tzer
Ġpound cake
Ġbolo gna
Ġchickpe a
N T
er vil
il ey
Ġch ervil
Ġm ini
Ġg ala
Ġt w
el t
Ġh ab
Ġr ut
Ġd ai
tra w
ak ed
Ġcur ly
ĠN ew
Ġgrapefruit s
be ans
ug g
si ze
ris ing
ign on
s c
il led
Ġg ood
Ġpar ty
ab ag
Ġn iblets
Ġli ter
ĠS als
ĠS traw
Ġshort bread
ĠK itchen
bo u
Ġroast ed
Ġhear t
Ġpack ages
Ġgla ce
Ġtanger ine
Ġrock et
ĠBurg undy
ani els
Ġbrat w
ĠSals a
A R
D IE
c ello
f ine
n et
z on
ar ti
Ġb ra
il s
lo t
mon cello
Ġh av
co re
um i
ber t
Ġli moncello
Ġal ba
Ġro ugh
ĠC ur
ĠI N
Ġpu ff
Ġtopping s
ĠCo conut
Ġsho ots
ol ina
ĠBe ans
Ġunb aked
ener ous
Ġfar f
ĠNut meg
aj ita
Ġhab an
Ġalba core
K E
h ot
v ado
ic um
re me
Ġw or
Ġco urg
Ġba gel
co o
inn er
ey e
ĠS i
ĠS weet
ĠC on
Ġwhole meal
Ġcur ls
ĠG inger
ĠH awaiian
Ġsem olina
ib bean
Ġwa ff
Ġcaps icum
ĠGra ham
Ġfry er
GRE DIE
odi va
NT S
Ġrut abag
ĠIN GREDIE
ĠINGREDIE NTS
f ry
m bert
w fish
ar i
re o
Ġpepper jack
ine apple
Ġpar aff
Ġn ugg
Ġd inner
ĠS ec
Ġcra wfish
ame mbert
Ġpi ero
ĠB anan
ĠB ul
ĠP ap
ĠT ort
Ġnood le
allo umi
Ġgo ur
Ġhal f
Ġcrumb led
Ġfrankfur ters
ĠBas il
Ġhav arti
Ġparaff in
ĠBul gar
_ _
j i
u re
Ġc uts
Ġba iley
it o
Ġju li
Ġh alloumi
Ġsp ir
ac t
ĠD ream
ĠPar sley
ĠCo ok
ĠAl mond
Ġsup er
bou ght
ĠSi mple
S T
a u
i z
k y
l l
m et
Ġf ajita
ato r
ri e
Ġd ash
Ġsp rout
qu eezed
Ġextra virgin
ĠM o
ĠM aple
Ġste am
Ġun p
ĠGo uda
ĠCar nation
Ġquar ters
Ġfry ing
ĠU n
Ġgour met
s alt
Ġs law
co ok
is sa
ch eese
th er
Ġman chego
ĠD aniels
Ġmeat loaf
Ġchest nut
Ġcann ed
ĠOnion s
ĠBro th
Ġe ar
Ġhar issa
Ġjig gers
Ġblossom s
ĠGr uyere
Ġmade ira
Ġpuff ed
ĠTort illa
Ġjuli enne
a zel
c er
i ve
Ġch ai
Ġg allo
Ġf or
Ġf rench
Ġw orcestershire
lo om
egg ie
Ġco m
el ery
ck s
co ated
ch e
Ġd ital
Ġst ir
Ġal co
Ġsoy beans
ĠC elery
ir loom
Ġhe irloom
st icks
Ġla ger
Ġmat ch
Ġlobs ters
erk ins
Ġmer lot
b b
d r
g g
r ong
al le
Ġg i
Ġco vered
Ġle ban
ad ian
Ġsh an
Ġst rong
gh um
Ġbanan e
ĠM us
Ġto p
Ġliqu or
Ġun cook
Ġsho ot
ĠWh eat
Ġgh erkins
Ġsor ghum
colo red
ĠPap rika
azel nut
h azelnut
m an
n or
w dr
Ġs coo
Ġp wdr
ic le
ro p
Ġf inger
Ġf ontina
ing ue
el ph
Ġsa zon
Ġbrown ing
Ġr u
Ġr ing
Ġd rum
ot e
ĠC an
Ġseed ed
ĠB atter
id den
ĠM an
Ġcardamom s
IN A
Ġsk ins
ls berg
Ġfran ks
Ġjar lsberg
ĠLi me
Ġleban ese
nor r
elph ia
A ll
R O
c con
i da
o ons
Ġ ud
Ġc amembert
re us
re ts
Ġpo ps
da ise
ot i
se ed
reg giano
ĠC A
Ġra be
est a
Ġbo ccon
ly cer
ĠCh ard
ĠP ineapple
Ġshort c
ĠR ol
lan daise
Ġmas a
Ġla y
Ġgr ass
ling s
ilad elphia
Ġveg em
Ġcal ifornia
ho lic
Ġsheet s
Ġfarf alle
Ġspir al
Ġdital ini
Ġmatch stick
Ġuncook ed
Ġud on
Ġboccon cini
Ġvegem ite
A N
n ick
n ay
o uth
v egetable
y u
Ġ king
Ġc acao
Ġb ur
on nay
in ter
il e
Ġg lycer
Ġpe t
Ġw ashed
Ġw inter
Ġv eggie
Ġsp elt
Ġyo ung
Ġpor cini
Ġtur ni
asp berry
ĠM eat
ĠF o
Ġthread s
ĠApp les
ĠFi ber
ĠPu ree
Ġrutabag as
Ġru by
reus el
ĠChard onnay
nick ers
L E
R U
f ree
k on
r itos
s queezed
t zel
Ġb ing
Ġp ico
al es
Ġm el
am el
Ġso ap
ch u
Ġcho colat
Ġchil is
Ġk ir
Ġth ai
ex ico
Ġsweet corn
ac c
eno a
Ġsm all
ĠCo ffee
ĠSo uthern
Ġsho yu
Ġpan ko
Ġpre tzel
ĠJ apanese
Ġverm outh
Ġhar ina
Ġrough y
ĠCook ies
Ġsteam ed
Ġpops icle
E R
a x
g resso
h ol
k i
t ed
Ġ in
Ġo ther
Ġg enerous
Ġg enoa
Ġf ried
ut to
Ġw ill
Ġt iny
ab le
Ġli vers
ĠW ine
Ġcan es
ĠCo l
ĠMar ia
bas ed
ĠSo y
Ġsho ts
ĠWh ole
Ġwhis ky
ci utto
ĠSt reusel
ĠBar tlett
Ġkum qu
inf andel
Ġhaban ero
ĠMus hroom
ĠCA KE
Ġchocolat es
C O
T TE
b ro
e el
j a
s tra
s ciutto
Ġb ir
Ġw ide
Ġwh ey
ck er
up er
ĠS to
ĠS nickers
ĠC ayenne
ĠW al
ach ere
Ġwal la
ĠT ur
ĠT ia
Ġl on
ĠM exic
st e
Ġto st
Ġre al
Ġpro sciutto
Ġho l
Ġbar tlett
ĠH am
ĠDi pping
ĠN on
Ġbott le
Ġa u
ĠAl f
Ġcola da
Ġprun e
Ġcav at
urs ts
ĠCrack ers
Ġdecorat ing
Ġdai kon
Ġbratw ursts
Ġnugg ets
ĠCol by
C E
c an
g an
p es
v ignon
Ġ ly
Ġs ard
Ġp ri
ro ots
Ġo v
Ġm ic
le an
Ġg n
Ġf r
ur se
li zed
Ġt i
res t
Ġsa vo
et ida
ch w
inn ed
Ġcar ibbean
Ġsp lenda
ĠC O
ĠC om
ĠC umin
ĠP ec
ent al
ĠF RO
ĠR ec
arm int
ĠH andful
ib le
Ġfav a
Ġpapay as
Ġgum d
Ġbeet roots
Ġspe armint
ĠSh ell
Ġmer ingue
Ġbr ine
Ġtomatillo s
ĠHe avy
ĠStraw berries
act ing
ST ING
Ġalco hol
ĠCan adian
Ġhol landaise
ĠAlf redo
ĠFRO STING
i pe
v re
y a
ic an
Ġo ver
le neck
Ġsalt ed
Ġche vre
Ġco urse
Ġcream ed
us e
ri en
ri pe
ch es
Ġbeef ste
ĠC ilantro
Ġth ick
ump lings
oc chi
ĠM exico
ĠR ub
bur y
ett y
Ġbon net
ĠJ ello
Ġas af
row ave
ĠPast a
Ġbak ed
Ġgro uper
Ġshortc rust
Ġlay er
Ġsard ines
Ġpri me
Ġgn occhi
Ġsavo y
ĠRec ipe
Ġbeefste ak
f ro
m us
m ade
o re
u f
u x
Ġ ad
al co
Ġch ay
Ġo ri
Ġpe tit
Ġsalt ines
Ġt ex
uc h
ine d
Ġbro il
Ġj apanese
Ġh um
Ġli tt
Ġlight ly
Ġcan c
ĠO regano
ĠTo p
Ġtri mm
Ġkiw is
Ġsi ze
Ġcro cker
Ġcle ment
ĠSh ort
Ġjar s
Ġtanger ines
Ġpock ets
ĠCon fectioners
Ġwaff les
ĠUn cle
Ġshan ks
stra p
ĠSto ve
ĠNon stick
Ġmic rowave
Ġhum mus
Ġlitt leneck
Q u
Ġ Qu
Ġb urg
Ġp er
Ġp itas
al er
at el
at ta
Ġm alibu
Ġf ree
am ate
un t
Ġt am
Ġso uthern
ch atel
ab y
ab atta
Ġd r
Ġk norr
ĠC ran
Ġmo st
Ġra w
Ġra ck
Ġci abatta
Ġgo ya
Ġpu re
ĠO reo
amom ile
Ġspagh ett
ith er
Ġnectar ine
Ġrot elle
Ġgum bo
Ġglut amate
ĠY o
ĠSt uff
ĠSec rets
Ġsuper fine
ĠMo zzarella
acc ioli
gan ic
fro zen
uf chatel
Ġori ental
Ġmost accioli
Ġspaghett ini
B Q
c ated
o e
u zo
y s
Ġ lic
Ġ reser
Ġc akes
Ġb atter
Ġp ump
ic cated
Ġo uzo
Ġm ag
Ġf ries
Ġco r
Ġwh eel
us h
or ice
Ġcorn ich
Ġy am
ĠB aby
ĠB BQ
ose mary
Ġgo ose
ĠF ontina
ĠF ritos
Ġman is
ĠG al
ĠR osemary
Ġpack aged
ĠMar shmallow
Ġdes iccated
Ġhar icots
ĠCar ro
Ġplanta in
ĠBar illa
ĠPast ry
ĠCur acao
Ġcourg ettes
ĠBanan a
bro wn
ĠPec ans
alco holic
Ġpetit e
Ġtrimm ed
Ġlic orice
C ola
f ort
f ruit
er el
Ġb at
Ġb un
es qu
Ġch amomile
Ġpe p
Ġv alley
it z
ad a
gh orn
ĠC oca
Ġhe mp
Ġcon es
zz le
est ion
ee led
Ġcap er
Ġde mer
Ġfo rest
Ġe ither
Ġhom e
Ġsor rel
Ġrefri ed
ĠFi esta
Ġdi pping
ĠZ ucchini
iz er
Ġunp eeled
Ġpet als
ĠMeat balls
Ġburg ers
Ġtam ales
C ING
O L
e a
e an
g th
m o
o ori
o etida
r ic
r aspberry
z u
Ġc amp
Ġs il
ar y
Ġo re
at ar
at ure
la de
li ano
el led
Ġgre y
is ter
Ġblack strap
Ġli ver
Ġsh elled
Ġal um
ĠC lo
ir on
ill s
ĠI CING
Ġbo ra
Ġbo sc
id es
ĠCh achere
lass ic
ĠV alley
ĠA v
Ġtender izer
Ġlen gth
erm uda
Ġbar s
Ġor ganic
and oori
ico ise
Ġe ps
ĠBrown s
Ġne ufchatel
Ġcit ron
Ġkum ara
Ġtw ist
vado s
Ġear l
Ġkumqu ats
ĠWal nuts
ĠMexic an
Ġover ripe
ĠGal liano
Ġdemer ara
E E
I T
c a
c ass
e on
g en
j ap
p an
er a
Ġp it
Ġch an
Ġg odiva
Ġsalt s
en th
en ade
ur st
Ġt andoori
ick el
is ion
Ġr un
Ġn ori
app i
Ġcar cass
Ġz a
Ġz infandel
ress ed
Ġket jap
Ġl unch
ĠM on
ĠM uenster
Ġta ils
ĠD ew
ĠR hubarb
ok neck
Ġac id
ard i
Ġgr am
Ġgr ind
Ġlo ts
ern ickel
Ġcro okneck
ĠCorn starch
ele v
Ġcit ric
chi ette
urs in
Ġbak ers
Ġpersimmon s
ĠGraham s
ari ation
Ġpiero gi
Ġfinger ling
Ġlon ghorn
Ġcavat appi
ĠCom fort
Ġasaf oetida
ĠYo gurt
ĠStuff ing
Ġpump ernickel
Ġmag gi
Ġpep itas
ĠAv ocado
Ġeps om
Ġlunch eon
M onterey
R I
b les
e i
f illed
s o
s nap
u ie
Ġ iron
Ġc ast
Ġs ze
Ġb alm
Ġm ack
Ġm esqu
Ġg ame
Ġw ash
ur i
li s
Ġle gs
mon ia
Ġh ul
ay o
Ġd ig
Ġcar ton
Ġcar bon
Ġginger bread
Ġginger snap
ĠS ides
se cco
Ġbo ursin
tt i
ĠT elev
ĠM ed
Ġnon alcoholic
ĠF la
ĠD r
ĠD el
ĠA r
Ġcap ellini
Ġpro secco
Ġpreser ved
amb uie
ard elli
Ġun cle
ĠL o
Ġtap enade
Ġe mm
Ġrig ate
Ġam monia
ĠTh yme
Ġcal vados
Ġamar etti
Ġscoo ps
ĠRol ls
Ġglycer in
Ġkir by
ore an
Ġbora x
Ġpit ted
enth aler
Ġmack erel
Ġmesqu ite
Ġcarbon ated
ĠTelev ision
Ġemm enthaler
D E
E D
U CE
c ut
f r
g ies
i ar
o range
Ġ eye
Ġb u
Ġb ub
Ġb etty
Ġb ush
Ġb ermuda
Ġm ort
Ġsu gg
Ġt ip
Ġgar den
el p
it y
ve lo
Ġh idden
is ing
Ġblack ber
ab les
up reme
da ho
Ġal ph
ĠS upreme
ĠC rumb
ir ardelli
Ġra bb
est ive
ĠB U
ent ial
Ġman icot
ĠG odiva
ser ve
Ġde er
Ġen velo
ĠÂ ®
ern et
Ġess ential
Ġarb ol
Ġproces s
ĠGra vy
ĠSA UCE
Ġcav iar
Ġpock et
sc ar
Ġdash es
chu an
Ġdr ambuie
Ġcornich ons
ĠMarshmallow s
Ġsil ver
ĠClo ves
Ġdig estive
Ġbub bles
Ġsugg estion
Ġblackber rie
Ġrabb it
Ġmanicot ti
S E
T A
b en
c chiette
e k
i ter
j o
r ami
s ch
Ġb est
al ang
Ġg em
Ġf ines
li t
Ġco bs
Ġcre pes
us t
Ġh awaiian
co vado
Ġmus covado
Ġpar ch
Ġbre ak
ab lis
Ġn icoise
Ġli ke
Ġbread sticks
Ġk elp
Ġcar nation
Ġro ots
Ġpast rami
ĠS T
ĠS riracha
ĠC al
ĠC rumbs
Ġth aw
Ġnut meat
ire ction
Ġmargar ita
ĠB A
ĠB en
ĠB alsamic
ĠB ibb
ĠT ri
Ġzest y
ĠM I
ĠM AR
ĠD o
ĠR itz
Ġfil ets
Ġgrat in
Ġri b
Ġslic ed
Ġpro gresso
Ġgr illed
Ġflax seed
Ġling on
Ġsau vignon
Ġsk inned
ĠL ight
Ġi daho
ĠN o
amar i
ci al
Ġgu ar
Ġbeet root
ryst al
Ġver t
Ġver ts
Ġver ben
Ġcal amari
Ġpat ty
Ġsup reme
Ġcrystal lized
Ġpiero gies
Ġbir d
ĠShort ening
Ġpure ed
Ġreser ved
Ġore cchiette
ills bury
Ġrun ny
Ġnutmeat s
irection s
Ġverben a
I ON
c arb
e ad
f ast
n s
o f
u ro
u ed
v ing
Ã ¨
Ġc ed
Ġc ul
Ġc ured
Ġc lassic
Ġs wed
at ch
Ġm a
Ġg alang
ter elle
Ġso fr
it an
et ter
us ed
ran ean
ab o
ber gin
ap ed
Ġk ind
ĠS esame
Ġth ree
ers ion
Ġcur ds
ĠD umplings
ĠV ariation
Ġri s
uck y
Ġde cor
Ġlo af
Ġherb al
Ġbott om
ĠAl uminum
Ġed ible
ĠCar amel
Ġam er
ĠTh ree
si zed
Ġamar anth
ko e
inf used
Ġmini ature
Ġdrum sticks
Ġau bergin
ĠCarro ts
Ġsze chuan
Ġhul led
iter ranean
Ġparch ment
Ġbreak fast
ĠMI X
ĠMAR INA
uro pe
Ġced ar
Ġsofr ito
Ġdecor ator
Ġaubergin es
A M
c ardi
h er
l ini
o h
o ut
o ver
p n
p o
s in
t el
u ji
y d
Ġ ag
in is
ic a
Ġm ayo
le t
Ġg rn
Ġf ast
Ġf uji
Ġpe g
Ġpe koe
ur ing
Ġbutter finger
Ġgre ek
Ġd andel
Ġd irections
Ġse itan
Ġbread stick
ĠS u
ĠS til
qu et
ĠB uffalo
Ġpie ce
Ġbou quet
ĠV odka
ĠG la
Ġmango s
ĠO r
Ġbarbec ued
lan d
lan ched
Ġel der
ĠCo untry
Ġes c
Ġcas s
Ġpre made
ĠBo ston
Ġsi zed
ol ks
Ġsandwich es
Ġhom em
Ġph iladelphia
Ġshav ed
Ġam ber
ĠY olks
IE S
Ġgro ats
ĠCrack er
Ġbra uns
Ġcourg ette
Ġcapsicum s
Ġdash i
Ġbur ger
Ġturni ps
ĠFo il
ĠTur key
Ġgumd rop
ux e
Ġcanc ampbell
Ġcamp ari
Ġchan terelle
ei ger
Ġbu ds
Ġthaw ed
ĠDo ugh
Ġamer ican
ĠMARINA DE
Ġgrn d
Ġdandel ion
Ġhomem ade
B rien
O R
S EL
c om
c ured
e as
g ento
h ead
m ans
o unt
p er
t re
Ġ ries
Ġ ach
Ġc ri
Ġs ing
ar gento
Ġb lade
Ġp ur
Ġp as
Ġp ressed
Ġo scar
li ss
Ġpo d
Ġgar ni
it es
ra ising
Ġh pn
co tti
is co
Ġblack ening
ab et
up le
Ġk ash
Ġk ello
ano ut
ĠC ap
ĠC oti
ĠC rystal
Ġsweet ened
ĠB lue
ĠCh amb
Ġlow fat
ĠPar ma
ĠR a
ĠR ED
Ġfil e
Ġbran d
ĠCo ating
ĠButter scotch
Ġbis cotti
ĠL A
ĠWh i
alo rie
ĠDij onnaise
ĠN O
Ġwra pper
Ġunb lanched
Ġsna cks
Ġph eas
ĠSh rimp
Ġam ount
Ġfar ro
ĠY east
ous e
Ġne ck
colo r
Ġbox es
fine d
ĠCur ry
oti q
Ġturni p
Ġmel ts
chw eiger
Ġalph abet
ĠStil ton
ĠGla ze
Ġbrauns chweiger
tre al
Ġries ling
Ġhpn otiq
ĠCoti ja
ĠChamb ord
c lo
c ith
d ried
f resh
i ote
l am
m s
m y
o ur
p illsbury
r one
t ured
w l
Ġc ach
er os
Ġb er
Ġb al
Ġb en
Ġch ablis
an a
Ġo x
Ġo reo
Ġg iblets
Ġw ag
am in
Ġv it
Ġpo uring
as ter
Ġco s
Ġco red
Ġba cardi
Ġle cith
et chup
ra isin
Ġh en
Ġh anout
ad ella
ch ee
ge on
Ġsh ot
egetab les
Ġk orean
Ġbell y
ĠC lam
av ender
alt ine
Ġz ucch
Ġcra bs
Ġfla vo
est rone
ĠB arb
ĠP ro
ĠP ick
Ġflak ey
Ġcab ernet
ag er
ĠK etchup
ĠV egetables
ĠG OL
ĠR icotta
ett o
Ġbon es
ĠSal mon
Ġblan co
ĠBrown ie
ol ut
Ġmin ts
Ġmin estrone
aj illo
Ġcit rus
ĠStraw berry
Ġwaff le
ĠBanan as
TTE R
Ġtost ada
Ġly chee
Ġov altine
Ġclement ines
ĠCran berries
Ġbat h
Ġlength s
Ġgalang al
urope an
ĠSu bstitute
Ġesc ar
Ġach iote
Ġcri mini
ĠBlue berries
clo th
Ġcach aca
Ġwag on
Ġlecith in
ĠClam ato
Ġzucch inis
ĠGOL D
F F
S P
U SEL
c akes
c alorie
e bur
h iladelphia
i en
i ed
m ettes
r ich
Ġ eno
on ge
on ade
re fined
ro ces
ro gen
Ġm ayer
Ġsu et
la ger
un can
Ġt y
Ġpo uch
Ġcheese cloth
as ed
as ser
ed s
Ġj un
Ġbe ch
is ts
ap e
Ġbeef y
Ġal so
ell man
Ġchi ff
Ġsp onge
th ouse
ot es
ĠS tar
se e
ĠC r
ĠC RU
ĠW or
Ġseasoning s
Ġpi geon
ĠB ell
ĠP hiladelphia
Ġleaf y
mer cial
Ġmac ad
ĠD ill
Ġstal e
Ġmacar oons
Ġbou ght
uck le
Ġho thouse
Ġun refined
Ġen g
ĠH o
Ġser ving
ess on
Ġbul k
RE USEL
Ġgu ajillo
Ġver a
Ġmin ute
ĠGo ld
Ġam ino
Ġpass ata
ph a
Ġcroiss ant
GRE TTE
Ġmon de
ĠPu dding
Ġtw ists
Ġbratw urst
Ġscoo p
Ġdrum mettes
AN D
ĠApples auce
Ġmel ba
Ġti ps
Ġchay ote
RI SP
ĠBU TTER
Ġenvelo pe
sch lager
ĠST REUSEL
ĠBA SE
yd rogen
Ġag ave
Ġpas o
ĠRa isins
Ġvit amin
ĠBarb ec
Ġescar ole
ebur n
Ġbech amel
Ġchiff onade
A T
I GRETTE
V EE
Z E
c ream
g ran
g ent
t ure
w ax
z anilla
Ġ ind
Ġb alls
Ġp a
Ġp ac
al e
ic y
ic al
Ġch at
Ġo ce
Ġm ignon
pp a
Ġf in
Ġw is
am ia
ter gent
li ght
Ġt ra
Ġt ight
Ġt ables
Ġh uckle
ch ased
Ġn ig
Ġd utch
con sin
Ġal oe
Ġsp lit
Ġmar y
ĠC ereal
av orite
Ġwal ley
Ġra p
Ġbo wl
ĠT w
Ġl ar
ĠM er
ĠM uff
st ini
ĠF avorite
ĠK RISP
ĠV eg
ĠV EL
ĠV INA
ĠG LA
Ġdri zzle
Ġde tergent
Ġac ini
Ġho use
tion s
Ġlingu ica
arm s
Ġsk im
Ġsli vers
Ġgold schlager
ĠSe eds
ĠBro cco
Ġcantaloup es
Ġgum my
Ġcut let
Ġpr al
ĠChi ves
wh ole
ĠCar ibbean
ĠY ellow
Ġrefriger ator
if ied
Ġmor sels
ĠGr ill
Ġrub b
ON E
Ġwor ks
Ġwor ms
Ġunp roces
Ġcom mercial
Ġchay otes
Ġtex as
Ġgoose berries
ĠMon te
Ġmort adella
ĠCal ifornia
ĠTri ple
Ġpur chased
Ġty pe
Ġmacad amia
ĠBarbec ue
VEE TA
Ġoce an
Ġwis consin
Ġtight ly
Ġhuckle berries
Ġnig ella
ĠMuff ins
ĠKRISP IES
ĠVEL VEETA
ĠVINA IGRETTE
ĠGLA ZE
Ġunproces sed
Y RU
a il
c al
g li
h irardelli
k an
k en
o on
u ld
Ġ (
Ġ ab
Ġb etter
Ġp lank
Ġp ina
es ter
in ato
Ġch ar
Ġm iz
Ġpo pped
Ġpo ls
Ġco uple
Ġba go
ran ds
Ġn i
Ġli ve
ef ort
Ġk ef
les hed
Ġcel eri
bs olut
ĠS YRU
ĠC H
ĠC ab
ĠC HI
ir l
qu efort
ĠW esson
Ġgra y
ĠB r
ĠB ug
pe z
ĠT ender
ĠM a
ent ucky
Ġgo ji
ĠF ruit
Ġta il
ĠD uncan
ĠG enerous
ĠG hirardelli
Ġcub an
ĠA bsolut
Ġmeat less
ĠCo pha
gra ined
ĠMar aschino
ink ies
ĠL AND
ĠH or
ĠH ONE
di al
Ġcrisp ly
Ġround s
Ġcl ar
ition s
Ġwith out
lid ay
Ġfettucc ini
berg ine
ĠTOPPING S
ĠCorn meal
Ġspread able
ĠSh erry
Ġcup cakes
ĠRo quefort
qual ity
Ġpers on
Ġamar etto
Ġdi et
Ġmon k
Ġdecorat ive
ĠLi qu
Ġscallop ini
Ġhaban eros
bb les
Ġgi ant
Ġgi ard
rop ical
ĠMan go
ĠMan chego
ĠRol led
Ġglycer ine
CO A
ĠCO COA
Ġgumd rops
Ġtex tured
Ġclement ine
ĠQu ick
Ġcor dial
pan im
Ġcarton s
ĠMed al
ĠFla vor
Ġlingon berry
Ġelder flower
com panim
rich ed
Ġpac e
ĠTw inkies
Ġrubb ing
Ġpols ka
Ġceleri ac
ĠSYRU P
ĠBug les
ĠHONE Y
A L
D D
M B
S A
Y ER
a o
b u
p oons
r m
r al
u la
v en
w ise
y fish
z il
Ġc law
Ġb isquick
Ġb liss
es wax
an ding
at elli
Ġm cco
Ġpe els
Ġsu b
Ġsu c
Ġv ine
Ġv ersion
Ġt ropical
Ġba ke
et z
ri d
Ġbe eswax
Ġd al
Ġd ra
Ġse ash
Ġse ven
sh aped
Ġst rands
Ġk ey
ĠS m
ĠC avender
Ġpor ter
Ġmo rel
ĠI f
ini era
Ġcra yfish
ff y
est les
ĠB ran
Ġbo b
ĠCh erries
ĠCh ampagne
ĠP an
mar t
ash i
ĠM ort
st ic
Ġto ps
ĠF or
Ġboil ed
Ġcan pillsbury
ĠR ea
ĠA n
ĠA DD
Ġan y
Ġqu ail
Ġpla stic
Ġte mp
Ġspice d
ĠE uropean
Ġher ring
Ġhear ty
Ġel k
ĠMar gar
Ġen riched
ĠH idden
Ġmarin ated
ĠPe bbles
ĠMilk y
ĠN uts
uy Ã¨
Ġwra p
RE O
Ġnew man
ĠBe ef
Ġfra gran
ambo ise
ĠCa esar
ĠFro zen
par e
Ġblo od
Ġblo cks
Ġcampbell s
Ġsw ai
Ġfar mer
Ġfar ina
ĠSa u
ĠGre at
ĠNut ella
bin ation
ĠGr uyÃ¨
Ġbr ick
Ġbra zil
Ġnugg et
au x
ĠTortilla s
Ġcom bination
che es
ĠFo ur
Ġin ches
Ġbir ds
Ġau bergine
Ġly chees
Ġfr amboise
ches tershire
ĠCran berry
zu ki
IT ION
ĠLo pez
ĠCrumb le
ĠLA YER
ĠPro gresso
ĠPick ape
ĠCRU MB
Ġeng lish
Ġamino s
Ġtables poons
Ġlar ge
Ġpral ine
Ġbago f
ĠMa jor
Ġmonk fish
Ġgiard iniera
Ġmcco rm
Ġseash ell
ĠCavender s
ĠRea L
ĠADD ITION
Ġfragran ce
ĠGruyÃ¨ re
ĠPickape ppa
I D
M P
M EL
b anan
b ack
b lend
c ed
c inato
d on
e er
e mon
f in
i zed
k ins
k ish
m en
p en
u is
v et
Ġ __
Ġp unch
in ing
an c
Ġo wn
Ġm au
Ġsal ata
Ġw itch
am ps
la ce
eg a
Ġoil s
Ġco ti
el uxe
el vet
Ġso ck
Ġle che
mon t
wn y
me ister
Ġr ash
ber e
Ġd umplings
Ġcho w
Ġchil li
Ġk no
Ġk entucky
Ġro ux
Ġbas ket
ot to
ĠC ucumber
Ġuns ul
ĠB ree
Ġbo ys
ld s
rat ed
allion s
Ġta gli
Ġta wny
Ġman zanilla
Ġsqu id
ĠD ried
Ġcan m
Ġcan ister
ĠO REO
ĠR amen
ĠR aspberry
Ġhal ib
uck ers
Ġhead s
Ġla cinato
Ġun seasoned
ĠH OR
di ments
ĠÂ ¾
Ġbon ito
Ġpan ir
ĠJ ager
ip er
ĠBrown ies
ĠCa uliflower
Ġsna ck
Ġcle an
Ġhoneydew s
Ġsto ve
Ġgla zed
Ġlin ers
Ġmed iterranean
Ġpackage frozen
ho use
Ġfrankfur ter
ĠHe ar
Ġdai ry
__ _
act us
ĠMushroom s
ible t
Ġgingersnap s
Ġgem elli
Ġris otto
ĠWhi pping
Ġpheas ants
Ġber bere
Ġox tail
Ġflavo ur
Ġpouch es
Ġjun iper
ellman ns
ĠCH O
Ġclar ified
ĠMargar ine
ĠSau vignon
ĠReaL emon
banan a
Ġ__ ___
Ġmau i
Ġcoti ja
Ġsock eye
ĠBree ze
Ġboys en
Ġhalib ut
ĠHOR MEL
ĠJager meister
0 0
A CO
C KE
I CE
O O
O U
a e
a z
a co
b i
d le
f leshed
g et
k er
m ite
o o
o ro
s w
s alted
u er
w ashed
y aux
Ġ +
Ġ infused
Ġc actus
Ġs mi
er iyaki
Ġb uc
Ġb or
Ġb ella
Ġb rus
Ġb isqu
on zu
Ġp lan
es c
es h
in z
il ing
at elle
Ġm c
Ġm ut
Ġm ey
Ġm iss
Ġf le
ut es
Ġche e
Ġv i
Ġt s
Ġt abasco
Ġpo st
Ġco le
Ġso uth
Ġsa go
ri o
ri zzle
Ġbe ar
Ġwhite fish
Ġpar ma
ab isco
Ġr amps
Ġn iblet
Ġd eluxe
Ġsh uck
da e
con a
Ġk am
Ġk aro
Ġcar ame
Ġmar mite
Ġsoy bean
Ġpast as
ĠS k
ĠS er
ĠS te
ĠS andwich
ant i
ĠC ock
qu ar
Ġth oro
ĠW ax
Ġclo ver
ac le
ĠP icante
mar ine
ĠT ea
ĠT ACO
ĠT eriyaki
ĠM A
Ġto get
Ġnon pare
ĠD rizzle
ĠG in
Ġsm uckers
ĠO f
Ġan n
Ġde mi
Ġsun dae
fla vo
ĠCo w
Ġpack ag
ith ra
Ġsmok y
Ġho liday
Ġla w
Ġbar illa
cho colate
ugh ly
ĠH er
Ġjam a
ass over
Ġfi esta
uy per
ĠMix ed
ĠBo iling
Ġpl us
Ġfav our
Ġa j
ĠBe an
Ġcro stini
Ġlump ia
ma ining
LA TE
Ġmatzo s
Ġcup cake
ĠSA L
Ġno yaux
Ġpackage j
Ġmul berries
ĠPast e
ĠBurg ers
ĠZ infandel
Ġfarf el
Ġrutabag a
ĠAlmond s
ĠMo lasses
Ġgi zzar
ĠMeat loaf
CO LATE
Ġov al
Ġad zuki
Ġbroil er
Ġper ch
ys on
uri zed
Ġcul antro
Ġswed e
atch ers
Ġbottom s
Ġkello gg
Ġbal kan
ĠStar ter
Ġmiz ithra
ĠBr ine
companim ent
Ġsub marine
etz le
ĠMort on
ĠADDITION AL
Ġtagli atelle
ĠCHO COLATE
sw irl
Ġmut ton
Ġsouth w
Ġshuck ed
Ġcarame lized
ĠCock tail
Ġthoro ughly
Ġtoget her
Ġfavour ite
E T
E AN
N D
U B
U FF
V OO
a q
a der
b ine
b ake
d ra
g ed
h ar
i k
j ang
m ate
o p
o y
o ff
o che
p t
v oca
w ine
w urst
x ing
Ġ is
Ġs at
Ġs ni
Ġb ens
Ġp un
Ġp onzu
in ary
il y
al ly
al ity
at ini
at to
Ġm u
Ġf ri
ut er
Ġpe pp
Ġpe te
Ġw ish
eg ular
Ġche es
Ġche ap
Ġv elvet
Ġon e
Ġt re
Ġt ran
Ġt ot
uc a
el y
Ġcre ma
Ġbro ad
Ġbro ken
Ġj oe
Ġh ing
is c
Ġbre w
ast ing
or k
Ġr ich
rn off
Ġcorn ish
Ġd ream
Ġsh ao
ry s
Ġst on
Ġst ill
Ġst rand
Ġk abo
ell oni
Ġro me
Ġro ds
Ġsp i
Ġsp oon
ĠS chnapps
ĠS argento
ka ke
ĠC ro
Ġth en
Ġfro st
Ġmo ose
Ġhe at
Ġmix ture
ĠB ix
Ġvirgin ia
ood les
int osh
ĠP assover
asp berries
ĠM as
ĠM int
Ġtar o
Ġrom ana
ĠK ernel
ĠSp ray
ĠV irgin
Ġsm ashed
Ġcan ro
ĠR egular
ĠR aspberries
ĠA mar
bo rio
Ġan is
Ġqu ality
ct ang
Ġspa etzle
Ġar om
Ġar ils
fla ke
ĠE VOO
Ġre ctang
Ġgel ato
Ġran ge
Ġjack fruit
Ġbis on
no li
bas il
Ġbri oche
ĠH ellmanns
ĠWh ites
Ġlo x
ĠPe ach
Ġi mp
ĠN estles
ĠN oodles
Ġchipot les
Ġsum aq
Ġa ioli
Ġgh irardelli
ĠRed di
Ġmat cha
Ġver mont
Ġsnap s
ĠChi ve
cor d
ĠRom a
ĠSh redded
ĠChil e
Ġsamb uca
Ġstri p
ĠSt yle
Ġspear s
Ġmon treal
ĠZ est
Ġbra eburn
ĠUn salted
Ġalco holic
Ġshan k
chu jang
Ġkumqu at
Ġlon don
Ġcavat elli
Ġad voca
Ġper cent
ĠMon treal
Ġwash ing
uri kake
ĠMed iterranean
ĠAr borio
ĠCrumb les
Ġpatty pan
ĠVariation s
Ġcass is
Ġsing le
Ġsing les
Ġkash a
Ġwalley e
ĠBrocco lini
Ġkef ir
ĠHor seradish
Ġporter house
Ġoxtail s
CKE N
Ġsmi rnoff
Ġbuc atini
Ġmc intosh
Ġfle ur
ĠSer rano
Ġnonpare ils
Ġann atto
flavo ured
ĠSAL SA
Ġsni pped
Ġtran s
Ġtot al
Ġkabo cha
Ġfrost ed
Ġadvoca at
B utter
J ack
K S
T U
b rien
c el
c rack
d d
e en
g ery
g lace
h ydrogen
i ri
j on
k ay
k ka
l ra
o gen
p ets
p ineapple
t ose
z n
z es
Ġ lu
Ġc app
Ġc rum
Ġs lo
Ġs argento
er to
Ġb l
Ġb und
Ġb lu
Ġb len
Ġb russels
on dra
Ġp k
Ġp app
es an
ic es
ic ory
Ġch icory
re ast
ro d
ro x
Ġo ct
Ġm et
Ġm ill
Ġm ung
Ġm elt
Ġg ri
Ġg lasses
Ġf ire
Ġf anc
Ġw ien
Ġsu ri
ion s
un ky
Ġt bs
Ġground ed
uc tose
Ġco con
el atin
Ġj ag
ra ft
Ġju icy
Ġh ell
Ġh ok
Ġh ydrogen
Ġbe e
Ġbe at
ad as
ch etta
Ġmus c
Ġbrown er
ran i
ran ges
Ġn ama
Ġn esc
app les
Ġse le
Ġse uer
Ġk e
Ġk on
Ġk oh
Ġk asser
Ġro o
Ġro s
Ġsp oons
th ur
Ġmar z
ĠS P
ĠS coo
ĠS mart
ĠC rus
ĠC rescent
ĠC routon
ĠC RE
ĠC ustard
ĠC amembert
av arian
ir am
ĠW ondra
Ġcon ch
ĠI n
Ġwal ker
Ġra cks
Ġpi quil
est y
ĠB avarian
Ġham bur
ĠT ar
ĠT aco
ĠT yson
Ġpaste urized
Ġpumpkin seed
Ġsc rod
Ġto rani
ĠF arms
ul ti
ĠK aiser
ĠSp arkling
ĠG ala
ĠG elatin
Ġcan ch
Ġrind less
ĠO ranges
ĠR e
ĠA dd
Ġfruit y
af e
Ġde pen
Ġre ca
ett one
ĠButter y
Ġcann elloni
IN S
ĠL oc
ING ER
Ġlo cal
Ġserrano s
Ġpan ettone
Ġpomegran ates
Ġanise ed
ĠJ ell
ĠJ alap
Ġas ader
Ġfo l
ĠOli ves
Ġsprink ling
ĠLe aves
Ġhom ogen
ob a
rigin als
Ġmin ced
Ġmin utes
Ġbag ged
wh ite
ĠY OL
Ġmed allions
Ġno p
Ġstick y
bl er
Ġassort ment
ĠBas mati
ĠHe inz
Ġfinger s
Ġpet al
ĠMexic orn
ĠHam burger
Ġfr uctose
Ġti ger
ĠShort bread
ĠQu inoa
Ġpackaged ry
ĠCarro t
Ġlength wise
Ġcast le
Ġcast or
ĠFla kes
ĠDel uxe
Ġlingon berries
Ã¨ me
Ġris oni
ĠMIX TU
Ġeno ki
ĠHo isin
Ġind ian
Ġpa ul
Ġfin ely
Ġtra il
ĠCHI CKEN
ĠLiqu id
Ġdra ined
ĠSm ok
Ġblood y
uis ian
Ġrash ers
Ġkno b
Ġbrus chetta
Ġmey er
Ġmiss ion
ĠMA ID
Ġjama ican
op us
Ġsat ay
Ġfri see
Ġtre acle
Ġshao xing
Ġspi ke
Ġanis ette
Ġarom at
ĠPeach es
hydrogen ated
lra bi
Ġcrum pets
Ġoct opus
Ġfanc y
Ġwien ers
Ġsuri mi
Ġtbs ps
Ġcocon uts
Ġjag gery
Ġhell mans
Ġnesc afe
Ġkoh lrabi
Ġkasser i
ĠCrouton s
ĠCRE AM
Ġpiquil lo
Ġdepen ding
Ġreca ito
Ġasader o
Ġhomogen ized
ĠYOL KS
ĠMIXTU RE
. .
C H
E C
F INGER
L I
U T
V E
b q
b etty
c il
c ur
c Butter
d es
e Ã
e ed
e quila
g io
h eim
i v
i ano
i bo
j ust
k ets
l lo
m ano
n ic
p r
p la
p ressed
s y
s chw
t land
t ega
u lade
w eg
w ood
w ash
x o
z esty
Ã §
Ġ ano
Ġc ad
Ġs as
Ġs co
Ġs and
Ġs anding
er us
Ġb esan
Ġb bq
Ġp ic
Ġp isco
Ġp ale
Ġp sy
in king
in ts
al em
gar oo
Ġch achere
re au
an garoo
ro se
Ġo ax
Ġo riginals
Ġm uch
pp o
pp le
Ġg lit
Ġf re
Ġf ill
Ġf esh
Ġw atchers
en d
eg round
eg ran
Ġche w
Ġv ic
Ġt en
Ġt able
Ġt inned
Ġpo pping
Ġcheese cake
Ġso ho
om bu
om egran
Ġba har
res ca
Ġj erus
Ġh us
Ġh ines
Ġh iram
ri a
Ġred di
Ġbe au
ad ew
ch ur
Ġbrown ies
ast ed
or weg
Ġd aniels
Ġsh red
Ġsh aped
Ġy ucc
Ġk raft
Ġk angaroo
Ġk ombu
Ġal mo
ĠS pe
ĠS queezed
ĠC le
Ġmo ist
Ġclo th
Ġclo ud
Ġcon ver
Ġcon cord
od d
Ġgra de
Ġapp rox
Ġrais ing
ĠB on
ĠB lend
ĠB ens
ĠB etter
ĠB reast
ers ey
id dle
int reau
ĠP unch
ĠP ern
ĠP omegran
Ġflak y
ĠT ris
ĠT equila
sp aragus
sp read
ĠM UFF
ĠM ulti
ĠM cButter
Ġice d
Ġgo chujang
st one
st itos
Ġpu y
ĠF eta
ĠF resca
ĠK it
ĠK ello
ĠK orean
ĠK abo
ĠV ersion
ĠG rated
Ġcan adian
Ġcan whole
Ġcan quar
Ġcan noli
ĠO xo
ĠR ot
Ġfil ter
ĠA pr
ĠA sparagus
Ġan g
Ġre mo
Ġac ai
ĠCo gnac
read y
ĠMar cona
Ġdo l
Ġdo es
cuit s
no lds
Ġlingu ini
ugu ese
Ġsk or
ĠL E
ĠH al
atur als
ĠPe corino
ĠN abisco
ib isc
ĠJ asmine
Ġcr Ã¨me
ĠBo b
fu red
Ġdough nut
ĠPepper s
Ġa gar
ĠCrust y
Ġe p
Ġe mp
Ġdish wash
Ġadd itions
PP LE
Ġfat back
lli um
ug at
ĠAc companiment
Ġcans p
Ġcans whole
ĠGra in
ĠDe corat
Ġam chur
ĠChil es
Ġmed al
Ġno ugat
Ġpackage fresh
Ġcornfla ke
Ġpat is
ĠBra eburn
Ġtruff les
Ġdi ppers
ĠU p
Ġwor chestershire
Ġear s
Ġshortc akes
Ġbur ritos
Ġkir schw
Ġin c
ĠTur kish
Ġtost adas
Ġfr zn
ĠCO AT
Ġthick ened
Ġasaf etida
Ġad just
Ġdr inking
Ġcor tland
ĠAr ugula
ĠLo w
Ġrib bon
Ġswed ish
Ġma ine
Ġcass ava
Ġkello ggs
ĠWhi pped
Ġpheas ant
FF EE
ien na
ĠBUTTER FINGER
Ġrap eseed
ĠMer lot
ĠMer ingue
ĠCab bage
Ġcuban elle
ral ose
Ġclaw s
Ġsuc ralose
ĠBran dy
Ġmccorm icks
Ġunsul fured
Ġbisqu e
Ġplan ters
Ġts ps
Ġlaw rys
Ġgizzar ds
Ġsouthw est
Ġpun net
Ġpepp adew
Ġston eground
ĠMas carpone
ĠRoma ine
Ġgri gio
Ġbeat en
Ġroo ibo
ĠScoo ps
ĠRe maining
ĠAdd itions
ĠLoc atelli
Ġfol low
Ġaromat ic
eÃ ±
Ġano ther
Ġcad bury
Ġpsy llium
Ġglit ter
Ġbahar at
Ġjerus alem
orweg ian
Ġyucc a
Ġalmo st
Ġconver ted
ĠBreast s
ĠPern od
ĠPomegran ate
ĠMUFF INS
ĠKello gg
ĠKabo bs
Ġcanquar tered
ĠApr icot
ibisc us
Ġkirschw asser
ĠCOAT ING
Ġrooibo s
A F
C K
E S
E AT
G G
L O
N AM
S H
U MP
a in
b ic
b re
b one
c innamon
c rust
d ry
d sh
f irm
f ore
j ell
j eel
k ato
k om
m ish
m ild
m ment
n es
o gs
p eri
r u
r as
r uc
r bic
t ini
u le
v arian
w ater
y rian
y nolds
z y
z or
Ġ asco
Ġ under
Ġc utter
Ġc ling
Ġs chn
Ġs ashi
er ic
ar jeel
Ġb all
Ġb uit
Ġp ad
Ġp ate
Ġp eri
in er
in der
an e
an y
an uts
an ach
an ce
ro lo
ro mano
at t
Ġm ellow
Ġm ates
pp in
Ġg om
Ġg lue
Ġg len
Ġg odd
Ġf oc
Ġf iddle
ut ral
Ġpe pe
en c
Ġsu ey
la s
ter n
eg re
Ġv al
Ġv ienna
Ġon es
Ġt us
Ġt um
Ġt ake
Ġt ray
Ġpo ints
as y
lic ed
Ġgar net
Ġco ole
Ġco unt
Ġco intreau
ed les
ato re
Ġso le
Ġso ld
Ġso men
Ġba varian
it ter
it alian
it tle
Ġj oh
ra zy
Ġju ices
Ġh ung
Ġh atch
Ġh ibiscus
ri da
Ġred hot
Ġbe fore
ad ams
Ġpar ed
ab ok
Ġr h
Ġr on
Ġr ins
Ġr ame
ay ers
Ġd ino
Ġd ust
Ġcho ur
sh ey
Ġk l
Ġk erry
Ġk itchen
Ġal tern
Ġcar ne
ell er
Ġchi anti
Ġro e
Ġsp am
na ck
na heim
th e
Ġched der
Ġmar row
Ġbas a
Ġpast ina
ĠS I
ĠC IN
qu iri
Ġth ey
ill y
Ġex p
ĠW ish
Ġmo cha
Ġcon diments
Ġcra ft
ak er
ak en
Ġyellow fin
Ġra cle
Ġra zor
den t
lu ding
ame ter
ĠB ing
ĠB RO
ĠB liss
id u
Ġstra ined
int zes
ĠP re
ĠP ack
ĠP esto
ĠP ron
ĠP ork
mar ties
ash io
ĠT ap
ĠM ade
ĠM ous
ĠM EAT
mi ri
Ġgran ds
Ġgran ary
Ġste el
ĠF lo
ĠF rien
Ġsqu ir
ul f
ul ina
ĠD UMP
ĠK norr
ĠK razy
ĠSp rink
Ġpick ed
ĠG lo
ĠG ran
ew ers
Ġcan b
Ġcan white
ĠO N
ĠO R
ĠR ICE
Ġfil tered
ĠA PPLE
ĠA mish
ĠA naheim
Ġchile an
uff ed
Ġqu ah
Ġhal ve
Ġri p
Ġri se
Ġri pple
Ġinst ruc
ger ator
Ġcott on
Ġte asp
ĠE GG
ĠE mment
Ġre p
Ġre ynolds
ĠTo stitos
Ġcolo r
Ġcolo ured
Ġflat bread
ard s
Ġcaram bo
Ġpen cil
ĠButter nut
ĠButter finger
Ġbis to
orn ings
ĠL ayers
ĠH ol
ĠWh is
Ġlo uisian
ĠBa iley
ĠPe anuts
Ġale ppo
Ġfi g
Ġfi ber
ĠN e
ĠN u
ĠN atural
ĠJ el
Ġblan c
Ġcr u
ĠMix ture
Ġwild flower
Ġsec rets
ĠLe af
Ġmach e
Ġgl uc
im ate
Ġlard ons
ĠWater melon
Ġmatzo h
Ġbag frozen
Ġendi ves
ĠSh allo
Ġme as
ĠExtra ct
ĠCar damom
Ġpass over
ĠChil ies
Ġcal ab
Ġmed ley
Ġpackage of
Ġrock fish
Ġne edles
ĠBread ing
LING S
ON I
Ġdi ameter
Ġdai quiri
Ġpackages liced
Ġwor ld
ĠCon densed
ĠCon diments
fry er
ĠPap er
Ġspir ulina
ĠCook ie
Ġlay ers
ĠFo rest
Ġkir sch
acc ia
Ġtost itos
Ġov en
Ġti kka
ĠCom bine
Ġcornich on
Ġbat ch
Ġcamp an
IT ONI
Ġchan na
ĠAvocado s
ĠAr thur
Ġmort on
ĠBU ITONI
Ġcul inary
Ġma id
Ġma jor
Ġkash miri
ĠCap ers
Ġflavo ured
Ġeno ugh
ĠStar ters
ĠCr unch
ĠWor ld
ĠWor chestershire
Ġwalley ed
ĠBrocco li
ester n
ĠCab ernet
Ġperson al
ĠLiqu eur
Ġsuc rolo
rid ge
ĠPan cake
ĠAn des
Ġtemp ur
Ġmccorm ick
ĠHear t
ĠHear ts
Ġboysen berries
Ġboysen berry
az ote
Ġbor den
Ġvi ole
Ġbear naise
Ġkam abok
ĠSte via
ĠHer bs
Ġpackagej ello
ĠAmar ula
crack ed
Ġslo ppy
Ġbund les
Ġpapp adams
Ġmelt ed
Ġhambur gers
ĠJalap eno
bler one
ĠSmok e
cur d
iv idu
pla it
Ġsas kato
Ġpic nic
Ġoax aca
Ġvic to
Ġshred d
ĠCle ar
ĠTris cuits
Ġang us
Ġep azote
Ġdishwash ing
Ġinc luding
NAM ON
dsh ip
nes see
Ġasco rbic
Ġsashi mi
arjeel ing
Ġbuit oni
anach e
Ġgom ashio
Ġgodd ess
Ġfoc accia
Ġfiddle head
Ġtus can
Ġtum eric
Ġcoole d
Ġrins ed
Ġrame kins
ĠCIN NAMON
Ġracle tte
ĠPron to
ĠMade ira
ĠMous se
ĠFrien dship
ĠDUMP LINGS
ĠSprink les
Ġquah ogs
Ġinstruc tions
ĠEmment aler
ornings tar
ĠHol landaise
Ġsucrolo se
Ġkamabok o
Ġsaskato on
C LE
G E
G AR
M E
M ON
O K
P S
R A
R egg
R ise
S weet
U E
U ST
\ >
a gar
b le
b uc
b ps
b led
c s
c atelli
e b
e h
e la
g rated
h u
h an
h redded
i der
i ps
i atore
k norr
k inned
l illo
m ayonnaise
o ise
o ok
o uld
p re
p tion
p tions
p uffed
r am
s ary
s kinned
t ine
t ras
u a
u ette
v ar
v anilla
w ell
w ain
y our
y pt
z a
z oni
® che
Ã ©
Ã ®che
Ġ #
Ġ â
Ġ lat
Ġ eyed
Ġ ahi
Ġ inf
Ġc ir
Ġs low
Ġs marties
er ra
er ib
ar oni
Ġb ick
Ġb ig
on es
on ion
Ġp ion
Ġp ats
Ġp itch
in c
in ute
in ce
il a
il et
il te
al ina
gar ashi
Ġch ap
re w
re ng
re os
re ls
an ch
an dar
an ada
Ġm alted
Ġm exico
le mon
Ġg er
Ġg ef
Ġg ener
Ġf al
Ġf ix
Ġf ontin
Ġf ide
Ġf ei
Ġf arms
Ġf urikake
ut ion
Ġw ould
Ġsu sh
ter ol
ur es
ur ri
ur ger
ing u
eg ro
lo r
lo red
Ġv elveeta
Ġv ariation
Ġbutter f
Ġbutter beans
Ġbutter cream
Ġt ub
Ġt ang
Ġt bps
Ġpo le
Ġpo llo
und i
uc ester
Ġco mple
el tzer
ed ded
Ġflo ured
Ġle ft
Ġflour y
Ġsa ck
Ġsa uter
et h
et o
et w
Ġj o
Ġj et
Ġj ust
Ġj ersey
us se
us ters
us ki
Ġfresh ley
Ġh ake
ri st
Ġwhit ing
Ġbe aters
ch et
Ġmus t
ge at
or s
Ġn ett
rn a
Ġli p
Ġd arjeeling
Ġcho wder
Ġse aw
Ġsh iso
Ġsh edded
ap id
con es
sh aken
Ġst anding
Ġst andar
ef ish
Ġk risp
Ġk ahlua
Ġk uyper
Ġal umin
les terol
Ġchi m
Ġchi hu
Ġro d
Ġcel est
eet s
eet os
Ġginger nut
Ġbas ic
ĠS U
ĠS un
ĠS ugg
ĠS OU
ĠS eltzer
ĠC ole
ĠC AR
ĠC ider
av as
ir by
qu ettes
Ġth ins
ces sary
ĠW af
Ġpor tions
Ġpor ridge
ire po
Ġmo ld
Ġmo lds
Ġmo usse
Ġpine apples
ix ed
Ġcon fection
Ġcon tin
anan g
Ġra y
Ġra ys
Ġwhole wheat
est ring
ĠB E
ĠB ee
ĠB one
ĠB EAN
ĠB asting
ĠB urger
Ġbo ck
Ġbo ards
Ġbo lillo
Ġtur kish
ood s
ac aroni
ĠCh ip
ĠCh ablis
ĠCh unky
ĠCh eetos
ĠP ort
ĠP EAN
Ġbrocco flower
Ġbrocco lini
Ġshort ing
pe anut
ĠT ruff
Ġl ucky
Ġl ily
sp resso
ĠM ayer
ĠM aster
ĠM inute
ĠM acaroni
Ġsc ra
Ġgran d
rat a
Ġnon dairy
ĠF at
ĠF ry
ĠF ries
ĠF OR
ĠF urikake
ĠF ilet
ti e
Ġjalap eÃ±
iss es
Ġman ge
Ġmac a
Ġcherry stone
ss al
ĠD ry
ĠD rink
ĠPar migiano
ĠPar kay
ĠK i
ĠK irby
ĠK isses
ĠV eggie
ĠG anache
Ġsm elt
ĠO yster
ĠO scar
ĠO reos
ĠR ye
ĠR UB
ĠR apid
ĠA t
cent ed
Ġgrat e
ino us
Ġqu ince
Ġroast s
ĠE spresso
Ġgel at
bur g
Ġflu ff
ett uce
ĠTo othpicks
Ġpack ager
Ġcolo ssal
ich urri
Ġki m
gra pe
Ġcas ing
Ġoun ce
Ġbar rel
Ġbar ram
ira z
cho y
ah ua
Ġrad iatore
ĠL avender
ĠL ettuce
Ġbri quettes
Ġor tega
Ġor geat
ĠH ickory
Ġwarm ed
Ġsho estring
alo o
Ġlo catelli
Ġjelly beans
Ġpan eer
ĠPe as
Ġcl usters
Ġpre washed
Ġgold fish
Ġi vory
ĠN icoise
ati ve
Ġcr unch
Ġcr ud
Ġbul ls
ĠSe mi
ĠEgg nog
Ġdough nuts
Ġsi u
Ġgu avas
Ġtamar illo
ucc ino
Ġe qual
Ġe au
Ġe uropean
Ġe asy
Ġkiwi fruit
Ġgum mi
Ġfra is
Ġfra Ã®che
Ġbever ages
Ġcro ss
Ġspar erib
Ġstar buc
os odium
Ġcans s
Ġback strap
Ġback fin
Ġblo ck
Ġpee ps
wh ites
Ġhar icot
Ġam ish
yl ers
ens ive
ĠChil ean
Ġcal rose
Ġcal end
Ġwax y
Ġjar red
Ġno ir
ty pe
Ġkiss ables
Ġstick ers
Ġmul ling
Ġne utral
Ġne cessary
Ġcav a
Ġcav ender
Ġfres ca
Ġdi jon
Ġfrom age
Ġbox ji
Ġbox of
Ġmon osodium
ĠApple jack
Ġdecorat ion
Ġflower ets
Ġtw o
Ġpackages jell
Ġpackages hredded
AR B
AR D
Ġbra ising
ĠCoconut milk
ĠAlmond milk
Ġear ly
Ġcom ino
Ġstrong ly
ĠMan darin
Ġbur rata
ki en
ĠWal la
ĠTur meric
Ġtost ado
chw an
ĠCO OK
ĠShell s
ĠQu aker
Ġreser ve
Ġgoose berry
itz els
mo ur
Ġliver wurst
Ġcast ile
Ġenvelo pes
Ġsuggestion s
jo as
Ġrib eye
po wder
sin the
Ġelder berries
Ġbal ance
aster n
ĠCr unchy
ĠCr ud
Ġind ividu
Ġrap id
ĠGrill ers
Ġab sinthe
Ġni Ã§
ĠHor mel
ĠCRUMB LE
MP LE
Ġunsul ph
Ġkam ut
ĠSk ewers
Ġpackag egre
Ġaj wain
Ġchees es
Ġspoon able
ĠCro stini
ĠVirgin ia
Ġrectang les
Ġrectang ular
Ġcapp uccino
Ġbl intzes
Ġblu efish
Ġblen ded
Ġmet al
Ġhok kien
Ġkon bu
Ġmarz etti
ĠCrus hed
ĠTar tar
Ġnop ales
Ġcastle berry
LI C
Ġchew y
Ġten nessee
Ġapprox imate
ĠRot el
Ġremo ulade
ĠHal ves
Ġemp anada
Ġcansp icy
bre wed
kom an
Ġschn itzels
enc ia
Ġtray s
Ġhung ry
Ġrh ine
Ġdust ing
Ġchour ico
Ġkl uski
ĠSI MPLE
ĠPre tzels
ĠTap ioca
Ġsteel head
ĠFlo rida
ĠGlo ucester
Ġteasp oon
Ġrep os
ĠWhis key
Ġgluc ose
Ġtempur a
Ġviole ts
Ġvicto ria
Ġshredd ies
Ġfiddlehead s
Regg iano
UST ARD
ypt ian
Ġinf ant
Ġpion eer
Ġpitch er
Ġchap ati
reng th
Ġgef ilte
Ġfix ins
Ġfontin ella
Ġfei joas
Ġsush i
Ġtang y
Ġpollo ck
Ġnett les
Ġseaw eed
Ġstandar d
Ġalumin ium
Ġchihu ahua
Ġcelest ial
ĠSugg estion
ĠCole mans
ĠWaf ers
irepo ix
ĠBEAN S
ĠPEAN UT
ĠRapid Rise
Ġbarram undi
Ġbulls eye
Ġtamarillo s
Ġstarbuc ks
Ġcalend ula
Ġboxji ffy
Ġindividu al
ĠniÃ§ oise
Ġpackagegre en
B ran
C ON
C TA
G inger
G ET
H oney
H ER
I ME
J U
N IES
N CLE
O VE
U CK
V Y
V egetable
W NIES
Z Z
b utter
b ay
b by
b ud
b idden
c ran
c up
c les
c ts
c umin
c ilantro
c ampbell
c rystal
c allions
c rew
d ian
d elli
d inary
e or
e era
e jo
f e
g n
g y
g al
g am
g inger
g ator
h i
h ire
i er
i red
i or
i ber
i oc
i bou
i ffy
j oba
k ernel
k uyper
k koman
l on
l ers
l eseed
l ph
m ed
m mer
m ag
m bran
n ing
n ish
o ks
p ro
p eno
p aw
s ly
s olut
t en
t us
t ally
u ino
u rel
v i
v age
w er
y al
y li
y rna
z er
z an
z eller
Ġ *
Ġ at
Ġ us
Ġ um
Ġ af
Ġ use
Ħ ¢
Ġc la
Ġc ress
Ġs len
Ġs ide
Ġs nickers
Ġs chw
Ġs mart
Ġs yrian
er al
er ly
Ġb el
Ġb om
Ġb us
Ġb od
Ġb als
Ġb ened
on ut
on ji
Ġp il
Ġp res
Ġp lat
Ġp lu
Ġp aw
Ġp ama
Ġp ero
Ġp illsbury
es y
es es
es li
al ay
al low
al ks
al amata
al itos
ic ago
ic tine
Ġch amp
Ġch itter
re t
re fri
an go
an ium
ro c
ro asted
Ġo mit
Ġo pen
Ġo uter
Ġm ay
Ġm ason
Ġm yr
Ġm ills
Ġm irepoix
le ction
Ġg un
Ġg rid
Ġg eor
Ġf am
Ġf ino
Ġf erm
Ġf ren
Ġf leshed
Ġf aloo
Ġpe ap
Ġpe qu
Ġw et
Ġw av
Ġw orth
Ġw att
Ġw ylers
en zeller
am ook
Ġsu can
la da
ur ant
ion berries
lo s
lo ose
lo ph
lo tti
Ġche f
Ġv egg
Ġbutter sh
Ġbutter head
li e
li gator
Ġt ill
Ġt ass
Ġt aster
Ġpo ly
und ry
Ġground s
uc es
Ġco ins
Ġco bb
Ġco uld
el ini
Ġso ul
om e
om ic
om ps
om ot
Ġcre ation
it i
ick ening
Ġj on
Ġj im
Ġj ale
Ġj oy
Ġj eera
ra isins
red s
Ġjuice d
Ġh and
Ġh anger
Ġh ellman
ri zon
Ġred i
is an
is oba
ad ise
Ġblack ened
um mer
ch er
ch icken
Ġmus h
Ġpar m
Ġpar t
Ġpar kay
Ġpar adise
ast ry
Ġr uff
Ġn esqu
Ġn estles
Ġn abisco
Ġn aturals
Ġn orwegian
ay s
inn y
Ġli ds
Ġli bby
Ġd ur
Ġd ec
Ġd rop
Ġcho i
Ġcho pper
Ġcho lesterol
Ġsh amp
ey lon
Ġy u
Ġy ak
con d
con densed
sh ly
Ġst rength
ves t
ef ri
ef ul
Ġk o
Ġk reme
Ġk urant
Ġal ligator
Ġcar om
Ġcar av
Ġcar ibou
Ġchili e
Ġro b
Ġro sa
Ġcel loph
na c
th a
th y
th in
th ing
Ġmar nier
Ġmar cona
Ġmar tini
Ġmar bled
Ġmar ionberries
Ġpast ries
ĠS li
ĠS ze
ĠS LA
ĠS wed
ĠS callions
ĠS ummer
ant a
ka id
ĠC atsup
ĠC akes
ĠC lassic
ĠC erto
ĠC USTARD
ĠC raisins
av it
ort ed
tra chet
Ġex cel
Ġex tras
ne e
ĠW as
ĠW ra
ĠW HI
ĠW atchers
Ġyo u
Ġyo plait
Ġz inger
Ġz ero
Ġmo re
Ġmo ck
Ġmo jo
Ġalmond milk
Ġcon e
Ġmix er
ĠI ce
eat h
od s
Ġuns cented
Ġoat nut
Ġpi g
Ġpi ppin
ĠB I
ĠB lan
ĠB ermuda
Ġhot ter
tt ish
ks crew
ee ks
ĠCh ex
ĠCh erry
ĠCh ia
ĠCh icago
ĠP i
ĠP lanta
ĠP EC
Ġbalsamic o
Ġrose water
Ġrose bud
sa ur
ash ire
pe ar
ĠT bl
ĠT ru
Ġl ink
Ġl anc
Ġzest ed
Ġpie crust
ĠM alt
ĠM eal
ĠM ashed
ĠM orningstar
mi um
Ġsc al
Ġsc ape
ent ed
Ġice burg
st ock
Ġto pp
Ġto blerone
Ġto garashi
Ġpu erto
sweet ened
ĠF ol
ĠF ajita
ĠF RU
Ġsqu irt
ĠD ates
ĠD RI
ĠK ey
ĠK alamata
Ġbou le
len t
Ġpick erel
ĠG ood
ĠG AR
ĠG RA
ew er
Ġkidney s
Ġcan hot
Ġcan her
ĠO ld
Ġit em
ĠR anch
bstit ution
ĠA ng
Ġmeat y
Ġgrat ing
Ġan ejo
Ġcap ico
Ġqu ark
ct rum
Ġcook er
Ġri ver
Ġcrab apples
Ġcoar sly
lan ds
Ġsquash es
Ġde vil
Ġde kuyper
Ġar mag
ĠE n
Ġre maining
Ġre eses
Ġflu ffy
Ġac cent
Ġac companiment
Ġac eto
ĠCo uscous
ĠCo uple
ĠCo lada
ĠTo ffee
Ġpack s
Ġtartar ic
ich ips
amb alay
Ġho rizon
Ġkal onji
Ġchip its
Ġchip ol
Ġcas es
Ġcas ings
Ġla b
Ġla ke
Ġla choy
Ġla urel
Ġla undry
Ġun ripe
Ġun flavoured
Ġgr as
Ġgr inder
Ġport uguese
Ġpoppy seed
Ġfood s
ira delli
cho or
ĠEg yptian
Ġsk inny
ĠL on
ĠL SA
ĠL iner
ĠL IME
ĠL UCK
ĠL eeks
Ġor dinary
di ment
ĠDi ppers
Ġlo gs
Ġlo lli
Ġlo tus
Ġlo vage
atur es
atur ated
Ġtri dent
Ġgerm an
Ġpan ini
Ġpan ela
Ġpre f
Ġpearl s
ĠN illa
ĠN aturals
ĠN orwegian
ĠJ if
to l
to uts
ĠCho pped
ĠEgg p
ip an
ĠPepper oni
Ġart isan
Ġa eros
Ġgh iradelli
Ġcrumb ly
Ġfo ld
redi ent
Ġe ight
Ġpacket dry
ĠGar am
Ġwas a
Ġnew mans
ig lie
Ġmat ure
ĠLemon s
Ġwonton s
eri al
Ġglut inous
Ġrig ati
im yrna
Ġcro ck
ĠTO FFEE
ĠTO GET
ma id
Ġspar e
Ġpr ud
Ġmin eral
Ġmin ichips
Ġcat alina
Ġsna ppers
Ġdes ired
ĠAc tive
ĠChi anti
Ġcans h
Ġcans campbell
de en
gr illed
Ġback stra
Ġlefto vers
ĠSh iraz
Ġme mbran
ĠBlack berries
Ġhar vest
Ġsoft en
EL L
Ġstring s
ĠAll spice
Ġx yli
Ġam choor
Ġpin head
Ġlin seed
ĠTh ickening
Ġcal amata
Ġado lph
Ġsw anson
Ġseg ment
Ġfar e
ĠSa zon
ĠApp enzeller
ĠGre nadine
ĠGre ens
Ġpackage betty
Ġpackage loose
ĠSt ock
Ġjerk y
Ġpat tie
ons o
Ġass am
Ġne ar
Ġne cks
sel y
Ġbr ut
Ġbr ittle
Ġbr uino
ĠU NCLE
Ġmon trachet
aff le
odi zed
Ġtw ine
Ġrough ly
Ġpuff s
ĠTort ellini
Ġear th
Ġfor bidden
Ġcom bine
Ġdital i
man go
ĠCan ning
ĠMan zanilla
INA L
ĠCA JU
LE ND
ER S
Ġbottle zesty
ĠCO FFEE
ĠPec an
Ġcanc ut
Ġcanc ream
Ġfree ze
Ġcor kscrew
Ġore chiette
Ġsze chwan
Ġbu dding
Ġbush es
Ġalph onso
jo ol
ĠST OVE
ĠCal ab
ĠBA CON
ION S
ns on
Ġcul tured
Ġswed es
Ġgalang a
Ġbottom ed
AM EL
land ia
Ġcass ia
ĠCap er
ĠLA CTA
Ġber gam
Ġben gal
Ġox o
ĠCRU ST
ĠHo liday
cream y
Ġpa ese
Ġfin landia
Ġtra der
Ġab solut
Ġmiz una
Ġni ps
Ġni bs
Ġkef al
ĠCHI PS
companim ents
ĠAn cho
Ġany thing
Ġkno x
ĠCucumber s
Ġcanm ild
Ġcanm ixed
az a
Ġbor lotti
Ġbisqu ik
Ġplan ks
Ġchee ks
ĠSk or
ĠSte am
ĠHer shey
Ġpackagej ell
Ġgizzar d
Ġsouthw estern
Ġis lands
Ġmu ir
Ġmu esli
Ġchees y
Ġbrew ers
Ġheat her
ĠKernel s
ĠAmar etto
Ġimp orted
Ġimp erial
Ġblen der
Ġpk ges
Ġpk gs
Ġmet hi
Ġhok kaid
Ġmusc at
Ġmusc les
Ġsele ct
Ġke pt
Ġkon a
Ġmarz ipan
ĠSP ICE
ĠCrus ts
Ġconch iglie
ĠIn dian
Ġnop alitos
.. .
Ġsco ttish
Ġhus k
Ġhus ks
ĠSpe cial
ĠSpe ctrum
Ġdol ce
ĠLE AF
ĠLE MON
ĠDecorat ion
ĠDecorat ions
Ġfollow s
Ġval encia
Ġjoh n
Ġron zoni
Ġdino saur
Ġaltern ative
ĠBRO WNIES
Ġsquir rels
ĠGran ular
Ġrip ened
Ġcarambo las
Ġlouisian a
ĠNe ufchatel
Ġcru zan
ĠShallo t
Ġmeas ures
Ġcalab aza
Ġcampan elle
Ġâ Ħ¢
Ġcir cles
Ġger anium
Ġgener ic
ingu es
Ġbutterf ly
Ġtub es
Ġcomple te
Ġsauter ne
Ġjo joba
Ġkrisp y
ĠSU GAR
ĠSun flower
ĠSOU R
ĠCAR AMEL
Ġconfection ary
Ġcontin ental
ĠBE N
ĠChip its
ĠPort uguese
ĠKi elbasa
Ġgelat ine
Ġcrud ites
Ġcross wise
Ġtostado s
ĠCOOK IE
Ġrepos ado
ZZ LE
cran berry
mmer ing
Ġaf ter
Ġslen der
Ġbus ch
Ġbod y
Ġbals omic
Ġbened ictine
Ġplu ots
Ġpaw paw
Ġchamp ignon
Ġchitter lings
Ġmyr tle
Ġgun powder
Ġgrid dle
Ġfam ily
Ġfren ched
Ġfaloo da
Ġpeap ods
Ġwav erly
Ġwatt leseed
Ġsucan at
Ġvegg ies
Ġbuttersh ots
Ġtill amook
Ġtass o
omps on
omot o
Ġcreation s
Ġjale peno
Ġnesqu ik
Ġshamp oo
Ġyak isoba
Ġcarav ella
Ġcelloph ane
ĠSLA W
ĠSwed ish
Ġexcel lent
ĠPlanta ins
ĠPEC AN
ĠTru via
Ġlanc ashire
ĠFRU IT
ĠDRI ZZLE
ĠGAR LIC
ĠGRA VY
Ġitem s
Ġcapico la
Ġarmag nac
ambalay a
Ġhorizon tally
Ġchipol te
ĠLUCK Y
Ġlolli po
Ġaeros ol
ĠTOGET HER
Ġprud h
Ġbackstra ps
Ġmembran es
Ġxyli tol
Ġlinseed s
Ġadolph s
Ġbruino ise
ĠCAJU N
ĠLACTA ID
Ġbergam ot
Ġhokkaid o
A D
A SH
B S
B one
C U
C ilantro
C ampbell
D i
D LE
E A
E SEL
G INAL
H UB
I PPING
I CH
I SH
K uyper
L S
M AN
N S
O ES
O DLE
P A
P ON
P UFF
R IN
R GE
S t
S CU
T H
T M
T ar
W O
W ICH
a con
a int
a ola
b r
b lack
b ab
b ian
c at
c ato
c rumbs
c ala
c illo
c elli
c icle
c lassic
d ol
e pp
e ater
e mp
e esy
f i
f l
f etti
g ia
h y
h ul
h alf
i me
i ff
i mal
i ver
j ion
j us
j ub
j ola
k el
k ed
k ew
l m
l in
l le
l un
l ine
l ano
l len
l ina
l utes
m in
m ix
m ok
m ass
m ol
m ani
m stock
n t
n er
n am
n sh
n ets
n atural
o x
o li
o or
o ley
o ld
o ple
o ft
o ulade
p ine
p ed
p ick
p efruit
p ol
p iri
p ensive
p astry
p fl
r il
r ice
r it
r alian
r ico
r ud
s u
s ing
s tershire
s kets
s mok
t ro
t ing
t as
t ri
t ant
t able
u ge
u bs
u reg
u ght
u oc
u gel
u kka
v al
v an
v el
v ans
v ious
v iso
v ada
v ril
w e
w al
w ans
w ens
w ays
x a
x ide
x pensive
y ri
y ellow
y ers
y mol
z ano
z ian
Ġ /
Ġ \
Ġ ine
Ġ ery
Ġ eat
Ġ ah
Ġ ante
Ġ ide
Ġ eth
Ġ ...
Ģ Ļ
Ġc er
Ġc res
Ġc ay
Ġc ano
Ġc ame
Ġc ent
Ġc amb
Ġc risco
Ġc amomile
Ġc alorie
Ġc eylon
Ġs ans
Ġs ara
Ġs rira
Ġs ang
Ġs ides
er g
er ed
er age
er ella
er ent
er ni
er ph
er mont
er deen
ar e
ar illa
ar row
ar nation
Ġb la
Ġb res
Ġb rian
Ġb amb
Ġb leached
Ġb etw
Ġb iber
on t
on uts
Ġp le
Ġp ab
Ġp inn
Ġp ans
Ġp ak
Ġp ame
Ġp cs
Ġp anang
es ts
es av
es ers
in ag
in bow
in omoto
il i
il ian
al as
al ag
al uminum
al ifornia
al wood
ic or
ic ilian
Ġch lo
Ġch av
Ġch esh
Ġch rist
re tte
re ho
an n
ro le
ro ver
Ġo ut
Ġo vol
Ġo ption
Ġo ptions
Ġo mani
Ġo wens
at ara
at te
at kins
at ureg
Ġm am
Ġm ake
Ġm ash
Ġm eta
Ġm ah
Ġm ign
Ġm esc
Ġm orningstar
Ġm alag
Ġsal s
pp ress
pp ie
pp hire
le e
le nuts
Ġg y
Ġf ur
Ġf un
Ġf ice
Ġf ed
Ġf les
Ġf eet
Ġf ort
Ġf els
Ġf arm
Ġf ron
Ġf umi
Ġf lutes
ut ed
Ġpe ter
Ġpe ople
Ġw ant
Ġw est
Ġw avy
Ġw id
Ġw atch
Ġw esson
Ġw atkins
Ġsalt pe
en e
en g
am es
am or
la co
la can
ur re
ing ton
lo c
lo pe
lo uisian
Ġche x
Ġv e
Ġv idal
Ġv ary
Ġbutter fish
Ġbutter cup
un ts
un ior
li a
li ed
li sed
li ke
Ġt l
Ġt or
Ġt ins
Ġt sp
Ġt oni
Ġt ent
Ġt rian
Ġt abo
Ġt yson
Ġt ones
Ġt rico
Ġt ubs
ese l
Ġpo s
Ġpo is
Ġpo lish
Ġpo llen
as kan
Ġgar nish
Ġco mp
Ġco ated
Ġco ca
el d
el ba
ed ium
Ġso me
Ġso uff
Ġso di
Ġso aked
Ġso uch
Ġso ppress
Ġcre pe
Ġle g
Ġle va
Ġsa pphire
it uted
ick peas
Ġj amon
Ġj arb
Ġj arm
Ġj iffy
Ġj ambalaya
ra ge
ra iche
ra zon
us s
us to
us ous
Ġju jub
Ġh od
Ġh ass
Ġh ungarian
Ġh ellmanns
Ġh ersey
Ġh oods
ri b
ri sket
co al
Ġred uce
Ġbe am
Ġbe low
Ġbe cel
Ġbe lacan
Ġbe urre
is berg
um bian
ch id
ch erry
ch mer
ch ile
ch uch
Ġbre am
ast e
ast elvet
ab a
ab sa
ab ega
ab erg
or den
or sels
or mel
Ġr oni
Ġr ican
Ġr att
Ġn an
Ġn am
Ġn illa
Ġn ap
Ġn ano
Ġn est
Ġn elli
Ġn egro
Ġn atures
Ġn uoc
Ġn ests
ay an
inn i
inn ish
inn ess
Ġli gh
Ġli emp
Ġd ay
Ġd ul
Ġd ales
Ġd uncan
Ġd han
Ġd ukka
Ġd onuts
Ġcho lu
Ġcho cho
Ġcho ke
Ġse par
Ġsh a
Ġsh itake
ap er
ap oli
lat e
Ġy acon
con st
sh ake
sh redded
sh oe
Ġst ur
Ġst ate
Ġst reusel
Ġk n
Ġk it
Ġk ee
Ġk ite
Ġk ern
Ġk rispies
Ġk itch
Ġk aff
Ġk rets
Ġk nack
Ġk ulf
Ġk absa
Ġal oh
Ġal askan
les na
low een
Ġcar b
Ġcar d
Ġcar eful
ell ane
Ġchi pped
ps ang
Ġro pe
Ġro aster
Ġsp ent
Ġsp iny
th rit
Ġmar ia
Ġmar ket
Ġmar kets
Ġtomato s
Ġbas ed
Ġbas kets
Ġbroth ers
Ġhoney com
ot ta
ot yri
Ġpast el
ĠS H
ĠS W
ĠS an
ĠS und
ĠS av
ĠS tarch
ĠS hed
ĠS TE
ĠS ER
ĠS yrian
ĠS nack
ĠS anta
ĠS wans
ka val
reg on
reg ular
ĠC ut
ĠC up
ĠC ub
ĠC risp
ĠC lub
ĠC ott
ĠC ryst
ĠC uis
ĠC astelvet
av arti
ir al
qu at
qu ick
qu avit
ort ega
Ġth e
Ġth em
Ġth ompson
Ġth ymol
ĠW et
ĠW ET
ĠW affle
ĠW ASH
Ġseed les
Ġz ip
Ġz atar
Ġz inc
Ġnut ty
ach er
ire crack
Ġfro gs
Ġmo und
Ġmo chi
Ġmo unt
Ġmo zer
Ġpine cones
uns aturated
ix ie
ins tant
Ġapple ton
Ġapple jack
Ġof ten
Ġcon serve
Ġcon diment
ĠI na
ĠI PA
ini ature
Ġgra ins
Ġcra isin
Ġcra ked
Ġcra ppie
ak h
Ġyellow tail
Ġra inbow
zz erella
Ġwhole grain
den s
Ġpi ri
Ġpi ke
ff ron
ff erent
osh i
est one
Ġwhi ps
ĠB R
ĠB uns
ĠB rus
ĠB ag
ĠB erries
ĠB etty
ĠB inder
ĠB itter
ĠB eets
ĠB ARB
ĠB ELL
ĠB risket
ĠB orden
Ġbo w
Ġbo vril
id s
Ġtur ns
Ġcrack lings
Ġwheat berries
Ġci pol
ee ze
ac u
ac les
ac ai
ac tion
ac ardi
ac inato
ĠCh ee
ĠCh im
ĠCh arms
ĠCh eer
ĠCh eesy
ĠCh ickpeas
ĠP O
ĠP lan
ĠP reser
ĠP istachio
ĠP rawns
ĠP ina
ĠP IE
ĠP lace
ĠP OU
ĠP anang
Ġcur ing
Ġcur aco
Ġshort grain
pe ach
ĠT ah
ĠT WO
Ġl g
Ġl am
Ġl ine
Ġl ind
Ġl ango
sp aper
ĠM s
ĠM id
ĠM iss
ĠM ark
ĠM ich
ĠM os
ĠM ER
ĠM ayo
ĠM elba
ĠM orsels
ĠM iniature
Ġcrus h
Ġsc ant
Ġsc amor
ent e
ent ation
Ġav erage
Ġgran ul
Ġgo chuch
st co
st ino
st ess
Ġto wn
Ġto or
Ġto ppers
Ġto ll
Ġto bi
Ġlett uces
ĠF lu
ĠF lower
ĠF oods
ĠF raiche
ĠF innish
ĠF irecrack
Ġjalap e
ta co
Ġman ila
Ġman ioc
Ġman dol
Ġrom an
uit laco
Ġsqu eeze
Ġca ve
Ġca erph
ss um
ĠD irections
ĠD onut
ĠD IPPING
ĠD RIN
Ġdry ed
Ġboil ng
ĠK idney
ĠK of
ĠK entucky
ĠSp am
ĠSp ring
ĠSp routs
ĠSp icy
ĠV eget
ĠV ern
ĠV ERS
ĠV ermont
ĠV inag
Ġroma in
vo o
ĠG u
Ġcan v
Ġcan ellini
Ġcan light
Ġcan italian
Ġcan your
Ġcan refri
Ġcan condensed
Ġshell fish
ĠO RI
ĠO ption
ĠO ptions
Ġit al
ĠR ies
ĠR eese
ĠR ob
ĠR em
ĠR efri
ĠR HUB
ĠR iver
ĠA ioli
ĠA mour
bo li
uli s
Ġbran ston
uff er
Ġcap e
Ġqu een
Ġhal va
els en
Ġpla ice
Ġcoar sely
Ġfruit cake
Ġcott o
Ġbit es
Ġte ar
Ġte abag
lan e
Ġwe igh
af el
Ġde lic
Ġar thur
Ġar mour
Ġsun dried
ĠE astern
ĠE lm
ĠE vans
ver ing
Ġre n
Ġre ll
Ġre fined
Ġre nee
Ġre const
gs on
Ġel mstock
ĠCo b
ĠCo riander
ĠCo leslaw
ĠCo uld
ĠCo lored
ĠCo ors
ĠCo razon
ĠCo usous
ĠCo stco
ĠCo ulis
ĠTo blerone
Ġsmok ies
Ġho reho
kra ft
Ġki kkoman
Ġki pfl
Ġasp ar
Ġkal a
Ġkal am
gra pefruit
amp le
ĠSugar ed
ĠButter cream
Ġmas ter
Ġmas sala
Ġmas oor
Ġcas k
Ġcas aba
Ġjack et
Ġla psang
Ġun pared
Ġun wax
Ġgr illing
ĠMar ion
ĠMar tini
Ġdo ves
Ġdo oley
Ġbar cardi
lant ic
Ġbis tro
Ġen v
Ġen jo
Ġen han
cho pped
ni p
ni ght
Ġbut cher
ĠL ent
ĠL if
ĠL ucky
ĠL ittle
ĠL icor
ĠL ids
ĠL acinato
Ġbri ght
Ġbri skets
Ġor chid
ĠH G
ĠH ass
ĠH atch
ĠH avarti
iy a
Ġsho chu
Ġsho uld
bon eless
ĠWh o
ĠWh iz
Ġcol lection
Ġcol umbian
Ġser ve
alo pes
alo uette
ĠDi etz
Ġlo ins
Ġlo tion
Ġcrisp ed
Ġcrisp bread
Ġbon ed
Ġtri m
Ġtri s
Ġjelly fish
Ġrus ks
Ġrus tic
Ġcl ump
Ġtap e
Ġpre vious
Ġsnow shoe
Ġfi eld
Ġsli m
Ġsli der
Ġhash bro
Ġi odized
Ġpomegran te
ĠN UT
ĠN etw
ĠN atureg
Ġsemis oft
ĠJ erry
ĠJ ET
ĠJ oy
ĠJ unior
amar ina
Ġblan d
ĠSe cond
Ġwild f
Ġpanc it
to lli
ĠCho ps
Ġsum akh
ĠSeason s
Ġpl ump
RE AD
ĠPo ultry
ĠPo lish
ĠPo wer
Ġpop cicle
Ġa ir
Ġa ji
Ġa ust
Ġa zuki
Ġa quavit
ke es
Ġcrumb le
Ġsi mmering
Ġcontain ters
Ġgu inness
Ġsmooth ie
Ġstem med
Ġe ach
Ġe urope
Ġe astern
Ġe voo
Ġshi ro
Ġfett uc
ol ini
ĠLe ave
ĠAl pha
Ġnew spaper
ig an
Ġmat ured
ĠMarin ate
ĠLemon ade
Ġwon der
Ġlav ash
ĠPot ato
tan a
Ġcro wder
Ġcro wns
Ġsul ph
ĠIng redient
Ġlump fish
Ġver jus
Ġcod fish
Ġmelon s
Ġcat tle
Ġcat nip
Ġsna ke
Ġsna ils
Ġveget a
ug a
Ġcons ist
Ġsor ry
ĠAc companiments
Ġstarch y
Ġcans t
Ġcans co
Ġcans cut
Ġcans light
Ġcans ortega
ĠGo at
Ġbag fresh
Ġbag shredded
Ġcane la
Ġcoll ins
Ġsto uffer
ĠGra pes
gr ind
Ġcollard s
Ġspe ck
ĠDe Kuyper
Ġclam ato
ĠSh allow
ĠSh reds
ĠBlack berry
Ġhar dy
Ġhandful s
Ġquar ter
Ġcand les
Ġcand lenuts
Ġveg table
ĠAs iago
ĠChil li
ĠSA ND
ĠSA RGE
Ġdis cs
Ġcal imyrna
Ġsamb har
Ġstri pe
Ġsw irl
ph iladelphia
Ġfar l
ĠY es
ĠY AM
ĠSa ute
ĠSa ffron
Ġmed jool
Ġjar h
Ġjar of
Ġjar taco
ial one
Ġpackage garlic
Ġpackage pillsbury
Ġpackage mild
Ġpackage any
Ġpackage italian
Ġpackage quick
ĠSt ella
ĠSt one
ĠSt ru
ĠSt alks
ĠSt rud
ho e
Ġand es
Ġpassion fruit
ĠRo asting
ĠRo yal
Ġmer ingues
Ġrock y
Ġcontainer betty
Ġcontainer crystal
Ġcontainer philadelphia
Ġfud gy
ĠGr its
Ġne apoli
ĠBread crumbs
IL LA
Ġamar illo
Ġcrystal lised
Ġdi fferent
Ġbak ery
ĠU SE
Ġbox frozen
Ġbox chocolate
vers ide
Ġgro use
Ġmon te
Ġmon tas
Ġmon tana
ĠBas ic
ĠCrack ed
pack ed
Ġbolo gn
Ġdecorat ions
ĠZ inger
NT O
Ġrut abega
Ġbra ggs
Ġhav ana
ĠCur d
Ġwor k
Ġwor ches
ĠSi erra
ĠCon cord
ĠSec ret
Ġgour d
Ġbailey s
Ġjuli ened
ĠCook ers
Ġsteam er
ĠUn flavored
ĠUn sweetened
Ġfor m
Ġcom b
ĠMus sels
ĠWheat ables
Ġdrum ettes
ĠMan ila
AN A
Ġbur net
Ġbur nt
Ġpet role
RU ESEL
Ġmel ter
chu bert
ax well
ĠSto ut
ĠWal nut
ĠTur binado
Ġreal ly
Ġbottle of
Ġfr shly
Ġti me
Ġover ly
Ġad ded
alco hol
Ġpetit s
Ġcanc alifornia
Ġtrimm ings
Ġburg undy
Ġtam ale
ĠYo ghurt
ĠYo plait
Ġreser ving
Ġpump erni
Ġmag ic
ush es
Ġbat tered
Ġpep ato
Ġsil verside
ĠClo ve
Ġbora ge
EE SE
Ġrun ner
Ġza atar
so ft
Ġhul l
Ġcarton spread
ĠLo u
Ġmort ons
Ġprocess or
jo u
ĠST RUESEL
ĠCal vados
ĠSu bstitution
ĠOr ganic
ĠOr tega
Ġesc alopes
Ġpur ified
Ġpas illa
Ġkash kaval
ĠRa isin
ĠNO TE
ĠNO ODLE
Ġber tolli
Ġbal oney
ĠPro volone
ĠPick le
ĠPick les
Ġjun e
ĠWor ks
ĠWor stershire
ĠHo agie
ĠHo stess
Ġenvelope knorr
Ġmignon ette
Ġtables po
Ġrap ini
Ġlar ger
Ġpral ines
Ġab erdeen
Ġchar coal
Ġni elsen
ĠCH EESE
Ġclar et
ĠQuick er
ĠSm ooth
ĠMort adella
ĠAn jou
Ġtemp eh
ĠBeef eater
Ġcanm aple
Ġcanm edium
Ġclean er
Ġmey ers
Ġvi ewer
Ġts ang
Ġcole man
ĠSandwich es
quar ters
Ġpackag est
Ġjama ica
Ġaj var
Ġaj inomoto
Ġis le
Ġis land
Ġpun nets
isc ellane
ĠCro wn
ĠCro cker
ĠMas ala
Ġimp rover
cel atte
Ġlu ke
Ġlu kew
Ġlu zian
Ġslo e
Ġbund aberg
Ġmill er
Ġmill stone
Ġmelt ing
Ġsele ction
Ġsele cts
Ġke mp
Ġke bab
Ġros es
Ġros amarina
ĠSP LEND
Ġhambur g
ĠTar ragon
Ġpumpkinseed s
Ġcanch unky
ĠJalap eÃ±
Ġcastle bury
EC UE
Ġsco ld
Ġsand ies
Ġsand alwood
Ġfre h
Ġfre estone
Ġchew ing
Ġten da
Ġbeau fort
Ġbeau jola
Ġcloud berries
Ġcloud berry
ĠRot ini
Ġremo ved
Ġdol celatte
ĠHal loween
Ġemp ire
Ġfollow ing
LO T
LO AF
Ġpad ano
Ġval ue
Ġjoh nson
Ġmarrow fat
Ġexp eller
Ġexp ensive
ĠBRO TH
ĠPack et
ĠMEAT LOAF
Ġcanb ushes
ĠON E
ĠON IONS
Ġflatbread s
Ġcarambo la
Ġlouisian na
ĠBailey s
Ġmatzoh s
ĠShallo ts
Ġmeas uring
Ġcalab ash
Ġcampan ella
Ġmaid s
ĠHerbs aint
ĠJalapeno s
eb oshi
Ã© e
Ġfal afel
Ġfide o
Ġfide os
Ġlip ton
Ġchim ayo
Ġchim ichurri
ĠTruff le
ĠTruff les
Ġscra per
ĠjalapeÃ± o
ĠjalapeÃ± os
ĠOyster s
Ġpackager ich
Ġcanss wanson
ĠCrud ite
Ġunsulph ured
Ġunsulph ered
Ġteaspoon lemon
pro of
Ġat lantic
Ġus ing
Ġum eboshi
Ġcla y
Ġschw epp
Ġbel uga
Ġbom bay
Ġplat ter
Ġpero xide
roc can
Ġgeor gia
Ġferm ented
Ġpequ ins
Ġworth ington
Ġpoly unsaturated
Ġhand le
Ġhellman n
Ġruff led
Ġdec af
Ġyu zu
Ġko chujang
Ġrob usto
ĠSli vered
ĠSze chuan
ĠWas abi
ĠWra ps
ĠWHI TE
Ġpig noli
ĠBI SCU
ĠBlan co
ĠPi ppin
pear led
ĠMalt esers
Ġtopp p
ĠFol gers
Ġcanher shey
ĠAng el
ĠEn chilada
Ġlab el
Ġgrinder s
ĠLon ghorn
ĠEggp lant
Ġfold ed
Ġcanscampbell s
ĠCalab rian
Ġkefal otyri
ĠSteam fresh
Ġjohn n
Ġlollipo ps
Ġprudh omme
PUFF ED
St ick
WICH ES
hul l
min ced
mass ey
nsh aw
smok ed
wal nut
Ġine xpensive
Ġery thrit
Ġeat ing
Ġante lope
Ġide as
Ġcame o
Ġsans ho
Ġsrira chi
Ġsang ria
Ġbres aola
Ġbetw een
Ġple ase
Ġpab lano
Ġpinn acle
Ġpame la
esav ers
alas ka
Ġchav rie
Ġchesh ire
Ġovol ini
atara ins
Ġmeta xa
Ġmign ons
Ġmesc lun
Ġmalag a
Ġfun fetti
Ġfice lle
Ġfed elini
Ġfron ds
Ġsaltpe ter
louisian a
Ġvidal lia
Ġtoni ght
Ġtent acles
Ġtrian g
Ġtrico lor
Ġsouff le
Ġsodi um
Ġsouch ong
Ġsoppress ata
Ġleva in
Ġjarm ild
Ġhod gson
Ġratt lesna
Ġnap tha
Ġnelli e
Ġligh ter
Ġliemp o
Ġdul ce
Ġdhan iya
Ġcholu la
Ġsepar ate
Ġkee bler
Ġkitch ens
Ġkaff ir
Ġkrets chmer
Ġknack wurst
Ġkulf i
Ġaloh a
Ġhoneycom b
ĠSav oy
ĠShed d
ĠSTE P
ĠSER VE
ĠCub an
ĠCott age
ĠCuis ine
ĠCastelvet rano
Ġzip loc
Ġzatar an
ĠBrus sel
ĠBitter sweet
ĠBARB ECUE
Ġcipol lini
ĠChim ichurri
ĠPlan ters
ĠPreser ves
ĠPistachio s
ĠPOU PON
ĠMiss ion
ĠMos cato
Ġscamor za
Ġgranul ted
Ġgochuch ang
Ġtobi ko
ĠFirecrack er
Ġmandol ine
uitlaco che
Ġcaerph illy
ĠDRIN K
ĠKof ta
ĠVern ors
ĠVERS ION
ĠVinag rette
ĠORI GINAL
ĠRies ling
ĠRob io
ĠRem oulade
ĠRHUB ARB
Ġteabag s
ĠElm ers
Ġreconst ituted
Ġhoreho und
Ġkipfl er
Ġunwax ed
Ġenjo y
Ġenhan cer
ĠLif esavers
ĠLittle neck
Ġprevious ly
Ġhashbro wns
ĠNetw ork
ĠNatureg g
Ġaust ralian
Ġsulph ur
ĠSAND WICHES
ĠSARGE NTO
ĠStru esel
ĠStrud el
Ġneapoli tan
Ġmontas io
Ġbologn ese
Ġpetrole um
Ġpumperni kel
Ġcartonspread able
ĠNOODLE S
iscellane ous
Ġlukew arm
Ġluzian ne
ĠSPLEND A
ĠJalapeÃ± os
Ġbeaujola is
Ġschwepp es
ĠBISCU IT
Ġerythrit ol
Ġrattlesna ke
