{"":0,"<pad>":1,"<s>":2,"</s>":3,"<unk>":4,"<mask>":5,"!":6,"\"":7,"#":8,"$":9,"%":10,"&":11,"'":12,"(":13,")":14,"*":15,"+":16,",":17,"-":18,".":19,"/":20,"0":21,"1":22,"2":23,"3":24,"4":25,"5":26,"6":27,"7":28,"8":29,"9":30,":":31,";":32,"<":33,"=":34,">":35,"?":36,"@":37,"A":38,"B":39,"C":40,"D":41,"E":42,"F":43,"G":44,"H":45,"I":46,"J":47,"K":48,"L":49,"M":50,"N":51,"O":52,"P":53,"Q":54,"R":55,"S":56,"T":57,"U":58,"V":59,"W":60,"X":61,"Y":62,"Z":63,"[":64,"\\":65,"]":66,"^":67,"_":68,"`":69,"a":70,"b":71,"c":72,"d":73,"e":74,"f":75,"g":76,"h":77,"i":78,"j":79,"k":80,"l":81,"m":82,"n":83,"o":84,"p":85,"q":86,"r":87,"s":88,"t":89,"u":90,"v":91,"w":92,"x":93,"y":94,"z":95,"{":96,"|":97,"}":98,"~":99,"¡":100,"¢":101,"£":102,"¤":103,"¥":104,"¦":105,"§":106,"¨":107,"©":108,"ª":109,"«":110,"¬":111,"®":112,"¯":113,"°":114,"±":115,"²":116,"³":117,"´":118,"µ":119,"¶":120,"·":121,"¸":122,"¹":123,"º":124,"»":125,"¼":126,"½":127,"¾":128,"¿":129,"À":130,"Á":131,"Â":132,"Ã":133,"Ä":134,"Å":135,"Æ":136,"Ç":137,"È":138,"É":139,"Ê":140,"Ë":141,"Ì":142,"Í":143,"Î":144,"Ï":145,"Ð":146,"Ñ":147,"Ò":148,"Ó":149,"Ô":150,"Õ":151,"Ö":152,"×":153,"Ø":154,"Ù":155,"Ú":156,"Û":157,"Ü":158,"Ý":159,"Þ":160,"ß":161,"à":162,"á":163,"â":164,"ã":165,"ä":166,"å":167,"æ":168,"ç":169,"è":170,"é":171,"ê":172,"ë":173,"ì":174,"í":175,"î":176,"ï":177,"ð":178,"ñ":179,"ò":180,"ó":181,"ô":182,"õ":183,"ö":184,"÷":185,"ø":186,"ù":187,"ú":188,"û":189,"ü":190,"ý":191,"þ":192,"ÿ":193,"Ā":194,"ā":195,"Ă":196,"ă":197,"Ą":198,"ą":199,"Ć":200,"ć":201,"Ĉ":202,"ĉ":203,"Ċ":204,"ċ":205,"Č":206,"č":207,"Ď":208,"ď":209,"Đ":210,"đ":211,"Ē":212,"ē":213,"Ĕ":214,"ĕ":215,"Ė":216,"ė":217,"Ę":218,"ę":219,"Ě":220,"ě":221,"Ĝ":222,"ĝ":223,"Ğ":224,"ğ":225,"Ġ":226,"ġ":227,"Ģ":228,"ģ":229,"Ĥ":230,"ĥ":231,"Ħ":232,"ħ":233,"Ĩ":234,"ĩ":235,"Ī":236,"ī":237,"Ĭ":238,"ĭ":239,"Į":240,"į":241,"İ":242,"ı":243,"Ĳ":244,"ĳ":245,"Ĵ":246,"ĵ":247,"Ķ":248,"ķ":249,"ĸ":250,"Ĺ":251,"ĺ":252,"Ļ":253,"ļ":254,"Ľ":255,"ľ":256,"Ŀ":257,"ŀ":258,"Ł":259,"ł":260,"Ń":261,"Ġc":262,"Ġs":263,"er":264,"ar":265,"Ġb":266,"on":267,"Ġp":268,"es":269,"in":270,"il":271,"al":272,"gar":273,"ic":274,"Ġch":275,"re":276,"an":277,"ro":278,"Ġo":279,"at":280,"Ġm":281,"Ġsal":282,"pp":283,"le":284,"Ġg":285,"Ġf":286,"ut":287,"Ġpe":288,"Ġw":289,"Ġsalt":290,"en":291,"am":292,"Ġsu":293,"pper":294,"Ġpepper":295,"Ġsugar":296,"la":297,"ter":298,"ur":299,"ing":300,"eg":301,"ion":302,"lo":303,"Ġche":304,"Ġv":305,"Ġon":306,"Ġonion":307,"utter":308,"Ġbutter":309,"un":310,"li":311,"Ġt":312,"Ġoil":313,"ese":314,"Ġpo":315,"Ġcheese":316,"as":317,"lic":318,"Ġgar":319,"Ġgarlic":320,"und":321,"ice":322,"egg":323,"round":324,"Ġegg":325,"Ġground":326,"uc":327,"Ġco":328,"el":329,"ine":330,"ed":331,"ato":332,"Ġwh":333,"Ġso":334,"om":335,"Ġcre":336,"der":337,"Ġba":338,"Ġcream":339,"Ġflo":340,"res":341,"Ġle":342,"Ġflour":343,"Ġsa":344,"ilk":345,"it":346,"et":347,"uce":348,"ve":349,"mon":350,"Ġbro":351,"ick":352,"Ġj":353,"ck":354,"ra":355,"Ġoli":356,"us":357,"resh":358,"Ġmilk":359,"Ġfresh":360,"wder":361,"ater":362,"Ġpowder":363,"Ġwater":364,"Ġsauce":365,"king":366,"red":367,"Ġchick":368,"atoes":369,"Ġju":370,"Ġjuice":371,"Ġolive":372,"Ġh":373,"Ġchicken":374,"ri":375,"illa":376,"Ġtom":377,"co":378,"Ġwhit":379,"Ġred":380,"Ġlemon":381,"Ġbaking":382,"Ġeggs":383,"Ġbe":384,"Ġgre":385,"is":386,"ad":387,"Ġgreen":388,"Ġwhite":389,"lack":390,"Ġblack":391,"anilla":392,"um":393,"Ġvanilla":394,"ch":395,"Ġmus":396,"Ġpar":397,"wn":398,"Ġbrown":399,"ran":400,"Ġbre":401,"ge":402,"ast":403,"ab":404,"me":405,"or":406,"Ġr":407,"inegar":408,"tar":409,"Ġtomatoes":410,"Ġvinegar":411,"up":412,"Ġn":413,"ay":414,"rn":415,"inn":416,"amon":417,"innamon":418,"ber":419,"Ġcinnamon":420,"Ġli":421,"app":422,"ans":423,"Ġcorn":424,"Ġd":425,"Ġcho":426,"Ġse":427,"Ġsh":428,"ey":429,"ap":430,"ry":431,"lat":432,"eget":433,"egetab":434,"Ġvegetab":435,"Ġy":436,"ley":437,"da":438,"con":439,"sh":440,"Ġpot":441,"Ġpars":442,"Ġchil":443,"Ġparsley":444,"Ġst":445,"colat":446,"colate":447,"Ġvegetable":448,"Ġbread":449,"Ġonions":450,"ves":451,"Ġchocolate":452,"ef":453,"dar":454,"Ġk":455,"Ġbeef":456,"Ġal":457,"tard":458,"les":459,"Ġmustard":460,"Ġsoda":461,"low":462,"Ġcar":463,"ell":464,"Ġchi":465,"Ġpotatoes":466,"uts":467,"Ġchili":468,"apple":469,"ts":470,"Ġoran":471,"ery":472,"ano":473,"ps":474,"Ġsour":475,"Ġro":476,"Ġcel":477,"Ġwine":478,"mes":479,"Ġcelery":480,"Ġsp":481,"na":482,"Ġbeans":483,"mesan":484,"ise":485,"eet":486,"hro":487,"hroom":488,"th":489,"Ġmushroom":490,"weet":491,"Ġched":492,"Ġcheddar":493,"ries":494,"naise":495,"onnaise":496,"ayonnaise":497,"Ġmayonnaise":498,"inger":499,"Ġorange":500,"Ġginger":501,"Ġmar":502,"Ġrice":503,"Ġtomato":504,"Ġbas":505,"Ġbroth":506,"Ġcarro":507,"Ġsoy":508,"oney":509,"Ġhoney":510,"Ġbasil":511,"Ġparmesan":512,"bs":513,"ot":514,"Ġpast":515,"ĠS":516,"Ġbell":517,"ant":518,"berries":519,"se":520,"Ġchips":521,"ka":522,"Ġlime":523,"age":524,"gh":525,"reg":526,"Ġbacon":527,"ĠC":528,"av":529,"Ġsoup":530,"umin":531,"ir":532,"qu":533,"regano":534,"Ġoregano":535,"ort":536,"Ġth":537,"ex":538,"Ġcumin":539,"Ġbreast":540,"tra":541,"ill":542,"ces":543,"Ġex":544,"Ġextra":545,"Ġpap":546,"rum":547,"ne":548,"ĠW":549,"Ġseed":550,"ian":551,"rika":552,"Ġpean":553,"Ġpaprika":554,"Ġyo":555,"Ġsweet":556,"alt":557,"Ġz":558,"Ġnut":559,"meg":560,"Ġpor":561,"ach":562,"alian":563,"rumbs":564,"ire":565,"Ġfro":566,"Ġmo":567,"shire":568,"tershire":569,"mond":570,"orces":571,"orcestershire":572,"antro":573,"Ġmushrooms":574,"ilantro":575,"ĠWorcestershire":576,"Ġalmond":577,"Ġcilantro":578,"conut":579,"Ġnutmeg":580,"ason":581,"Ġhe":582,"Ġcoconut":583,"Ġpine":584,"uns":585,"ix":586,"yme":587,"Ġclo":588,"Ġthyme":589,"zen":590,"nuts":591,"gin":592,"enne":593,"Ġfrozen":594,"ins":595,"ayenne":596,"Ġcayenne":597,"ole":598,"Ġlea":599,"Ġapple":600,"Ġpork":601,"yr":602,"yrup":603,"Ġseason":604,"Ġpec":605,"irgin":606,"Ġof":607,"Ġcon":608,"Ġmix":609,"ĠI":610,"Ġsyrup":611,"eat":612,"ini":613,"od":614,"Ġwal":615,"Ġpineapple":616,"Ġgra":617,"ght":618,"Ġcarrots":619,"Ġbreasts":620,"anan":621,"Ġcra":622,"Ġall":623,"Ġbanan":624,"ak":625,"Ġpeppers":626,"ellow":627,"Ġyellow":628,"Ġra":629,"Ġlight":630,"Ġpeanut":631,"zz":632,"Ġwhole":633,"Ġseasoning":634,"Ġmargar":635,"Ġmargarine":636,"den":637,"Ġseeds":638,"Ġuns":639,"Ġoat":640,"Ġfla":641,"Ġwalnuts":642,"lu":643,"ella":644,"pping":645,"Ġapp":646,"ĠIt":647,"ĠItalian":648,"Ġapples":649,"Ġpecans":650,"ame":651,"ress":652,"Ġcoo":653,"Ġpi":654,"ff":655,"osh":656,"osher":657,"Ġpasta":658,"esame":659,"Ġsesame":660,"est":661,"urt":662,"Ġrais":663,"Ġwhi":664,"ĠB":665,"zzar":666,"tarch":667,"ers":668,"zzarella":669,"avy":670,"Ġmozzarella":671,"Ġbo":672,"gurt":673,"Ġyogurt":674,"Ġbreadc":675,"berry":676,"id":677,"starch":678,"Ġcornstarch":679,"coa":680,"Ġheavy":681,"fat":682,"ressing":683,"Ġtur":684,"ish":685,"Ġvirgin":686,"Ġstra":687,"Ġstraw":688,"Ġoats":689,"Ġhot":690,"Ġcocoa":691,"kin":692,"tt":693,"Ġcarrot":694,"milk":695,"Ġcrack":696,"Ġwheat":697,"Ġbreadcrumbs":698,"ood":699,"Ġraisins":700,"Ġdill":701,"alted":702,"sed":703,"Ġunsalted":704,"Ġci":705,"ks":706,"Ġcider":707,"Ġkosher":708,"Ġtort":709,"int":710,"urp":711,"Ġpowdered":712,"densed":713,"Ġcondensed":714,"Ġham":715,"Ġsaus":716,"Ġnuts":717,"inach":718,"ose":719,"erry":720,"Ġcran":721,"ee":722,"Ġalmonds":723,"Ġolives":724,"Ġtortilla":725,"als":726,"ly":727,"ac":728,"rus":729,"Ġket":730,"Ġclove":731,"chup":732,"Ġketchup":733,"urpose":734,"purpose":735,"mp":736,"Ġsausage":737,"ĠCh":738,"ucum":739,"ucumber":740,"ĠP":741,"Ġcucumber":742,"Ġcur":743,"Ġflak":744,"ucch":745,"Ġdressing":746,"ucchini":747,"Ġcooking":748,"cco":749,"Ġbuttermilk":750,"amic":751,"Ġleaf":752,"alsamic":753,"lue":754,"Ġzucchini":755,"ake":756,"Ġbalsamic":757,"Ġblue":758,"Ġbrocco":759,"Ġbroccoli":760,"Ġspinach":761,"mar":762,"Ġrose":763,"Ġrol":764,"mary":765,"Ġshort":766,"sa":767,"Ġrosemary":768,"ump":769,"rimp":770,"Ġshrimp":771,"ock":772,"ash":773,"pe":774,"ĠT":775,"eta":776,"Ġpeas":777,"Ġl":778,"ening":779,"Ġzest":780,"oc":781,"ld":782,"key":783,"Ġshortening":784,"Ġnood":785,"Ġsalad":786,"Ġsalsa":787,"Ġnoodles":788,"Ġstock":789,"anola":790,"umpkin":791,"all":792,"Ġcab":793,"bage":794,"Ġcanola":795,"Ġpie":796,"Ġcabbage":797,"asp":798,"sp":799,"Ġpaste":800,"ĠM":801,"ado":802,"Ġpumpkin":803,"Ġfreshly":804,"Ġbay":805,"allo":806,"ffee":807,"Ġcake":808,"Ġcurry":809,"meal":810,"Ġcrus":811,"oni":812,"Ġbananas":813,"Ġmint":814,"ray":815,"mi":816,"Ġspray":817,"Ġstrawberries":818,"Ġsc":819,"Ġturkey":820,"Ġlean":821,"Ġbanana":822,"Ġlow":823,"ent":824,"ocado":825,"Ġice":826,"Ġav":827,"Ġavocado":828,"Ġgran":829,"Ġgo":830,"Ġchives":831,"Ġwhipping":832,"nel":833,"st":834,"Ġcoffee":835,"Ġtortillas":836,"by":837,"ded":838,"Ġto":839,"ec":840,"Ġcold":841,"mal":842,"redded":843,"rian":844,"Ġflakes":845,"riander":846,"Ġpu":847,"Ġcoriander":848,"Ġshredded":849,"ĠSalt":850,"mer":851,"Ġcloves":852,"lower":853,"Ġleaves":854,"rat":855,"Ġshallo":856,"Ġcranberries":857,"Ġliqu":858,"sweet":859,"Ġfeta":860,"Ġnon":861,"Ġchilies":862,"allion":863,"Ġlett":864,"Ġlettuce":865,"Ġscallion":866,"arb":867,"Ġste":868,"Ġcrumbs":869,"led":870,"flower":871,"auce":872,"loin":873,"east":874,"aple":875,"ĠF":876,"Ġyeast":877,"ub":878,"Ġtar":879,"Ġpotato":880,"eno":881,"Ġmaple":882,"Ġsalmon":883,"ti":884,"alap":885,"pped":886,"Ġjalap":887,"iss":888,"Ġjalapeno":889,"ta":890,"Ġta":891,"Ġman":892,"icot":893,"meric":894,"Ġrom":895,"uit":896,"Ġrasp":897,"Ġwhites":898,"Ġsqu":899,"Ġblueberries":900,"Ġbaby":901,"Ġsemi":902,"ul":903,"Ġca":904,"Ġmac":905,"spice":906,"Ġcherry":907,"ss":908,"ĠD":909,"Ġdry":910,"Ġrum":911,"ag":912,"Ġboil":913,"Ġyol":914,"shmal":915,"shmallow":916,"Ġmarshmallow":917,"Ġboiling":918,"wiss":919,"eal":920,"lass":921,"ĠPar":922,"ĠK":923,"eddar":924,"Ġchops":925,"Ġallspice":926,"ĠCheddar":927,"Ġwhipped":928,"Ġstal":929,"Ġcracker":930,"ĠSp":931,"Ġcornmeal":932,"Ġmacar":933,"Ġcrust":934,"ĠParmesan":935,"ernel":936,"ack":937,"lasses":938,"Ġpeach":939,"Ġmacaroni":940,"Ġbou":941,"Ġkernel":942,"Ġmolasses":943,"Ġgranu":944,"zo":945,"ark":946,"illon":947,"Ġbouillon":948,"Ġstalks":949,"len":950,"ĠV":951,"Ġmixed":952,"ind":953,"ney":954,"Ġpick":955,"Ġroll":956,"Ġroma":957,"vo":958,"less":959,"ĠG":960,"Ġrolled":961,"erries":962,"ew":963,"ser":964,"yle":965,"ges":966,"Ġsage":967,"ham":968,"Ġsherry":969,"Ġsm":970,"Ġtaco":971,"Ġnonfat":972,"ade":973,"Ġswiss":974,"go":975,"idney":976,"Ġkidney":977,"Ġgraham":978,"virgin":979,"ruit":980,"Ġcan":981,"Ġshell":982,"Ġrind":983,"Ġstrawberry":984,"Ġmango":985,"Ġhor":986,"ĠO":987,"ree":988,"Ġscallions":989,"Ġit":990,"tit":991,"ĠR":992,"Ġfil":993,"Ġitalian":994,"ute":995,"Ġturmeric":996,"Ġapplesauce":997,"gon":998,"adish":999,"seradish":1000,"odka":1001,"Ġcub":1002,"Ġpeanuts":1003,"bstit":1004,"Ġhorseradish":1005,"bstitute":1006,"ĠA":1007,"cent":1008,"Ġvodka":1009,"Ġbarb":1010,"Ġtopping":1011,"Ġmeat":1012,"Ġsubstitute":1013,"Ġgrat":1014,"ong":1015,"bo":1016,"Ġdark":1017,"ino":1018,"ender":1019,"Ġchile":1020,"Ġcrackers":1021,"Ġgrated":1022,"uli":1023,"illing":1024,"asco":1025,"una":1026,"uliflower":1027,"Ġbran":1028,"Ġtuna":1029,"abasco":1030,"uff":1031,"Ġan":1032,"Ġcauliflower":1033,"Ġlong":1034,"ĠTabasco":1035,"Ġyolks":1036,"Ġfish":1037,"Ġcap":1038,"Ġqu":1039,"Ġgrain":1040,"Ġfille":1041,"Ġsteak":1042,"Ġhal":1043,"ereal":1044,"els":1045,"Ġap":1046,"Ġapr":1047,"Ġcereal":1048,"Ġcranberry":1049,"Ġrolls":1050,"Ġmarshmallows":1051,"ring":1052,"ct":1053,"Ġoranges":1054,"Ġpla":1055,"ue":1056,"ding":1057,"Ġroast":1058,"Ġplain":1059,"Ġgrap":1060,"lden":1061,"Ġcook":1062,"Ġdri":1063,"Ġpeaches":1064,"eur":1065,"Ġlemons":1066,"Ġliqueur":1067,"dding":1068,"corn":1069,"Ġbarbec":1070,"Ġcherries":1071,"Ġshallots":1072,"Ġri":1073,"Ġcrab":1074,"Ġpudding":1075,"Ġskin":1076,"Ġbarbecue":1077,"nut":1078,"ened":1079,"ies":1080,"Ġins":1081,"ok":1082,"Ġhalves":1083,"Ġinst":1084,"ragon":1085,"Ġskinless":1086,"ger":1087,"Ġgolden":1088,"Ġtarragon":1089,"Ġinstant":1090,"Ġcubes":1091,"Ġcoar":1092,"Ġtender":1093,"Ġshallot":1094,"Ġfruit":1095,"Ġunsweet":1096,"Ġunsweetened":1097,"Ġdried":1098,"Ġpastry":1099,"Ġcott":1100,"Ġbit":1101,"Ġraspberry":1102,"Ġcottage":1103,"Ġcucumbers":1104,"root":1105,"Ġcapers":1106,"terey":1107,"style":1108,"Ġte":1109,"Ġextract":1110,"Ġcoarse":1111,"Ġapricot":1112,"vored":1113,"dy":1114,"Ġliquid":1115,"Ġflore":1116,"Ġspa":1117,"meat":1118,"amom":1119,"ia":1120,"Ġvegetables":1121,"etti":1122,"Ġspagh":1123,"Ġspice":1124,"oking":1125,"lan":1126,"damom":1127,"Ġspaghetti":1128,"Ġcardamom":1129,"Ġwe":1130,"Ġpickle":1131,"lenda":1132,"Ġpuree":1133,"one":1134,"Ġgingerroot":1135,"lated":1136,"Ġgranulated":1137,"Ġsquash":1138,"ĠSplenda":1139,"uck":1140,"Ġcrabmeat":1141,"icotta":1142,"Ġbean":1143,"Ġweed":1144,"af":1145,"til":1146,"Ġde":1147,"Ġricotta":1148,"ento":1149,"Ġpear":1150,"Ġavocados":1151,"Ġraspberries":1152,"Ġar":1153,"Ġsun":1154,"Ġgrape":1155,"fla":1156,"ie":1157,"ĠE":1158,"Ġfilling":1159,"ates":1160,"ver":1161,"peas":1162,"gu":1163,"Ġbeer":1164,"Ġhead":1165,"Ġdates":1166,"Ġbuns":1167,"onterey":1168,"Ġromaine":1169,"Ġslic":1170,"Ġsunflower":1171,"Ġre":1172,"Ġpro":1173,"gs":1174,"Ġgreens":1175,"Ġgel":1176,"reser":1177,"Ġlen":1178,"Ġoatmeal":1179,"sco":1180,"Ġtenderloin":1181,"Ġher":1182,"bur":1183,"Ġhear":1184,"Ġpreser":1185,"atin":1186,"Ġlentil":1187,"Ġflu":1188,"ĠKosher":1189,"tch":1190,"Ġgelatin":1191,"Ġfen":1192,"Ġac":1193,"Ġfluid":1194,"ett":1195,"Ġel":1196,"ĠCo":1197,"rate":1198,"try":1199,"Ġchickpeas":1200,"Ġconcent":1201,"Ġconcentrate":1202,"Ġflorets":1203,"zza":1204,"Ġpreserves":1205,"Ġpizza":1206,"Ġloin":1207,"ĠTo":1208,"vor":1209,"risp":1210,"Ġpack":1211,"ith":1212,"ĠSauce":1213,"bow":1214,"ĠCre":1215,"io":1216,"burger":1217,"Ġelbow":1218,"ets":1219,"Ġgrapes":1220,"vy":1221,"Ġcolo":1222,"Ġhamburger":1223,"Ġflaked":1224,"ĠDressing":1225,"Ġhearts":1226,"Ġbrandy":1227,"Ġcracked":1228,"Ġcash":1229,"Ġchuck":1230,"Ġcashew":1231,"Ġflat":1232,"tive":1233,"Ġactive":1234,"ĠTopping":1235,"Ġfennel":1236,"ugar":1237,"veeta":1238,"elveeta":1239,"zed":1240,"Ġic":1241,"Ġsmok":1242,"Ġicing":1243,"jor":1244,"Ġtartar":1245,"ĠVelveeta":1246,"Ġlentils":1247,"asch":1248,"aschino":1249,"Ġfillets":1250,"Ġran":1251,"ich":1252,"amb":1253,"Ġeggp":1254,"Ġpepperoni":1255,"Ġranch":1256,"esto":1257,"Ġho":1258,"Ġmaraschino":1259,"Ġchun":1260,"flavored":1261,"joram":1262,"Ġmarjoram":1263,"Ġpesto":1264,"kra":1265,"Ġki":1266,"Ġpecan":1267,"Ġes":1268,"ai":1269,"Ġpeppercorn":1270,"ats":1271,"arag":1272,"Ġmonterey":1273,"Ġgoat":1274,"aragus":1275,"Ġasp":1276,"Ġkal":1277,"ellini":1278,"Ġasparagus":1279,"gra":1280,"scotch":1281,"ard":1282,"Ġcaram":1283,"ton":1284,"sels":1285,"aw":1286,"Ġpen":1287,"amp":1288,"Ġbutterscotch":1289,"Ġchip":1290,"read":1291,"ashed":1292,"ĠSugar":1293,"isqu":1294,"grain":1295,"Ġpenne":1296,"Ġripe":1297,"ĠButter":1298,"Ġmas":1299,"icks":1300,"isquick":1301,"Ġcas":1302,"hed":1303,"Ġjack":1304,"Ġla":1305,"ĠBisquick":1306,"merican":1307,"ĠAmerican":1308,"ala":1309,"ĠRice":1310,"Ġcoloring":1311,"ban":1312,"ster":1313,"Ġun":1314,"Ġchunk":1315,"jun":1316,"ĠCream":1317,"Ġcashews":1318,"Ġpint":1319,"Ġpinto":1320,"eezed":1321,"Ġcrushed":1322,"Ġflavor":1323,"erm":1324,"Ġsmoke":1325,"Ġcaster":1326,"Ġpeel":1327,"Ġstuff":1328,"tion":1329,"Ġmashed":1330,"rumb":1331,"ite":1332,"Ġha":1333,"Ġgr":1334,"ppy":1335,"Ġchiles":1336,"ĠMar":1337,"Ġdeli":1338,"Ġgranules":1339,"Ġport":1340,"Ġstew":1341,"Ġgarban":1342,"Ġgarbanzo":1343,"Ġpoppy":1344,"Ġfood":1345,"Ġdo":1346,"Ġoun":1347,"Ġthin":1348,"Ġbar":1349,"lant":1350,"Ġounces":1351,"fec":1352,"fection":1353,"lour":1354,"elon":1355,"Ġsqueezed":1356,"Ġquick":1357,"Ġyolk":1358,"Ġkernels":1359,"fectioners":1360,"Ġcreme":1361,"cle":1362,"Ġbis":1363,"Ġen":1364,"Ġflax":1365,"Ġlamb":1366,"Ġcaraw":1367,"Ġchunky":1368,"Ġcaraway":1369,"ate":1370,"ira":1371,"cooking":1372,"Ġchest":1373,"Ġling":1374,"tail":1375,"cuit":1376,"no":1377,"Ġsir":1378,"Ġsoymilk":1379,"Ġconfectioners":1380,"Ġsirloin":1381,"hub":1382,"Ġfillet":1383,"Ġlee":1384,"cho":1385,"Ġpeppercorns":1386,"hubarb":1387,"ĠFresh":1388,"ni":1389,"isin":1390,"Ġbits":1391,"unch":1392,"Ġbiscuit":1393,"Ġraisin":1394,"Ġcann":1395,"Ġtea":1396,"Ġlingu":1397,"Ġcock":1398,"Ġcocktail":1399,"yster":1400,"Ġwed":1401,"atsup":1402,"arm":1403,"Ġcatsup":1404,"quil":1405,"Ġoyster":1406,"IN":1407,"Ġshells":1408,"ling":1409,"Ġrhubarb":1410,"Ġchestnuts":1411,"usco":1412,"uscous":1413,"ink":1414,"ĠEg":1415,"Ġancho":1416,"quila":1417,"Ġbut":1418,"Ġcouscous":1419,"Ġhoisin":1420,"iracle":1421,"ah":1422,"ĠMiracle":1423,"Ġrad":1424,"eese":1425,"darin":1426,"Ġtequila":1427,"Ġstuffing":1428,"Ġlinguine":1429,"ultry":1430,"Ġmandarin":1431,"Ġpoultry":1432,"Ġpimi":1433,"russels":1434,"Ġpimiento":1435,"ny":1436,"Ġmarmal":1437,"Ġmarmalade":1438,"ugu":1439,"ĠBrussels":1440,"lend":1441,"zel":1442,"Ġsau":1443,"Ġsticks":1444,"Ġbarley":1445,"Ġsk":1446,"Ġtah":1447,"bas":1448,"orn":1449,"Ġtahini":1450,"lish":1451,"ugula":1452,"ugh":1453,"rout":1454,"ce":1455,"ĠL":1456,"Ġleeks":1457,"Ġbri":1458,"Ġarugula":1459,"Ġor":1460,"igh":1461,"Ġgranny":1462,"ĠH":1463,"Ġblend":1464,"Ġcajun":1465,"vol":1466,"'s":1467,"Ġsmith":1468,"di":1469,"volone":1470,"erkra":1471,"ita":1472,"Ġthigh":1473,"erkraut":1474,"ectar":1475,"Ġprovolone":1476,"Ġsauerkraut":1477,"Ġnectar":1478,"ĠCooking":1479,"Ġwarm":1480,"Ġstyle":1481,"Ġeggplant":1482,"Ġslices":1483,"Ġbutternut":1484,"ĠSo":1485,"Ġcookies":1486,"ĠCheese":1487,"inoa":1488,"Ġroot":1489,"ING":1490,"Ġbitter":1491,"Ġspring":1492,"vered":1493,"and":1494,"Ġquinoa":1495,"iy":1496,"Ġmuff":1497,"Ġjell":1498,"Ġsho":1499,"aki":1500,"Ġwaf":1501,"iyaki":1502,"Ġcaramel":1503,"Ġwalnut":1504,"Ġbeets":1505,"bon":1506,"Ġherbs":1507,"ĠWh":1508,"resso":1509,"basa":1510,"Ġter":1511,"elbasa":1512,"Ġteriyaki":1513,"arp":1514,"Ġcol":1515,"Ġkielbasa":1516,"Ġmarin":1517,"Ġser":1518,"routs":1519,"Ġjalapenos":1520,"ĠÂ":1521,"Ġrot":1522,"ĠFilling":1523,"alo":1524,"tte":1525,"Ġromano":1526,"Ġsprouts":1527,"ĠDi":1528,"sting":1529,"rish":1530,"rano":1531,"Ġorzo":1532,"ilad":1533,"Ġcooked":1534,"gre":1535,"inai":1536,"Ġcannellini":1537,"Ġbutton":1538,"Ġradish":1539,"inaigre":1540,"melon":1541,"Ġlo":1542,"inaigrette":1543,"ams":1544,"Ġcrisp":1545,"Ġpim":1546,"Ġsquar":1547,"ular":1548,"Ġpimento":1549,"Ġbon":1550,"Ġseedless":1551,"Ġwatermelon":1552,"Ġserrano":1553,"atur":1554,"urbon":1555,"Ġround":1556,"Ġtri":1557,"Ġhazel":1558,"Ġgravy":1559,"stick":1560,"Ġjelly":1561,"gna":1562,"rescent":1563,"Ġgerm":1564,"Ġthighs":1565,"Ġseasoned":1566,"ern":1567,"ĠSal":1568,"presso":1569,"ĠBa":1570,"Ġespresso":1571,"Ġcrescent":1572,"oca":1573,"atural":1574,"Ġpan":1575,"Ġwhis":1576,"ĠÂ¼":1577,"Ġrus":1578,"ĠPe":1579,"Ġkale":1580,"Ġcl":1581,"Ġpita":1582,"Ġjam":1583,"Ġale":1584,"ye":1585,"set":1586,"Ġnatural":1587,"ĠDij":1588,"Ġrusset":1589,"Ġrye":1590,"ist":1591,"chilad":1592,"chilada":1593,"Ġtap":1594,"ĠSalad":1595,"ess":1596,"ass":1597,"Ġenchilada":1598,"Ġmasala":1599,"Ġslice":1600,"ette":1601,"Ġsaff":1602,"Ġsem":1603,"Ġherb":1604,"Ġbagu":1605,"ĠMilk":1606,"ild":1607,"ĠDijon":1608,"its":1609,"Ġlemonade":1610,"idal":1611,"idalia":1612,"Ġpre":1613,"irm":1614,"now":1615,"mint":1616,"Ġcurran":1617,"Ġsquares":1618,"ioca":1619,"Ġsnow":1620,"ition":1621,"rispies":1622,"Ġwhiskey":1623,"Ġpeppermint":1624,"nad":1625,"Ġberries":1626,"Ġfirm":1627,"ĠKrispies":1628,"nadine":1629,"Ġfi":1630,"Ġtapioca":1631,"Ġsli":1632,"oth":1633,"Ġgrenadine":1634,"ĠSpinach":1635,"eless":1636,"Ġgold":1637,"ple":1638,"lua":1639,"ahlua":1640,"ĠFreshly":1641,"Ġboneless":1642,"lank":1643,"Ġmeal":1644,"Ġvinaigrette":1645,"Ġhash":1646,"ĠKahlua":1647,"ds":1648,"Ġpearl":1649,"Ġi":1650,"achio":1651,"istachio":1652,"itional":1653,"Ġpomeg":1654,"Ġgaram":1655,"Ġpomegran":1656,"Ġpistachio":1657,"ents":1658,"Ġpickles":1659,"Ġflavored":1660,"bell":1661,"ara":1662,"ĠVanilla":1663,"ampbell":1664,"ĠN":1665,"ĠBaking":1666,"ati":1667,"Ġanise":1668,"Ġflank":1669,"Ġtriple":1670,"Ġslivered":1671,"ron":1672,"Ġskew":1673,"inese":1674,"Ġbittersweet":1675,"Ġpomegranate":1676,"Ġanchovy":1677,"Ġsemis":1678,"Ġrelish":1679,"ib":1680,"ĠFlour":1681,"Ġsemisweet":1682,"ere":1683,"Ġbreadcrumb":1684,"Ġflavoring":1685,"Ġmangoes":1686,"bread":1687,"mati":1688,"aca":1689,"Ġnonstick":1690,"fish":1691,"ico":1692,"ata":1693,"Ġblackberries":1694,"ĠJ":1695,"eyed":1696,"ĠTom":1697,"rink":1698,"uy":1699,"amar":1700,"Ġportab":1701,"Ġbaguette":1702,"Ġchipot":1703,"Ġrotini":1704,"Ġportabella":1705,"Ġblan":1706,"ilap":1707,"Ġvidalia":1708,"Ġspri":1709,"ilapia":1710,"ng":1711,"Ġcr":1712,"Ġtilapia":1713,"ched":1714,"Ġbasmati":1715,"nion":1716,"lub":1717,"ĠOnion":1718,"law":1719,"Ġclub":1720,"Ġalf":1721,"Ġbul":1722,"ters":1723,"Ġvery":1724,"Ġchipotle":1725,"Ġchickens":1726,"ĠMix":1727,"routon":1728,"ĠSe":1729,"Ġwild":1730,"ages":1731,"Ġsteaks":1732,"Ġreg":1733,"Ġpanc":1734,"to":1735,"acao":1736,"Ġcrouton":1737,"untry":1738,"ĠSwiss":1739,"ĠBo":1740,"ĠCho":1741,"Ġregular":1742,"amen":1743,"Ġfrosting":1744,"Ġcolby":1745,"Ġwra":1746,"Ġcookie":1747,"Ġbrowns":1748,"efruit":1749,"died":1750,"Ġsaffron":1751,"fu":1752,"Ġsum":1753,"Ġcandied":1754,"Ġwedges":1755,"uyere":1756,"Ġgrapefruit":1757,"unchy":1758,"ĠEgg":1759,"agne":1760,"ampagne":1761,"Ġblanched":1762,"ĠChocolate":1763,"amata":1764,"ĠBro":1765,"Ġcrunchy":1766,"Ġramen":1767,"ĠIrish":1768,"Ġtofu":1769,"enter":1770,"Ġmarinara":1771,"te":1772,"Ġkalamata":1773,"Ġunflavored":1774,"Ġcenter":1775,"ĠSeason":1776,"ip":1777,"ami":1778,"orth":1779,"rust":1780,"Ġhazelnuts":1781,"Ġcountry":1782,"Ġskewers":1783,"Ġchampagne":1784,"ation":1785,"ante":1786,"Ġscallo":1787,"Ġdough":1788,"Ġcant":1789,"lime":1790,"Ġchopped":1791,"Ġess":1792,"ĠPepper":1793,"orthern":1794,"add":1795,"aloup":1796,"icante":1797,"Ġmuffins":1798,"Ġcantaloup":1799,"ci":1800,"Ġas":1801,"Ġpl":1802,"Ġcrusts":1803,"RE":1804,"ĠPo":1805,"alls":1806,"Ġfav":1807,"ott":1808,"Ġtart":1809,"Ġpop":1810,"Ġbott":1811,"ello":1812,"Ġribs":1813,"reek":1814,"Ġpicante":1815,"Ġart":1816,"Ġpopcorn":1817,"Ġsec":1818,"Ġradishes":1819,"Ġpistachios":1820,"ĠPowder":1821,"Ġa":1822,"ichok":1823,"Ġartichok":1824,"ĠBourbon":1825,"Ġcantaloupe":1826,"Ġplum":1827,"anish":1828,"Ġgreat":1829,"ren":1830,"ence":1831,"balls":1832,"Ġsalami":1833,"leslaw":1834,"ĠTomatoes":1835,"Ġgh":1836,"lants":1837,"gel":1838,"ke":1839,"Ġcrumb":1840,"Ġfo":1841,"Ġcoleslaw":1842,"Ġeggplants":1843,"Ġkiw":1844,"Ġessence":1845,"Ġsi":1846,"rench":1847,"Ġwith":1848,"Ġgruyere":1849,"Ġclams":1850,"Ġcreole":1851,"zola":1852,"Ġfloret":1853,"Ġpurp":1854,"ated":1855,"Ġconta":1856,"Ġsausages":1857,"ĠOli":1858,"Ġpurple":1859,"Ġcontain":1860,"Ġpods":1861,"bet":1862,"flour":1863,"orgon":1864,"Ġcornflour":1865,"orgonzola":1866,"rand":1867,"Ġbrie":1868,"ooth":1869,"Ġgu":1870,"lid":1871,"orite":1872,"redo":1873,"egetable":1874,"ĠCrust":1875,"ĠSeasoning":1876,"sagna":1877,"Ġsmooth":1878,"Ġlasagna":1879,"Ġwafers":1880,"ĠOlive":1881,"ĠBay":1882,"ĠOil":1883,"Ġchoy":1884,"mple":1885,"redi":1886,"nier":1887,"Ġcurrants":1888,"carp":1889,"Ġspic":1890,"ĠMarnier":1891,"redients":1892,"carpone":1893,"Ġokra":1894,"Ġtamar":1895,"ucc":1896,"Ġcornbread":1897,"Ġtortellini":1898,"ĠGrand":1899,"ines":1900,"Ġstem":1901,"ket":1902,"Ġe":1903,"Ġshi":1904,"ĠBrown":1905,"itake":1906,"Ġmeatballs":1907,"Ġsolid":1908,"ĠChinese":1909,"Ġfavorite":1910,"range":1911,"Ġdish":1912,"Ġparsni":1913,"Ġcaramels":1914,"Ġwedge":1915,"Ġshiitake":1916,"Ġpacket":1917,"Ġmascarpone":1918,"Ġscallops":1919,"tz":1920,"Ġnorthern":1921,"Ġfett":1922,"ings":1923,"Ġkiwi":1924,"Ġsprink":1925,"ol":1926,"ppers":1927,"ĠRed":1928,"Ġfettucc":1929,"uda":1930,"leaf":1931,"arkling":1932,"ola":1933,"ĠLe":1934,"Ġcroutons":1935,"ĠGar":1936,"sket":1937,"ĠCinnamon":1938,"ĠEggs":1939,"Ġwas":1940,"Ġpieces":1941,"ĠAl":1942,"Ġpackets":1943,"Ġsprinkles":1944,"cini":1945,"ze":1946,"Ġnew":1947,"Ġbrisket":1948,"cipe":1949,"ig":1950,"Ġsparkling":1951,"Ġrecipe":1952,"Ġsummer":1953,"ĠGarlic":1954,"rizo":1955,"Ġchorizo":1956,"ĠCampbell":1957,"ĠFrench":1958,"tin":1959,"Ġalfredo":1960,"Ġmat":1961,"Ġtoffee":1962,"ĠMarin":1963,"icots":1964,"Ġfettuccine":1965,"wich":1966,"ĠSpanish":1967,"lets":1968,"Ġsoya":1969,"Ġangel":1970,"ious":1971,"andwich":1972,"Ġwafer":1973,"ĠMarinade":1974,"Ġsprigs":1975,"Ġwrappers":1976,"abi":1977,"ulder":1978,"Ġshoulder":1979,"licious":1980,"ĠVegetable":1981,"ĠLemon":1982,"Ġwasabi":1983,"Ġsharp":1984,"Ġpapay":1985,"Ġmace":1986,"Ġgum":1987,"ĠBe":1988,"Ġfra":1989,"Ġwon":1990,"monterey":1991,"Ġsandwich":1992,"ama":1993,"Ġhom":1994,"Ġunb":1995,"Ġstems":1996,"Ġcreamer":1997,"Ġcrispy":1998,"Ġwonton":1999,"wns":2000,"Ġmir":2001,"Ġpea":2002,"Ġhair":2003,"bits":2004,"Ġmach":2005,"berg":2006,"que":2007,"Ġpickling":2008,"Ġsimple":2009,"Ġmirin":2010,"ori":2011,"Ġbunch":2012,"Ġcandy":2013,"eque":2014,"ob":2015,"Ġgall":2016,"Ġtid":2017,"rawns":2018,"Ġlav":2019,"Ġbunches":2020,"Ġgallon":2021,"Ġtidbits":2022,"sala":2023,"Ġgranola":2024,"Ġbarbeque":2025,"Ġprawns":2026,"Ġfive":2027,"do":2028,"eri":2029,"ambo":2030,"ĠGreek":2031,"Ġlavender":2032,"Ġadd":2033,"Ġpimentos":2034,"Ġspices":2035,"Ġmachine":2036,"mbo":2037,"icama":2038,"Ġjicama":2039,"Ġjumbo":2040,"iny":2041,"Ġgl":2042,"Ġbrownie":2043,"Ġapricots":2044,"Ġpears":2045,"Ġcola":2046,"rigin":2047,"iche":2048,"Ġacorn":2049,"Ġverm":2050,"Ġpimientos":2051,"Ġpink":2052,"Ġveal":2053,"Ġgorgonzola":2054,"Ġbiscuits":2055,"Ġfraiche":2056,"Ġglut":2057,"icken":2058,"Ġbever":2059,"ĠCa":2060,"ago":2061,"Ġcrusty":2062,"Ġadditional":2063,"Ġmuffin":2064,"exic":2065,"ĠPot":2066,"Ġflake":2067,"ĠGround":2068,"Ġrig":2069,"riginal":2070,"im":2071,"tan":2072,"Ġ'":2073,"Ġbambo":2074,"Ġbamboo":2075,"Ġbeet":2076,"Ġnutr":2077,"Ġlobs":2078,"Ġcontainers":2079,"Ġbeverage":2080,"iago":2081,"ĠChicken":2082,"Ġgrits":2083,"tzels":2084,"ĠPotatoes":2085,"Ġnutritional":2086,"PP":2087,"Ġcro":2088,"ĠTO":2089,"ĠSoup":2090,"mit":2091,"Â®":2092,"Ġsul":2093,"Ġsake":2094,"ghurt":2095,"uminum":2096,"Ġtenders":2097,"Ġasiago":2098,"Ġparsnips":2099,"Ġpapaya":2100,"nap":2101,"Ġsilk":2102,"ryst":2103,"ĠIng":2104,"Ġlump":2105,"ĠWhip":2106,"arian":2107,"Ġtorn":2108,"Ġyoghurt":2109,"Ġcube":2110,"Ġpretzels":2111,"Ġsultan":2112,"ma":2113,"Ġcut":2114,"Ġspar":2115,"ĠWhite":2116,"Ġpancake":2117,"tein":2118,"ĠIngredients":2119,"erbet":2120,"Ġver":2121,"asm":2122,"Ġsherbet":2123,"Ġprotein":2124,"Ġimit":2125,"Ġimitation":2126,"SS":2127,"Ġpr":2128,"Ġsilken":2129,"asmine":2130,"Ġmin":2131,"Ġcod":2132,"Ġbase":2133,"Ġlard":2134,"ĠDRE":2135,"SSING":2136,"ĠDRESSING":2137,"LA":2138,"be":2139,"gi":2140,"esar":2141,"Ġfat":2142,"chn":2143,"Ġartichokes":2144,"PPING":2145,"Ġarb":2146,"Ġstar":2147,"Ġyams":2148,"iry":2149,"Ġwood":2150,"Ġstewing":2151,"ĠTOPPING":2152,"lli":2153,"Ġmelon":2154,"Ġmussels":2155,"dairy":2156,"Ġtoast":2157,"os":2158,"Ġflow":2159,"Ġjasmine":2160,"risco":2161,"eribs":2162,"Ġspareribs":2163,"Ġcat":2164,"Ġsna":2165,"Ġveget":2166,"apps":2167,"chnapps":2168,"Ġcle":2169,"ĠSyrup":2170,"ĠCrisco":2171,"ĠWater":2172,"Ġmatzo":2173,"ug":2174,"garlic":2175,"eseed":2176,"omme":2177,"Ġliters":2178,"Ġdes":2179,"Ġcons":2180,"ĠMonterey":2181,"Ġgouda":2182,"ĠCajun":2183,"Ġsor":2184,"Ġlimes":2185,"Ġbourbon":2186,"Ġfruits":2187,"Ġproces":2188,"Ġghee":2189,"Ġvegetarian":2190,"Ġold":2191,"ĠAc":2192,"nog":2193,"Ġoysters":2194,"Ġfigs":2195,"Ġwa":2196,"Ġblackberry":2197,"Ġconsomme":2198,"atoni":2199,"amole":2200,"acamole":2201,"Ġcaesar":2202,"Ġdog":2203,"ful":2204,"Ġful":2205,"iso":2206,"ashion":2207,"ĠSoda":2208,"Ġguacamole":2209,"Ġrigatoni":2210,"fashion":2211,"Ġstarch":2212,"Ġschnapps":2213,"alm":2214,"Ġeggnog":2215,"Ġaluminum":2216,"ase":2217,"Ġyour":2218,"Ġcaps":2219,"andful":2220,"Ġcatfish":2221,"fashioned":2222,"ft":2223,"Ġcryst":2224,"Ġsnap":2225,"Ġchard":2226,"icelli":2227,"ustard":2228,"ĠCorn":2229,"Ġvermicelli":2230,"Ġprun":2231,"ener":2232,"Ġhock":2233,"Ġgluten":2234,"Ġpepperon":2235,"ĠChi":2236,"ĠFro":2237,"Ġgrapeseed":2238,"Ġfoil":2239,"Ġhominy":2240,"par":2241,"Ġcans":2242,"rops":2243,"Ġmexic":2244,"etta":2245,"cor":2246,"Ġirish":2247,"Ġpepperoncini":2248,"dew":2249,"ud":2250,"Ġph":2251,"Ġcutlets":2252,"HI":2253,"Ġsea":2254,"Ġseaf":2255,"Ġspread":2256,"Ġhoneydew":2257,"ĠAccent":2258,"Ġseafood":2259,"Ġbic":2260,"Ġmiso":2261,"Ġiceberg":2262,"orio":2263,"Ġarborio":2264,"onate":2265,"arbonate":2266,"ĠEng":2267,"Ġmarinade":2268,"Ġbicarbonate":2269,"ĠEnglish":2270,"ls":2271,"Ġmarsala":2272,"Ġpectin":2273,"ĠGo":2274,"Ġbottles":2275,"ina":2276,"urg":2277,"Ġbag":2278,"Ġtamari":2279,"leach":2280,"aters":2281,"Ġcane":2282,"Ġcoll":2283,"Ġpancetta":2284,"Ġtoasted":2285,"Ġed":2286,"Ġgin":2287,"Ġtrout":2288,"isins":2289,"cha":2290,"Ġnavy":2291,"Ġsto":2292,"ĠGra":2293,"leached":2294,"de":2295,"gr":2296,"ium":2297,"cotch":2298,"ction":2299,"Ġhazelnut":2300,"Ġlobster":2301,"Ġcollard":2302,"anth":2303,"Ġgla":2304,"Ġbuttery":2305,"Ġwhip":2306,"Ġendi":2307,"Ġcurrant":2308,"Ġprocessed":2309,"ĠFrosting":2310,"Ġshav":2311,"ĠHoney":2312,"ĠBeaters":2313,"Ġunbleached":2314,"LAD":2315,"erk":2316,"utney":2317,"Ġback":2318,"Ġlimeade":2319,"fto":2320,"Ġblo":2321,"Ġchutney":2322,"Ġpee":2323,"Ġlefto":2324,"Ġdrops":2325,"uffalo":2326,"Ġspe":2327,"ĠDe":2328,"Ġclam":2329,"Ġwooden":2330,"grass":2331,"ille":2332,"Ġmalt":2333,"Ġlemongrass":2334,"ĠCacao":2335,"Ġendive":2336,"wh":2337,"Ġpolen":2338,"sert":2339,"ĠRom":2340,"ĠJack":2341,"pared":2342,"Ġleftover":2343,"Ġpolenta":2344,"wed":2345,"Ġpalm":2346,"Ġsourdo":2347,"ĠSh":2348,"Ġcool":2349,"agie":2350,"ĠEx":2351,"Ġdessert":2352,"Ġpeeled":2353,"Ġsourdough":2354,"mini":2355,"Ġbok":2356,"aged":2357,"Ġme":2358,"Ġthread":2359,"Ġhoagie":2360,"Ġprepared":2361,"ĠExtra":2362,"Ġole":2363,"Ġstone":2364,"ĠBlack":2365,"Ġread":2366,"Ġhar":2367,"Ġchilled":2368,"Ġpaper":2369,"ioli":2370,"Ġsnapper":2371,"Ġsel":2372,"Ġsoft":2373,"Ġoleo":2374,"ĠCar":2375,"ĠOats":2376,"gnac":2377,"ĠChips":2378,"Ġready":2379,"EL":2380,"fri":2381,"Ġtast":2382,"lanta":2383,"Ġcup":2384,"Ġbone":2385,"uth":2386,"Ġjig":2387,"Ġhandful":2388,"Ġstring":2389,"Ġcraisins":2390,"Ġcuracao":2391,"ĠOrange":2392,"Ġcolored":2393,"othp":2394,"ĠAll":2395,"Ġclear":2396,"ĠDelicious":2397,"ĠRomano":2398,"Ġtasty":2399,"Ġx":2400,"Ġam":2401,"ital":2402,"Ġquar":2403,"Ġbulb":2404,"othpicks":2405,"Ġplanta":2406,"Ġlima":2407,"pepper":2408,"Ġcand":2409,"ettes":2410,"Ġprunes":2411,"ele":2412,"via":2413,"Ġveg":2414,"rira":2415,"Ġgrainy":2416,"Ġrefri":2417,"Ġsprig":2418,"giano":2419,"corino":2420,"Ġshavings":2421,"ots":2422,"uen":2423,"Ġpin":2424,"Ġcognac":2425,"Ġbags":2426,"Ġstewed":2427,"anthan":2428,"Ġxanthan":2429,"finger":2430,"yl":2431,"Ġbuffalo":2432,"Ġtoothpicks":2433,"Ġgranule":2434,"Ġedam":2435,"riracha":2436,"uenster":2437,"Ġpass":2438,"Ġchinese":2439,"ens":2440,"Ġchia":2441,"ĠAs":2442,"ground":2443,"ments":2444,"Ġcampbell":2445,"ĠChil":2446,"Ġblueberry":2447,"Ġlin":2448,"Ġtots":2449,"ĠOriginal":2450,"Ġportob":2451,"Ġportobello":2452,"ved":2453,"Ġsaltine":2454,"uced":2455,"Ġcremini":2456,"Ġreduced":2457,"Ġsection":2458,"ĠSA":2459,"ĠPie":2460,"ĠTh":2461,"Ġsmoked":2462,"Ġflowers":2463,"ĠAsian":2464,"alf":2465,"Ġfran":2466,"Ġpecorino":2467,"itos":2468,"Ġdis":2469,"Ġstarter":2470,"Ġcandies":2471,"Ġcal":2472,"Ġsamb":2473,"Ġnutella":2474,"Ġroasting":2475,"Ġartichoke":2476,"Ġsultana":2477,"Ġmein":2478,"gur":2479,"sley":2480,"Ġado":2481,"Ġcorned":2482,"Ġdice":2483,"ĠCake":2484,"Ġbulgur":2485,"Ġwax":2486,"alfa":2487,"bran":2488,"ory":2489,"ston":2490,"Ġstevia":2491,"Ġalfalfa":2492,"Ġphyl":2493,"Ġpints":2494,"Ġphyllo":2495,"ating":2496,"Ġhard":2497,"Ġstri":2498,"Ġgranular":2499,"tilled":2500,"Ġbitters":2501,"Ġdistilled":2502,"rite":2503,"Ġsw":2504,"Ġseg":2505,"Ġrings":2506,"ssom":2507,"Ġblossom":2508,"Ġdiced":2509,"ph":2510,"vies":2511,"Ġfar":2512,"iser":2513,"ĠPumpkin":2514,"ĠSprite":2515,"Ġtamarind":2516,"aiser":2517,"ĠY":2518,"row":2519,"ĠSa":2520,"ĠApp":2521,"Ġanchovies":2522,"wheat":2523,"Ġadobo":2524,"em":2525,"ight":2526,"Ġmed":2527,"Ġjar":2528,"Ġbrewed":2529,"ord":2530,"Ġfully":2531,"Ġsegments":2532,"Ġ-":2533,"Ġfry":2534,"lico":2535,"Ġno":2536,"Ġchop":2537,"ĠGre":2538,"Ġbite":2539,"aves":2540,"ial":2541,"ty":2542,"ickory":2543,"ĠFrange":2544,"Ġpackage":2545,"Ġstuffed":2546,"ĠFrangelico":2547,"Ġwing":2548,"Ġhadd":2549,"Ġbreads":2550,"ĠSt":2551,"Ġstalk":2552,"Ġdelicious":2553,"Ġbagels":2554,"Ġspear":2555,"Ġsambal":2556,"ero":2557,"illi":2558,"Ġkiss":2559,"Ġcroiss":2560,"Ġedamame":2561,"Ġlinks":2562,"Ġhaddock":2563,"ho":2564,"kes":2565,"eso":2566,"Ġnectarines":2567,"aro":2568,"alib":2569,"Ġhickory":2570,"Ġstick":2571,"Ġkaiser":2572,"Ġsweetener":2573,"Ġqueso":2574,"Ġlady":2575,"Ġmince":2576,"alibu":2577,"bl":2578,"Ġsriracha":2579,"ants":2580,"Ġjerk":2581,"Ġcornfla":2582,"Ġstrips":2583,"Ġaged":2584,"Ġfus":2585,"Ġchoice":2586,"Ġand":2587,"ĠNut":2588,"Ġpassion":2589,"Ġfusilli":2590,"ured":2591,"erie":2592,"Ġbark":2593,"Ġpat":2594,"illo":2595,"anut":2596,"anger":2597,"utch":2598,"Ġrump":2599,"isserie":2600,"Ġfilet":2601,"Ġbutt":2602,"Ġrotisserie":2603,"Ġloaves":2604,"Ġsafflower":2605,"Ġoele":2606,"Ġmuenster":2607,"under":2608,"Ġgrease":2609,"Ġdrink":2610,"Ġpul":2611,"Ġdripping":2612,"Ġsorbet":2613,"Ġcrystals":2614,"Ġplantains":2615,"Ġrefriger":2616,"Ġladyfinger":2617,"Ġoelek":2618,"bin":2619,"Ġbuck":2620,"enis":2621,"Ġvenis":2622,"Ġbuckwheat":2623,"Ġvenison":2624,"tle":2625,"Ġbuttered":2626,"Ġcoating":2627,"vory":2628,"ĠCreme":2629,"Ġchunks":2630,"Ġbottled":2631,"Ġpulp":2632,"Ġmul":2633,"tered":2634,"Ġrav":2635,"uble":2636,"Ġhocks":2637,"Ġmexicorn":2638,"Ġkisses":2639,"Ġcornflakes":2640,"cing":2641,"if":2642,"Ġtanger":2643,"acho":2644,"ĠIcing":2645,"Ġboston":2646,"ĠRo":2647,"flavor":2648,"Ġfenug":2649,"Ġdouble":2650,"ahi":2651,"Ġshoe":2652,"ĠPeanut":2653,"Ġcups":2654,"Ġfenugreek":2655,"cake":2656,"icch":2657,"Ġmer":2658,"Ġflounder":2659,"Ġnacho":2660,"ĠBar":2661,"Ġradicch":2662,"Ġdrippings":2663,"Ġravioli":2664,"Ġradicchio":2665,"ment":2666,"ous":2667,"Ġrock":2668,"ĠMayonnaise":2669,"ibb":2670,"ĠChili":2671,"Ġberry":2672,"Ġsavory":2673,"ayer":2674,"ĠKaro":2675,"cress":2676,"ons":2677,"Ġwatercress":2678,"Ġhens":2679,"covered":2680,"Ġcarob":2681,"Ġbass":2682,"qual":2683,"ĠSpice":2684,"Ġcubed":2685,"Ġcontainer":2686,"Ġsword":2687,"ĠGreen":2688,"Ġcroissants":2689,"Ġswordfish":2690,"Ġpers":2691,"Ġtater":2692,"Ġpobl":2693,"itch":2694,"Ġbulbs":2695,"Ġfour":2696,"ĠCornish":2697,"ĠGolden":2698,"Ġpoblano":2699,"IE":2700,"Ġing":2701,"Ġass":2702,"Ġmor":2703,"Ġmahi":2704,"Ġfud":2705,"usage":2706,"Ġverde":2707,"Ġsections":2708,"si":2709,"ontin":2710,"ream":2711,"elle":2712,"migiano":2713,"ĠVinaigrette":2714,"ĠGr":2715,"ĠGorgonzola":2716,"Ġjigger":2717,"ĠSausage":2718,"Ġingredients":2719,"ba":2720,"ggs":2721,"uice":2722,"Ġscotch":2723,"Ġvital":2724,"irt":2725,"bean":2726,"Ġladyfingers":2727,"Ġfudge":2728,"sugar":2729,"Ġoriginal":2730,"loins":2731,"elli":2732,"ĠBra":2733,"ĠPast":2734,"ĠMustard":2735,"ĠDutch":2736,"awai":2737,"ĠJuice":2738,"Ġsumac":2739,"Ġglaze":2740,"Ġrefrigerated":2741,"binado":2742,"Ġassort":2743,"Ġcustard":2744,"Ġpound":2745,"Ġcreamy":2746,"Ġrub":2747,"Ġne":2748,"Ġsheet":2749,"ĠBread":2750,"Ġcurd":2751,"Ġtenderloins":2752,"ĠToppings":2753,"ĠSALAD":2754,"Ġmincemeat":2755,"tlett":2756,"awaiian":2757,"aj":2758,"nation":2759,"ruff":2760,"Ġcit":2761,"anese":2762,"atter":2763,"Ġparmigiano":2764,"Ġduck":2765,"Ġturbinado":2766,"ĠCocoa":2767,"Ġasian":2768,"ontina":2769,"eim":2770,"Ġcav":2771,"Ġsup":2772,"apanese":2773,"Ġavocadoes":2774,"ĠCreole":2775,"Ġloose":2776,"iblets":2777,"Ġquartered":2778,"sel":2779,"Ġfine":2780,"Ġlower":2781,"ĠFi":2782,"Ġdogs":2783,"Ġskirt":2784,"Ġsultanas":2785,"uthern":2786,"Ġvegan":2787,"Ġfres":2788,"rack":2789,"Ġgrill":2790,"ĠSour":2791,"Ġplums":2792,"Ġev":2793,"Ġfrank":2794,"Ġmulti":2795,"GRE":2796,"IL":2797,"LING":2798,"icial":2799,"ried":2800,"chi":2801,"orated":2802,"aporated":2803,"tif":2804,"ĠTomato":2805,"ĠPowdered":2806,"Ġevaporated":2807,"ON":2808,"mel":2809,"peg":2810,"tic":2811,"uille":2812,"Ġamar":2813,"Ġmade":2814,"ris":2815,"ĠScotch":2816,"ava":2817,"Ġartif":2818,"Ġpacked":2819,"Ġparsnip":2820,"Ġcrystal":2821,"Ġmexican":2822,"Ġstout":2823,"Ġself":2824,"Ġmedium":2825,"ĠBraggs":2826,"Ġassorted":2827,"Ġartificial":2828,"PHI":2829,"ko":2830,"Ġbr":2831,"Ġtruff":2832,"corat":2833,"Ġdi":2834,"Ġdip":2835,"Ġkum":2836,"Ġfrom":2837,"ĠPHI":2838,"Ġando":2839,"Ġherbes":2840,"Ġwraps":2841,"LADEL":2842,"illet":2843,"PHIA":2844,"ĠPHILADEL":2845,"Ġandouille":2846,"ĠPHILADELPHIA":2847,"inf":2848,"urs":2849,"Ġbak":2850,"colo":2851,"odium":2852,"ĠBurg":2853,"ĠMalibu":2854,"ties":2855,"ĠVinegar":2856,"Ġanah":2857,"Ġleek":2858,"Ġbaguettes":2859,"Ġcrumbles":2860,"immon":2861,"Ġpersimmon":2862,"Ġfresco":2863,"Ġanaheim":2864,"ĠU":2865,"Ġlite":2866,"anson":2867,"Ġceltic":2868,"neck":2869,"Ġbox":2870,"Ġskewer":2871,"Ġshoepeg":2872,"fur":2873,"mm":2874,"vers":2875,"ang":2876,"Ġmild":2877,"Ġmillet":2878,"Ġgro":2879,"ĠCanola":2880,"akes":2881,"ĠFIL":2882,"Ġarrow":2883,"ĠEqual":2884,"Ġcanning":2885,"Ġstore":2886,"Ġfrankfur":2887,"ĠFILLING":2888,"Ġarrowroot":2889,"garian":2890,"Ġmon":2891,"Ġwell":2892,"ego":2893,"itas":2894,"chego":2895,"season":2896,"ĠBas":2897,"ĠBase":2898,"ĠVidalia":2899,"Ġcoarsley":2900,"ĠLayer":2901,"ĠBacon":2902,"tzer":2903,"Ġmorsel":2904,"TE":2905,"Tel":2906,"sodium":2907,"va":2908,"wanson":2909,"Ġ&":2910,"Ġble":2911,"Ġbibb":2912,"alley":2913,"ani":2914,"atillo":2915,"ungarian":2916,"Ġtomatillo":2917,"ĠCrack":2918,"Ġpickled":2919,"ornia":2920,"andel":2921,"ĠApple":2922,"ifornia":2923,"itchen":2924,"Ġbleu":2925,"aff":2926,"pack":2927,"vil":2928,"rel":2929,"Ġglass":2930,"Ġchive":2931,"Ġbolo":2932,"ĠPu":2933,"Ġhalved":2934,"Ġdecorat":2935,"ĠLi":2936,"Ġfull":2937,"ĠThai":2938,"Ġtruffle":2939,"seasoned":2940,"ave":2941,"gers":2942,"jack":2943,"loaf":2944,"Ġonly":2945,"Ġpock":2946,"ĠSwanson":2947,"ide":2948,"Ġhormel":2949,"Ġweight":2950,"ĠHungarian":2951,"ign":2952,"Ġflower":2953,"ĠGrape":2954,"Ġpatties":2955,"ĠZ":2956,"erkin":2957,"Ġbrat":2958,"ung":2959,"undy":2960,"Ġjello":2961,"Ġchickpe":2962,"oritos":2963,"Ġspanish":2964,"odi":2965,"ĠDoritos":2966,"ĠButtermilk":2967,"ĠMarsala":2968,"ĠHe":2969,"Ġsquare":2970,"ĠNorthern":2971,"Ġscallop":2972,"Ġgherkin":2973,"Ġguava":2974,"Ġspicy":2975,"Ġseltzer":2976,"Ġpoundcake":2977,"Ġbologna":2978,"Ġchickpea":2979,"NT":2980,"ervil":2981,"iley":2982,"Ġchervil":2983,"Ġmini":2984,"Ġgala":2985,"Ġtw":2986,"elt":2987,"Ġhab":2988,"Ġrut":2989,"Ġdai":2990,"traw":2991,"aked":2992,"Ġcurly":2993,"ĠNew":2994,"Ġgrapefruits":2995,"beans":2996,"ugg":2997,"size":2998,"rising":2999,"ignon":3000,"sc":3001,"illed":3002,"Ġgood":3003,"Ġparty":3004,"abag":3005,"Ġniblets":3006,"Ġliter":3007,"ĠSals":3008,"ĠStraw":3009,"Ġshortbread":3010,"ĠKitchen":3011,"bou":3012,"Ġroasted":3013,"Ġheart":3014,"Ġpackages":3015,"Ġglace":3016,"Ġtangerine":3017,"Ġrocket":3018,"ĠBurgundy":3019,"aniels":3020,"Ġbratw":3021,"ĠSalsa":3022,"AR":3023,"DIE":3024,"cello":3025,"fine":3026,"net":3027,"zon":3028,"arti":3029,"Ġbra":3030,"ils":3031,"lot":3032,"moncello":3033,"Ġhav":3034,"core":3035,"umi":3036,"bert":3037,"Ġlimoncello":3038,"Ġalba":3039,"Ġrough":3040,"ĠCur":3041,"ĠIN":3042,"Ġpuff":3043,"Ġtoppings":3044,"ĠCoconut":3045,"Ġshoots":3046,"olina":3047,"ĠBeans":3048,"Ġunbaked":3049,"enerous":3050,"Ġfarf":3051,"ĠNutmeg":3052,"ajita":3053,"Ġhaban":3054,"Ġalbacore":3055,"KE":3056,"hot":3057,"vado":3058,"icum":3059,"reme":3060,"Ġwor":3061,"Ġcourg":3062,"Ġbagel":3063,"coo":3064,"inner":3065,"eye":3066,"ĠSi":3067,"ĠSweet":3068,"ĠCon":3069,"Ġwholemeal":3070,"Ġcurls":3071,"ĠGinger":3072,"ĠHawaiian":3073,"Ġsemolina":3074,"ibbean":3075,"Ġwaff":3076,"Ġcapsicum":3077,"ĠGraham":3078,"Ġfryer":3079,"GREDIE":3080,"odiva":3081,"NTS":3082,"Ġrutabag":3083,"ĠINGREDIE":3084,"ĠINGREDIENTS":3085,"fry":3086,"mbert":3087,"wfish":3088,"ari":3089,"reo":3090,"Ġpepperjack":3091,"ineapple":3092,"Ġparaff":3093,"Ġnugg":3094,"Ġdinner":3095,"ĠSec":3096,"Ġcrawfish":3097,"amembert":3098,"Ġpiero":3099,"ĠBanan":3100,"ĠBul":3101,"ĠPap":3102,"ĠTort":3103,"Ġnoodle":3104,"alloumi":3105,"Ġgour":3106,"Ġhalf":3107,"Ġcrumbled":3108,"Ġfrankfurters":3109,"ĠBasil":3110,"Ġhavarti":3111,"Ġparaffin":3112,"ĠBulgar":3113,"__":3114,"ji":3115,"ure":3116,"Ġcuts":3117,"Ġbailey":3118,"ito":3119,"Ġjuli":3120,"Ġhalloumi":3121,"Ġspir":3122,"act":3123,"ĠDream":3124,"ĠParsley":3125,"ĠCook":3126,"ĠAlmond":3127,"Ġsuper":3128,"bought":3129,"ĠSimple":3130,"ST":3131,"au":3132,"iz":3133,"ky":3134,"ll":3135,"met":3136,"Ġfajita":3137,"ator":3138,"rie":3139,"Ġdash":3140,"Ġsprout":3141,"queezed":3142,"Ġextravirgin":3143,"ĠMo":3144,"ĠMaple":3145,"Ġsteam":3146,"Ġunp":3147,"ĠGouda":3148,"ĠCarnation":3149,"Ġquarters":3150,"Ġfrying":3151,"ĠUn":3152,"Ġgourmet":3153,"salt":3154,"Ġslaw":3155,"cook":3156,"issa":3157,"cheese":3158,"ther":3159,"Ġmanchego":3160,"ĠDaniels":3161,"Ġmeatloaf":3162,"Ġchestnut":3163,"Ġcanned":3164,"ĠOnions":3165,"ĠBroth":3166,"Ġear":3167,"Ġharissa":3168,"Ġjiggers":3169,"Ġblossoms":3170,"ĠGruyere":3171,"Ġmadeira":3172,"Ġpuffed":3173,"ĠTortilla":3174,"Ġjulienne":3175,"azel":3176,"cer":3177,"ive":3178,"Ġchai":3179,"Ġgallo":3180,"Ġfor":3181,"Ġfrench":3182,"Ġworcestershire":3183,"loom":3184,"eggie":3185,"Ġcom":3186,"elery":3187,"cks":3188,"coated":3189,"che":3190,"Ġdital":3191,"Ġstir":3192,"Ġalco":3193,"Ġsoybeans":3194,"ĠCelery":3195,"irloom":3196,"Ġheirloom":3197,"sticks":3198,"Ġlager":3199,"Ġmatch":3200,"Ġlobsters":3201,"erkins":3202,"Ġmerlot":3203,"bb":3204,"dr":3205,"gg":3206,"rong":3207,"alle":3208,"Ġgi":3209,"Ġcovered":3210,"Ġleban":3211,"adian":3212,"Ġshan":3213,"Ġstrong":3214,"ghum":3215,"Ġbanane":3216,"ĠMus":3217,"Ġtop":3218,"Ġliquor":3219,"Ġuncook":3220,"Ġshoot":3221,"ĠWheat":3222,"Ġgherkins":3223,"Ġsorghum":3224,"colored":3225,"ĠPaprika":3226,"azelnut":3227,"hazelnut":3228,"man":3229,"nor":3230,"wdr":3231,"Ġscoo":3232,"Ġpwdr":3233,"icle":3234,"rop":3235,"Ġfinger":3236,"Ġfontina":3237,"ingue":3238,"elph":3239,"Ġsazon":3240,"Ġbrowning":3241,"Ġru":3242,"Ġring":3243,"Ġdrum":3244,"ote":3245,"ĠCan":3246,"Ġseeded":3247,"ĠBatter":3248,"idden":3249,"ĠMan":3250,"Ġcardamoms":3251,"INA":3252,"Ġskins":3253,"lsberg":3254,"Ġfranks":3255,"Ġjarlsberg":3256,"ĠLime":3257,"Ġlebanese":3258,"norr":3259,"elphia":3260,"All":3261,"RO":3262,"ccon":3263,"ida":3264,"oons":3265,"Ġud":3266,"Ġcamembert":3267,"reus":3268,"rets":3269,"Ġpops":3270,"daise":3271,"oti":3272,"seed":3273,"reggiano":3274,"ĠCA":3275,"Ġrabe":3276,"esta":3277,"Ġboccon":3278,"lycer":3279,"ĠChard":3280,"ĠPineapple":3281,"Ġshortc":3282,"ĠRol":3283,"landaise":3284,"Ġmasa":3285,"Ġlay":3286,"Ġgrass":3287,"lings":3288,"iladelphia":3289,"Ġvegem":3290,"Ġcalifornia":3291,"holic":3292,"Ġsheets":3293,"Ġfarfalle":3294,"Ġspiral":3295,"Ġditalini":3296,"Ġmatchstick":3297,"Ġuncooked":3298,"Ġudon":3299,"Ġbocconcini":3300,"Ġvegemite":3301,"AN":3302,"nick":3303,"nay":3304,"outh":3305,"vegetable":3306,"yu":3307,"Ġking":3308,"Ġcacao":3309,"Ġbur":3310,"onnay":3311,"inter":3312,"ile":3313,"Ġglycer":3314,"Ġpet":3315,"Ġwashed":3316,"Ġwinter":3317,"Ġveggie":3318,"Ġspelt":3319,"Ġyoung":3320,"Ġporcini":3321,"Ġturni":3322,"aspberry":3323,"ĠMeat":3324,"ĠFo":3325,"Ġthreads":3326,"ĠApples":3327,"ĠFiber":3328,"ĠPuree":3329,"Ġrutabagas":3330,"Ġruby":3331,"reusel":3332,"ĠChardonnay":3333,"nickers":3334,"LE":3335,"RU":3336,"free":3337,"kon":3338,"ritos":3339,"squeezed":3340,"tzel":3341,"Ġbing":3342,"Ġpico":3343,"ales":3344,"Ġmel":3345,"amel":3346,"Ġsoap":3347,"chu":3348,"Ġchocolat":3349,"Ġchilis":3350,"Ġkir":3351,"Ġthai":3352,"exico":3353,"Ġsweetcorn":3354,"acc":3355,"enoa":3356,"Ġsmall":3357,"ĠCoffee":3358,"ĠSouthern":3359,"Ġshoyu":3360,"Ġpanko":3361,"Ġpretzel":3362,"ĠJapanese":3363,"Ġvermouth":3364,"Ġharina":3365,"Ġroughy":3366,"ĠCookies":3367,"Ġsteamed":3368,"Ġpopsicle":3369,"ER":3370,"ax":3371,"gresso":3372,"hol":3373,"ki":3374,"ted":3375,"Ġin":3376,"Ġother":3377,"Ġgenerous":3378,"Ġgenoa":3379,"Ġfried":3380,"utto":3381,"Ġwill":3382,"Ġtiny":3383,"able":3384,"Ġlivers":3385,"ĠWine":3386,"Ġcanes":3387,"ĠCol":3388,"ĠMaria":3389,"based":3390,"ĠSoy":3391,"Ġshots":3392,"ĠWhole":3393,"Ġwhisky":3394,"ciutto":3395,"ĠStreusel":3396,"ĠBartlett":3397,"Ġkumqu":3398,"infandel":3399,"Ġhabanero":3400,"ĠMushroom":3401,"ĠCAKE":3402,"Ġchocolates":3403,"CO":3404,"TTE":3405,"bro":3406,"eel":3407,"ja":3408,"stra":3409,"sciutto":3410,"Ġbir":3411,"Ġwide":3412,"Ġwhey":3413,"cker":3414,"uper":3415,"ĠSto":3416,"ĠSnickers":3417,"ĠCayenne":3418,"ĠWal":3419,"achere":3420,"Ġwalla":3421,"ĠTur":3422,"ĠTia":3423,"Ġlon":3424,"ĠMexic":3425,"ste":3426,"Ġtost":3427,"Ġreal":3428,"Ġprosciutto":3429,"Ġhol":3430,"Ġbartlett":3431,"ĠHam":3432,"ĠDipping":3433,"ĠNon":3434,"Ġbottle":3435,"Ġau":3436,"ĠAlf":3437,"Ġcolada":3438,"Ġprune":3439,"Ġcavat":3440,"ursts":3441,"ĠCrackers":3442,"Ġdecorating":3443,"Ġdaikon":3444,"Ġbratwursts":3445,"Ġnuggets":3446,"ĠColby":3447,"CE":3448,"can":3449,"gan":3450,"pes":3451,"vignon":3452,"Ġly":3453,"Ġsard":3454,"Ġpri":3455,"roots":3456,"Ġov":3457,"Ġmic":3458,"lean":3459,"Ġgn":3460,"Ġfr":3461,"urse":3462,"lized":3463,"Ġti":3464,"rest":3465,"Ġsavo":3466,"etida":3467,"chw":3468,"inned":3469,"Ġcaribbean":3470,"Ġsplenda":3471,"ĠCO":3472,"ĠCom":3473,"ĠCumin":3474,"ĠPec":3475,"ental":3476,"ĠFRO":3477,"ĠRec":3478,"armint":3479,"ĠHandful":3480,"ible":3481,"Ġfava":3482,"Ġpapayas":3483,"Ġgumd":3484,"Ġbeetroots":3485,"Ġspearmint":3486,"ĠShell":3487,"Ġmeringue":3488,"Ġbrine":3489,"Ġtomatillos":3490,"ĠHeavy":3491,"ĠStrawberries":3492,"acting":3493,"STING":3494,"Ġalcohol":3495,"ĠCanadian":3496,"Ġhollandaise":3497,"ĠAlfredo":3498,"ĠFROSTING":3499,"ipe":3500,"vre":3501,"ya":3502,"ican":3503,"Ġover":3504,"leneck":3505,"Ġsalted":3506,"Ġchevre":3507,"Ġcourse":3508,"Ġcreamed":3509,"use":3510,"rien":3511,"ripe":3512,"ches":3513,"Ġbeefste":3514,"ĠCilantro":3515,"Ġthick":3516,"umplings":3517,"occhi":3518,"ĠMexico":3519,"ĠRub":3520,"bury":3521,"etty":3522,"Ġbonnet":3523,"ĠJello":3524,"Ġasaf":3525,"rowave":3526,"ĠPasta":3527,"Ġbaked":3528,"Ġgrouper":3529,"Ġshortcrust":3530,"Ġlayer":3531,"Ġsardines":3532,"Ġprime":3533,"Ġgnocchi":3534,"Ġsavoy":3535,"ĠRecipe":3536,"Ġbeefsteak":3537,"fro":3538,"mus":3539,"made":3540,"ore":3541,"uf":3542,"ux":3543,"Ġad":3544,"alco":3545,"Ġchay":3546,"Ġori":3547,"Ġpetit":3548,"Ġsaltines":3549,"Ġtex":3550,"uch":3551,"ined":3552,"Ġbroil":3553,"Ġjapanese":3554,"Ġhum":3555,"Ġlitt":3556,"Ġlightly":3557,"Ġcanc":3558,"ĠOregano":3559,"ĠTop":3560,"Ġtrimm":3561,"Ġkiwis":3562,"Ġsize":3563,"Ġcrocker":3564,"Ġclement":3565,"ĠShort":3566,"Ġjars":3567,"Ġtangerines":3568,"Ġpockets":3569,"ĠConfectioners":3570,"Ġwaffles":3571,"ĠUncle":3572,"Ġshanks":3573,"strap":3574,"ĠStove":3575,"ĠNonstick":3576,"Ġmicrowave":3577,"Ġhummus":3578,"Ġlittleneck":3579,"Qu":3580,"ĠQu":3581,"Ġburg":3582,"Ġper":3583,"Ġpitas":3584,"aler":3585,"atel":3586,"atta":3587,"Ġmalibu":3588,"Ġfree":3589,"amate":3590,"unt":3591,"Ġtam":3592,"Ġsouthern":3593,"chatel":3594,"aby":3595,"abatta":3596,"Ġdr":3597,"Ġknorr":3598,"ĠCran":3599,"Ġmost":3600,"Ġraw":3601,"Ġrack":3602,"Ġciabatta":3603,"Ġgoya":3604,"Ġpure":3605,"ĠOreo":3606,"amomile":3607,"Ġspaghett":3608,"ither":3609,"Ġnectarine":3610,"Ġrotelle":3611,"Ġgumbo":3612,"Ġglutamate":3613,"ĠYo":3614,"ĠStuff":3615,"ĠSecrets":3616,"Ġsuperfine":3617,"ĠMozzarella":3618,"accioli":3619,"ganic":3620,"frozen":3621,"ufchatel":3622,"Ġoriental":3623,"Ġmostaccioli":3624,"Ġspaghettini":3625,"BQ":3626,"cated":3627,"oe":3628,"uzo":3629,"ys":3630,"Ġlic":3631,"Ġreser":3632,"Ġcakes":3633,"Ġbatter":3634,"Ġpump":3635,"iccated":3636,"Ġouzo":3637,"Ġmag":3638,"Ġfries":3639,"Ġcor":3640,"Ġwheel":3641,"ush":3642,"orice":3643,"Ġcornich":3644,"Ġyam":3645,"ĠBaby":3646,"ĠBBQ":3647,"osemary":3648,"Ġgoose":3649,"ĠFontina":3650,"ĠFritos":3651,"Ġmanis":3652,"ĠGal":3653,"ĠRosemary":3654,"Ġpackaged":3655,"ĠMarshmallow":3656,"Ġdesiccated":3657,"Ġharicots":3658,"ĠCarro":3659,"Ġplantain":3660,"ĠBarilla":3661,"ĠPastry":3662,"ĠCuracao":3663,"Ġcourgettes":3664,"ĠBanana":3665,"brown":3666,"ĠPecans":3667,"alcoholic":3668,"Ġpetite":3669,"Ġtrimmed":3670,"Ġlicorice":3671,"Cola":3672,"fort":3673,"fruit":3674,"erel":3675,"Ġbat":3676,"Ġbun":3677,"esqu":3678,"Ġchamomile":3679,"Ġpep":3680,"Ġvalley":3681,"itz":3682,"ada":3683,"ghorn":3684,"ĠCoca":3685,"Ġhemp":3686,"Ġcones":3687,"zzle":3688,"estion":3689,"eeled":3690,"Ġcaper":3691,"Ġdemer":3692,"Ġforest":3693,"Ġeither":3694,"Ġhome":3695,"Ġsorrel":3696,"Ġrefried":3697,"ĠFiesta":3698,"Ġdipping":3699,"ĠZucchini":3700,"izer":3701,"Ġunpeeled":3702,"Ġpetals":3703,"ĠMeatballs":3704,"Ġburgers":3705,"Ġtamales":3706,"CING":3707,"OL":3708,"ea":3709,"ean":3710,"gth":3711,"mo":3712,"oori":3713,"oetida":3714,"ric":3715,"raspberry":3716,"zu":3717,"Ġcamp":3718,"Ġsil":3719,"ary":3720,"Ġore":3721,"atar":3722,"ature":3723,"lade":3724,"liano":3725,"elled":3726,"Ġgrey":3727,"ister":3728,"Ġblackstrap":3729,"Ġliver":3730,"Ġshelled":3731,"Ġalum":3732,"ĠClo":3733,"iron":3734,"ills":3735,"ĠICING":3736,"Ġbora":3737,"Ġbosc":3738,"ides":3739,"ĠChachere":3740,"lassic":3741,"ĠValley":3742,"ĠAv":3743,"Ġtenderizer":3744,"Ġlength":3745,"ermuda":3746,"Ġbars":3747,"Ġorganic":3748,"andoori":3749,"icoise":3750,"Ġeps":3751,"ĠBrowns":3752,"Ġneufchatel":3753,"Ġcitron":3754,"Ġkumara":3755,"Ġtwist":3756,"vados":3757,"Ġearl":3758,"Ġkumquats":3759,"ĠWalnuts":3760,"ĠMexican":3761,"Ġoverripe":3762,"ĠGalliano":3763,"Ġdemerara":3764,"EE":3765,"IT":3766,"ca":3767,"cass":3768,"eon":3769,"gen":3770,"jap":3771,"pan":3772,"era":3773,"Ġpit":3774,"Ġchan":3775,"Ġgodiva":3776,"Ġsalts":3777,"enth":3778,"enade":3779,"urst":3780,"Ġtandoori":3781,"ickel":3782,"ision":3783,"Ġrun":3784,"Ġnori":3785,"appi":3786,"Ġcarcass":3787,"Ġza":3788,"Ġzinfandel":3789,"ressed":3790,"Ġketjap":3791,"Ġlunch":3792,"ĠMon":3793,"ĠMuenster":3794,"Ġtails":3795,"ĠDew":3796,"ĠRhubarb":3797,"okneck":3798,"Ġacid":3799,"ardi":3800,"Ġgram":3801,"Ġgrind":3802,"Ġlots":3803,"ernickel":3804,"Ġcrookneck":3805,"ĠCornstarch":3806,"elev":3807,"Ġcitric":3808,"chiette":3809,"ursin":3810,"Ġbakers":3811,"Ġpersimmons":3812,"ĠGrahams":3813,"ariation":3814,"Ġpierogi":3815,"Ġfingerling":3816,"Ġlonghorn":3817,"Ġcavatappi":3818,"ĠComfort":3819,"Ġasafoetida":3820,"ĠYogurt":3821,"ĠStuffing":3822,"Ġpumpernickel":3823,"Ġmaggi":3824,"Ġpepitas":3825,"ĠAvocado":3826,"Ġepsom":3827,"Ġluncheon":3828,"Monterey":3829,"RI":3830,"bles":3831,"ei":3832,"filled":3833,"so":3834,"snap":3835,"uie":3836,"Ġiron":3837,"Ġcast":3838,"Ġsze":3839,"Ġbalm":3840,"Ġmack":3841,"Ġmesqu":3842,"Ġgame":3843,"Ġwash":3844,"uri":3845,"lis":3846,"Ġlegs":3847,"monia":3848,"Ġhul":3849,"ayo":3850,"Ġdig":3851,"Ġcarton":3852,"Ġcarbon":3853,"Ġgingerbread":3854,"Ġgingersnap":3855,"ĠSides":3856,"secco":3857,"Ġboursin":3858,"tti":3859,"ĠTelev":3860,"ĠMed":3861,"Ġnonalcoholic":3862,"ĠFla":3863,"ĠDr":3864,"ĠDel":3865,"ĠAr":3866,"Ġcapellini":3867,"Ġprosecco":3868,"Ġpreserved":3869,"ambuie":3870,"ardelli":3871,"Ġuncle":3872,"ĠLo":3873,"Ġtapenade":3874,"Ġemm":3875,"Ġrigate":3876,"Ġammonia":3877,"ĠThyme":3878,"Ġcalvados":3879,"Ġamaretti":3880,"Ġscoops":3881,"ĠRolls":3882,"Ġglycerin":3883,"Ġkirby":3884,"orean":3885,"Ġborax":3886,"Ġpitted":3887,"enthaler":3888,"Ġmackerel":3889,"Ġmesquite":3890,"Ġcarbonated":3891,"ĠTelevision":3892,"Ġemmenthaler":3893,"DE":3894,"ED":3895,"UCE":3896,"cut":3897,"fr":3898,"gies":3899,"iar":3900,"orange":3901,"Ġeye":3902,"Ġbu":3903,"Ġbub":3904,"Ġbetty":3905,"Ġbush":3906,"Ġbermuda":3907,"Ġmort":3908,"Ġsugg":3909,"Ġtip":3910,"Ġgarden":3911,"elp":3912,"ity":3913,"velo":3914,"Ġhidden":3915,"ising":3916,"Ġblackber":3917,"ables":3918,"upreme":3919,"daho":3920,"Ġalph":3921,"ĠSupreme":3922,"ĠCrumb":3923,"irardelli":3924,"Ġrabb":3925,"estive":3926,"ĠBU":3927,"ential":3928,"Ġmanicot":3929,"ĠGodiva":3930,"serve":3931,"Ġdeer":3932,"Ġenvelo":3933,"ĠÂ®":3934,"ernet":3935,"Ġessential":3936,"Ġarbol":3937,"Ġprocess":3938,"ĠGravy":3939,"ĠSAUCE":3940,"Ġcaviar":3941,"Ġpocket":3942,"scar":3943,"Ġdashes":3944,"chuan":3945,"Ġdrambuie":3946,"Ġcornichons":3947,"ĠMarshmallows":3948,"Ġsilver":3949,"ĠCloves":3950,"Ġdigestive":3951,"Ġbubbles":3952,"Ġsuggestion":3953,"Ġblackberrie":3954,"Ġrabbit":3955,"Ġmanicotti":3956,"SE":3957,"TA":3958,"ben":3959,"cchiette":3960,"ek":3961,"iter":3962,"jo":3963,"rami":3964,"sch":3965,"Ġbest":3966,"alang":3967,"Ġgem":3968,"Ġfines":3969,"lit":3970,"Ġcobs":3971,"Ġcrepes":3972,"ust":3973,"Ġhawaiian":3974,"covado":3975,"Ġmuscovado":3976,"Ġparch":3977,"Ġbreak":3978,"ablis":3979,"Ġnicoise":3980,"Ġlike":3981,"Ġbreadsticks":3982,"Ġkelp":3983,"Ġcarnation":3984,"Ġroots":3985,"Ġpastrami":3986,"ĠST":3987,"ĠSriracha":3988,"ĠCal":3989,"ĠCrumbs":3990,"Ġthaw":3991,"Ġnutmeat":3992,"irection":3993,"Ġmargarita":3994,"ĠBA":3995,"ĠBen":3996,"ĠBalsamic":3997,"ĠBibb":3998,"ĠTri":3999,"Ġzesty":4000,"ĠMI":4001,"ĠMAR":4002,"ĠDo":4003,"ĠRitz":4004,"Ġfilets":4005,"Ġgratin":4006,"Ġrib":4007,"Ġsliced":4008,"Ġprogresso":4009,"Ġgrilled":4010,"Ġflaxseed":4011,"Ġlingon":4012,"Ġsauvignon":4013,"Ġskinned":4014,"ĠLight":4015,"Ġidaho":4016,"ĠNo":4017,"amari":4018,"cial":4019,"Ġguar":4020,"Ġbeetroot":4021,"rystal":4022,"Ġvert":4023,"Ġverts":4024,"Ġverben":4025,"Ġcalamari":4026,"Ġpatty":4027,"Ġsupreme":4028,"Ġcrystallized":4029,"Ġpierogies":4030,"Ġbird":4031,"ĠShortening":4032,"Ġpureed":4033,"Ġreserved":4034,"Ġorecchiette":4035,"illsbury":4036,"Ġrunny":4037,"Ġnutmeats":4038,"irections":4039,"Ġverbena":4040,"ION":4041,"carb":4042,"ead":4043,"fast":4044,"ns":4045,"of":4046,"uro":4047,"ued":4048,"ving":4049,"Ã¨":4050,"Ġced":4051,"Ġcul":4052,"Ġcured":4053,"Ġclassic":4054,"Ġswed":4055,"atch":4056,"Ġma":4057,"Ġgalang":4058,"terelle":4059,"Ġsofr":4060,"itan":4061,"etter":4062,"used":4063,"ranean":4064,"abo":4065,"bergin":4066,"aped":4067,"Ġkind":4068,"ĠSesame":4069,"Ġthree":4070,"ersion":4071,"Ġcurds":4072,"ĠDumplings":4073,"ĠVariation":4074,"Ġris":4075,"ucky":4076,"Ġdecor":4077,"Ġloaf":4078,"Ġherbal":4079,"Ġbottom":4080,"ĠAluminum":4081,"Ġedible":4082,"ĠCaramel":4083,"Ġamer":4084,"ĠThree":4085,"sized":4086,"Ġamaranth":4087,"koe":4088,"infused":4089,"Ġminiature":4090,"Ġdrumsticks":4091,"Ġaubergin":4092,"ĠCarrots":4093,"Ġszechuan":4094,"Ġhulled":4095,"iterranean":4096,"Ġparchment":4097,"Ġbreakfast":4098,"ĠMIX":4099,"ĠMARINA":4100,"urope":4101,"Ġcedar":4102,"Ġsofrito":4103,"Ġdecorator":4104,"Ġaubergines":4105,"AM":4106,"cardi":4107,"her":4108,"lini":4109,"oh":4110,"out":4111,"over":4112,"pn":4113,"po":4114,"sin":4115,"tel":4116,"uji":4117,"yd":4118,"Ġag":4119,"inis":4120,"ica":4121,"Ġmayo":4122,"let":4123,"Ġgrn":4124,"Ġfast":4125,"Ġfuji":4126,"Ġpeg":4127,"Ġpekoe":4128,"uring":4129,"Ġbutterfinger":4130,"Ġgreek":4131,"Ġdandel":4132,"Ġdirections":4133,"Ġseitan":4134,"Ġbreadstick":4135,"ĠSu":4136,"ĠStil":4137,"quet":4138,"ĠBuffalo":4139,"Ġpiece":4140,"Ġbouquet":4141,"ĠVodka":4142,"ĠGla":4143,"Ġmangos":4144,"ĠOr":4145,"Ġbarbecued":4146,"land":4147,"lanched":4148,"Ġelder":4149,"ĠCountry":4150,"Ġesc":4151,"Ġcass":4152,"Ġpremade":4153,"ĠBoston":4154,"Ġsized":4155,"olks":4156,"Ġsandwiches":4157,"Ġhomem":4158,"Ġphiladelphia":4159,"Ġshaved":4160,"Ġamber":4161,"ĠYolks":4162,"IES":4163,"Ġgroats":4164,"ĠCracker":4165,"Ġbrauns":4166,"Ġcourgette":4167,"Ġcapsicums":4168,"Ġdashi":4169,"Ġburger":4170,"Ġturnips":4171,"ĠFoil":4172,"ĠTurkey":4173,"Ġgumdrop":4174,"uxe":4175,"Ġcancampbell":4176,"Ġcampari":4177,"Ġchanterelle":4178,"eiger":4179,"Ġbuds":4180,"Ġthawed":4181,"ĠDough":4182,"Ġamerican":4183,"ĠMARINADE":4184,"Ġgrnd":4185,"Ġdandelion":4186,"Ġhomemade":4187,"Brien":4188,"OR":4189,"SEL":4190,"com":4191,"cured":4192,"eas":4193,"gento":4194,"head":4195,"mans":4196,"ount":4197,"per":4198,"tre":4199,"Ġries":4200,"Ġach":4201,"Ġcri":4202,"Ġsing":4203,"argento":4204,"Ġblade":4205,"Ġpur":4206,"Ġpas":4207,"Ġpressed":4208,"Ġoscar":4209,"liss":4210,"Ġpod":4211,"Ġgarni":4212,"ites":4213,"raising":4214,"Ġhpn":4215,"cotti":4216,"isco":4217,"Ġblackening":4218,"abet":4219,"uple":4220,"Ġkash":4221,"Ġkello":4222,"anout":4223,"ĠCap":4224,"ĠCoti":4225,"ĠCrystal":4226,"Ġsweetened":4227,"ĠBlue":4228,"ĠChamb":4229,"Ġlowfat":4230,"ĠParma":4231,"ĠRa":4232,"ĠRED":4233,"Ġfile":4234,"Ġbrand":4235,"ĠCoating":4236,"ĠButterscotch":4237,"Ġbiscotti":4238,"ĠLA":4239,"ĠWhi":4240,"alorie":4241,"ĠDijonnaise":4242,"ĠNO":4243,"Ġwrapper":4244,"Ġunblanched":4245,"Ġsnacks":4246,"Ġpheas":4247,"ĠShrimp":4248,"Ġamount":4249,"Ġfarro":4250,"ĠYeast":4251,"ouse":4252,"Ġneck":4253,"color":4254,"Ġboxes":4255,"fined":4256,"ĠCurry":4257,"otiq":4258,"Ġturnip":4259,"Ġmelts":4260,"chweiger":4261,"Ġalphabet":4262,"ĠStilton":4263,"ĠGlaze":4264,"Ġbraunschweiger":4265,"treal":4266,"Ġriesling":4267,"Ġhpnotiq":4268,"ĠCotija":4269,"ĠChambord":4270,"clo":4271,"cith":4272,"dried":4273,"fresh":4274,"iote":4275,"lam":4276,"ms":4277,"my":4278,"our":4279,"pillsbury":4280,"rone":4281,"tured":4282,"wl":4283,"Ġcach":4284,"eros":4285,"Ġber":4286,"Ġbal":4287,"Ġben":4288,"Ġchablis":4289,"ana":4290,"Ġox":4291,"Ġoreo":4292,"Ġgiblets":4293,"Ġwag":4294,"amin":4295,"Ġvit":4296,"Ġpouring":4297,"aster":4298,"Ġcos":4299,"Ġcored":4300,"Ġbacardi":4301,"Ġlecith":4302,"etchup":4303,"raisin":4304,"Ġhen":4305,"Ġhanout":4306,"adella":4307,"chee":4308,"geon":4309,"Ġshot":4310,"egetables":4311,"Ġkorean":4312,"Ġbelly":4313,"ĠClam":4314,"avender":4315,"altine":4316,"Ġzucch":4317,"Ġcrabs":4318,"Ġflavo":4319,"estrone":4320,"ĠBarb":4321,"ĠPro":4322,"ĠPick":4323,"Ġflakey":4324,"Ġcabernet":4325,"ager":4326,"ĠKetchup":4327,"ĠVegetables":4328,"ĠGOL":4329,"ĠRicotta":4330,"etto":4331,"Ġbones":4332,"ĠSalmon":4333,"Ġblanco":4334,"ĠBrownie":4335,"olut":4336,"Ġmints":4337,"Ġminestrone":4338,"ajillo":4339,"Ġcitrus":4340,"ĠStrawberry":4341,"Ġwaffle":4342,"ĠBananas":4343,"TTER":4344,"Ġtostada":4345,"Ġlychee":4346,"Ġovaltine":4347,"Ġclementines":4348,"ĠCranberries":4349,"Ġbath":4350,"Ġlengths":4351,"Ġgalangal":4352,"uropean":4353,"ĠSubstitute":4354,"Ġescar":4355,"Ġachiote":4356,"Ġcrimini":4357,"ĠBlueberries":4358,"cloth":4359,"Ġcachaca":4360,"Ġwagon":4361,"Ġlecithin":4362,"ĠClamato":4363,"Ġzucchinis":4364,"ĠGOLD":4365,"FF":4366,"SP":4367,"USEL":4368,"cakes":4369,"calorie":4370,"ebur":4371,"hiladelphia":4372,"ien":4373,"ied":4374,"mettes":4375,"rich":4376,"Ġeno":4377,"onge":4378,"onade":4379,"refined":4380,"roces":4381,"rogen":4382,"Ġmayer":4383,"Ġsuet":4384,"lager":4385,"uncan":4386,"Ġty":4387,"Ġpouch":4388,"Ġcheesecloth":4389,"ased":4390,"asser":4391,"eds":4392,"Ġjun":4393,"Ġbech":4394,"ists":4395,"ape":4396,"Ġbeefy":4397,"Ġalso":4398,"ellman":4399,"Ġchiff":4400,"Ġsponge":4401,"thouse":4402,"otes":4403,"ĠStar":4404,"see":4405,"ĠCr":4406,"ĠCRU":4407,"ĠWor":4408,"Ġseasonings":4409,"Ġpigeon":4410,"ĠBell":4411,"ĠPhiladelphia":4412,"Ġleafy":4413,"mercial":4414,"Ġmacad":4415,"ĠDill":4416,"Ġstale":4417,"Ġmacaroons":4418,"Ġbought":4419,"uckle":4420,"Ġhothouse":4421,"Ġunrefined":4422,"Ġeng":4423,"ĠHo":4424,"Ġserving":4425,"esson":4426,"Ġbulk":4427,"REUSEL":4428,"Ġguajillo":4429,"Ġvera":4430,"Ġminute":4431,"ĠGold":4432,"Ġamino":4433,"Ġpassata":4434,"pha":4435,"Ġcroissant":4436,"GRETTE":4437,"Ġmonde":4438,"ĠPudding":4439,"Ġtwists":4440,"Ġbratwurst":4441,"Ġscoop":4442,"Ġdrummettes":4443,"AND":4444,"ĠApplesauce":4445,"Ġmelba":4446,"Ġtips":4447,"Ġchayote":4448,"RISP":4449,"ĠBUTTER":4450,"Ġenvelope":4451,"schlager":4452,"ĠSTREUSEL":4453,"ĠBASE":4454,"ydrogen":4455,"Ġagave":4456,"Ġpaso":4457,"ĠRaisins":4458,"Ġvitamin":4459,"ĠBarbec":4460,"Ġescarole":4461,"eburn":4462,"Ġbechamel":4463,"Ġchiffonade":4464,"AT":4465,"IGRETTE":4466,"VEE":4467,"ZE":4468,"cream":4469,"gran":4470,"gent":4471,"ture":4472,"wax":4473,"zanilla":4474,"Ġind":4475,"Ġballs":4476,"Ġpa":4477,"Ġpac":4478,"ale":4479,"icy":4480,"ical":4481,"Ġchat":4482,"Ġoce":4483,"Ġmignon":4484,"ppa":4485,"Ġfin":4486,"Ġwis":4487,"amia":4488,"tergent":4489,"light":4490,"Ġtra":4491,"Ġtight":4492,"Ġtables":4493,"Ġhuckle":4494,"chased":4495,"Ġnig":4496,"Ġdutch":4497,"consin":4498,"Ġaloe":4499,"Ġsplit":4500,"Ġmary":4501,"ĠCereal":4502,"avorite":4503,"Ġwalley":4504,"Ġrap":4505,"Ġbowl":4506,"ĠTw":4507,"Ġlar":4508,"ĠMer":4509,"ĠMuff":4510,"stini":4511,"ĠFavorite":4512,"ĠKRISP":4513,"ĠVeg":4514,"ĠVEL":4515,"ĠVINA":4516,"ĠGLA":4517,"Ġdrizzle":4518,"Ġdetergent":4519,"Ġacini":4520,"Ġhouse":4521,"tions":4522,"Ġlinguica":4523,"arms":4524,"Ġskim":4525,"Ġslivers":4526,"Ġgoldschlager":4527,"ĠSeeds":4528,"ĠBrocco":4529,"Ġcantaloupes":4530,"Ġgummy":4531,"Ġcutlet":4532,"Ġpral":4533,"ĠChives":4534,"whole":4535,"ĠCaribbean":4536,"ĠYellow":4537,"Ġrefrigerator":4538,"ified":4539,"Ġmorsels":4540,"ĠGrill":4541,"Ġrubb":4542,"ONE":4543,"Ġworks":4544,"Ġworms":4545,"Ġunproces":4546,"Ġcommercial":4547,"Ġchayotes":4548,"Ġtexas":4549,"Ġgooseberries":4550,"ĠMonte":4551,"Ġmortadella":4552,"ĠCalifornia":4553,"ĠTriple":4554,"Ġpurchased":4555,"Ġtype":4556,"Ġmacadamia":4557,"ĠBarbecue":4558,"VEETA":4559,"Ġocean":4560,"Ġwisconsin":4561,"Ġtightly":4562,"Ġhuckleberries":4563,"Ġnigella":4564,"ĠMuffins":4565,"ĠKRISPIES":4566,"ĠVELVEETA":4567,"ĠVINAIGRETTE":4568,"ĠGLAZE":4569,"Ġunprocessed":4570,"YRU":4571,"ail":4572,"cal":4573,"gli":4574,"hirardelli":4575,"kan":4576,"ken":4577,"oon":4578,"uld":4579,"Ġ(":4580,"Ġab":4581,"Ġbetter":4582,"Ġplank":4583,"Ġpina":4584,"ester":4585,"inato":4586,"Ġchar":4587,"Ġmiz":4588,"Ġpopped":4589,"Ġpols":4590,"Ġcouple":4591,"Ġbago":4592,"rands":4593,"Ġni":4594,"Ġlive":4595,"efort":4596,"Ġkef":4597,"leshed":4598,"Ġceleri":4599,"bsolut":4600,"ĠSYRU":4601,"ĠCH":4602,"ĠCab":4603,"ĠCHI":4604,"irl":4605,"quefort":4606,"ĠWesson":4607,"Ġgray":4608,"ĠBr":4609,"ĠBug":4610,"pez":4611,"ĠTender":4612,"ĠMa":4613,"entucky":4614,"Ġgoji":4615,"ĠFruit":4616,"Ġtail":4617,"ĠDuncan":4618,"ĠGenerous":4619,"ĠGhirardelli":4620,"Ġcuban":4621,"ĠAbsolut":4622,"Ġmeatless":4623,"ĠCopha":4624,"grained":4625,"ĠMaraschino":4626,"inkies":4627,"ĠLAND":4628,"ĠHor":4629,"ĠHONE":4630,"dial":4631,"Ġcrisply":4632,"Ġrounds":4633,"Ġclar":4634,"itions":4635,"Ġwithout":4636,"liday":4637,"Ġfettuccini":4638,"bergine":4639,"ĠTOPPINGS":4640,"ĠCornmeal":4641,"Ġspreadable":4642,"ĠSherry":4643,"Ġcupcakes":4644,"ĠRoquefort":4645,"quality":4646,"Ġperson":4647,"Ġamaretto":4648,"Ġdiet":4649,"Ġmonk":4650,"Ġdecorative":4651,"ĠLiqu":4652,"Ġscallopini":4653,"Ġhabaneros":4654,"bbles":4655,"Ġgiant":4656,"Ġgiard":4657,"ropical":4658,"ĠMango":4659,"ĠManchego":4660,"ĠRolled":4661,"Ġglycerine":4662,"COA":4663,"ĠCOCOA":4664,"Ġgumdrops":4665,"Ġtextured":4666,"Ġclementine":4667,"ĠQuick":4668,"Ġcordial":4669,"panim":4670,"Ġcartons":4671,"ĠMedal":4672,"ĠFlavor":4673,"Ġlingonberry":4674,"Ġelderflower":4675,"companim":4676,"riched":4677,"Ġpace":4678,"ĠTwinkies":4679,"Ġrubbing":4680,"Ġpolska":4681,"Ġceleriac":4682,"ĠSYRUP":4683,"ĠBugles":4684,"ĠHONEY":4685,"AL":4686,"DD":4687,"MB":4688,"SA":4689,"YER":4690,"ao":4691,"bu":4692,"poons":4693,"rm":4694,"ral":4695,"ula":4696,"ven":4697,"wise":4698,"yfish":4699,"zil":4700,"Ġclaw":4701,"Ġbisquick":4702,"Ġbliss":4703,"eswax":4704,"anding":4705,"atelli":4706,"Ġmcco":4707,"Ġpeels":4708,"Ġsub":4709,"Ġsuc":4710,"Ġvine":4711,"Ġversion":4712,"Ġtropical":4713,"Ġbake":4714,"etz":4715,"rid":4716,"Ġbeeswax":4717,"Ġdal":4718,"Ġdra":4719,"Ġseash":4720,"Ġseven":4721,"shaped":4722,"Ġstrands":4723,"Ġkey":4724,"ĠSm":4725,"ĠCavender":4726,"Ġporter":4727,"Ġmorel":4728,"ĠIf":4729,"iniera":4730,"Ġcrayfish":4731,"ffy":4732,"estles":4733,"ĠBran":4734,"Ġbob":4735,"ĠCherries":4736,"ĠChampagne":4737,"ĠPan":4738,"mart":4739,"ashi":4740,"ĠMort":4741,"stic":4742,"Ġtops":4743,"ĠFor":4744,"Ġboiled":4745,"Ġcanpillsbury":4746,"ĠRea":4747,"ĠAn":4748,"ĠADD":4749,"Ġany":4750,"Ġquail":4751,"Ġplastic":4752,"Ġtemp":4753,"Ġspiced":4754,"ĠEuropean":4755,"Ġherring":4756,"Ġhearty":4757,"Ġelk":4758,"ĠMargar":4759,"Ġenriched":4760,"ĠHidden":4761,"Ġmarinated":4762,"ĠPebbles":4763,"ĠMilky":4764,"ĠNuts":4765,"uyÃ¨":4766,"Ġwrap":4767,"REO":4768,"Ġnewman":4769,"ĠBeef":4770,"Ġfragran":4771,"amboise":4772,"ĠCaesar":4773,"ĠFrozen":4774,"pare":4775,"Ġblood":4776,"Ġblocks":4777,"Ġcampbells":4778,"Ġswai":4779,"Ġfarmer":4780,"Ġfarina":4781,"ĠSau":4782,"ĠGreat":4783,"ĠNutella":4784,"bination":4785,"ĠGruyÃ¨":4786,"Ġbrick":4787,"Ġbrazil":4788,"Ġnugget":4789,"aux":4790,"ĠTortillas":4791,"Ġcombination":4792,"chees":4793,"ĠFour":4794,"Ġinches":4795,"Ġbirds":4796,"Ġaubergine":4797,"Ġlychees":4798,"Ġframboise":4799,"chestershire":4800,"ĠCranberry":4801,"zuki":4802,"ITION":4803,"ĠLopez":4804,"ĠCrumble":4805,"ĠLAYER":4806,"ĠProgresso":4807,"ĠPickape":4808,"ĠCRUMB":4809,"Ġenglish":4810,"Ġaminos":4811,"Ġtablespoons":4812,"Ġlarge":4813,"Ġpraline":4814,"Ġbagof":4815,"ĠMajor":4816,"Ġmonkfish":4817,"Ġgiardiniera":4818,"Ġmccorm":4819,"Ġseashell":4820,"ĠCavenders":4821,"ĠReaL":4822,"ĠADDITION":4823,"Ġfragrance":4824,"ĠGruyÃ¨re":4825,"ĠPickapeppa":4826,"ID":4827,"MP":4828,"MEL":4829,"banan":4830,"back":4831,"blend":4832,"ced":4833,"cinato":4834,"don":4835,"eer":4836,"emon":4837,"fin":4838,"ized":4839,"kins":4840,"kish":4841,"men":4842,"pen":4843,"uis":4844,"vet":4845,"Ġ__":4846,"Ġpunch":4847,"ining":4848,"anc":4849,"Ġown":4850,"Ġmau":4851,"Ġsalata":4852,"Ġwitch":4853,"amps":4854,"lace":4855,"ega":4856,"Ġoils":4857,"Ġcoti":4858,"eluxe":4859,"elvet":4860,"Ġsock":4861,"Ġleche":4862,"mont":4863,"wny":4864,"meister":4865,"Ġrash":4866,"bere":4867,"Ġdumplings":4868,"Ġchow":4869,"Ġchilli":4870,"Ġkno":4871,"Ġkentucky":4872,"Ġroux":4873,"Ġbasket":4874,"otto":4875,"ĠCucumber":4876,"Ġunsul":4877,"ĠBree":4878,"Ġboys":4879,"lds":4880,"rated":4881,"allions":4882,"Ġtagli":4883,"Ġtawny":4884,"Ġmanzanilla":4885,"Ġsquid":4886,"ĠDried":4887,"Ġcanm":4888,"Ġcanister":4889,"ĠOREO":4890,"ĠRamen":4891,"ĠRaspberry":4892,"Ġhalib":4893,"uckers":4894,"Ġheads":4895,"Ġlacinato":4896,"Ġunseasoned":4897,"ĠHOR":4898,"diments":4899,"ĠÂ¾":4900,"Ġbonito":4901,"Ġpanir":4902,"ĠJager":4903,"iper":4904,"ĠBrownies":4905,"ĠCauliflower":4906,"Ġsnack":4907,"Ġclean":4908,"Ġhoneydews":4909,"Ġstove":4910,"Ġglazed":4911,"Ġliners":4912,"Ġmediterranean":4913,"Ġpackagefrozen":4914,"house":4915,"Ġfrankfurter":4916,"ĠHear":4917,"Ġdairy":4918,"___":4919,"actus":4920,"ĠMushrooms":4921,"iblet":4922,"Ġgingersnaps":4923,"Ġgemelli":4924,"Ġrisotto":4925,"ĠWhipping":4926,"Ġpheasants":4927,"Ġberbere":4928,"Ġoxtail":4929,"Ġflavour":4930,"Ġpouches":4931,"Ġjuniper":4932,"ellmanns":4933,"ĠCHO":4934,"Ġclarified":4935,"ĠMargarine":4936,"ĠSauvignon":4937,"ĠReaLemon":4938,"banana":4939,"Ġ_____":4940,"Ġmaui":4941,"Ġcotija":4942,"Ġsockeye":4943,"ĠBreeze":4944,"Ġboysen":4945,"Ġhalibut":4946,"ĠHORMEL":4947,"ĠJagermeister":4948,"00":4949,"ACO":4950,"CKE":4951,"ICE":4952,"OO":4953,"OU":4954,"ae":4955,"az":4956,"aco":4957,"bi":4958,"dle":4959,"fleshed":4960,"get":4961,"ker":4962,"mite":4963,"oo":4964,"oro":4965,"sw":4966,"salted":4967,"uer":4968,"washed":4969,"yaux":4970,"Ġ+":4971,"Ġinfused":4972,"Ġcactus":4973,"Ġsmi":4974,"eriyaki":4975,"Ġbuc":4976,"Ġbor":4977,"Ġbella":4978,"Ġbrus":4979,"Ġbisqu":4980,"onzu":4981,"Ġplan":4982,"esc":4983,"esh":4984,"inz":4985,"iling":4986,"atelle":4987,"Ġmc":4988,"Ġmut":4989,"Ġmey":4990,"Ġmiss":4991,"Ġfle":4992,"utes":4993,"Ġchee":4994,"Ġvi":4995,"Ġts":4996,"Ġtabasco":4997,"Ġpost":4998,"Ġcole":4999,"Ġsouth":5000,"Ġsago":5001,"rio":5002,"rizzle":5003,"Ġbear":5004,"Ġwhitefish":5005,"Ġparma":5006,"abisco":5007,"Ġramps":5008,"Ġniblet":5009,"Ġdeluxe":5010,"Ġshuck":5011,"dae":5012,"cona":5013,"Ġkam":5014,"Ġkaro":5015,"Ġcarame":5016,"Ġmarmite":5017,"Ġsoybean":5018,"Ġpastas":5019,"ĠSk":5020,"ĠSer":5021,"ĠSte":5022,"ĠSandwich":5023,"anti":5024,"ĠCock":5025,"quar":5026,"Ġthoro":5027,"ĠWax":5028,"Ġclover":5029,"acle":5030,"ĠPicante":5031,"marine":5032,"ĠTea":5033,"ĠTACO":5034,"ĠTeriyaki":5035,"ĠMA":5036,"Ġtoget":5037,"Ġnonpare":5038,"ĠDrizzle":5039,"ĠGin":5040,"Ġsmuckers":5041,"ĠOf":5042,"Ġann":5043,"Ġdemi":5044,"Ġsundae":5045,"flavo":5046,"ĠCow":5047,"Ġpackag":5048,"ithra":5049,"Ġsmoky":5050,"Ġholiday":5051,"Ġlaw":5052,"Ġbarilla":5053,"chocolate":5054,"ughly":5055,"ĠHer":5056,"Ġjama":5057,"assover":5058,"Ġfiesta":5059,"uyper":5060,"ĠMixed":5061,"ĠBoiling":5062,"Ġplus":5063,"Ġfavour":5064,"Ġaj":5065,"ĠBean":5066,"Ġcrostini":5067,"Ġlumpia":5068,"maining":5069,"LATE":5070,"Ġmatzos":5071,"Ġcupcake":5072,"ĠSAL":5073,"Ġnoyaux":5074,"Ġpackagej":5075,"Ġmulberries":5076,"ĠPaste":5077,"ĠBurgers":5078,"ĠZinfandel":5079,"Ġfarfel":5080,"Ġrutabaga":5081,"ĠAlmonds":5082,"ĠMolasses":5083,"Ġgizzar":5084,"ĠMeatloaf":5085,"COLATE":5086,"Ġoval":5087,"Ġadzuki":5088,"Ġbroiler":5089,"Ġperch":5090,"yson":5091,"urized":5092,"Ġculantro":5093,"Ġswede":5094,"atchers":5095,"Ġbottoms":5096,"Ġkellogg":5097,"Ġbalkan":5098,"ĠStarter":5099,"Ġmizithra":5100,"ĠBrine":5101,"companiment":5102,"Ġsubmarine":5103,"etzle":5104,"ĠMorton":5105,"ĠADDITIONAL":5106,"Ġtagliatelle":5107,"ĠCHOCOLATE":5108,"swirl":5109,"Ġmutton":5110,"Ġsouthw":5111,"Ġshucked":5112,"Ġcaramelized":5113,"ĠCocktail":5114,"Ġthoroughly":5115,"Ġtogether":5116,"Ġfavourite":5117,"ET":5118,"EAN":5119,"ND":5120,"UB":5121,"UFF":5122,"VOO":5123,"aq":5124,"ader":5125,"bine":5126,"bake":5127,"dra":5128,"ged":5129,"har":5130,"ik":5131,"jang":5132,"mate":5133,"op":5134,"oy":5135,"off":5136,"oche":5137,"pt":5138,"voca":5139,"wine":5140,"wurst":5141,"xing":5142,"Ġis":5143,"Ġsat":5144,"Ġsni":5145,"Ġbens":5146,"Ġpun":5147,"Ġponzu":5148,"inary":5149,"ily":5150,"ally":5151,"ality":5152,"atini":5153,"atto":5154,"Ġmu":5155,"Ġfri":5156,"uter":5157,"Ġpepp":5158,"Ġpete":5159,"Ġwish":5160,"egular":5161,"Ġchees":5162,"Ġcheap":5163,"Ġvelvet":5164,"Ġone":5165,"Ġtre":5166,"Ġtran":5167,"Ġtot":5168,"uca":5169,"ely":5170,"Ġcrema":5171,"Ġbroad":5172,"Ġbroken":5173,"Ġjoe":5174,"Ġhing":5175,"isc":5176,"Ġbrew":5177,"asting":5178,"ork":5179,"Ġrich":5180,"rnoff":5181,"Ġcornish":5182,"Ġdream":5183,"Ġshao":5184,"rys":5185,"Ġston":5186,"Ġstill":5187,"Ġstrand":5188,"Ġkabo":5189,"elloni":5190,"Ġrome":5191,"Ġrods":5192,"Ġspi":5193,"Ġspoon":5194,"ĠSchnapps":5195,"ĠSargento":5196,"kake":5197,"ĠCro":5198,"Ġthen":5199,"Ġfrost":5200,"Ġmoose":5201,"Ġheat":5202,"Ġmixture":5203,"ĠBix":5204,"Ġvirginia":5205,"oodles":5206,"intosh":5207,"ĠPassover":5208,"aspberries":5209,"ĠMas":5210,"ĠMint":5211,"Ġtaro":5212,"Ġromana":5213,"ĠKernel":5214,"ĠSpray":5215,"ĠVirgin":5216,"Ġsmashed":5217,"Ġcanro":5218,"ĠRegular":5219,"ĠRaspberries":5220,"ĠAmar":5221,"borio":5222,"Ġanis":5223,"Ġquality":5224,"ctang":5225,"Ġspaetzle":5226,"Ġarom":5227,"Ġarils":5228,"flake":5229,"ĠEVOO":5230,"Ġrectang":5231,"Ġgelato":5232,"Ġrange":5233,"Ġjackfruit":5234,"Ġbison":5235,"noli":5236,"basil":5237,"Ġbrioche":5238,"ĠHellmanns":5239,"ĠWhites":5240,"Ġlox":5241,"ĠPeach":5242,"Ġimp":5243,"ĠNestles":5244,"ĠNoodles":5245,"Ġchipotles":5246,"Ġsumaq":5247,"Ġaioli":5248,"Ġghirardelli":5249,"ĠReddi":5250,"Ġmatcha":5251,"Ġvermont":5252,"Ġsnaps":5253,"ĠChive":5254,"cord":5255,"ĠRoma":5256,"ĠShredded":5257,"ĠChile":5258,"Ġsambuca":5259,"Ġstrip":5260,"ĠStyle":5261,"Ġspears":5262,"Ġmontreal":5263,"ĠZest":5264,"Ġbraeburn":5265,"ĠUnsalted":5266,"Ġalcoholic":5267,"Ġshank":5268,"chujang":5269,"Ġkumquat":5270,"Ġlondon":5271,"Ġcavatelli":5272,"Ġadvoca":5273,"Ġpercent":5274,"ĠMontreal":5275,"Ġwashing":5276,"urikake":5277,"ĠMediterranean":5278,"ĠArborio":5279,"ĠCrumbles":5280,"Ġpattypan":5281,"ĠVariations":5282,"Ġcassis":5283,"Ġsingle":5284,"Ġsingles":5285,"Ġkasha":5286,"Ġwalleye":5287,"ĠBroccolini":5288,"Ġkefir":5289,"ĠHorseradish":5290,"Ġporterhouse":5291,"Ġoxtails":5292,"CKEN":5293,"Ġsmirnoff":5294,"Ġbucatini":5295,"Ġmcintosh":5296,"Ġfleur":5297,"ĠSerrano":5298,"Ġnonpareils":5299,"Ġannatto":5300,"flavoured":5301,"ĠSALSA":5302,"Ġsnipped":5303,"Ġtrans":5304,"Ġtotal":5305,"Ġkabocha":5306,"Ġfrosted":5307,"Ġadvocaat":5308,"Butter":5309,"Jack":5310,"KS":5311,"TU":5312,"brien":5313,"cel":5314,"crack":5315,"dd":5316,"een":5317,"gery":5318,"glace":5319,"hydrogen":5320,"iri":5321,"jon":5322,"kay":5323,"kka":5324,"lra":5325,"ogen":5326,"pets":5327,"pineapple":5328,"tose":5329,"zn":5330,"zes":5331,"Ġlu":5332,"Ġcapp":5333,"Ġcrum":5334,"Ġslo":5335,"Ġsargento":5336,"erto":5337,"Ġbl":5338,"Ġbund":5339,"Ġblu":5340,"Ġblen":5341,"Ġbrussels":5342,"ondra":5343,"Ġpk":5344,"Ġpapp":5345,"esan":5346,"ices":5347,"icory":5348,"Ġchicory":5349,"reast":5350,"rod":5351,"rox":5352,"Ġoct":5353,"Ġmet":5354,"Ġmill":5355,"Ġmung":5356,"Ġmelt":5357,"Ġgri":5358,"Ġglasses":5359,"Ġfire":5360,"Ġfanc":5361,"Ġwien":5362,"Ġsuri":5363,"ions":5364,"unky":5365,"Ġtbs":5366,"Ġgrounded":5367,"uctose":5368,"Ġcocon":5369,"elatin":5370,"Ġjag":5371,"raft":5372,"Ġjuicy":5373,"Ġhell":5374,"Ġhok":5375,"Ġhydrogen":5376,"Ġbee":5377,"Ġbeat":5378,"adas":5379,"chetta":5380,"Ġmusc":5381,"Ġbrowner":5382,"rani":5383,"ranges":5384,"Ġnama":5385,"Ġnesc":5386,"apples":5387,"Ġsele":5388,"Ġseuer":5389,"Ġke":5390,"Ġkon":5391,"Ġkoh":5392,"Ġkasser":5393,"Ġroo":5394,"Ġros":5395,"Ġspoons":5396,"thur":5397,"Ġmarz":5398,"ĠSP":5399,"ĠScoo":5400,"ĠSmart":5401,"ĠCrus":5402,"ĠCrescent":5403,"ĠCrouton":5404,"ĠCRE":5405,"ĠCustard":5406,"ĠCamembert":5407,"avarian":5408,"iram":5409,"ĠWondra":5410,"Ġconch":5411,"ĠIn":5412,"Ġwalker":5413,"Ġracks":5414,"Ġpiquil":5415,"esty":5416,"ĠBavarian":5417,"Ġhambur":5418,"ĠTar":5419,"ĠTaco":5420,"ĠTyson":5421,"Ġpasteurized":5422,"Ġpumpkinseed":5423,"Ġscrod":5424,"Ġtorani":5425,"ĠFarms":5426,"ulti":5427,"ĠKaiser":5428,"ĠSparkling":5429,"ĠGala":5430,"ĠGelatin":5431,"Ġcanch":5432,"Ġrindless":5433,"ĠOranges":5434,"ĠRe":5435,"ĠAdd":5436,"Ġfruity":5437,"afe":5438,"Ġdepen":5439,"Ġreca":5440,"ettone":5441,"ĠButtery":5442,"Ġcannelloni":5443,"INS":5444,"ĠLoc":5445,"INGER":5446,"Ġlocal":5447,"Ġserranos":5448,"Ġpanettone":5449,"Ġpomegranates":5450,"Ġaniseed":5451,"ĠJell":5452,"ĠJalap":5453,"Ġasader":5454,"Ġfol":5455,"ĠOlives":5456,"Ġsprinkling":5457,"ĠLeaves":5458,"Ġhomogen":5459,"oba":5460,"riginals":5461,"Ġminced":5462,"Ġminutes":5463,"Ġbagged":5464,"white":5465,"ĠYOL":5466,"Ġmedallions":5467,"Ġnop":5468,"Ġsticky":5469,"bler":5470,"Ġassortment":5471,"ĠBasmati":5472,"ĠHeinz":5473,"Ġfingers":5474,"Ġpetal":5475,"ĠMexicorn":5476,"ĠHamburger":5477,"Ġfructose":5478,"Ġtiger":5479,"ĠShortbread":5480,"ĠQuinoa":5481,"Ġpackagedry":5482,"ĠCarrot":5483,"Ġlengthwise":5484,"Ġcastle":5485,"Ġcastor":5486,"ĠFlakes":5487,"ĠDeluxe":5488,"Ġlingonberries":5489,"Ã¨me":5490,"Ġrisoni":5491,"ĠMIXTU":5492,"Ġenoki":5493,"ĠHoisin":5494,"Ġindian":5495,"Ġpaul":5496,"Ġfinely":5497,"Ġtrail":5498,"ĠCHICKEN":5499,"ĠLiquid":5500,"Ġdrained":5501,"ĠSmok":5502,"Ġbloody":5503,"uisian":5504,"Ġrashers":5505,"Ġknob":5506,"Ġbruschetta":5507,"Ġmeyer":5508,"Ġmission":5509,"ĠMAID":5510,"Ġjamaican":5511,"opus":5512,"Ġsatay":5513,"Ġfrisee":5514,"Ġtreacle":5515,"Ġshaoxing":5516,"Ġspike":5517,"Ġanisette":5518,"Ġaromat":5519,"ĠPeaches":5520,"hydrogenated":5521,"lrabi":5522,"Ġcrumpets":5523,"Ġoctopus":5524,"Ġfancy":5525,"Ġwieners":5526,"Ġsurimi":5527,"Ġtbsps":5528,"Ġcoconuts":5529,"Ġjaggery":5530,"Ġhellmans":5531,"Ġnescafe":5532,"Ġkohlrabi":5533,"Ġkasseri":5534,"ĠCroutons":5535,"ĠCREAM":5536,"Ġpiquillo":5537,"Ġdepending":5538,"Ġrecaito":5539,"Ġasadero":5540,"Ġhomogenized":5541,"ĠYOLKS":5542,"ĠMIXTURE":5543,"..":5544,"CH":5545,"EC":5546,"FINGER":5547,"LI":5548,"UT":5549,"VE":5550,"bq":5551,"betty":5552,"cil":5553,"cur":5554,"cButter":5555,"des":5556,"eÃ":5557,"eed":5558,"equila":5559,"gio":5560,"heim":5561,"iv":5562,"iano":5563,"ibo":5564,"just":5565,"kets":5566,"llo":5567,"mano":5568,"nic":5569,"pr":5570,"pla":5571,"pressed":5572,"sy":5573,"schw":5574,"tland":5575,"tega":5576,"ulade":5577,"weg":5578,"wood":5579,"wash":5580,"xo":5581,"zesty":5582,"Ã§":5583,"Ġano":5584,"Ġcad":5585,"Ġsas":5586,"Ġsco":5587,"Ġsand":5588,"Ġsanding":5589,"erus":5590,"Ġbesan":5591,"Ġbbq":5592,"Ġpic":5593,"Ġpisco":5594,"Ġpale":5595,"Ġpsy":5596,"inking":5597,"ints":5598,"alem":5599,"garoo":5600,"Ġchachere":5601,"reau":5602,"angaroo":5603,"rose":5604,"Ġoax":5605,"Ġoriginals":5606,"Ġmuch":5607,"ppo":5608,"pple":5609,"Ġglit":5610,"Ġfre":5611,"Ġfill":5612,"Ġfesh":5613,"Ġwatchers":5614,"end":5615,"eground":5616,"egran":5617,"Ġchew":5618,"Ġvic":5619,"Ġten":5620,"Ġtable":5621,"Ġtinned":5622,"Ġpopping":5623,"Ġcheesecake":5624,"Ġsoho":5625,"ombu":5626,"omegran":5627,"Ġbahar":5628,"resca":5629,"Ġjerus":5630,"Ġhus":5631,"Ġhines":5632,"Ġhiram":5633,"ria":5634,"Ġreddi":5635,"Ġbeau":5636,"adew":5637,"chur":5638,"Ġbrownies":5639,"asted":5640,"orweg":5641,"Ġdaniels":5642,"Ġshred":5643,"Ġshaped":5644,"Ġyucc":5645,"Ġkraft":5646,"Ġkangaroo":5647,"Ġkombu":5648,"Ġalmo":5649,"ĠSpe":5650,"ĠSqueezed":5651,"ĠCle":5652,"Ġmoist":5653,"Ġcloth":5654,"Ġcloud":5655,"Ġconver":5656,"Ġconcord":5657,"odd":5658,"Ġgrade":5659,"Ġapprox":5660,"Ġraising":5661,"ĠBon":5662,"ĠBlend":5663,"ĠBens":5664,"ĠBetter":5665,"ĠBreast":5666,"ersey":5667,"iddle":5668,"intreau":5669,"ĠPunch":5670,"ĠPern":5671,"ĠPomegran":5672,"Ġflaky":5673,"ĠTris":5674,"ĠTequila":5675,"sparagus":5676,"spread":5677,"ĠMUFF":5678,"ĠMulti":5679,"ĠMcButter":5680,"Ġiced":5681,"Ġgochujang":5682,"stone":5683,"stitos":5684,"Ġpuy":5685,"ĠFeta":5686,"ĠFresca":5687,"ĠKit":5688,"ĠKello":5689,"ĠKorean":5690,"ĠKabo":5691,"ĠVersion":5692,"ĠGrated":5693,"Ġcanadian":5694,"Ġcanwhole":5695,"Ġcanquar":5696,"Ġcannoli":5697,"ĠOxo":5698,"ĠRot":5699,"Ġfilter":5700,"ĠApr":5701,"ĠAsparagus":5702,"Ġang":5703,"Ġremo":5704,"Ġacai":5705,"ĠCognac":5706,"ready":5707,"ĠMarcona":5708,"Ġdol":5709,"Ġdoes":5710,"cuits":5711,"nolds":5712,"Ġlinguini":5713,"uguese":5714,"Ġskor":5715,"ĠLE":5716,"ĠHal":5717,"aturals":5718,"ĠPecorino":5719,"ĠNabisco":5720,"ibisc":5721,"ĠJasmine":5722,"ĠcrÃ¨me":5723,"ĠBob":5724,"fured":5725,"Ġdoughnut":5726,"ĠPeppers":5727,"Ġagar":5728,"ĠCrusty":5729,"Ġep":5730,"Ġemp":5731,"Ġdishwash":5732,"Ġadditions":5733,"PPLE":5734,"Ġfatback":5735,"llium":5736,"ugat":5737,"ĠAccompaniment":5738,"Ġcansp":5739,"Ġcanswhole":5740,"ĠGrain":5741,"ĠDecorat":5742,"Ġamchur":5743,"ĠChiles":5744,"Ġmedal":5745,"Ġnougat":5746,"Ġpackagefresh":5747,"Ġcornflake":5748,"Ġpatis":5749,"ĠBraeburn":5750,"Ġtruffles":5751,"Ġdippers":5752,"ĠUp":5753,"Ġworchestershire":5754,"Ġears":5755,"Ġshortcakes":5756,"Ġburritos":5757,"Ġkirschw":5758,"Ġinc":5759,"ĠTurkish":5760,"Ġtostadas":5761,"Ġfrzn":5762,"ĠCOAT":5763,"Ġthickened":5764,"Ġasafetida":5765,"Ġadjust":5766,"Ġdrinking":5767,"Ġcortland":5768,"ĠArugula":5769,"ĠLow":5770,"Ġribbon":5771,"Ġswedish":5772,"Ġmaine":5773,"Ġcassava":5774,"Ġkelloggs":5775,"ĠWhipped":5776,"Ġpheasant":5777,"FFEE":5778,"ienna":5779,"ĠBUTTERFINGER":5780,"Ġrapeseed":5781,"ĠMerlot":5782,"ĠMeringue":5783,"ĠCabbage":5784,"Ġcubanelle":5785,"ralose":5786,"Ġclaws":5787,"Ġsucralose":5788,"ĠBrandy":5789,"Ġmccormicks":5790,"Ġunsulfured":5791,"Ġbisque":5792,"Ġplanters":5793,"Ġtsps":5794,"Ġlawrys":5795,"Ġgizzards":5796,"Ġsouthwest":5797,"Ġpunnet":5798,"Ġpeppadew":5799,"Ġstoneground":5800,"ĠMascarpone":5801,"ĠRomaine":5802,"Ġgrigio":5803,"Ġbeaten":5804,"Ġrooibo":5805,"ĠScoops":5806,"ĠRemaining":5807,"ĠAdditions":5808,"ĠLocatelli":5809,"Ġfollow":5810,"Ġaromatic":5811,"eÃ±":5812,"Ġanother":5813,"Ġcadbury":5814,"Ġpsyllium":5815,"Ġglitter":5816,"Ġbaharat":5817,"Ġjerusalem":5818,"orwegian":5819,"Ġyucca":5820,"Ġalmost":5821,"Ġconverted":5822,"ĠBreasts":5823,"ĠPernod":5824,"ĠPomegranate":5825,"ĠMUFFINS":5826,"ĠKellogg":5827,"ĠKabobs":5828,"Ġcanquartered":5829,"ĠApricot":5830,"ibiscus":5831,"Ġkirschwasser":5832,"ĠCOATING":5833,"Ġrooibos":5834,"AF":5835,"CK":5836,"ES":5837,"EAT":5838,"GG":5839,"LO":5840,"NAM":5841,"SH":5842,"UMP":5843,"ain":5844,"bic":5845,"bre":5846,"bone":5847,"cinnamon":5848,"crust":5849,"dry":5850,"dsh":5851,"firm":5852,"fore":5853,"jell":5854,"jeel":5855,"kato":5856,"kom":5857,"mish":5858,"mild":5859,"mment":5860,"nes":5861,"ogs":5862,"peri":5863,"ru":5864,"ras":5865,"ruc":5866,"rbic":5867,"tini":5868,"ule":5869,"varian":5870,"water":5871,"yrian":5872,"ynolds":5873,"zy":5874,"zor":5875,"Ġasco":5876,"Ġunder":5877,"Ġcutter":5878,"Ġcling":5879,"Ġschn":5880,"Ġsashi":5881,"eric":5882,"arjeel":5883,"Ġball":5884,"Ġbuit":5885,"Ġpad":5886,"Ġpate":5887,"Ġperi":5888,"iner":5889,"inder":5890,"ane":5891,"any":5892,"anuts":5893,"anach":5894,"ance":5895,"rolo":5896,"romano":5897,"att":5898,"Ġmellow":5899,"Ġmates":5900,"ppin":5901,"Ġgom":5902,"Ġglue":5903,"Ġglen":5904,"Ġgodd":5905,"Ġfoc":5906,"Ġfiddle":5907,"utral":5908,"Ġpepe":5909,"enc":5910,"Ġsuey":5911,"las":5912,"tern":5913,"egre":5914,"Ġval":5915,"Ġvienna":5916,"Ġones":5917,"Ġtus":5918,"Ġtum":5919,"Ġtake":5920,"Ġtray":5921,"Ġpoints":5922,"asy":5923,"liced":5924,"Ġgarnet":5925,"Ġcoole":5926,"Ġcount":5927,"Ġcointreau":5928,"edles":5929,"atore":5930,"Ġsole":5931,"Ġsold":5932,"Ġsomen":5933,"Ġbavarian":5934,"itter":5935,"italian":5936,"ittle":5937,"Ġjoh":5938,"razy":5939,"Ġjuices":5940,"Ġhung":5941,"Ġhatch":5942,"Ġhibiscus":5943,"rida":5944,"Ġredhot":5945,"Ġbefore":5946,"adams":5947,"Ġpared":5948,"abok":5949,"Ġrh":5950,"Ġron":5951,"Ġrins":5952,"Ġrame":5953,"ayers":5954,"Ġdino":5955,"Ġdust":5956,"Ġchour":5957,"shey":5958,"Ġkl":5959,"Ġkerry":5960,"Ġkitchen":5961,"Ġaltern":5962,"Ġcarne":5963,"eller":5964,"Ġchianti":5965,"Ġroe":5966,"Ġspam":5967,"nack":5968,"naheim":5969,"the":5970,"Ġchedder":5971,"Ġmarrow":5972,"Ġbasa":5973,"Ġpastina":5974,"ĠSI":5975,"ĠCIN":5976,"quiri":5977,"Ġthey":5978,"illy":5979,"Ġexp":5980,"ĠWish":5981,"Ġmocha":5982,"Ġcondiments":5983,"Ġcraft":5984,"aker":5985,"aken":5986,"Ġyellowfin":5987,"Ġracle":5988,"Ġrazor":5989,"dent":5990,"luding":5991,"ameter":5992,"ĠBing":5993,"ĠBRO":5994,"ĠBliss":5995,"idu":5996,"Ġstrained":5997,"intzes":5998,"ĠPre":5999,"ĠPack":6000,"ĠPesto":6001,"ĠPron":6002,"ĠPork":6003,"marties":6004,"ashio":6005,"ĠTap":6006,"ĠMade":6007,"ĠMous":6008,"ĠMEAT":6009,"miri":6010,"Ġgrands":6011,"Ġgranary":6012,"Ġsteel":6013,"ĠFlo":6014,"ĠFrien":6015,"Ġsquir":6016,"ulf":6017,"ulina":6018,"ĠDUMP":6019,"ĠKnorr":6020,"ĠKrazy":6021,"ĠSprink":6022,"Ġpicked":6023,"ĠGlo":6024,"ĠGran":6025,"ewers":6026,"Ġcanb":6027,"Ġcanwhite":6028,"ĠON":6029,"ĠOR":6030,"ĠRICE":6031,"Ġfiltered":6032,"ĠAPPLE":6033,"ĠAmish":6034,"ĠAnaheim":6035,"Ġchilean":6036,"uffed":6037,"Ġquah":6038,"Ġhalve":6039,"Ġrip":6040,"Ġrise":6041,"Ġripple":6042,"Ġinstruc":6043,"gerator":6044,"Ġcotton":6045,"Ġteasp":6046,"ĠEGG":6047,"ĠEmment":6048,"Ġrep":6049,"Ġreynolds":6050,"ĠTostitos":6051,"Ġcolor":6052,"Ġcoloured":6053,"Ġflatbread":6054,"ards":6055,"Ġcarambo":6056,"Ġpencil":6057,"ĠButternut":6058,"ĠButterfinger":6059,"Ġbisto":6060,"ornings":6061,"ĠLayers":6062,"ĠHol":6063,"ĠWhis":6064,"Ġlouisian":6065,"ĠBailey":6066,"ĠPeanuts":6067,"Ġaleppo":6068,"Ġfig":6069,"Ġfiber":6070,"ĠNe":6071,"ĠNu":6072,"ĠNatural":6073,"ĠJel":6074,"Ġblanc":6075,"Ġcru":6076,"ĠMixture":6077,"Ġwildflower":6078,"Ġsecrets":6079,"ĠLeaf":6080,"Ġmache":6081,"Ġgluc":6082,"imate":6083,"Ġlardons":6084,"ĠWatermelon":6085,"Ġmatzoh":6086,"Ġbagfrozen":6087,"Ġendives":6088,"ĠShallo":6089,"Ġmeas":6090,"ĠExtract":6091,"ĠCardamom":6092,"Ġpassover":6093,"ĠChilies":6094,"Ġcalab":6095,"Ġmedley":6096,"Ġpackageof":6097,"Ġrockfish":6098,"Ġneedles":6099,"ĠBreading":6100,"LINGS":6101,"ONI":6102,"Ġdiameter":6103,"Ġdaiquiri":6104,"Ġpackagesliced":6105,"Ġworld":6106,"ĠCondensed":6107,"ĠCondiments":6108,"fryer":6109,"ĠPaper":6110,"Ġspirulina":6111,"ĠCookie":6112,"Ġlayers":6113,"ĠForest":6114,"Ġkirsch":6115,"accia":6116,"Ġtostitos":6117,"Ġoven":6118,"Ġtikka":6119,"ĠCombine":6120,"Ġcornichon":6121,"Ġbatch":6122,"Ġcampan":6123,"ITONI":6124,"Ġchanna":6125,"ĠAvocados":6126,"ĠArthur":6127,"Ġmorton":6128,"ĠBUITONI":6129,"Ġculinary":6130,"Ġmaid":6131,"Ġmajor":6132,"Ġkashmiri":6133,"ĠCapers":6134,"Ġflavoured":6135,"Ġenough":6136,"ĠStarters":6137,"ĠCrunch":6138,"ĠWorld":6139,"ĠWorchestershire":6140,"Ġwalleyed":6141,"ĠBroccoli":6142,"estern":6143,"ĠCabernet":6144,"Ġpersonal":6145,"ĠLiqueur":6146,"Ġsucrolo":6147,"ridge":6148,"ĠPancake":6149,"ĠAndes":6150,"Ġtempur":6151,"Ġmccormick":6152,"ĠHeart":6153,"ĠHearts":6154,"Ġboysenberries":6155,"Ġboysenberry":6156,"azote":6157,"Ġborden":6158,"Ġviole":6159,"Ġbearnaise":6160,"Ġkamabok":6161,"ĠStevia":6162,"ĠHerbs":6163,"Ġpackagejello":6164,"ĠAmarula":6165,"cracked":6166,"Ġsloppy":6167,"Ġbundles":6168,"Ġpappadams":6169,"Ġmelted":6170,"Ġhamburgers":6171,"ĠJalapeno":6172,"blerone":6173,"ĠSmoke":6174,"curd":6175,"ividu":6176,"plait":6177,"Ġsaskato":6178,"Ġpicnic":6179,"Ġoaxaca":6180,"Ġvicto":6181,"Ġshredd":6182,"ĠClear":6183,"ĠTriscuits":6184,"Ġangus":6185,"Ġepazote":6186,"Ġdishwashing":6187,"Ġincluding":6188,"NAMON":6189,"dship":6190,"nessee":6191,"Ġascorbic":6192,"Ġsashimi":6193,"arjeeling":6194,"Ġbuitoni":6195,"anache":6196,"Ġgomashio":6197,"Ġgoddess":6198,"Ġfocaccia":6199,"Ġfiddlehead":6200,"Ġtuscan":6201,"Ġtumeric":6202,"Ġcooled":6203,"Ġrinsed":6204,"Ġramekins":6205,"ĠCINNAMON":6206,"Ġraclette":6207,"ĠPronto":6208,"ĠMadeira":6209,"ĠMousse":6210,"ĠFriendship":6211,"ĠDUMPLINGS":6212,"ĠSprinkles":6213,"Ġquahogs":6214,"Ġinstructions":6215,"ĠEmmentaler":6216,"orningstar":6217,"ĠHollandaise":6218,"Ġsucrolose":6219,"Ġkamaboko":6220,"Ġsaskatoon":6221,"CLE":6222,"GE":6223,"GAR":6224,"ME":6225,"MON":6226,"OK":6227,"PS":6228,"RA":6229,"Regg":6230,"Rise":6231,"Sweet":6232,"UE":6233,"UST":6234,"\\>":6235,"agar":6236,"ble":6237,"buc":6238,"bps":6239,"bled":6240,"cs":6241,"catelli":6242,"eb":6243,"eh":6244,"ela":6245,"grated":6246,"hu":6247,"han":6248,"hredded":6249,"ider":6250,"ips":6251,"iatore":6252,"knorr":6253,"kinned":6254,"lillo":6255,"mayonnaise":6256,"oise":6257,"ook":6258,"ould":6259,"pre":6260,"ption":6261,"ptions":6262,"puffed":6263,"ram":6264,"sary":6265,"skinned":6266,"tine":6267,"tras":6268,"ua":6269,"uette":6270,"var":6271,"vanilla":6272,"well":6273,"wain":6274,"your":6275,"ypt":6276,"za":6277,"zoni":6278,"®che":6279,"Ã©":6280,"Ã®che":6281,"Ġ#":6282,"Ġâ":6283,"Ġlat":6284,"Ġeyed":6285,"Ġahi":6286,"Ġinf":6287,"Ġcir":6288,"Ġslow":6289,"Ġsmarties":6290,"erra":6291,"erib":6292,"aroni":6293,"Ġbick":6294,"Ġbig":6295,"ones":6296,"onion":6297,"Ġpion":6298,"Ġpats":6299,"Ġpitch":6300,"inc":6301,"inute":6302,"ince":6303,"ila":6304,"ilet":6305,"ilte":6306,"alina":6307,"garashi":6308,"Ġchap":6309,"rew":6310,"reng":6311,"reos":6312,"rels":6313,"anch":6314,"andar":6315,"anada":6316,"Ġmalted":6317,"Ġmexico":6318,"lemon":6319,"Ġger":6320,"Ġgef":6321,"Ġgener":6322,"Ġfal":6323,"Ġfix":6324,"Ġfontin":6325,"Ġfide":6326,"Ġfei":6327,"Ġfarms":6328,"Ġfurikake":6329,"ution":6330,"Ġwould":6331,"Ġsush":6332,"terol":6333,"ures":6334,"urri":6335,"urger":6336,"ingu":6337,"egro":6338,"lor":6339,"lored":6340,"Ġvelveeta":6341,"Ġvariation":6342,"Ġbutterf":6343,"Ġbutterbeans":6344,"Ġbuttercream":6345,"Ġtub":6346,"Ġtang":6347,"Ġtbps":6348,"Ġpole":6349,"Ġpollo":6350,"undi":6351,"ucester":6352,"Ġcomple":6353,"eltzer":6354,"edded":6355,"Ġfloured":6356,"Ġleft":6357,"Ġfloury":6358,"Ġsack":6359,"Ġsauter":6360,"eth":6361,"eto":6362,"etw":6363,"Ġjo":6364,"Ġjet":6365,"Ġjust":6366,"Ġjersey":6367,"usse":6368,"usters":6369,"uski":6370,"Ġfreshley":6371,"Ġhake":6372,"rist":6373,"Ġwhiting":6374,"Ġbeaters":6375,"chet":6376,"Ġmust":6377,"geat":6378,"ors":6379,"Ġnett":6380,"rna":6381,"Ġlip":6382,"Ġdarjeeling":6383,"Ġchowder":6384,"Ġseaw":6385,"Ġshiso":6386,"Ġshedded":6387,"apid":6388,"cones":6389,"shaken":6390,"Ġstanding":6391,"Ġstandar":6392,"efish":6393,"Ġkrisp":6394,"Ġkahlua":6395,"Ġkuyper":6396,"Ġalumin":6397,"lesterol":6398,"Ġchim":6399,"Ġchihu":6400,"Ġrod":6401,"Ġcelest":6402,"eets":6403,"eetos":6404,"Ġgingernut":6405,"Ġbasic":6406,"ĠSU":6407,"ĠSun":6408,"ĠSugg":6409,"ĠSOU":6410,"ĠSeltzer":6411,"ĠCole":6412,"ĠCAR":6413,"ĠCider":6414,"avas":6415,"irby":6416,"quettes":6417,"Ġthins":6418,"cessary":6419,"ĠWaf":6420,"Ġportions":6421,"Ġporridge":6422,"irepo":6423,"Ġmold":6424,"Ġmolds":6425,"Ġmousse":6426,"Ġpineapples":6427,"ixed":6428,"Ġconfection":6429,"Ġcontin":6430,"anang":6431,"Ġray":6432,"Ġrays":6433,"Ġwholewheat":6434,"estring":6435,"ĠBE":6436,"ĠBee":6437,"ĠBone":6438,"ĠBEAN":6439,"ĠBasting":6440,"ĠBurger":6441,"Ġbock":6442,"Ġboards":6443,"Ġbolillo":6444,"Ġturkish":6445,"oods":6446,"acaroni":6447,"ĠChip":6448,"ĠChablis":6449,"ĠChunky":6450,"ĠCheetos":6451,"ĠPort":6452,"ĠPEAN":6453,"Ġbroccoflower":6454,"Ġbroccolini":6455,"Ġshorting":6456,"peanut":6457,"ĠTruff":6458,"Ġlucky":6459,"Ġlily":6460,"spresso":6461,"ĠMayer":6462,"ĠMaster":6463,"ĠMinute":6464,"ĠMacaroni":6465,"Ġscra":6466,"Ġgrand":6467,"rata":6468,"Ġnondairy":6469,"ĠFat":6470,"ĠFry":6471,"ĠFries":6472,"ĠFOR":6473,"ĠFurikake":6474,"ĠFilet":6475,"tie":6476,"ĠjalapeÃ±":6477,"isses":6478,"Ġmange":6479,"Ġmaca":6480,"Ġcherrystone":6481,"ssal":6482,"ĠDry":6483,"ĠDrink":6484,"ĠParmigiano":6485,"ĠParkay":6486,"ĠKi":6487,"ĠKirby":6488,"ĠKisses":6489,"ĠVeggie":6490,"ĠGanache":6491,"Ġsmelt":6492,"ĠOyster":6493,"ĠOscar":6494,"ĠOreos":6495,"ĠRye":6496,"ĠRUB":6497,"ĠRapid":6498,"ĠAt":6499,"cented":6500,"Ġgrate":6501,"inous":6502,"Ġquince":6503,"Ġroasts":6504,"ĠEspresso":6505,"Ġgelat":6506,"burg":6507,"Ġfluff":6508,"ettuce":6509,"ĠToothpicks":6510,"Ġpackager":6511,"Ġcolossal":6512,"ichurri":6513,"Ġkim":6514,"grape":6515,"Ġcasing":6516,"Ġounce":6517,"Ġbarrel":6518,"Ġbarram":6519,"iraz":6520,"choy":6521,"ahua":6522,"Ġradiatore":6523,"ĠLavender":6524,"ĠLettuce":6525,"Ġbriquettes":6526,"Ġortega":6527,"Ġorgeat":6528,"ĠHickory":6529,"Ġwarmed":6530,"Ġshoestring":6531,"aloo":6532,"Ġlocatelli":6533,"Ġjellybeans":6534,"Ġpaneer":6535,"ĠPeas":6536,"Ġclusters":6537,"Ġprewashed":6538,"Ġgoldfish":6539,"Ġivory":6540,"ĠNicoise":6541,"ative":6542,"Ġcrunch":6543,"Ġcrud":6544,"Ġbulls":6545,"ĠSemi":6546,"ĠEggnog":6547,"Ġdoughnuts":6548,"Ġsiu":6549,"Ġguavas":6550,"Ġtamarillo":6551,"uccino":6552,"Ġequal":6553,"Ġeau":6554,"Ġeuropean":6555,"Ġeasy":6556,"Ġkiwifruit":6557,"Ġgummi":6558,"Ġfrais":6559,"ĠfraÃ®che":6560,"Ġbeverages":6561,"Ġcross":6562,"Ġsparerib":6563,"Ġstarbuc":6564,"osodium":6565,"Ġcanss":6566,"Ġbackstrap":6567,"Ġbackfin":6568,"Ġblock":6569,"Ġpeeps":6570,"whites":6571,"Ġharicot":6572,"Ġamish":6573,"ylers":6574,"ensive":6575,"ĠChilean":6576,"Ġcalrose":6577,"Ġcalend":6578,"Ġwaxy":6579,"Ġjarred":6580,"Ġnoir":6581,"type":6582,"Ġkissables":6583,"Ġstickers":6584,"Ġmulling":6585,"Ġneutral":6586,"Ġnecessary":6587,"Ġcava":6588,"Ġcavender":6589,"Ġfresca":6590,"Ġdijon":6591,"Ġfromage":6592,"Ġboxji":6593,"Ġboxof":6594,"Ġmonosodium":6595,"ĠApplejack":6596,"Ġdecoration":6597,"Ġflowerets":6598,"Ġtwo":6599,"Ġpackagesjell":6600,"Ġpackageshredded":6601,"ARB":6602,"ARD":6603,"Ġbraising":6604,"ĠCoconutmilk":6605,"ĠAlmondmilk":6606,"Ġearly":6607,"Ġcomino":6608,"Ġstrongly":6609,"ĠMandarin":6610,"Ġburrata":6611,"kien":6612,"ĠWalla":6613,"ĠTurmeric":6614,"Ġtostado":6615,"chwan":6616,"ĠCOOK":6617,"ĠShells":6618,"ĠQuaker":6619,"Ġreserve":6620,"Ġgooseberry":6621,"itzels":6622,"mour":6623,"Ġliverwurst":6624,"Ġcastile":6625,"Ġenvelopes":6626,"Ġsuggestions":6627,"joas":6628,"Ġribeye":6629,"powder":6630,"sinthe":6631,"Ġelderberries":6632,"Ġbalance":6633,"astern":6634,"ĠCrunchy":6635,"ĠCrud":6636,"Ġindividu":6637,"Ġrapid":6638,"ĠGrillers":6639,"Ġabsinthe":6640,"ĠniÃ§":6641,"ĠHormel":6642,"ĠCRUMBLE":6643,"MPLE":6644,"Ġunsulph":6645,"Ġkamut":6646,"ĠSkewers":6647,"Ġpackagegre":6648,"Ġajwain":6649,"Ġcheeses":6650,"Ġspoonable":6651,"ĠCrostini":6652,"ĠVirginia":6653,"Ġrectangles":6654,"Ġrectangular":6655,"Ġcappuccino":6656,"Ġblintzes":6657,"Ġbluefish":6658,"Ġblended":6659,"Ġmetal":6660,"Ġhokkien":6661,"Ġkonbu":6662,"Ġmarzetti":6663,"ĠCrushed":6664,"ĠTartar":6665,"Ġnopales":6666,"Ġcastleberry":6667,"LIC":6668,"Ġchewy":6669,"Ġtennessee":6670,"Ġapproximate":6671,"ĠRotel":6672,"Ġremoulade":6673,"ĠHalves":6674,"Ġempanada":6675,"Ġcanspicy":6676,"brewed":6677,"koman":6678,"Ġschnitzels":6679,"encia":6680,"Ġtrays":6681,"Ġhungry":6682,"Ġrhine":6683,"Ġdusting":6684,"Ġchourico":6685,"Ġkluski":6686,"ĠSIMPLE":6687,"ĠPretzels":6688,"ĠTapioca":6689,"Ġsteelhead":6690,"ĠFlorida":6691,"ĠGloucester":6692,"Ġteaspoon":6693,"Ġrepos":6694,"ĠWhiskey":6695,"Ġglucose":6696,"Ġtempura":6697,"Ġviolets":6698,"Ġvictoria":6699,"Ġshreddies":6700,"Ġfiddleheads":6701,"Reggiano":6702,"USTARD":6703,"yptian":6704,"Ġinfant":6705,"Ġpioneer":6706,"Ġpitcher":6707,"Ġchapati":6708,"rength":6709,"Ġgefilte":6710,"Ġfixins":6711,"Ġfontinella":6712,"Ġfeijoas":6713,"Ġsushi":6714,"Ġtangy":6715,"Ġpollock":6716,"Ġnettles":6717,"Ġseaweed":6718,"Ġstandard":6719,"Ġaluminium":6720,"Ġchihuahua":6721,"Ġcelestial":6722,"ĠSuggestion":6723,"ĠColemans":6724,"ĠWafers":6725,"irepoix":6726,"ĠBEANS":6727,"ĠPEANUT":6728,"ĠRapidRise":6729,"Ġbarramundi":6730,"Ġbullseye":6731,"Ġtamarillos":6732,"Ġstarbucks":6733,"Ġcalendula":6734,"Ġboxjiffy":6735,"Ġindividual":6736,"ĠniÃ§oise":6737,"Ġpackagegreen":6738,"Bran":6739,"CON":6740,"CTA":6741,"Ginger":6742,"GET":6743,"Honey":6744,"HER":6745,"IME":6746,"JU":6747,"NIES":6748,"NCLE":6749,"OVE":6750,"UCK":6751,"VY":6752,"Vegetable":6753,"WNIES":6754,"ZZ":6755,"butter":6756,"bay":6757,"bby":6758,"bud":6759,"bidden":6760,"cran":6761,"cup":6762,"cles":6763,"cts":6764,"cumin":6765,"cilantro":6766,"campbell":6767,"crystal":6768,"callions":6769,"crew":6770,"dian":6771,"delli":6772,"dinary":6773,"eor":6774,"eera":6775,"ejo":6776,"fe":6777,"gn":6778,"gy":6779,"gal":6780,"gam":6781,"ginger":6782,"gator":6783,"hi":6784,"hire":6785,"ier":6786,"ired":6787,"ior":6788,"iber":6789,"ioc":6790,"ibou":6791,"iffy":6792,"joba":6793,"kernel":6794,"kuyper":6795,"kkoman":6796,"lon":6797,"lers":6798,"leseed":6799,"lph":6800,"med":6801,"mmer":6802,"mag":6803,"mbran":6804,"ning":6805,"nish":6806,"oks":6807,"pro":6808,"peno":6809,"paw":6810,"sly":6811,"solut":6812,"ten":6813,"tus":6814,"tally":6815,"uino":6816,"urel":6817,"vi":6818,"vage":6819,"wer":6820,"yal":6821,"yli":6822,"yrna":6823,"zer":6824,"zan":6825,"zeller":6826,"Ġ*":6827,"Ġat":6828,"Ġus":6829,"Ġum":6830,"Ġaf":6831,"Ġuse":6832,"Ħ¢":6833,"Ġcla":6834,"Ġcress":6835,"Ġslen":6836,"Ġside":6837,"Ġsnickers":6838,"Ġschw":6839,"Ġsmart":6840,"Ġsyrian":6841,"eral":6842,"erly":6843,"Ġbel":6844,"Ġbom":6845,"Ġbus":6846,"Ġbod":6847,"Ġbals":6848,"Ġbened":6849,"onut":6850,"onji":6851,"Ġpil":6852,"Ġpres":6853,"Ġplat":6854,"Ġplu":6855,"Ġpaw":6856,"Ġpama":6857,"Ġpero":6858,"Ġpillsbury":6859,"esy":6860,"eses":6861,"esli":6862,"alay":6863,"allow":6864,"alks":6865,"alamata":6866,"alitos":6867,"icago":6868,"ictine":6869,"Ġchamp":6870,"Ġchitter":6871,"ret":6872,"refri":6873,"ango":6874,"anium":6875,"roc":6876,"roasted":6877,"Ġomit":6878,"Ġopen":6879,"Ġouter":6880,"Ġmay":6881,"Ġmason":6882,"Ġmyr":6883,"Ġmills":6884,"Ġmirepoix":6885,"lection":6886,"Ġgun":6887,"Ġgrid":6888,"Ġgeor":6889,"Ġfam":6890,"Ġfino":6891,"Ġferm":6892,"Ġfren":6893,"Ġfleshed":6894,"Ġfaloo":6895,"Ġpeap":6896,"Ġpequ":6897,"Ġwet":6898,"Ġwav":6899,"Ġworth":6900,"Ġwatt":6901,"Ġwylers":6902,"enzeller":6903,"amook":6904,"Ġsucan":6905,"lada":6906,"urant":6907,"ionberries":6908,"los":6909,"loose":6910,"loph":6911,"lotti":6912,"Ġchef":6913,"Ġvegg":6914,"Ġbuttersh":6915,"Ġbutterhead":6916,"lie":6917,"ligator":6918,"Ġtill":6919,"Ġtass":6920,"Ġtaster":6921,"Ġpoly":6922,"undry":6923,"Ġgrounds":6924,"uces":6925,"Ġcoins":6926,"Ġcobb":6927,"Ġcould":6928,"elini":6929,"Ġsoul":6930,"ome":6931,"omic":6932,"omps":6933,"omot":6934,"Ġcreation":6935,"iti":6936,"ickening":6937,"Ġjon":6938,"Ġjim":6939,"Ġjale":6940,"Ġjoy":6941,"Ġjeera":6942,"raisins":6943,"reds":6944,"Ġjuiced":6945,"Ġhand":6946,"Ġhanger":6947,"Ġhellman":6948,"rizon":6949,"Ġredi":6950,"isan":6951,"isoba":6952,"adise":6953,"Ġblackened":6954,"ummer":6955,"cher":6956,"chicken":6957,"Ġmush":6958,"Ġparm":6959,"Ġpart":6960,"Ġparkay":6961,"Ġparadise":6962,"astry":6963,"Ġruff":6964,"Ġnesqu":6965,"Ġnestles":6966,"Ġnabisco":6967,"Ġnaturals":6968,"Ġnorwegian":6969,"ays":6970,"inny":6971,"Ġlids":6972,"Ġlibby":6973,"Ġdur":6974,"Ġdec":6975,"Ġdrop":6976,"Ġchoi":6977,"Ġchopper":6978,"Ġcholesterol":6979,"Ġshamp":6980,"eylon":6981,"Ġyu":6982,"Ġyak":6983,"cond":6984,"condensed":6985,"shly":6986,"Ġstrength":6987,"vest":6988,"efri":6989,"eful":6990,"Ġko":6991,"Ġkreme":6992,"Ġkurant":6993,"Ġalligator":6994,"Ġcarom":6995,"Ġcarav":6996,"Ġcaribou":6997,"Ġchilie":6998,"Ġrob":6999,"Ġrosa":7000,"Ġcelloph":7001,"nac":7002,"tha":7003,"thy":7004,"thin":7005,"thing":7006,"Ġmarnier":7007,"Ġmarcona":7008,"Ġmartini":7009,"Ġmarbled":7010,"Ġmarionberries":7011,"Ġpastries":7012,"ĠSli":7013,"ĠSze":7014,"ĠSLA":7015,"ĠSwed":7016,"ĠScallions":7017,"ĠSummer":7018,"anta":7019,"kaid":7020,"ĠCatsup":7021,"ĠCakes":7022,"ĠClassic":7023,"ĠCerto":7024,"ĠCUSTARD":7025,"ĠCraisins":7026,"avit":7027,"orted":7028,"trachet":7029,"Ġexcel":7030,"Ġextras":7031,"nee":7032,"ĠWas":7033,"ĠWra":7034,"ĠWHI":7035,"ĠWatchers":7036,"Ġyou":7037,"Ġyoplait":7038,"Ġzinger":7039,"Ġzero":7040,"Ġmore":7041,"Ġmock":7042,"Ġmojo":7043,"Ġalmondmilk":7044,"Ġcone":7045,"Ġmixer":7046,"ĠIce":7047,"eath":7048,"ods":7049,"Ġunscented":7050,"Ġoatnut":7051,"Ġpig":7052,"Ġpippin":7053,"ĠBI":7054,"ĠBlan":7055,"ĠBermuda":7056,"Ġhotter":7057,"ttish":7058,"kscrew":7059,"eeks":7060,"ĠChex":7061,"ĠCherry":7062,"ĠChia":7063,"ĠChicago":7064,"ĠPi":7065,"ĠPlanta":7066,"ĠPEC":7067,"Ġbalsamico":7068,"Ġrosewater":7069,"Ġrosebud":7070,"saur":7071,"ashire":7072,"pear":7073,"ĠTbl":7074,"ĠTru":7075,"Ġlink":7076,"Ġlanc":7077,"Ġzested":7078,"Ġpiecrust":7079,"ĠMalt":7080,"ĠMeal":7081,"ĠMashed":7082,"ĠMorningstar":7083,"mium":7084,"Ġscal":7085,"Ġscape":7086,"ented":7087,"Ġiceburg":7088,"stock":7089,"Ġtopp":7090,"Ġtoblerone":7091,"Ġtogarashi":7092,"Ġpuerto":7093,"sweetened":7094,"ĠFol":7095,"ĠFajita":7096,"ĠFRU":7097,"Ġsquirt":7098,"ĠDates":7099,"ĠDRI":7100,"ĠKey":7101,"ĠKalamata":7102,"Ġboule":7103,"lent":7104,"Ġpickerel":7105,"ĠGood":7106,"ĠGAR":7107,"ĠGRA":7108,"ewer":7109,"Ġkidneys":7110,"Ġcanhot":7111,"Ġcanher":7112,"ĠOld":7113,"Ġitem":7114,"ĠRanch":7115,"bstitution":7116,"ĠAng":7117,"Ġmeaty":7118,"Ġgrating":7119,"Ġanejo":7120,"Ġcapico":7121,"Ġquark":7122,"ctrum":7123,"Ġcooker":7124,"Ġriver":7125,"Ġcrabapples":7126,"Ġcoarsly":7127,"lands":7128,"Ġsquashes":7129,"Ġdevil":7130,"Ġdekuyper":7131,"Ġarmag":7132,"ĠEn":7133,"Ġremaining":7134,"Ġreeses":7135,"Ġfluffy":7136,"Ġaccent":7137,"Ġaccompaniment":7138,"Ġaceto":7139,"ĠCouscous":7140,"ĠCouple":7141,"ĠColada":7142,"ĠToffee":7143,"Ġpacks":7144,"Ġtartaric":7145,"ichips":7146,"ambalay":7147,"Ġhorizon":7148,"Ġkalonji":7149,"Ġchipits":7150,"Ġchipol":7151,"Ġcases":7152,"Ġcasings":7153,"Ġlab":7154,"Ġlake":7155,"Ġlachoy":7156,"Ġlaurel":7157,"Ġlaundry":7158,"Ġunripe":7159,"Ġunflavoured":7160,"Ġgras":7161,"Ġgrinder":7162,"Ġportuguese":7163,"Ġpoppyseed":7164,"Ġfoods":7165,"iradelli":7166,"choor":7167,"ĠEgyptian":7168,"Ġskinny":7169,"ĠLon":7170,"ĠLSA":7171,"ĠLiner":7172,"ĠLIME":7173,"ĠLUCK":7174,"ĠLeeks":7175,"Ġordinary":7176,"diment":7177,"ĠDippers":7178,"Ġlogs":7179,"Ġlolli":7180,"Ġlotus":7181,"Ġlovage":7182,"atures":7183,"aturated":7184,"Ġtrident":7185,"Ġgerman":7186,"Ġpanini":7187,"Ġpanela":7188,"Ġpref":7189,"Ġpearls":7190,"ĠNilla":7191,"ĠNaturals":7192,"ĠNorwegian":7193,"ĠJif":7194,"tol":7195,"touts":7196,"ĠChopped":7197,"ĠEggp":7198,"ipan":7199,"ĠPepperoni":7200,"Ġartisan":7201,"Ġaeros":7202,"Ġghiradelli":7203,"Ġcrumbly":7204,"Ġfold":7205,"redient":7206,"Ġeight":7207,"Ġpacketdry":7208,"ĠGaram":7209,"Ġwasa":7210,"Ġnewmans":7211,"iglie":7212,"Ġmature":7213,"ĠLemons":7214,"Ġwontons":7215,"erial":7216,"Ġglutinous":7217,"Ġrigati":7218,"imyrna":7219,"Ġcrock":7220,"ĠTOFFEE":7221,"ĠTOGET":7222,"maid":7223,"Ġspare":7224,"Ġprud":7225,"Ġmineral":7226,"Ġminichips":7227,"Ġcatalina":7228,"Ġsnappers":7229,"Ġdesired":7230,"ĠActive":7231,"ĠChianti":7232,"Ġcansh":7233,"Ġcanscampbell":7234,"deen":7235,"grilled":7236,"Ġbackstra":7237,"Ġleftovers":7238,"ĠShiraz":7239,"Ġmembran":7240,"ĠBlackberries":7241,"Ġharvest":7242,"Ġsoften":7243,"ELL":7244,"Ġstrings":7245,"ĠAllspice":7246,"Ġxyli":7247,"Ġamchoor":7248,"Ġpinhead":7249,"Ġlinseed":7250,"ĠThickening":7251,"Ġcalamata":7252,"Ġadolph":7253,"Ġswanson":7254,"Ġsegment":7255,"Ġfare":7256,"ĠSazon":7257,"ĠAppenzeller":7258,"ĠGrenadine":7259,"ĠGreens":7260,"Ġpackagebetty":7261,"Ġpackageloose":7262,"ĠStock":7263,"Ġjerky":7264,"Ġpattie":7265,"onso":7266,"Ġassam":7267,"Ġnear":7268,"Ġnecks":7269,"sely":7270,"Ġbrut":7271,"Ġbrittle":7272,"Ġbruino":7273,"ĠUNCLE":7274,"Ġmontrachet":7275,"affle":7276,"odized":7277,"Ġtwine":7278,"Ġroughly":7279,"Ġpuffs":7280,"ĠTortellini":7281,"Ġearth":7282,"Ġforbidden":7283,"Ġcombine":7284,"Ġditali":7285,"mango":7286,"ĠCanning":7287,"ĠManzanilla":7288,"INAL":7289,"ĠCAJU":7290,"LEND":7291,"ERS":7292,"Ġbottlezesty":7293,"ĠCOFFEE":7294,"ĠPecan":7295,"Ġcancut":7296,"Ġcancream":7297,"Ġfreeze":7298,"Ġcorkscrew":7299,"Ġorechiette":7300,"Ġszechwan":7301,"Ġbudding":7302,"Ġbushes":7303,"Ġalphonso":7304,"jool":7305,"ĠSTOVE":7306,"ĠCalab":7307,"ĠBACON":7308,"IONS":7309,"nson":7310,"Ġcultured":7311,"Ġswedes":7312,"Ġgalanga":7313,"Ġbottomed":7314,"AMEL":7315,"landia":7316,"Ġcassia":7317,"ĠCaper":7318,"ĠLACTA":7319,"Ġbergam":7320,"Ġbengal":7321,"Ġoxo":7322,"ĠCRUST":7323,"ĠHoliday":7324,"creamy":7325,"Ġpaese":7326,"Ġfinlandia":7327,"Ġtrader":7328,"Ġabsolut":7329,"Ġmizuna":7330,"Ġnips":7331,"Ġnibs":7332,"Ġkefal":7333,"ĠCHIPS":7334,"companiments":7335,"ĠAncho":7336,"Ġanything":7337,"Ġknox":7338,"ĠCucumbers":7339,"Ġcanmild":7340,"Ġcanmixed":7341,"aza":7342,"Ġborlotti":7343,"Ġbisquik":7344,"Ġplanks":7345,"Ġcheeks":7346,"ĠSkor":7347,"ĠSteam":7348,"ĠHershey":7349,"Ġpackagejell":7350,"Ġgizzard":7351,"Ġsouthwestern":7352,"Ġislands":7353,"Ġmuir":7354,"Ġmuesli":7355,"Ġcheesy":7356,"Ġbrewers":7357,"Ġheather":7358,"ĠKernels":7359,"ĠAmaretto":7360,"Ġimported":7361,"Ġimperial":7362,"Ġblender":7363,"Ġpkges":7364,"Ġpkgs":7365,"Ġmethi":7366,"Ġhokkaid":7367,"Ġmuscat":7368,"Ġmuscles":7369,"Ġselect":7370,"Ġkept":7371,"Ġkona":7372,"Ġmarzipan":7373,"ĠSPICE":7374,"ĠCrusts":7375,"Ġconchiglie":7376,"ĠIndian":7377,"Ġnopalitos":7378,"...":7379,"Ġscottish":7380,"Ġhusk":7381,"Ġhusks":7382,"ĠSpecial":7383,"ĠSpectrum":7384,"Ġdolce":7385,"ĠLEAF":7386,"ĠLEMON":7387,"ĠDecoration":7388,"ĠDecorations":7389,"Ġfollows":7390,"Ġvalencia":7391,"Ġjohn":7392,"Ġronzoni":7393,"Ġdinosaur":7394,"Ġalternative":7395,"ĠBROWNIES":7396,"Ġsquirrels":7397,"ĠGranular":7398,"Ġripened":7399,"Ġcarambolas":7400,"Ġlouisiana":7401,"ĠNeufchatel":7402,"Ġcruzan":7403,"ĠShallot":7404,"Ġmeasures":7405,"Ġcalabaza":7406,"Ġcampanelle":7407,"ĠâĦ¢":7408,"Ġcircles":7409,"Ġgeranium":7410,"Ġgeneric":7411,"ingues":7412,"Ġbutterfly":7413,"Ġtubes":7414,"Ġcomplete":7415,"Ġsauterne":7416,"Ġjojoba":7417,"Ġkrispy":7418,"ĠSUGAR":7419,"ĠSunflower":7420,"ĠSOUR":7421,"ĠCARAMEL":7422,"Ġconfectionary":7423,"Ġcontinental":7424,"ĠBEN":7425,"ĠChipits":7426,"ĠPortuguese":7427,"ĠKielbasa":7428,"Ġgelatine":7429,"Ġcrudites":7430,"Ġcrosswise":7431,"Ġtostados":7432,"ĠCOOKIE":7433,"Ġreposado":7434,"ZZLE":7435,"cranberry":7436,"mmering":7437,"Ġafter":7438,"Ġslender":7439,"Ġbusch":7440,"Ġbody":7441,"Ġbalsomic":7442,"Ġbenedictine":7443,"Ġpluots":7444,"Ġpawpaw":7445,"Ġchampignon":7446,"Ġchitterlings":7447,"Ġmyrtle":7448,"Ġgunpowder":7449,"Ġgriddle":7450,"Ġfamily":7451,"Ġfrenched":7452,"Ġfalooda":7453,"Ġpeapods":7454,"Ġwaverly":7455,"Ġwattleseed":7456,"Ġsucanat":7457,"Ġveggies":7458,"Ġbuttershots":7459,"Ġtillamook":7460,"Ġtasso":7461,"ompson":7462,"omoto":7463,"Ġcreations":7464,"Ġjalepeno":7465,"Ġnesquik":7466,"Ġshampoo":7467,"Ġyakisoba":7468,"Ġcaravella":7469,"Ġcellophane":7470,"ĠSLAW":7471,"ĠSwedish":7472,"Ġexcellent":7473,"ĠPlantains":7474,"ĠPECAN":7475,"ĠTruvia":7476,"Ġlancashire":7477,"ĠFRUIT":7478,"ĠDRIZZLE":7479,"ĠGARLIC":7480,"ĠGRAVY":7481,"Ġitems":7482,"Ġcapicola":7483,"Ġarmagnac":7484,"ambalaya":7485,"Ġhorizontally":7486,"Ġchipolte":7487,"ĠLUCKY":7488,"Ġlollipo":7489,"Ġaerosol":7490,"ĠTOGETHER":7491,"Ġprudh":7492,"Ġbackstraps":7493,"Ġmembranes":7494,"Ġxylitol":7495,"Ġlinseeds":7496,"Ġadolphs":7497,"Ġbruinoise":7498,"ĠCAJUN":7499,"ĠLACTAID":7500,"Ġbergamot":7501,"Ġhokkaido":7502,"AD":7503,"ASH":7504,"BS":7505,"Bone":7506,"CU":7507,"Cilantro":7508,"Campbell":7509,"Di":7510,"DLE":7511,"EA":7512,"ESEL":7513,"GINAL":7514,"HUB":7515,"IPPING":7516,"ICH":7517,"ISH":7518,"Kuyper":7519,"LS":7520,"MAN":7521,"NS":7522,"OES":7523,"ODLE":7524,"PA":7525,"PON":7526,"PUFF":7527,"RIN":7528,"RGE":7529,"St":7530,"SCU":7531,"TH":7532,"TM":7533,"Tar":7534,"WO":7535,"WICH":7536,"acon":7537,"aint":7538,"aola":7539,"br":7540,"black":7541,"bab":7542,"bian":7543,"cat":7544,"cato":7545,"crumbs":7546,"cala":7547,"cillo":7548,"celli":7549,"cicle":7550,"classic":7551,"dol":7552,"epp":7553,"eater":7554,"emp":7555,"eesy":7556,"fi":7557,"fl":7558,"fetti":7559,"gia":7560,"hy":7561,"hul":7562,"half":7563,"ime":7564,"iff":7565,"imal":7566,"iver":7567,"jion":7568,"jus":7569,"jub":7570,"jola":7571,"kel":7572,"ked":7573,"kew":7574,"lm":7575,"lin":7576,"lle":7577,"lun":7578,"line":7579,"lano":7580,"llen":7581,"lina":7582,"lutes":7583,"min":7584,"mix":7585,"mok":7586,"mass":7587,"mol":7588,"mani":7589,"mstock":7590,"nt":7591,"ner":7592,"nam":7593,"nsh":7594,"nets":7595,"natural":7596,"ox":7597,"oli":7598,"oor":7599,"oley":7600,"old":7601,"ople":7602,"oft":7603,"oulade":7604,"pine":7605,"ped":7606,"pick":7607,"pefruit":7608,"pol":7609,"piri":7610,"pensive":7611,"pastry":7612,"pfl":7613,"ril":7614,"rice":7615,"rit":7616,"ralian":7617,"rico":7618,"rud":7619,"su":7620,"sing":7621,"stershire":7622,"skets":7623,"smok":7624,"tro":7625,"ting":7626,"tas":7627,"tri":7628,"tant":7629,"table":7630,"uge":7631,"ubs":7632,"ureg":7633,"ught":7634,"uoc":7635,"ugel":7636,"ukka":7637,"val":7638,"van":7639,"vel":7640,"vans":7641,"vious":7642,"viso":7643,"vada":7644,"vril":7645,"we":7646,"wal":7647,"wans":7648,"wens":7649,"ways":7650,"xa":7651,"xide":7652,"xpensive":7653,"yri":7654,"yellow":7655,"yers":7656,"ymol":7657,"zano":7658,"zian":7659,"Ġ/":7660,"Ġ\\":7661,"Ġine":7662,"Ġery":7663,"Ġeat":7664,"Ġah":7665,"Ġante":7666,"Ġide":7667,"Ġeth":7668,"Ġ...":7669,"ĢĻ":7670,"Ġcer":7671,"Ġcres":7672,"Ġcay":7673,"Ġcano":7674,"Ġcame":7675,"Ġcent":7676,"Ġcamb":7677,"Ġcrisco":7678,"Ġcamomile":7679,"Ġcalorie":7680,"Ġceylon":7681,"Ġsans":7682,"Ġsara":7683,"Ġsrira":7684,"Ġsang":7685,"Ġsides":7686,"erg":7687,"ered":7688,"erage":7689,"erella":7690,"erent":7691,"erni":7692,"erph":7693,"ermont":7694,"erdeen":7695,"are":7696,"arilla":7697,"arrow":7698,"arnation":7699,"Ġbla":7700,"Ġbres":7701,"Ġbrian":7702,"Ġbamb":7703,"Ġbleached":7704,"Ġbetw":7705,"Ġbiber":7706,"ont":7707,"onuts":7708,"Ġple":7709,"Ġpab":7710,"Ġpinn":7711,"Ġpans":7712,"Ġpak":7713,"Ġpame":7714,"Ġpcs":7715,"Ġpanang":7716,"ests":7717,"esav":7718,"esers":7719,"inag":7720,"inbow":7721,"inomoto":7722,"ili":7723,"ilian":7724,"alas":7725,"alag":7726,"aluminum":7727,"alifornia":7728,"alwood":7729,"icor":7730,"icilian":7731,"Ġchlo":7732,"Ġchav":7733,"Ġchesh":7734,"Ġchrist":7735,"rette":7736,"reho":7737,"ann":7738,"role":7739,"rover":7740,"Ġout":7741,"Ġovol":7742,"Ġoption":7743,"Ġoptions":7744,"Ġomani":7745,"Ġowens":7746,"atara":7747,"atte":7748,"atkins":7749,"atureg":7750,"Ġmam":7751,"Ġmake":7752,"Ġmash":7753,"Ġmeta":7754,"Ġmah":7755,"Ġmign":7756,"Ġmesc":7757,"Ġmorningstar":7758,"Ġmalag":7759,"Ġsals":7760,"ppress":7761,"ppie":7762,"pphire":7763,"lee":7764,"lenuts":7765,"Ġgy":7766,"Ġfur":7767,"Ġfun":7768,"Ġfice":7769,"Ġfed":7770,"Ġfles":7771,"Ġfeet":7772,"Ġfort":7773,"Ġfels":7774,"Ġfarm":7775,"Ġfron":7776,"Ġfumi":7777,"Ġflutes":7778,"uted":7779,"Ġpeter":7780,"Ġpeople":7781,"Ġwant":7782,"Ġwest":7783,"Ġwavy":7784,"Ġwid":7785,"Ġwatch":7786,"Ġwesson":7787,"Ġwatkins":7788,"Ġsaltpe":7789,"ene":7790,"eng":7791,"ames":7792,"amor":7793,"laco":7794,"lacan":7795,"urre":7796,"ington":7797,"loc":7798,"lope":7799,"louisian":7800,"Ġchex":7801,"Ġve":7802,"Ġvidal":7803,"Ġvary":7804,"Ġbutterfish":7805,"Ġbuttercup":7806,"unts":7807,"unior":7808,"lia":7809,"lied":7810,"lised":7811,"like":7812,"Ġtl":7813,"Ġtor":7814,"Ġtins":7815,"Ġtsp":7816,"Ġtoni":7817,"Ġtent":7818,"Ġtrian":7819,"Ġtabo":7820,"Ġtyson":7821,"Ġtones":7822,"Ġtrico":7823,"Ġtubs":7824,"esel":7825,"Ġpos":7826,"Ġpois":7827,"Ġpolish":7828,"Ġpollen":7829,"askan":7830,"Ġgarnish":7831,"Ġcomp":7832,"Ġcoated":7833,"Ġcoca":7834,"eld":7835,"elba":7836,"edium":7837,"Ġsome":7838,"Ġsouff":7839,"Ġsodi":7840,"Ġsoaked":7841,"Ġsouch":7842,"Ġsoppress":7843,"Ġcrepe":7844,"Ġleg":7845,"Ġleva":7846,"Ġsapphire":7847,"ituted":7848,"ickpeas":7849,"Ġjamon":7850,"Ġjarb":7851,"Ġjarm":7852,"Ġjiffy":7853,"Ġjambalaya":7854,"rage":7855,"raiche":7856,"razon":7857,"uss":7858,"usto":7859,"usous":7860,"Ġjujub":7861,"Ġhod":7862,"Ġhass":7863,"Ġhungarian":7864,"Ġhellmanns":7865,"Ġhersey":7866,"Ġhoods":7867,"rib":7868,"risket":7869,"coal":7870,"Ġreduce":7871,"Ġbeam":7872,"Ġbelow":7873,"Ġbecel":7874,"Ġbelacan":7875,"Ġbeurre":7876,"isberg":7877,"umbian":7878,"chid":7879,"cherry":7880,"chmer":7881,"chile":7882,"chuch":7883,"Ġbream":7884,"aste":7885,"astelvet":7886,"aba":7887,"absa":7888,"abega":7889,"aberg":7890,"orden":7891,"orsels":7892,"ormel":7893,"Ġroni":7894,"Ġrican":7895,"Ġratt":7896,"Ġnan":7897,"Ġnam":7898,"Ġnilla":7899,"Ġnap":7900,"Ġnano":7901,"Ġnest":7902,"Ġnelli":7903,"Ġnegro":7904,"Ġnatures":7905,"Ġnuoc":7906,"Ġnests":7907,"ayan":7908,"inni":7909,"innish":7910,"inness":7911,"Ġligh":7912,"Ġliemp":7913,"Ġday":7914,"Ġdul":7915,"Ġdales":7916,"Ġduncan":7917,"Ġdhan":7918,"Ġdukka":7919,"Ġdonuts":7920,"Ġcholu":7921,"Ġchocho":7922,"Ġchoke":7923,"Ġsepar":7924,"Ġsha":7925,"Ġshitake":7926,"aper":7927,"apoli":7928,"late":7929,"Ġyacon":7930,"const":7931,"shake":7932,"shredded":7933,"shoe":7934,"Ġstur":7935,"Ġstate":7936,"Ġstreusel":7937,"Ġkn":7938,"Ġkit":7939,"Ġkee":7940,"Ġkite":7941,"Ġkern":7942,"Ġkrispies":7943,"Ġkitch":7944,"Ġkaff":7945,"Ġkrets":7946,"Ġknack":7947,"Ġkulf":7948,"Ġkabsa":7949,"Ġaloh":7950,"Ġalaskan":7951,"lesna":7952,"loween":7953,"Ġcarb":7954,"Ġcard":7955,"Ġcareful":7956,"ellane":7957,"Ġchipped":7958,"psang":7959,"Ġrope":7960,"Ġroaster":7961,"Ġspent":7962,"Ġspiny":7963,"thrit":7964,"Ġmaria":7965,"Ġmarket":7966,"Ġmarkets":7967,"Ġtomatos":7968,"Ġbased":7969,"Ġbaskets":7970,"Ġbrothers":7971,"Ġhoneycom":7972,"otta":7973,"otyri":7974,"Ġpastel":7975,"ĠSH":7976,"ĠSW":7977,"ĠSan":7978,"ĠSund":7979,"ĠSav":7980,"ĠStarch":7981,"ĠShed":7982,"ĠSTE":7983,"ĠSER":7984,"ĠSyrian":7985,"ĠSnack":7986,"ĠSanta":7987,"ĠSwans":7988,"kaval":7989,"regon":7990,"regular":7991,"ĠCut":7992,"ĠCup":7993,"ĠCub":7994,"ĠCrisp":7995,"ĠClub":7996,"ĠCott":7997,"ĠCryst":7998,"ĠCuis":7999,"ĠCastelvet":8000,"avarti":8001,"iral":8002,"quat":8003,"quick":8004,"quavit":8005,"ortega":8006,"Ġthe":8007,"Ġthem":8008,"Ġthompson":8009,"Ġthymol":8010,"ĠWet":8011,"ĠWET":8012,"ĠWaffle":8013,"ĠWASH":8014,"Ġseedles":8015,"Ġzip":8016,"Ġzatar":8017,"Ġzinc":8018,"Ġnutty":8019,"acher":8020,"irecrack":8021,"Ġfrogs":8022,"Ġmound":8023,"Ġmochi":8024,"Ġmount":8025,"Ġmozer":8026,"Ġpinecones":8027,"unsaturated":8028,"ixie":8029,"instant":8030,"Ġappleton":8031,"Ġapplejack":8032,"Ġoften":8033,"Ġconserve":8034,"Ġcondiment":8035,"ĠIna":8036,"ĠIPA":8037,"iniature":8038,"Ġgrains":8039,"Ġcraisin":8040,"Ġcraked":8041,"Ġcrappie":8042,"akh":8043,"Ġyellowtail":8044,"Ġrainbow":8045,"zzerella":8046,"Ġwholegrain":8047,"dens":8048,"Ġpiri":8049,"Ġpike":8050,"ffron":8051,"fferent":8052,"oshi":8053,"estone":8054,"Ġwhips":8055,"ĠBR":8056,"ĠBuns":8057,"ĠBrus":8058,"ĠBag":8059,"ĠBerries":8060,"ĠBetty":8061,"ĠBinder":8062,"ĠBitter":8063,"ĠBeets":8064,"ĠBARB":8065,"ĠBELL":8066,"ĠBrisket":8067,"ĠBorden":8068,"Ġbow":8069,"Ġbovril":8070,"ids":8071,"Ġturns":8072,"Ġcracklings":8073,"Ġwheatberries":8074,"Ġcipol":8075,"eeze":8076,"acu":8077,"acles":8078,"acai":8079,"action":8080,"acardi":8081,"acinato":8082,"ĠChee":8083,"ĠChim":8084,"ĠCharms":8085,"ĠCheer":8086,"ĠCheesy":8087,"ĠChickpeas":8088,"ĠPO":8089,"ĠPlan":8090,"ĠPreser":8091,"ĠPistachio":8092,"ĠPrawns":8093,"ĠPina":8094,"ĠPIE":8095,"ĠPlace":8096,"ĠPOU":8097,"ĠPanang":8098,"Ġcuring":8099,"Ġcuraco":8100,"Ġshortgrain":8101,"peach":8102,"ĠTah":8103,"ĠTWO":8104,"Ġlg":8105,"Ġlam":8106,"Ġline":8107,"Ġlind":8108,"Ġlango":8109,"spaper":8110,"ĠMs":8111,"ĠMid":8112,"ĠMiss":8113,"ĠMark":8114,"ĠMich":8115,"ĠMos":8116,"ĠMER":8117,"ĠMayo":8118,"ĠMelba":8119,"ĠMorsels":8120,"ĠMiniature":8121,"Ġcrush":8122,"Ġscant":8123,"Ġscamor":8124,"ente":8125,"entation":8126,"Ġaverage":8127,"Ġgranul":8128,"Ġgochuch":8129,"stco":8130,"stino":8131,"stess":8132,"Ġtown":8133,"Ġtoor":8134,"Ġtoppers":8135,"Ġtoll":8136,"Ġtobi":8137,"Ġlettuces":8138,"ĠFlu":8139,"ĠFlower":8140,"ĠFoods":8141,"ĠFraiche":8142,"ĠFinnish":8143,"ĠFirecrack":8144,"Ġjalape":8145,"taco":8146,"Ġmanila":8147,"Ġmanioc":8148,"Ġmandol":8149,"Ġroman":8150,"uitlaco":8151,"Ġsqueeze":8152,"Ġcave":8153,"Ġcaerph":8154,"ssum":8155,"ĠDirections":8156,"ĠDonut":8157,"ĠDIPPING":8158,"ĠDRIN":8159,"Ġdryed":8160,"Ġboilng":8161,"ĠKidney":8162,"ĠKof":8163,"ĠKentucky":8164,"ĠSpam":8165,"ĠSpring":8166,"ĠSprouts":8167,"ĠSpicy":8168,"ĠVeget":8169,"ĠVern":8170,"ĠVERS":8171,"ĠVermont":8172,"ĠVinag":8173,"Ġromain":8174,"voo":8175,"ĠGu":8176,"Ġcanv":8177,"Ġcanellini":8178,"Ġcanlight":8179,"Ġcanitalian":8180,"Ġcanyour":8181,"Ġcanrefri":8182,"Ġcancondensed":8183,"Ġshellfish":8184,"ĠORI":8185,"ĠOption":8186,"ĠOptions":8187,"Ġital":8188,"ĠRies":8189,"ĠReese":8190,"ĠRob":8191,"ĠRem":8192,"ĠRefri":8193,"ĠRHUB":8194,"ĠRiver":8195,"ĠAioli":8196,"ĠAmour":8197,"boli":8198,"ulis":8199,"Ġbranston":8200,"uffer":8201,"Ġcape":8202,"Ġqueen":8203,"Ġhalva":8204,"elsen":8205,"Ġplaice":8206,"Ġcoarsely":8207,"Ġfruitcake":8208,"Ġcotto":8209,"Ġbites":8210,"Ġtear":8211,"Ġteabag":8212,"lane":8213,"Ġweigh":8214,"afel":8215,"Ġdelic":8216,"Ġarthur":8217,"Ġarmour":8218,"Ġsundried":8219,"ĠEastern":8220,"ĠElm":8221,"ĠEvans":8222,"vering":8223,"Ġren":8224,"Ġrell":8225,"Ġrefined":8226,"Ġrenee":8227,"Ġreconst":8228,"gson":8229,"Ġelmstock":8230,"ĠCob":8231,"ĠCoriander":8232,"ĠColeslaw":8233,"ĠCould":8234,"ĠColored":8235,"ĠCoors":8236,"ĠCorazon":8237,"ĠCousous":8238,"ĠCostco":8239,"ĠCoulis":8240,"ĠToblerone":8241,"Ġsmokies":8242,"Ġhoreho":8243,"kraft":8244,"Ġkikkoman":8245,"Ġkipfl":8246,"Ġaspar":8247,"Ġkala":8248,"Ġkalam":8249,"grapefruit":8250,"ample":8251,"ĠSugared":8252,"ĠButtercream":8253,"Ġmaster":8254,"Ġmassala":8255,"Ġmasoor":8256,"Ġcask":8257,"Ġcasaba":8258,"Ġjacket":8259,"Ġlapsang":8260,"Ġunpared":8261,"Ġunwax":8262,"Ġgrilling":8263,"ĠMarion":8264,"ĠMartini":8265,"Ġdoves":8266,"Ġdooley":8267,"Ġbarcardi":8268,"lantic":8269,"Ġbistro":8270,"Ġenv":8271,"Ġenjo":8272,"Ġenhan":8273,"chopped":8274,"nip":8275,"night":8276,"Ġbutcher":8277,"ĠLent":8278,"ĠLif":8279,"ĠLucky":8280,"ĠLittle":8281,"ĠLicor":8282,"ĠLids":8283,"ĠLacinato":8284,"Ġbright":8285,"Ġbriskets":8286,"Ġorchid":8287,"ĠHG":8288,"ĠHass":8289,"ĠHatch":8290,"ĠHavarti":8291,"iya":8292,"Ġshochu":8293,"Ġshould":8294,"boneless":8295,"ĠWho":8296,"ĠWhiz":8297,"Ġcollection":8298,"Ġcolumbian":8299,"Ġserve":8300,"alopes":8301,"alouette":8302,"ĠDietz":8303,"Ġloins":8304,"Ġlotion":8305,"Ġcrisped":8306,"Ġcrispbread":8307,"Ġboned":8308,"Ġtrim":8309,"Ġtris":8310,"Ġjellyfish":8311,"Ġrusks":8312,"Ġrustic":8313,"Ġclump":8314,"Ġtape":8315,"Ġprevious":8316,"Ġsnowshoe":8317,"Ġfield":8318,"Ġslim":8319,"Ġslider":8320,"Ġhashbro":8321,"Ġiodized":8322,"Ġpomegrante":8323,"ĠNUT":8324,"ĠNetw":8325,"ĠNatureg":8326,"Ġsemisoft":8327,"ĠJerry":8328,"ĠJET":8329,"ĠJoy":8330,"ĠJunior":8331,"amarina":8332,"Ġbland":8333,"ĠSecond":8334,"Ġwildf":8335,"Ġpancit":8336,"tolli":8337,"ĠChops":8338,"Ġsumakh":8339,"ĠSeasons":8340,"Ġplump":8341,"READ":8342,"ĠPoultry":8343,"ĠPolish":8344,"ĠPower":8345,"Ġpopcicle":8346,"Ġair":8347,"Ġaji":8348,"Ġaust":8349,"Ġazuki":8350,"Ġaquavit":8351,"kees":8352,"Ġcrumble":8353,"Ġsimmering":8354,"Ġcontainters":8355,"Ġguinness":8356,"Ġsmoothie":8357,"Ġstemmed":8358,"Ġeach":8359,"Ġeurope":8360,"Ġeastern":8361,"Ġevoo":8362,"Ġshiro":8363,"Ġfettuc":8364,"olini":8365,"ĠLeave":8366,"ĠAlpha":8367,"Ġnewspaper":8368,"igan":8369,"Ġmatured":8370,"ĠMarinate":8371,"ĠLemonade":8372,"Ġwonder":8373,"Ġlavash":8374,"ĠPotato":8375,"tana":8376,"Ġcrowder":8377,"Ġcrowns":8378,"Ġsulph":8379,"ĠIngredient":8380,"Ġlumpfish":8381,"Ġverjus":8382,"Ġcodfish":8383,"Ġmelons":8384,"Ġcattle":8385,"Ġcatnip":8386,"Ġsnake":8387,"Ġsnails":8388,"Ġvegeta":8389,"uga":8390,"Ġconsist":8391,"Ġsorry":8392,"ĠAccompaniments":8393,"Ġstarchy":8394,"Ġcanst":8395,"Ġcansco":8396,"Ġcanscut":8397,"Ġcanslight":8398,"Ġcansortega":8399,"ĠGoat":8400,"Ġbagfresh":8401,"Ġbagshredded":8402,"Ġcanela":8403,"Ġcollins":8404,"Ġstouffer":8405,"ĠGrapes":8406,"grind":8407,"Ġcollards":8408,"Ġspeck":8409,"ĠDeKuyper":8410,"Ġclamato":8411,"ĠShallow":8412,"ĠShreds":8413,"ĠBlackberry":8414,"Ġhardy":8415,"Ġhandfuls":8416,"Ġquarter":8417,"Ġcandles":8418,"Ġcandlenuts":8419,"Ġvegtable":8420,"ĠAsiago":8421,"ĠChilli":8422,"ĠSAND":8423,"ĠSARGE":8424,"Ġdiscs":8425,"Ġcalimyrna":8426,"Ġsambhar":8427,"Ġstripe":8428,"Ġswirl":8429,"philadelphia":8430,"Ġfarl":8431,"ĠYes":8432,"ĠYAM":8433,"ĠSaute":8434,"ĠSaffron":8435,"Ġmedjool":8436,"Ġjarh":8437,"Ġjarof":8438,"Ġjartaco":8439,"ialone":8440,"Ġpackagegarlic":8441,"Ġpackagepillsbury":8442,"Ġpackagemild":8443,"Ġpackageany":8444,"Ġpackageitalian":8445,"Ġpackagequick":8446,"ĠStella":8447,"ĠStone":8448,"ĠStru":8449,"ĠStalks":8450,"ĠStrud":8451,"hoe":8452,"Ġandes":8453,"Ġpassionfruit":8454,"ĠRoasting":8455,"ĠRoyal":8456,"Ġmeringues":8457,"Ġrocky":8458,"Ġcontainerbetty":8459,"Ġcontainercrystal":8460,"Ġcontainerphiladelphia":8461,"Ġfudgy":8462,"ĠGrits":8463,"Ġneapoli":8464,"ĠBreadcrumbs":8465,"ILLA":8466,"Ġamarillo":8467,"Ġcrystallised":8468,"Ġdifferent":8469,"Ġbakery":8470,"ĠUSE":8471,"Ġboxfrozen":8472,"Ġboxchocolate":8473,"verside":8474,"Ġgrouse":8475,"Ġmonte":8476,"Ġmontas":8477,"Ġmontana":8478,"ĠBasic":8479,"ĠCracked":8480,"packed":8481,"Ġbologn":8482,"Ġdecorations":8483,"ĠZinger":8484,"NTO":8485,"Ġrutabega":8486,"Ġbraggs":8487,"Ġhavana":8488,"ĠCurd":8489,"Ġwork":8490,"Ġworches":8491,"ĠSierra":8492,"ĠConcord":8493,"ĠSecret":8494,"Ġgourd":8495,"Ġbaileys":8496,"Ġjuliened":8497,"ĠCookers":8498,"Ġsteamer":8499,"ĠUnflavored":8500,"ĠUnsweetened":8501,"Ġform":8502,"Ġcomb":8503,"ĠMussels":8504,"ĠWheatables":8505,"Ġdrumettes":8506,"ĠManila":8507,"ANA":8508,"Ġburnet":8509,"Ġburnt":8510,"Ġpetrole":8511,"RUESEL":8512,"Ġmelter":8513,"chubert":8514,"axwell":8515,"ĠStout":8516,"ĠWalnut":8517,"ĠTurbinado":8518,"Ġreally":8519,"Ġbottleof":8520,"Ġfrshly":8521,"Ġtime":8522,"Ġoverly":8523,"Ġadded":8524,"alcohol":8525,"Ġpetits":8526,"Ġcancalifornia":8527,"Ġtrimmings":8528,"Ġburgundy":8529,"Ġtamale":8530,"ĠYoghurt":8531,"ĠYoplait":8532,"Ġreserving":8533,"Ġpumperni":8534,"Ġmagic":8535,"ushes":8536,"Ġbattered":8537,"Ġpepato":8538,"Ġsilverside":8539,"ĠClove":8540,"Ġborage":8541,"EESE":8542,"Ġrunner":8543,"Ġzaatar":8544,"soft":8545,"Ġhull":8546,"Ġcartonspread":8547,"ĠLou":8548,"Ġmortons":8549,"Ġprocessor":8550,"jou":8551,"ĠSTRUESEL":8552,"ĠCalvados":8553,"ĠSubstitution":8554,"ĠOrganic":8555,"ĠOrtega":8556,"Ġescalopes":8557,"Ġpurified":8558,"Ġpasilla":8559,"Ġkashkaval":8560,"ĠRaisin":8561,"ĠNOTE":8562,"ĠNOODLE":8563,"Ġbertolli":8564,"Ġbaloney":8565,"ĠProvolone":8566,"ĠPickle":8567,"ĠPickles":8568,"Ġjune":8569,"ĠWorks":8570,"ĠWorstershire":8571,"ĠHoagie":8572,"ĠHostess":8573,"Ġenvelopeknorr":8574,"Ġmignonette":8575,"Ġtablespo":8576,"Ġrapini":8577,"Ġlarger":8578,"Ġpralines":8579,"Ġaberdeen":8580,"Ġcharcoal":8581,"Ġnielsen":8582,"ĠCHEESE":8583,"Ġclaret":8584,"ĠQuicker":8585,"ĠSmooth":8586,"ĠMortadella":8587,"ĠAnjou":8588,"Ġtempeh":8589,"ĠBeefeater":8590,"Ġcanmaple":8591,"Ġcanmedium":8592,"Ġcleaner":8593,"Ġmeyers":8594,"Ġviewer":8595,"Ġtsang":8596,"Ġcoleman":8597,"ĠSandwiches":8598,"quarters":8599,"Ġpackagest":8600,"Ġjamaica":8601,"Ġajvar":8602,"Ġajinomoto":8603,"Ġisle":8604,"Ġisland":8605,"Ġpunnets":8606,"iscellane":8607,"ĠCrown":8608,"ĠCrocker":8609,"ĠMasala":8610,"Ġimprover":8611,"celatte":8612,"Ġluke":8613,"Ġlukew":8614,"Ġluzian":8615,"Ġsloe":8616,"Ġbundaberg":8617,"Ġmiller":8618,"Ġmillstone":8619,"Ġmelting":8620,"Ġselection":8621,"Ġselects":8622,"Ġkemp":8623,"Ġkebab":8624,"Ġroses":8625,"Ġrosamarina":8626,"ĠSPLEND":8627,"Ġhamburg":8628,"ĠTarragon":8629,"Ġpumpkinseeds":8630,"Ġcanchunky":8631,"ĠJalapeÃ±":8632,"Ġcastlebury":8633,"ECUE":8634,"Ġscold":8635,"Ġsandies":8636,"Ġsandalwood":8637,"Ġfreh":8638,"Ġfreestone":8639,"Ġchewing":8640,"Ġtenda":8641,"Ġbeaufort":8642,"Ġbeaujola":8643,"Ġcloudberries":8644,"Ġcloudberry":8645,"ĠRotini":8646,"Ġremoved":8647,"Ġdolcelatte":8648,"ĠHalloween":8649,"Ġempire":8650,"Ġfollowing":8651,"LOT":8652,"LOAF":8653,"Ġpadano":8654,"Ġvalue":8655,"Ġjohnson":8656,"Ġmarrowfat":8657,"Ġexpeller":8658,"Ġexpensive":8659,"ĠBROTH":8660,"ĠPacket":8661,"ĠMEATLOAF":8662,"Ġcanbushes":8663,"ĠONE":8664,"ĠONIONS":8665,"Ġflatbreads":8666,"Ġcarambola":8667,"Ġlouisianna":8668,"ĠBaileys":8669,"Ġmatzohs":8670,"ĠShallots":8671,"Ġmeasuring":8672,"Ġcalabash":8673,"Ġcampanella":8674,"Ġmaids":8675,"ĠHerbsaint":8676,"ĠJalapenos":8677,"eboshi":8678,"Ã©e":8679,"Ġfalafel":8680,"Ġfideo":8681,"Ġfideos":8682,"Ġlipton":8683,"Ġchimayo":8684,"Ġchimichurri":8685,"ĠTruffle":8686,"ĠTruffles":8687,"Ġscraper":8688,"ĠjalapeÃ±o":8689,"ĠjalapeÃ±os":8690,"ĠOysters":8691,"Ġpackagerich":8692,"Ġcansswanson":8693,"ĠCrudite":8694,"Ġunsulphured":8695,"Ġunsulphered":8696,"Ġteaspoonlemon":8697,"proof":8698,"Ġatlantic":8699,"Ġusing":8700,"Ġumeboshi":8701,"Ġclay":8702,"Ġschwepp":8703,"Ġbeluga":8704,"Ġbombay":8705,"Ġplatter":8706,"Ġperoxide":8707,"roccan":8708,"Ġgeorgia":8709,"Ġfermented":8710,"Ġpequins":8711,"Ġworthington":8712,"Ġpolyunsaturated":8713,"Ġhandle":8714,"Ġhellmann":8715,"Ġruffled":8716,"Ġdecaf":8717,"Ġyuzu":8718,"Ġkochujang":8719,"Ġrobusto":8720,"ĠSlivered":8721,"ĠSzechuan":8722,"ĠWasabi":8723,"ĠWraps":8724,"ĠWHITE":8725,"Ġpignoli":8726,"ĠBISCU":8727,"ĠBlanco":8728,"ĠPippin":8729,"pearled":8730,"ĠMaltesers":8731,"Ġtoppp":8732,"ĠFolgers":8733,"Ġcanhershey":8734,"ĠAngel":8735,"ĠEnchilada":8736,"Ġlabel":8737,"Ġgrinders":8738,"ĠLonghorn":8739,"ĠEggplant":8740,"Ġfolded":8741,"Ġcanscampbells":8742,"ĠCalabrian":8743,"Ġkefalotyri":8744,"ĠSteamfresh":8745,"Ġjohnn":8746,"Ġlollipops":8747,"Ġprudhomme":8748,"PUFFED":8749,"Stick":8750,"WICHES":8751,"hull":8752,"minced":8753,"massey":8754,"nshaw":8755,"smoked":8756,"walnut":8757,"Ġinexpensive":8758,"Ġerythrit":8759,"Ġeating":8760,"Ġantelope":8761,"Ġideas":8762,"Ġcameo":8763,"Ġsansho":8764,"Ġsrirachi":8765,"Ġsangria":8766,"Ġbresaola":8767,"Ġbetween":8768,"Ġplease":8769,"Ġpablano":8770,"Ġpinnacle":8771,"Ġpamela":8772,"esavers":8773,"alaska":8774,"Ġchavrie":8775,"Ġcheshire":8776,"Ġovolini":8777,"atarains":8778,"Ġmetaxa":8779,"Ġmignons":8780,"Ġmesclun":8781,"Ġmalaga":8782,"Ġfunfetti":8783,"Ġficelle":8784,"Ġfedelini":8785,"Ġfronds":8786,"Ġsaltpeter":8787,"louisiana":8788,"Ġvidallia":8789,"Ġtonight":8790,"Ġtentacles":8791,"Ġtriang":8792,"Ġtricolor":8793,"Ġsouffle":8794,"Ġsodium":8795,"Ġsouchong":8796,"Ġsoppressata":8797,"Ġlevain":8798,"Ġjarmild":8799,"Ġhodgson":8800,"Ġrattlesna":8801,"Ġnaptha":8802,"Ġnellie":8803,"Ġlighter":8804,"Ġliempo":8805,"Ġdulce":8806,"Ġdhaniya":8807,"Ġcholula":8808,"Ġseparate":8809,"Ġkeebler":8810,"Ġkitchens":8811,"Ġkaffir":8812,"Ġkretschmer":8813,"Ġknackwurst":8814,"Ġkulfi":8815,"Ġaloha":8816,"Ġhoneycomb":8817,"ĠSavoy":8818,"ĠShedd":8819,"ĠSTEP":8820,"ĠSERVE":8821,"ĠCuban":8822,"ĠCottage":8823,"ĠCuisine":8824,"ĠCastelvetrano":8825,"Ġziploc":8826,"Ġzataran":8827,"ĠBrussel":8828,"ĠBittersweet":8829,"ĠBARBECUE":8830,"Ġcipollini":8831,"ĠChimichurri":8832,"ĠPlanters":8833,"ĠPreserves":8834,"ĠPistachios":8835,"ĠPOUPON":8836,"ĠMission":8837,"ĠMoscato":8838,"Ġscamorza":8839,"Ġgranulted":8840,"Ġgochuchang":8841,"Ġtobiko":8842,"ĠFirecracker":8843,"Ġmandoline":8844,"uitlacoche":8845,"Ġcaerphilly":8846,"ĠDRINK":8847,"ĠKofta":8848,"ĠVernors":8849,"ĠVERSION":8850,"ĠVinagrette":8851,"ĠORIGINAL":8852,"ĠRiesling":8853,"ĠRobio":8854,"ĠRemoulade":8855,"ĠRHUBARB":8856,"Ġteabags":8857,"ĠElmers":8858,"Ġreconstituted":8859,"Ġhorehound":8860,"Ġkipfler":8861,"Ġunwaxed":8862,"Ġenjoy":8863,"Ġenhancer":8864,"ĠLifesavers":8865,"ĠLittleneck":8866,"Ġpreviously":8867,"Ġhashbrowns":8868,"ĠNetwork":8869,"ĠNaturegg":8870,"Ġaustralian":8871,"Ġsulphur":8872,"ĠSANDWICHES":8873,"ĠSARGENTO":8874,"ĠStruesel":8875,"ĠStrudel":8876,"Ġneapolitan":8877,"Ġmontasio":8878,"Ġbolognese":8879,"Ġpetroleum":8880,"Ġpumpernikel":8881,"Ġcartonspreadable":8882,"ĠNOODLES":8883,"iscellaneous":8884,"Ġlukewarm":8885,"Ġluzianne":8886,"ĠSPLENDA":8887,"ĠJalapeÃ±os":8888,"Ġbeaujolais":8889,"Ġschweppes":8890,"ĠBISCUIT":8891,"Ġerythritol":8892,"Ġrattlesnake":8893}